[UNK]











##


###


-


M


Main


[


[![](https://upload.wikimedia.org/wikipedia/commons/thumb/


मुख्य


భారతదేశం

-

Category:
!
![
![](https://upload.wikimedia.org/wikipedia/commons/thumb/
"
"

")
")

")


")
-
")"
"))
"))

")*
")**
")*,
")*.
"),
"),[[
").
").

").
-
").
4
").[[
"):
");
")[[
".
"](http://
"](https://
"](https://books.google.com/books?id=
"](https://web.archive.org/web/
"](https://web.archive.org/web/201
"](https://web.archive.org/web/20160
"](https://www.
#
##
$
%
%,
%2
%20
%20%20
%20%20%20%20
%20%20%20%20%20%20%20%20
%28
%29
%29.jpg)](File:
%2C
%2C5
%2C_
%2C_India.jp
%2F
%3
%7
%7C
%7C%7C
%7c
%7c%7c
%A
%B
%E0%A
%E0%A4
%E0%A4%
%E0%A4%A
%E0%A4%B
%E0%A5%
%E0%B
%E0%B0
&
&pg=
&pg=PA
&pg=PT
&s
'
's
(
)
)

)


)

-
)

India
)

The
)
-
)"
)")
)"),
),
).
).

).
4
)[[
*
*)
**
*,
*.
*](http://
*](https://
*](https://archive.org/details/
*](https://books.google.com/books?id=
*](https://web.archive.org/web/
*](https://web.archive.org/web/201
*](https://www.
+
,
,000
,4
,NGDP
,[[
,_
-
-0
-0").
-
-0)
-0)

-0-
-0-19
-0-19-882905-8
-0-3
-0-4
-0-415
-0-5
-0-521
-0-521-80904-7
-00
-06
-07
-1
-1").
-
-1)
-10
-100
-107
-107-11162-2
-11
-111
-11162-2
-135
-138
-14
-16
-17
-19
-2
-2").
-2)
-20
-21
-22
-23
-24
-25
-26
-27
-28
-29
-2](Special:BookSources/978-1
-3
-3)
-30
-316
-317
-349
-38
-39
-4
-4").
-40
-4020
-438
-45
-459
-5
-50
-53
-6
-6").
-7
-78
-78074-108-6
-7mar2011
-8
-80
-80904-7
-81
-85
-88
-882905-8
-9
-9").
-9").
-
-90
-967733-7
-98
-981
-B
-C
-D
-H
-India
-R
-S
-T
-W
-Y
-an
-and
-and-
-ar
-asia
-b
-c
-d
-dra
-ex
-f
-g
-gen
-h
-in
-in-
-india
-india-
-k
-l
-language
-language\_
-largest
-le
-lead
-li
-logo.sv
-m
-ma
-mar
-market
-n
-national-language
-of
-on-
-p
-r
-re
-report
-s
-st
-t
-to-
-ve
-w
-with
-world
-प
-विज्ञान
.
.

.


.
-
.
1
.
11
.
14
.
17
.
23
.
3
.
36
.
8
."
."

.")


..
...
...]
.0
.;
.[[
.[[1
.[[10
.[[23
.[[28
.[[3
.[[30
.[[34
.[[4
.[[406]](https://en.wikipedia.org/wiki/India#cite_note-vatsyayan-lord-432
.](https://upload.wikimedia.org/wikipedia/commons/thumb/
.asp
.aspx?
.bn
.com
.com/
.com/news/
.com/news/world
.ed
.edu/
.f
.fr
.gov
.gov.in/
.gov/
.htm
.in
.in/
.jp
.jpg
.jpg)
.jpg)


.jpg)
-
.jpg)](File:
.jpg)](File:C
.jpg)](https://hi.wikipedia.org/wiki/चित्र:
.jpg)](https://te.wikipedia.org/wiki/దస్త్రం:
.jpg/
.jpg/120px-
.jpg/250px-
.jpg/330px-
.nic.in/
.org/
.org/wiki/
.pdf)
.php
.sv
.worldbank.org/
.worldbank.org/indicator
.శ.
/
/0
/08/
/A
/E
/India
/L
/M
/P
/S
/artic
/articl
/article
/articles/
/articleshow/
/articleshow/5
/auth
/c
/d
/f
/files/
/g
/http://
/http://www.
/https://
/https://www.
/india
/news/
/p
/s
0
0-0)
0.
00
00)
000
0000
003
00–సా.శ.పూ.
05
07
074-108-6
1
1)
1).
1):
1,
1-0
1-0)
1-1
1-3
1-4
1.
1.

1/
10
10-3
10.
100
1017
109
11
113
114
115
118
12
120
1200
120px-
121
123
126
13
130
1300
14
15
16
160
166
168
16]](https://en.wikipedia.org/wiki/India#cite_note-
16]](https://en.wikipedia.org/wiki/India#cite_note-IMFWEO.IN-24
17
18
18)
19
1947
1947)
1950
1967
197
1970
1971
1977
198
199
1990
1991
1992
1993
1994
1996
1997
1998
1999
19–120
1]](https://en.wikipedia.org/wiki/India#cite_note-
1]](https://en.wikipedia.org/wiki/India#cite_note-FOOTNOTE
1_
1st
1–
2
2%
2)
2).
2)[[
2,
2-0
2-0)
2-10
2-25
2.
2.

2/
20
20)
20).
20.
200
2000
2001
2001),
2002
2003
2003),
2004
2005
2006
2006),
2007
2008
2009
201
2010
2011
2012
2013
2014
2015
2016
2017
2018
2019
2023
2024
2025
208
21
21)
21.
210
217
219
22
22-9
221
223
226
227
22–123
23
23)
23.
230
24
24)
24.
240
24_A7C
25
25)
250
250px-
253
254
26
26)
26.
260
261
27
270
2755
28
28)
28.
286
29
29.
2905
2905-8
2](https://en.wikipedia.org/wiki/India#CITEREF
2]](https://en.wikipedia.org/wiki/India#cite_note-
2]](https://en.wikipedia.org/wiki/India#cite_note-FOOTNOTE
2]](https://te.wikipedia.org/wiki/భారతదేశం#cite_note-india.gov.in
2_
2nd
2–
3
3%
3)
3),
3).
3-0)
3-1
3-3
3-8
3.
3.

3/
30
300
31
317
318
32
324
33
33-7
330
330px-
337
338
34
34)
35
350
36
37
38
39
39)
39-4
397
3TRt
3](https://en.wikipedia.org/wiki/India#CITEREF
3]](https://en.wikipedia.org/wiki/India#cite_note-
3]](https://en.wikipedia.org/wiki/India#cite_note-FOOTNOTE
3_
3–
4
4)
4).
4-0
4-0)
4-3
4-7
4.
4/
4/4
40
406]](https://en.wikipedia.org/wiki/India#cite_note-vatsyayan-lord-432
407
41
410
428
43
44
45
46
47
48
48)
489
49
4](https://en.wikipedia.org/wiki/India#CITEREF
4]](https://en.wikipedia.org/wiki/India#cite_note-
4]](https://en.wikipedia.org/wiki/India#cite_note-FOOTNOTE
4–
5
5%
5)
5).
5-0)
5-3
5-4
5.
5.pdf)
5/
50
50)
500
51
51-9
52
53
54
55
56
566
57
577
58
59
5](https://en.wikipedia.org/wiki/India#CITEREF
5]](https://en.wikipedia.org/wiki/India#cite_note-
5]](https://en.wikipedia.org/wiki/India#cite_note-FOOTNOTE
5_
5–
6
6)
6).
6,
6-0)
6-1
6.
6.

6/
60
61
62
62-2
63
64
65
67
674
677
67733-7
68
684
69
6](https://en.wikipedia.org/wiki/India#CITEREF
6]](https://en.wikipedia.org/wiki/India#cite_note-
6]](https://en.wikipedia.org/wiki/India#cite_note-FOOTNOTE
6]](https://en.wikipedia.org/wiki/India#cite_note-vatsyayan-lord-432
6_
6–
7
7)
7).
7,
7-0)
7-1
7.
7.

7/
70
728
73
74
74-10
74-108-6
75
76
77
78
78)
79
7C
7](https://en.wikipedia.org/wiki/India#CITEREF
7]](https://en.wikipedia.org/wiki/India#cite_note-
7]](https://en.wikipedia.org/wiki/India#cite_note-FOOTNOTE
7_
8
8)
8-0)
8-6
8.
8/
80
81
82
84
85
86
87
88
8]](https://en.wikipedia.org/wiki/India#cite_note-
8]](https://en.wikipedia.org/wiki/India#cite_note-FOOTNOTE
9
9)
9).
9,
9-0)
9-5
9.
9/
90
904-7
91
94
958
978
98
99
9]](https://en.wikipedia.org/wiki/India#cite_note-
9]](https://en.wikipedia.org/wiki/India#cite_note-FOOTNOTE
:
:**
:/
://
;
;

;[[
<
=
=1
=20
>
?
?action=
?action=edit&redlink=1
?id
?id=
A
AA
AAAAMAAJ
AAJ
AAMAAJ
AAQBAJ
AAQBAJ&pg=PA
AARC
AARC_summit
AG
AGE
AS
AliAitchison2005
All
An
Ar
Artic
Aryan
Asher
AsherAsher
AsherAsher2006
AsherTalbot
AsherTalbot20
AsherTalbot2008
AsherTalbot20221
Asia
At
B
BA
BC
BRICS
Bh
Bharat
Blurton1993
Book
British
Business
C
C&pg=PA
C).
C-0
CE
CN
CO
CS1
Category:
Census2011religion
Chennai
Clémentin-Ojha2014
Collingham
Combined
Countries
Court
Craven1997
D
DA
DD
DF
DP
Davidson2014-p
DikshitSchwartzberg2023
Dw
DwAAQBAJ
DwAAQBAJ&pg=PA
Dyson
Dyson2018
E
E0
E0%A
E0%B
EAS
EB
ES
Empire
Environment
Environment_and_Forests
Ethnologue
European
Ex
F
FO
FOOTNOTE
FOOTNOTENational_Informatics_Centre2005
FOOTNOTES
FOOTNOTESingh2009
FOOTNOTEStein19981
FOOTNOTEStein2010
File:
Fisher2018
For
G
G20
G8
Gangetic
Ge
H
HA
Har
Harle
Harle1994
Harv
Harvard
Hindi
Hindu
Hindustan
Home
I
IA
IB
IBR
IBSYS
IC
ID
IF
IFT
IFTY
II
IJ
IMF
IMFWEO.IN
IMFWEO.IN-24
IMFWEO.IN_24
IN
IS
ISB
ISBN
ISO
IT
ITE
ITERE
ITEREF
IUCN
In
Ind
India
India)
India.
India.jp
India_Goa
Indian
Indo-
Indones
Indonesia
Indus
Informatics
Intern
International
International_
J
JP
JPG
Jha
K
K:
Kashmir
KulkeRothermund
KulkeRothermund2004
KulkeRothermund2016
Kumar
L
L.
LA
Library
List
List_of_
List_of_India
Ludden
Ludden2014
M
MAAJ
MC
MF
MID
Ma
Metcalf
MetcalfMetcalf
MetcalfMetcalf2006
MetcalfMetcalf201
MetcalfMetcalf2012
Mon
N
NA
NG
NGDP
National
National_
National_Informatics
National_Informatics_Centre2005
Nehru
New
O
OL
OLA
OT
OTN
OTNOT
OTNOTE
OV
OVID
OVID-19
Oxford
P
PA
PG
PP
PPP
PPP)
PT
Pakistan
Pakistani
Provision
Provisional_Population_Totals_Paper_1_of_2011_India
Provisional_Population_Totals_Paper_1_of_2011_India16
Q
QAAQBAJ&pg=PA
QBA
QBAJ
Qu
R
RC
RE
RIC
RICS
RL
Raj
Re
Report
S
S.
S1
SE
SN
SYS
Sanskrit
Se
See
Sharma
Sharma2007
Sou
South
South_Asia
South_Asian_
Southeast
Spe
Spear
Spear1990
Spear199024
Special
Special:
Special:Book
Special:BookSou
Special:BookSources/
Special:BookSources/978
Special:E
Special:EditPage/Template:
Special:S
Special:Search/India
St
States
Stein2010
T
TO
TR
TRt
Taj
Taj_Mahal_in_March_2004
Talbot
Tarlo1996
Tarlo1996-26
Template
Template:
The
Tritsch
U
UCN
UN
US
Un
Union
United
University
University_Press
Untouchability
Uttar
Uttarakhand
V
View
W
WE
WEO
WEO.
WEO.IN
Wiki
Wolpert
Women
World
Wright2010
X
Y
YS
Z
Ze
Zealand
Zoroastrian
ZvaGuaJIJgo
[
[[
[[1
[[10
[[120
[[120]](https://hi.wikipedia.org/wiki/भारत#cite_note-langoff-128)
[[14
[[18
[[18]](https://te.wikipedia.org/wiki/భారతదేశం#cite_note-imf2-22)
[https
\
\*
\_
\_errors
\_identifiers
\_in
\_n
\_of
\_of\_
\_p
\_parameters#
\_with\_
\_क
\_कड़ियाँ
\_देश
\_प
\_पृष्ठसभ
\_मापदण्ड
\_सहितक\_पृष्ठसभ#
]
](
](Category:
](File:
](P
](Portal:
](Special:BookSources/978
](Special:BookSources/978-0-
](Special:BookSources/978-0-19
](Special:BookSources/978-0-521
](Special:BookSources/978-1
](Special:BookSources/978-81
](Template:
](http://
](http://www.
](https://
](https://books.google.com/books?id=
](https://books.google.com/books?id=3TRt
](https://books.google.com/books?id=3TRtDwAAQBAJ&pg=PA
](https://books.google.com/books?id=ZvaGuaJIJgo
](https://books.google.com/books?id=ZvaGuaJIJgoC&pg=PA
](https://books.google.com/books?id=kZVuDwAAQBAJ&pg=PA
](https://d
](https://data
](https://doi.org/10.
](https://en.
](https://en.wikipedia.org/wiki/
](https://en.wikipedia.org/wiki/A
](https://en.wikipedia.org/wiki/An
](https://en.wikipedia.org/wiki/B
](https://en.wikipedia.org/wiki/BRICS
](https://en.wikipedia.org/wiki/Bangladesh
](https://en.wikipedia.org/wiki/British
](https://en.wikipedia.org/wiki/C
](https://en.wikipedia.org/wiki/Ch
](https://en.wikipedia.org/wiki/Chola
](https://en.wikipedia.org/wiki/Climate_
](https://en.wikipedia.org/wiki/D
](https://en.wikipedia.org/wiki/Delhi
](https://en.wikipedia.org/wiki/E
](https://en.wikipedia.org/wiki/Economic_
](https://en.wikipedia.org/wiki/Economy
](https://en.wikipedia.org/wiki/Economy_of_
](https://en.wikipedia.org/wiki/Ethnic_groups_in_South_Asia
](https://en.wikipedia.org/wiki/F
](https://en.wikipedia.org/wiki/G
](https://en.wikipedia.org/wiki/H
](https://en.wikipedia.org/wiki/History
](https://en.wikipedia.org/wiki/History_of_
](https://en.wikipedia.org/wiki/I
](https://en.wikipedia.org/wiki/In
](https://en.wikipedia.org/wiki/India
](https://en.wikipedia.org/wiki/India#
](https://en.wikipedia.org/wiki/India#C
](https://en.wikipedia.org/wiki/India#CITERE
](https://en.wikipedia.org/wiki/India#CITEREF
](https://en.wikipedia.org/wiki/India#CITEREFR
](https://en.wikipedia.org/wiki/India#cite_
](https://en.wikipedia.org/wiki/India#cite_note-
](https://en.wikipedia.org/wiki/India#cite_ref-
](https://en.wikipedia.org/wiki/India#cite_ref-FOOTNOTE
](https://en.wikipedia.org/wiki/India#cite_ref-vatsyayan-lord_432
](https://en.wikipedia.org/wiki/Indian
](https://en.wikipedia.org/wiki/Indian_
](https://en.wikipedia.org/wiki/Indian_c
](https://en.wikipedia.org/wiki/Indo-
](https://en.wikipedia.org/wiki/Indus
](https://en.wikipedia.org/wiki/International_
](https://en.wikipedia.org/wiki/J
](https://en.wikipedia.org/wiki/K
](https://en.wikipedia.org/wiki/L
](https://en.wikipedia.org/wiki/List_of_
](https://en.wikipedia.org/wiki/List_of_S
](https://en.wikipedia.org/wiki/List_of_SAARC_summit
](https://en.wikipedia.org/wiki/List_of_SAARC_summits
](https://en.wikipedia.org/wiki/List_of_countries
](https://en.wikipedia.org/wiki/List_of_countries_by
](https://en.wikipedia.org/wiki/List_of_countries_by_GDP_(
](https://en.wikipedia.org/wiki/M
](https://en.wikipedia.org/wiki/Ministry_of_
](https://en.wikipedia.org/wiki/Mughal_
](https://en.wikipedia.org/wiki/Mughal_Empire
](https://en.wikipedia.org/wiki/N
](https://en.wikipedia.org/wiki/National_
](https://en.wikipedia.org/wiki/O
](https://en.wikipedia.org/wiki/P
](https://en.wikipedia.org/wiki/Pal
](https://en.wikipedia.org/wiki/R
](https://en.wikipedia.org/wiki/Re
](https://en.wikipedia.org/wiki/Russia
](https://en.wikipedia.org/wiki/S
](https://en.wikipedia.org/wiki/SAARC
](https://en.wikipedia.org/wiki/South
](https://en.wikipedia.org/wiki/South_Asia
](https://en.wikipedia.org/wiki/South_Asian_
](https://en.wikipedia.org/wiki/Sri_Lank
](https://en.wikipedia.org/wiki/T
](https://en.wikipedia.org/wiki/The
](https://en.wikipedia.org/wiki/U
](https://en.wikipedia.org/wiki/United
](https://en.wikipedia.org/wiki/V
](https://en.wikipedia.org/wiki/W
](https://en.wikipedia.org/wiki/World
](https://hi.
](https://hi.wikipedia.org/wiki/
](https://hi.wikipedia.org/wiki/अ
](https://hi.wikipedia.org/wiki/आ
](https://hi.wikipedia.org/wiki/इ
](https://hi.wikipedia.org/wiki/उ
](https://hi.wikipedia.org/wiki/उत्तर
](https://hi.wikipedia.org/wiki/ओ
](https://hi.wikipedia.org/wiki/क
](https://hi.wikipedia.org/wiki/कु
](https://hi.wikipedia.org/wiki/ग
](https://hi.wikipedia.org/wiki/गुजरात
](https://hi.wikipedia.org/wiki/च
](https://hi.wikipedia.org/wiki/चित्र:
](https://hi.wikipedia.org/wiki/ज
](https://hi.wikipedia.org/wiki/तमिल
](https://hi.wikipedia.org/wiki/द
](https://hi.wikipedia.org/wiki/दक्षिण
](https://hi.wikipedia.org/wiki/न
](https://hi.wikipedia.org/wiki/प
](https://hi.wikipedia.org/wiki/पंजाब
](https://hi.wikipedia.org/wiki/पश्चिम
](https://hi.wikipedia.org/wiki/पाकिस्तान
](https://hi.wikipedia.org/wiki/पूर्व
](https://hi.wikipedia.org/wiki/प्र
](https://hi.wikipedia.org/wiki/ब
](https://hi.wikipedia.org/wiki/ब्रिटिश
](https://hi.wikipedia.org/wiki/भारत
](https://hi.wikipedia.org/wiki/भारत#
](https://hi.wikipedia.org/wiki/भारत#C
](https://hi.wikipedia.org/wiki/भारत#CITEREF
](https://hi.wikipedia.org/wiki/भारत#CITEREFS
](https://hi.wikipedia.org/wiki/भारत#cite_
](https://hi.wikipedia.org/wiki/भारत#cite_note-
](https://hi.wikipedia.org/wiki/भारत#cite_ref-
](https://hi.wikipedia.org/wiki/भारत#cite_ref-langoff_128
](https://hi.wikipedia.org/wiki/भारत_क
](https://hi.wikipedia.org/wiki/भारत_का_
](https://hi.wikipedia.org/wiki/भारत_की_
](https://hi.wikipedia.org/wiki/भारत_के
](https://hi.wikipedia.org/wiki/भारत_के_
](https://hi.wikipedia.org/wiki/भारत_के_राज्य
](https://hi.wikipedia.org/wiki/भारत_में
](https://hi.wikipedia.org/wiki/भारत_में_
](https://hi.wikipedia.org/wiki/भारत_स
](https://hi.wikipedia.org/wiki/भारतीय
](https://hi.wikipedia.org/wiki/भारतीय_
](https://hi.wikipedia.org/wiki/म
](https://hi.wikipedia.org/wiki/मध्य
](https://hi.wikipedia.org/wiki/य
](https://hi.wikipedia.org/wiki/ल
](https://hi.wikipedia.org/wiki/व
](https://hi.wikipedia.org/wiki/वि
](https://hi.wikipedia.org/wiki/विशेष:पुस्तक_स्रोत/978
](https://hi.wikipedia.org/wiki/विशेष:पुस्तक_स्रोत/978-1
](https://hi.wikipedia.org/wiki/स
](https://hi.wikipedia.org/wiki/सं
](https://hi.wikipedia.org/wiki/संस्कृत
](https://hi.wikipedia.org/wiki/साँचा:
](https://hi.wikipedia.org/wiki/साँचा_वार्ता:
](https://hi.wikipedia.org/wiki/हिन्द
](https://mai.
](https://mai.wikipedia.org/wiki/
](https://mai.wikipedia.org/wiki/अ
](https://mai.wikipedia.org/wiki/इ
](https://mai.wikipedia.org/wiki/क
](https://mai.wikipedia.org/wiki/फ
](https://mai.wikipedia.org/wiki/ब
](https://mai.wikipedia.org/wiki/भारत
](https://mai.wikipedia.org/wiki/भारत#
](https://mai.wikipedia.org/wiki/भारत#cite_
](https://mai.wikipedia.org/wiki/भारतक
](https://mai.wikipedia.org/wiki/भारतीय
](https://mai.wikipedia.org/wiki/भारतीय_
](https://mai.wikipedia.org/wiki/म
](https://mai.wikipedia.org/wiki/स
](https://mai.wikipedia.org/wiki/सं
](https://te.wikipedia.org/wiki/
](https://te.wikipedia.org/wiki/B
](https://te.wikipedia.org/wiki/C
](https://te.wikipedia.org/wiki/D
](https://te.wikipedia.org/wiki/G
](https://te.wikipedia.org/wiki/List_of_
](https://te.wikipedia.org/wiki/List_of_countries
](https://te.wikipedia.org/wiki/S
](https://te.wikipedia.org/wiki/అ
](https://te.wikipedia.org/wiki/ఆ
](https://te.wikipedia.org/wiki/ఇ
](https://te.wikipedia.org/wiki/ఇండో
](https://te.wikipedia.org/wiki/ఉ
](https://te.wikipedia.org/wiki/ఉత్తర
](https://te.wikipedia.org/wiki/క
](https://te.wikipedia.org/wiki/గో
](https://te.wikipedia.org/wiki/చ
](https://te.wikipedia.org/wiki/చైనా
](https://te.wikipedia.org/wiki/జ
](https://te.wikipedia.org/wiki/జన
](https://te.wikipedia.org/wiki/జమ్మూ_కాశ్మీ
](https://te.wikipedia.org/wiki/జమ్మూ_కాశ్మీరు
](https://te.wikipedia.org/wiki/ఢిల్లీ
](https://te.wikipedia.org/wiki/తమిళనాడు
](https://te.wikipedia.org/wiki/ద
](https://te.wikipedia.org/wiki/దస్త్రం:
](https://te.wikipedia.org/wiki/ప
](https://te.wikipedia.org/wiki/పా
](https://te.wikipedia.org/wiki/పాకిస్తాన్
](https://te.wikipedia.org/wiki/బ
](https://te.wikipedia.org/wiki/బంగ్లాదేశ్
](https://te.wikipedia.org/wiki/భారత_
](https://te.wikipedia.org/wiki/భారత_జాతీయ
](https://te.wikipedia.org/wiki/భారతదేశ
](https://te.wikipedia.org/wiki/భారతదేశ_
](https://te.wikipedia.org/wiki/భారతదేశం
](https://te.wikipedia.org/wiki/భారతదేశం#
](https://te.wikipedia.org/wiki/భారతదేశం#C
](https://te.wikipedia.org/wiki/భారతదేశం#CITEREF
](https://te.wikipedia.org/wiki/భారతదేశం#cite_
](https://te.wikipedia.org/wiki/భారతదేశం#cite_note-
](https://te.wikipedia.org/wiki/భారతదేశం#cite_ref-
](https://te.wikipedia.org/wiki/భారతదేశంలో
](https://te.wikipedia.org/wiki/భారతదేశంలో_
](https://te.wikipedia.org/wiki/భారతీయ
](https://te.wikipedia.org/wiki/మ
](https://te.wikipedia.org/wiki/మధ్య
](https://te.wikipedia.org/wiki/మూస:
](https://te.wikipedia.org/wiki/స
](https://te.wikipedia.org/wiki/సి
](https://te.wikipedia.org/wiki/హ
](https://upload.wikimedia.org/wikipedia/commons/
](https://upload.wikimedia.org/wikipedia/commons/thumb/
](https://upload.wikimedia.org/wikipedia/commons/thumb/8/
](https://web.
](https://web.archive.org/web/
](https://web.archive.org/web/201
](https://www.
]](https://en.wikipedia.org/wiki/India#cite_note-
]](https://en.wikipedia.org/wiki/India#cite_note-35
]](https://en.wikipedia.org/wiki/India#cite_note-4
]](https://en.wikipedia.org/wiki/India#cite_note-Combined
]](https://en.wikipedia.org/wiki/India#cite_note-Dyson2018
]](https://en.wikipedia.org/wiki/India#cite_note-FOOTNOTE
]](https://en.wikipedia.org/wiki/India#cite_note-FOOTNOTEAsherTalbot2008
]](https://en.wikipedia.org/wiki/India#cite_note-FOOTNOTEMetcalfMetcalf2006
]](https://en.wikipedia.org/wiki/India#cite_note-FOOTNOTEStein2010
]](https://hi.wikipedia.org/wiki/भारत#cite_note-
]](https://hi.wikipedia.org/wiki/भारत#cite_note-1
]](https://hi.wikipedia.org/wiki/भारत#cite_note-10
]](https://hi.wikipedia.org/wiki/भारत#cite_note-Combined
]](https://hi.wikipedia.org/wiki/भारत#cite_note-FOOTNOTE
]](https://hi.wikipedia.org/wiki/भारत#cite_note-FOOTNOTES
]](https://hi.wikipedia.org/wiki/भारत#cite_note-FOOTNOTESingh2009
]](https://hi.wikipedia.org/wiki/भारत#cite_note-FOOTNOTEStein19981
]](https://hi.wikipedia.org/wiki/भारत#cite_note-langoff-128)
]](https://hi.wikipedia.org/wiki/भारत#cite_note-pib
]](https://te.wikipedia.org/wiki/భారతదేశం#cite_note-
]](https://te.wikipedia.org/wiki/భారతదేశం#cite_note-imf2-22)
]](https://te.wikipedia.org/wiki/భారతదేశం#cite_note-india.gov.in
^
_
_%28
_&
_(
_(India)
_(identifier)
_(union_territory)
_(भारत)
_-
_0
_1
_11
_14
_15
_17
_18
_19
_2
_2004
_2007
_2008
_2011
_2024
_21
_24
_26
_28
_3
_34
_36
_38
_39
_4
_9
_A
_A7C
_Act
_Act,_
_Affairs
_Agency
_Air
_Arab
_Asia
_Ass
_B
_BRICS
_BRICS_Games
_BRICS_summit
_Bank
_C
_Census
_Census_Commissioner
_Centre2005
_Ch
_Comm
_Commission
_Commissioner
_Cons
_D
_Delhi
_Development
_E
_East_Asia_Summit
_Economic
_Empire
_F
_Fund
_G
_GDP
_GDP_(
_Games
_Gandhi
_Goa
_H
_I
_In
_India
_Indian_
_Indian_general_election
_Indian_subcontinent
_Island
_Islands
_J
_K
_Kingdom
_L
_Lank
_M
_Mar
_N
_National_Park
_New
_November
_O
_Organisation
_Organization
_P
_Per
_Pradesh
_Press
_Pro
_Publishing
_R
_Raj
_Re
_River
_S
_SCO
_SCO_summit
_School
_Sh
_Shankar
_States
_T
_Times
_Union
_University_Press
_V
_W
_War
_World
_and
_and_
_and_B
_and_D
_and_Development
_and_For
_and_Forests
_and_N
_and_S
_and_d
_and_union_territories
_and_union_territories_of_India
_at
_at_the
_at_the_2024
_at_the_2024_BRICS_Games
_b
_by
_by_p
_by_population
_c
_ci
_con
_countries
_d
_dance
_desc
_f
_for
_from
_g
_groups
_h
_in
_in_
_in_India
_in_South_Asia
_in_T
_in_the
_ind
_industry
_industry_in_India
_language
_languages
_m
_map_en.sv
_mil
_music
_n
_of_
_of_C
_of_Congress
_of_India
_of_N
_of_P
_of_South_Asia
_of_the
_on
_p
_pe
_per
_pro
_re
_relations
_s
_summit
_t
_te
_ter
_territ
_the
_the_
_to
_v
_value
_with
_अ
_अन
_आ
_इ
_उ
_उत्पाद
_ए
_एवं
_एशिया
_और
_और_संघ
_और_संघ_क्षेत्र
_क
_का
_का_
_का_खाना
_की_
_की_स
_के
_के_
_के_अनुसार
_के_अनुसार_देशों_की_सूची
_के_आ
_के_आधार_पर_भारत
_के_आधार_पर_भारत_के_राज्य
_के_आधार_पर_भारत_के_राज्यों_की_सूची
_के_देश
_के_राज्य
_केंद्र
_केन्द्र
_क्षेत्र
_घ
_त
_द
_देश
_देशों_की_सूची
_धर्म
_न
_न्या
_प
_प्र
_प्रदेश
_ब
_भारत
_भारतीय_
_भाषा
_भाषा?action=edit&redlink=1
_म
_मंदिर
_महासागर
_में
_मेला
_मेला?action=edit&redlink=1
_यु
_राज
_राजवंश
_राज्य
_राज्यक्षेत्र
_व
_श
_स
_सं
_संघ
_सा
_सागर
_साम्राज्य
_सिनेमा
_सु
_सूची
_से
_सेना
_स्
_అ
_ఇ
_ఎ
_క
_కాల
_క్రీడ
_గాంధీ
_చ
_చరిత్ర
_చరిత్ర?action=edit&redlink=1
_జాబితా
_న
_నది
_ప
_ప్రదేశ్
_ప్రా
_ఫ
_భాష
_భాషలు
_మ
_మతం
_మతము
_యుద్ధం
_ర
_రహదార
_రాజ
_రాజవంశం
_వ
_వంశం
_వి
_వ్యవస్థ
_శ
_శాస్త్ర
_స
_సం
_సంగీతం
_సా
_సామ్రాజ్యం
_స్
`
a
a")
a)
a,
a-
a.
a/
a_
a_1
a_Empire
a_M
ab
abad
abha
ability
abin
abinet
abit
able
ables
ablish
ac
ace
ach
acher
achin
achine
aci
ack
acmillan
acred
act
actbook
acter
action=
ad
ad.
ada
adakh
adas
adavoor
adh
adhya
adi
adiverse
adras
adrasah
ads
adu
af
after
ag
agar
age
age/
ages
ago
ah
aha
ahar
aharashtra
ahatma
ai
aid
aidyanathan
ail
ain
ainism
aint
ainting
air
ait
aj
aj_M
aj_Mah
aj_Mahal_in_March_2004
ajasthan
ajor
ajp
ajya
ak
akar
ake
akh
akhand
aki
aking
akistan
akistani
akrishn
akrishnan
aks
aksh
akshad
akshadweep
al
al_
al_P
al_Population_Totals_Paper_1_of_2011_India
al_Pradesh
al_in
al_in_M
al_in_March_2004
ala
alace
aland
alay
alayal
alaysia
albot
alc
alcutta
ald
aldives
ale
ali
alit
all
allalli
alled
alley
alli
alls
ally
als
also
alt
alth
altwater
alwar
alysis
am
am")
am,
ama
amaj
aman
amb
ambodia
ambridge
ame
ameez
ames
ami
amic
amil
amil_N
amil_Nadu
amilies
amily
amine
ammu
ammu_and_
ammu_and_Kashmir
amn
amnami
amp
ampion
ams
amsar
an
an,
ana
anada
anagari
anal
anata
anc
ance
ances
anch
ancy
and
and_
anda
andard
andbook
andemic
andhi
anding
andoor
andy
ang
angal
angalore
angam
ange
anged
angered
anges
angetic
angladesh
ango
angra
angrove
angua
anguage
anguages
ani
anies
anion
anipur
ank
ankar
ann
anor
anorama
ans
ansk
anskrit
anskrit](https://en.wikipedia.org/wiki/S
anskrit](https://en.wikipedia.org/wiki/Sanskrit
ant
ants
anu
anuary
any
ao
aos
ap
apan
aper
api
apit
aprobanis
ar
arak
arame
arameters#
aran
aranasi
aranth
aras
arb
arch
arch_2004
archi
architecture
archive
archive.org/
archive.org/details/
archive.org/web/
ard
arden
ardian
are
arendra
arg
arge
argest
arget
arh
ari
aria
aries
ark
arl
arliament
arliamentary
arlic
arlo
arlo1996
arlung
arly
arna
arnatak
arnataka
arnatic
aro
arrow
ars
art
arth
arti
artic
articip
article
artition
arty
ary
aryana
as
as,
ase
ash
ashi
ashm
ashmir
ashmiri
ashtra
asi
asia
asp
asp?
ass
ast
ast_Asia
ast_Asia_S
ast_Asia_Summit
aste
aste-
astern
asthan
asting
astronom
asu
at
ata
ata_
atab
atak
atal
atar
ataraj
ataraja
ate
ate_
ated
ategory:
ater
ates
ateway
ath
athak
athakali
athi
athura
ati
atic
ating
ation
ation)
ation,
ational
ational_
ational_P
ational_Park
ations
atis
ative
atma
atna
ator
atpura
ats
atsyayan
att
attle
ature
aty
atyam
au
audi
aul
aur
aus
aut
auth
av
ave
avelock
aves
avi
avid
avidson2014-p
avin
aving
avoor
aw
awahar
awaharl
awaharlal
ax
ay
ayan
ayashi
ayback
aylor
az
b
b)
b/
b/b
back
bad
baki
bal
ball
ban
band
bank
bar
bb
be
ber
beral
beralisation
berculosis
berg
bert
bi
bird
bn
book
books
books.
books.google.com/books
books.google.com/books?id=
bot
bour
bra
britannica.com/
c
c.
c/c
c=
cal
calf
can
caste
cat
ce
cean
ced
cely
cember
census
censusindia.gov.in/
censusindia.gov.in/2011
censusindia.gov.in/2011census
cent
ces
cess
ch
ch_2004
cha
chaemen
change
ched
chedule
cheduled
chi
chin
chno
chnology
chool
chwartzberg
ci
cial
cid
cience
cient
cies
ciety
cip
cis
cise
cite_
city
ck
clo
clus
cms
com
com/
come
comm
comp
con
cond
conom
conomic
conomic_
conomist
conomy
content
continent
cord
cording
countries
country
cri
crimin
cript
cro
ct
ction
ctor
cul
culosis
culpture
cy
cyclo
d
d/
dance
data
day
de
def
der
detail
details/
di
dia
dia.
dia.org/
dian
dian_
dic
dis
dish
disha
dit
ditP
ditPage/
ditPage/Template:
dition
dministrative
dom
dr
ds
duc
ducation
duct
duction
dynasty
e
e,
e/
ea
ealth
ear
earch
earch/India
eat
eb
ebruary
ec
eccan
ece
eck
economic
economy
ecret
ect
ector
ecu
ecular
ecurity
ecutive
ed
ed,
ed.
ed.).
ed/
eded
ederal
edia
edic
edicine
edieval
ediff
edit
edit&redlink=1
edkar
eds.
education
ee
eel
eers
ees
ef
eg
egh
eghalay
egistrar
egistrar_G
egistrar_General_
eh
ehru
ek
el
elang
elangana
ele
election
elf
elhi
ell
ellion
elt
elug
em
ema
emale
emb
ember
embly
emen
emi
emic
emoc
emocracy
emocratic
emographic
emographics
emon
emp
emplate
emplate:
emple
en
en,
en.
en/
ence
ency
end
ender
endra
ene
ened
eneral
eneral_
eng
engal
engal_
engali
enguin
enins
enj
ens
ension
ensive
ensus
ensus2011
ensus2011religion
ent
enter
enti
ently
entr
entral
entral_
entral_In
entral_Intelligence_Agency
entre
entre2005
entury
eology
ep
epal
epali
epart
epartment
epend
ependen
ependence
ependencies
ependent
eport
eptember
epublic
equality
er
er)
er,
er-
eral
eral_
erala
erala")
erated
eration
erce
ere
ered
eri
eries
ering
erman
ern
erritory
error
errors
ers
ers,
erv
ervation
erved
erves
ervice
es
es,
es/
esc
ese
esearch
eser
esert
eserve
esh
eshow/
esp
ess
est
est_B
est_Bengal
establish
ester
estern
esti
estima
estival
ests
et
etail
etary
etcalf
eth
ethnologue.com/
etra
etraglia
etric
etry
ets
etween
ety
euborne
ev
evelopment
ew
ex
ext
ey
ez
f
fe
feb
fer
ff
ffair
ffairs
ffec
ffice
fficial
fghan
fghanistan
fi
fic
fication
ficial
fied
fir
first
fl
flic
flicts
flu
fn
for
force
forcement
ford
fore
forest
form
forma
formance
formatics
formation
fric
frica
from
ft
fter
ful
g
g)
g)


g)[
g)](File:
g)](https://hi.wikipedia.org/wiki/चित्र:
g.
g.pn
g.png)](File:
g/
g/120px-
g/250px-
g/40
g/40px-
gAAQBAJ
gAAQBAJ&pg=PA
gan
ganisation
gar
garh
gari
gation
ge
ged
gen
gencies
gency
general_
general_election
ger
ges
get
gether
gh
ghan
ghat
ght
ghts
gin
gion
gional
gions
gl
gle
glia
gni
go
goo
good
google
google.com/
google.com/books
gory:
gov
gov.in
government
gra
gramme
gration
grave
gu
gue
gy
gypt
h
ha
had
hai
hailand
hak
ham
han
hand
handigarh
hang
hanghai
har
harat
hard
harkhand
harma
harmace
harmaceutical
has
hasha
hat
hatt
haw
he
heet
hek
hel
hell
hen
hennai
her
here
hi
hi.
hib
hic
hie
hief
high
hild
hili
hilippines
him
hin
hina
hind
hinese
hinnathurai
hip
hird
his
hism
hist
history
hmed
hmedabad
ho
hol
hola
hoti
hra
hry
ht
htm
html
html)
html).
htt
http://
https
https://
hutan
hy
hyan
i
i,
i-
i.
i.org/
ia
ia")
ial
ially
iam
iament
ian
iance
ians
iary
iated
iation
ib
ibc
ibcode
ibet
ibetan
ible
iblio
ibrary
ic
ica
ical
ical_
ice
ices
icha
ichael
ichell
ichell2000
icial
ico
icobar
icon
ics
ict
ictionary
id
id-
idd
iddle
ide
ided
ident
identi
identifi
identifier)
identifiers
ie
ield
ies
iet
ietnam
ieval
iew
if
ife
iff
iffer
ifferent
iffus
ific
ify
ig
igarh
igen
igenous
iger
igh
ight
ighth
ights
ign
ign_
igration
igved
ihar
ii
ij
ijay
ijayana
ijayanagar
ik
ikh
ikhism
iki
ikkim
ikshit
ikshitS
ikshitSchwartzberg
ikshitSchwartzberg2023
il
iland
ilbert
ild
ildlife
ile
ile:
iles/
iley
ilg
ilgiris
ilgrim
ility
ilk
ill
illa
illi
illiam
illion
ilt
ily
im
im_C
ima
imach
imachal
imachal_Pradesh
imal
ime
imes
imf
imf2
imf2-
imf2-22
imf2-22)
imf2_
imf2_22
imp
imple
in
in-
ina
inal
inan
inance
inancial
inated
ince
ind
index
indhi
indi
india
india.
india.gov
india.gov.in
india.gov.in/
india.gov.in/india
india.gov.in/india-g
india.gov.in/india-glance/
india/
indiatimes.com/
indic
indicator
indu
induism
indust
industan
industani
ine
ined
ineering
inema
ines
inf
infobox\_
ing
ing)
ing,
ing\_
ingap
ingapore
ingdom
inger
ingh
ingh2009
ingle
inguistic
ini
inion
inist
inister
inistry
inistry_of_
ino-
ino-Indian
ins
io
iodiversity
ion
iosphere
ique
ir
ira
ird
ire
irect
irector
irectorate
iri
iris
iron
irst
irth
is
isa
isak
isation
isc
iscover
ise
isease
ised
ish
isher
isher2018
ishers
ishes
ishing
ising
ision
ism
ism")
ispu
iss
issile
issing
ission
ist
istan
isted
ister
istic
istorical
istory
istrar
ists
it
it&
it&redlink=1
ital
itar
itary
itation
itchi
itchison
ite
ited
iteracy
iterature
ites
ities
ition
ito
itor
its
itt
ity
itz
iv
ive
iver
ivers
iverse
iversities
iversity
ives
ivil
iving
ivision
ix
iz
izor
izoram
j
jab
jan
janta
jec
ject
jection
ji
jolad-agar
jp
jpg
jpg)
k
k-
k-ea
k-eagle
k:
kZ
kZV
kZVu
kZVuDwAAQBAJ&pg=PA
ka
kar
kbar
ke
ker
kes
ket
key
kh
khand
ki
kim
king
kingdom
known
ks
l
la
la,
laci
lack
lackb
lackbuck
lackwell
lad
ladesh
lag
lago
lain
lam
lan
lance
lance/
land
lang
langoff
langoff-1
langoff-128
langoff-128)
langoff_1
langoff_128
language
languages
lant
lar
las
lass
lassical_
late
late_
lated
lation
lations
lative
latt
lav
law
lay
laya
lc
ld
ldlife
le
le,
le:
lear
lease
lease.aspx?
lease.aspx?relid
leav
lec
lect
lection
lectri
lectricity
led
ledge
leg
lem
len
lennium
les
les\_
les\_con
les\_containing\_
les\_with\_
lex
ley
li
liA
liAitchison
liAitchison2005
lib
lic
lie
lief
lies
lif
life
lig
ligi
ligion
ligious
lima
limate
limate_
lin
line
ling
link
linki
lio
lion
lish
lite
ll
lla
lled
lm
lo
lobal
loc
local
lof
lofker
log
logo
logo.sv
logy
lood
lor
los
lose
losop
loth
lothing
low
lowing
loy
ls
lud
lue
lurton
lurton1993
lus
ly
ly,
lymp
lémentin-Ojha
lémentin-Ojha2014
m
ma
mai.
mal
mall
man
map
map_
map_en.
map_en.sv
mar
mar2011
mary
mas
mason
mb
mber
mbol
mc
me
med
media
men
ment
ments
mer
meric
merican
mes
mi
mil
miling
millan
min
minist
ministrative
mission
mith
mitt
mme
mon
mons
monsoon
more
most
mp
mpire
mploy
mritsar
ms
mu
music
n
n_
na
nai
nam
natak
nathurai
national
national-language
nc
ncb
ncbi.
ncbi.n
ncbi.nlm
ncbi.nlm.
ncbi.nlm.nih
nclm
nclm.nic.in/
nclm.nic.in/shared/linkimages/
ncyclo
ncyclopedia
ncyclopædia
nd
ndaman
ndhra
ne
ned
ner
nergy
new
news/
nforcement
ng
ngineering
nglish
ni
nia
nic
nic.in
nic.in)
-
nic.in/
nih
ning
nium
no
nold
nominal)
not
note-
now
nown
ns
nvironment
o
o-
o-d
o-operation
o.
oa
oal
oard
oast
oastal
ob
obar
obb
obb201
obb2011
ober
obo
obox\_
oc
ocal
ocial
ociated
ociation
ock
ockey
ocument
od
oday
ode
odel
oder
odern
odi
odia
odiversity
ods
ody
oef
oeffi
oefficient
of
of_
off
ofindia.
og
ogam
ogamy
ogn
ogra
ographi
ographic
ographical
ography
ogri
oh
ohenj
ohenjo-d
ohenjo-daro
ohn
oi
oi.org/
oi.org/10.
oin
oinage
oint
ok
ol
olad
olad-
olad-agar
olas
old
olden
oli
olic
olice
olicy
olid
olit
olitic
olitical
olitical_
olitics
olk
olkata
oll
olle
ollege
ollingh
ollingham
oln
olnar
olnar2015
olog
ological
ology
olon
olonial
olpert
om
oma
oman
omb
ombined
ome
omen
omes
omestic
omic
omin
ominal
ominal)
ominion
omm
omma
ommaraj
ommaraju
ommonwealth
omo
omp
ompany
oms
on
on,
on-
on-A
on-Alig
on-Aligned
ond
ondon
one
ones
ong
ongol
ongress
oningh
oningham
onk
onkani
onom
ons
onsoon
onstitu
onstituent
onstitution
onstitution_of_India
ont
onwealth
oo
ood
ook
ooking
ool
oon
ooperation
oor
oorke
oorkee
oot
ootball
op
opal
ope
operation
opland
ople
oples
opulation
opulation_T
opulation_Totals_Paper_1_of_2011_India
or
ora
oral
orbe
orbett
orce
ord
order
ords
ore
orea
oreign
oreign_
orest
org
org/
ori
orian
orical
ories
orities
ority
ork
orld
orn
orne
oroast
oroastrian
orpor
orporation
ors
orse
orship
ort
ortal
ortal:
ortality
orth
ortheast
orthographic
orthographic_pro
orthographic_projection
ory
ory:
os
osa
ose
osed
osi
osition
osphere
oss
ost
ot
otal
otals
otals_P
otals_Paper
otals_Paper_1
otals_Paper_1_of_
otals_Paper_1_of_2011
otals_Paper_1_of_2011_India
ote
otechnology
otel
other
otherm
othermund
ots
otsp
ott
ou
ough
ought
ould
oun
ounci
ouncil
ound
ounding
oung
ount
ountain
ountries
ountries/
ountry
our
ourbaki
ourc
ource
ourced
ources
ourism
ourn
ournal
ourt
ourts
ous
ouse
out
outh
outledge
ov
ove
ovember
ovement
over
overe
overeign
overn
overnment
overnment_of_India
overty
ow
ow/
owe
ower
owever,
owland
owland1970
own
oy
oz
p
p.
p://
pB
pa
pace
page
par
pati
pd
pdf
pdf)
pe
pec
pecial
pect
pectancy
ped
pedia
pedia:
pee
pen
people
per
peration
pert
pg
pg=
ph
phere
phi
php
phy
pi
pib
pib.nic.in/
pib.nic.in/new
pib.nic.in/newsite/
pic
pical
ple
pn
por
port
ports
ports/
posed
post
pp
ppe
ppines
pr
pres
present
press
pringer
ps
pt
ption
pts
pture
pu
pur
pura
px-
pædia
q
q9
qu
qual
quality
que
r
ra
rab
rac
racy
rad
rade
radesh
radition
raditional
rael
rah
rahma
rahmap
rahmaputra
rain
raj
rak
rakash
ral
ram
raman
ramaniam
rame
ramou
ramouli
ran
rance
rancis
rans
raq
rar
rary
ras
rat
rate
ratic
ration
rative
rature
ravalli
raven
raven1997
ravi
ravidian
raz
razil
rban
rc
rcent
rces/
rchi
rchitecture
rchived
rd
rdu
re
read
reas
reat
reater
red
redlink
redlink=1
ree
reed
reedom
reek
reen
rees
reet
ref
ref-
rel
relid
religion
reme
ren
res
resent
resid
resident
ress
rest
rested
results
ret
rg
rgani
rganisation
rganisation_for
rganisation_for_Economic
rganisation_for_Economic_C
rganisation_for_Economic_Co-operation
rganisation_for_Economic_Co-operation_and_Development
rganisation_for_Economic_Co-operation_and_Development_2007
rganization
ri
ri_Lank
ria
riage
rial
rian
rib
ric
ricket
riculture
rid
ridangam
ridge
rie
rief
ries
ries/
rig
right
right2010
rigonom
rigonometry
ril
rim
rime
rin
riod
ripura
ris
rish
rishn
rishna
risis
rist
ristian
ristianity
rit
ritan
ritannic
ritannica
ritannica.com/
riti
ritical
ritish
ritory
rits
ritsar
ritsch
ritten
rity
river
riya
rm
ro
road
roadc
roadcasting
roban
robanis
roc
rocod
rocodile
rof
rom
romed
romedary
ron
ronom
ront
ronze
rop
ropped
ror
ross
rotected
roti
rou
rough
round
roup
roups
rov
rove
rovision
row
rowing
rown
rowth
rr
ru
ruary
rum
run
runei
rupee
rust
ry
ryan
s
s")
s").
s)
s,
s-
s.
s."

s.[[
s.[[4
s.com/
s/
s18
s:
s](https://en.wikipedia.org/wiki/
s](https://en.wikipedia.org/wiki/A
s](https://en.wikipedia.org/wiki/C
s](https://en.wikipedia.org/wiki/L
s](https://en.wikipedia.org/wiki/List_of_
s](https://en.wikipedia.org/wiki/M
s](https://en.wikipedia.org/wiki/P
s](https://en.wikipedia.org/wiki/S
s](https://en.wikipedia.org/wiki/United
s_in_India
s_of_India
se
ser
sey
sh
shar
shared
shared/
shared/linki
shared/linkima
shared/linkimag
shared/linkimages/
sher
shi
ship
shit
shok
sia
sian
site
site/
sl
slam
slamic
sland
sol
son
son2014
son2014-p
ss
ssam
st
stan
stan")
stani
state
states
ster
stitu
stitution
str
struc
struction
sub
subcontinent
sur
surance
surgency
sv
system
t
t:
ta
tain
taining\_
tal
tandard
tar
tate
tates
te
te-
te.
te.wikipedia.org/wiki/
te\_
te_
tec
tected
tection
tecture
ted
teen
teenth
teenth_East_Asia_Summit
tein
tein1998
tein19981
tein2010
tel
tellig
telligence
telligence_Agency
tely
tem
tember
temp
templa
templates
tempor
temporary
tent
ter
tered
teri
tern
ternal
ternational
territ
ters
ters#
tes
tex
text
th
th_BRICS_summit
th_East_Asia_Summit
than
the
theast
theh
thehindu
them
thema
thematics
ther
thern
thew
thi
thme
thmetic
thnic
thnic_groups
thnic_groups_in_South_Asia
thno
thnolog
thnologue
thnologue.com/
thoma
thomason
though
thumb/
thurai
ti
tial
tic
tical
tice
tices
tici
ticide
tics
ties
tification
tiger
til
tile
till
time
times
times.com/
timesofindia.
timesofindia.indiatimes.com/
timesofindia.indiatimes.com/india/
tin
tinent
ting
tion
tion=
tionary
tions
tis
tist
titu
tive
tives
to
ton
top
topic
tou
touch
touchability
tra
tro
troduction
trol
ts
tt
ttac
ttacus
ttar
tten
tter
tu
tual
tud
tudies
ture
ty
ty,
u
u")
u,
u/
ua
ual
ually
ub
ubl
ublic
ublication
ublications/
ublishing
uborne
ubs
uc
ucation
uccess
uccessful
uch
uck
uclear
ucture
ud
uda
udd
udden
uddhism
udi
uduch
uducher
uducherry
ue
ues
uff
ug
ugh
ughal
ughal_
uin
uis
uisine
uistic
uj
ujar
ujarat
ujarati
uk
ukesh
ul
ula
ular
ulation
ule
uled
ulke
ulkeR
ulkeRothermund
ulos
ulosis
ult
ultan
ultanate
ulti
ults
ultural
ulture
ultures
uly
um
uman
umar
umb
umb/
umbai
umber
ument
umm
ummary
ummer
ummit
ummit")
un
una
unbird
unction
und
undam
undament
undamental
undarb
undarbans
une
unei
ung
ungab
ungabhad
ungabhadra
union
union_territ
union_territories
union_territory
union_territory)
unjab
unjabi
unleav
unleavy
up
uplo
upload.
upload.wikimedia.org/wikipedia/commons/
upreme
upt
upta
ur
ura
urai
ural
ural_
uran
uras
urasia
urasian
urban
urch
urchas
ure
ureau
ures
urg
uring
urk
url
urn
urope
uropean
urple
urr
urrency
urrent
urry
urther
urton
urvey
ury
uryan
us
ush
usic
usical
usin
usines
usiness
usiness/
usli
uslim
uss
ussia
ust
ustice
ustral
ustralia
ustrial
ustry
ut
utan
uted
utes
uth
uthority
utical
uting
ution
utonom
utra
utt
utta
uttap
uttaphry
uttaphryn
uttaphrynus
v
va
vaG
vaGua
vaGuaJ
vaGuaJIJ
vaGuaJIJgo
val
valli
value
van
vanab
vanabe
vanabelago
vanabelagola
var
vara
vara_
vard
vatsyayan
vatsyayan-l
vatsyayan-lord
vatsyayan-lord-4
vatsyayan-lord-432
vatsyayan-lord_4
vatsyayan-lord_432
ve
ved
vel
velo
velock
velop
velopment
ven
vent
vention
ver
ver,
verage
vers
verse
versity
very
ves
vest
vesti
vestigation
vey
vi
vid
vidence
view
vil
ving
viol
violence
viron
vironment
vision
vol
volution
voy
w
wAAQBAJ&pg=PA
wait
wal
wan
wana
war
ward
wart
wartzberg
water
way
we
wealth
web
web.
web/
ween
weep
well
west
wi
wiki
wiki/
wikidata
wikime
wikimedia.org/
wikimedia.org/wikipedia/commons/
wikipe
wikipedia
wikipedia.org/
wikipedia.org/wiki/
wikipedia/
wikipedia/com
wikipedia/commons
wikipedia/commons/
wing
with
with\_
work
world
worldbank
worldbank.org/
ww
www
www.
x
x-
x?
x\_
xford
y
y")
y,
ya
yan
yana
yanathan
yanmar
yayan
yd
year
yer
yle
ym
ymbol
yn
yna
ynago
ynagogue
ynast
ynasty
ypr
yprus
yr
ys
ysis
yson
ystem
yth
yy
z
zard
zation
zberg
ze
zer
{
|
}
~
°
·
Ö
á
â
æ
ædia
ç
è
é
ément
émentin-
émentin-O
émentin-Oj
émentin-Ojha
í
ñ
ö
ü
ā
ī
İ
Ś
ś
ū
ș
ə
ɦ
ɪ
ɾ
ʊ
ʼ
ˈ
ː
ί
α
δ
θ
ν
π
ς
ό
ँ
ँकि
ँच
ँची
ं
ंक
ंग
ंगड
ंगल
ंगा
ंगाल
ंगीत
ंग्रे
ंग्रेज
ंग्रेज़
ंग्रेज़ी
ंग्रेजी
ंग्रेस
ंच
ंजन
ंजाब
ंट
ंड
ंडमान
ंडल
ंडिया
ंडीगढ़
ंडोन
ंडोनेशिया
ंत
ंतर
ंति
ंत्र
ंद
ंदर
ंदिर
ंध
ंध्र
ंप
ंपन
ंपरा
ंब
ंबई
ंबर
ंश
ंस
ंह
ः
अ
अंग्रेज़ी
अन
अनुसार
अभिज्ञापक
अभिज्ञापक)
अरब
आ
आई
आई.
आईएस
इ
इन
इप्रस
ई
ईद
ईरा
ईसा
ईसाई
उ
उप
ऊ
ऊर्जा
ऋ
ऋतु
ऍ
ऍथनोलॉग
ए
एँ
एं
एन
एम
एशिया
एस
एसिया
एसियाक
ऐ
ऑ
ऑक्सफोर्ड
ऑपरेशन
ओ
ओं
औ
और
क
क_
कट
कर
करण
कल
कल_घ
कल_घरेलू_उत्पाद
का
कांक
कार
कार्यपालिका
काल
कालीन
काश
कि
किस्तान
की
कृति
के
केन्द्र
केर
को
क्
क्त
क्ति
क्ष
क्षण
क्षद्वीप
क्षर
क्षरता
क्षा
क्षिण
क्षेत्र
क्स
क्सफोर्ड
ख
खंड
खण्ड
खन
खनऊ
ख़
खा
खाना
ख्य
ख्या
ग
गढ़
गण
गणतंत्र
गणतन्त्र
गणना
गणराज्य
गत
गध
गमन
गर
गल
गान
गु
गुज
गुजरात
गुप्त
गू
गो
गोआ
गोल
ग्वे
घ
घर
ङ
ङ्
ङ्ग
ङ्घ
च
चल
चार
चि
चित्र
चित्र:
ची
चीन
चे
चेंज
चेन्नई
च्च
च्छ
छ
छत्तीस
छत्तीसगढ़
ज
जं
जन
जनसंख्या
जपा
जय
जयनगर
जयपुर
जल
ज़
ज़ा
जा
जाति
जान
जापान
जाब
जी
ज्
ज्ज
ज्ञ
ज्ञान
ज्य
झ
झार
झारखंड
ञ
ञ्
ट
टक
टना
टी
टे
ठ
ड
ड़
ड़ा
ड़िया
ड़ियाँ
ड़िशा
ड़ी
ड़ीसा
ड़े
डिया
डी
डु
ढ
ढ़
ण
णा
णि
णिपुर
णिपुरी
णी
ण्ड
त
तंत्र
तंत्रता
तट
तन्त्र
तन्त्रता
तम
तमिल
तर
ता
ताज
ताजमह
ताब्
ताल
ति
तिक
तिब्बत
तिरुवन
तिहास
तिहासिक
ती
तीस
तु
तुल
तुल्य
तृत
ते
तेल
तेलंग
तेलंगाना
तेलु
तेलुगु
तेलुगू
त्
त्त
त्तर
त्तरा
त्तराखण्ड
त्तरी
त्ता
त्ति
त्तीस
त्न
त्प
त्पत्ति
त्पाद
त्य
त्यमेव
त्या
त्र
त्रि
त्रिपुरा
त्रुट
त्व
त्स
थ
थनोलॉग
थम
थल
था
थाई
थाईलैंड
थान
थियार
थी
थुरा
द
दक्षिण
दय
दयपुर
दल
दा
दाख
दान
दार
दारी
दी
दीव
दु
दुच्च
दुच्चे
दू
देव
देश
द्
द्दाख
द्ध
द्य
द्यान
द्यालय
द्योग
द्योगिक
द्र
द्रा
द्रौपदी
द्वार
द्वित
द्वितीय
द्वीप
ध
धता
धन
धर्म
धाकृष्ण
धान
धानमंत्र
धानमंत्री
धार
धार_
धार_पर_भारत
धि
धिक
धिकार
धिकारिक
धिराज्य
धी
धीरे
धु
धु-
धु-ग
धु-गंगा
धुनिक
ध्य
ध्यम
न
न")
न](https://hi.wikipedia.org/wiki/
न](https://mai.wikipedia.org/wiki/
नगर
नजं
नजंघ
नजंघा
नत्व
ना
नाग
नागालैंड
नाडु
नाथ
नाम
नाव
नि
निक
निरपेक्ष
निर्धनता
निर्भर
निवेश
नी
ने
नेट
नेपाल
नेमा
नोलॉग
न्
न्ड
न्डिया
न्त
न्तर
न्तु
न्त्र
न्द
न्दा
न्दिर
न्द्र
न्ध
न्न
न्नई
न्नड
न्नड़
न्स
ऩ
प
पति
पया
पर
पर_भारत
परमाणु
परेशन
पर्यटन
पा
पांड
पाकिस्तान
पात
पातकाल
पान
पार
पाल
पालिका
पाषाण
पि
पी
पीठ
पीपीपी)
पु
पुर
पुरम
पुरा
पुरी
पूर्ण
पे
प्त
प्र
प्रस
प्रा
प्राचीन
फ
फल
फ़
फ़रवरी
फ़्रीका
फाएं
फोर्ड
फ्रां
फ्रीका
ब
बंध
बंधन
बर
बसे
बा
बाद
बी
बू
ब्
ब्ब
ब्बत
ब्ल
भ
भग
भरत
भा
भाग
भाजन
भार
भारत
भारत
Category:
भारत)
भारत_के_राज्य
भारतीय
भाष
भाषा
भि
भिज्ञ
भिज्ञापक
भिन्न
भी
भीम
भीमब
भीमबेटका
भु
भुटान
भुवनेश्वर
भू
भूट
भूटान
भूम
भो
भोज
भोजपुरी
भोपाल
म
म")
म](https://hi.wikipedia.org/wiki/
मंत्र
मक
मत
मन
मन्त
मर
मरी
मरीका
मह
महाद्वीप
मा
माख्या
माज
माजिक
माण
माणु
मान
मान्य
माप
मापद
मापदण्ड
मार
मालय
मिल
मी
मी2
मीन
मीरात
मु
मुख
मुख्य
मूल्य
मृत
मे
मे\_
में
मेर
मेव
मोर
म्
म्न
म्प
म्प्र
म्ब
म्बर
म्भ
म्म
म्मू
म्रा
म्राज्य
य
यत
यपालिका
यर
या
याधी
याधीश
याल
यालय
यु
युक्त
योग
र
र-
रकार
रक्ष
रक्षक
रक्षा
रक्षित
रण
रत
रब
रवरी
रस
रा
राइ
राक
राक़
राज
राजनी
राजस्थान
राज्य
राठ
रात
राती
राम
रामा
रामाय
रामायण
राय
रालेख
रालेखित
राष्ट्र
राष्ट्रपति
राष्ट्रपति")
राष्ट्रपति](https://hi.wikipedia.org/wiki/भारत_के_
राष्ट्रीय
राष्ट्रीय_
राष्ट्रीय_उ
राष्ट्रीय_उद्यान
राष्ट्रीय_स
राष्ट्रीय_सूचना-विज्ञान
रि
री
री")
री](https://hi.wikipedia.org/wiki/
रीक्षण
रु
रुणा
रुणाचल
रुवन
रू
रे
रेन्द्र
रेल
रेलू
रेलू_उत्पाद
रो
रोहर
र्
र्क
र्ग
र्ज
र्जा
र्ट
र्त
र्तग
र्थ
र्थव्यवस्था
र्थिक
र्दू
र्धन
र्धनता
र्ना
र्नाटक
र्भ
र्भर
र्म
र्मन
र्मनिरपेक्ष
र्मू
र्य
र्व
र्वत
र्वो
र्वोच्च
र्ष
र्स
ल
ल")
ल-
ल](https://hi.wikipedia.org/wiki/
लं
लंका
लग
लयाल
लयालम
ला
लाई
लाओ
लाका
लादेश
लावा
लि
लिंग
लिस
ली
ले
लेख
लेट
लेशिया
लैंड
लों
लोक
लोकसभा
ल्
ल्तनत
ल्प
ल्पा
ल्ल
ळ
व
व")
वं
वंश
वत
वन
वनवर्ल्ड
वनेश्वर
वर
वरण
वरा
वरात्रि
वरी
वर्
वर्त
वर्ल
वर्ल्ड
वर्ष
वल
वली
वा
वाँ
वाड़े
वाद
वादी
वायु
वास
वि
विज्ञान
वित
विद्यालय
विधान
वियत
विश
विशेष
विशेष:
विशेष:E
विशेष:EditPage/
विशेष:EditPage/साँचा:
विशेष:पु
विशेष:पुस्तक
विशेष:पुस्तक_स
विशेष:पुस्तक_स्रोत/978
विश्व
वी
वीं
वे
वेब
वेबैक
वेश
वेशद्वार
वै
वैत
वैद्य
वैद्यनाथ
व्यवस्था
श
शक
शक्ति
शत
शन
शवं
शवंत
शहरा
शा
शास
शासित
शासित_प्रदेश
शास्त्र
शिया
शीन
शील
शोक
श्
श्चि
श्चिम
श्चिमी
श्मी
श्मीर
श्मीरी
श्य
श्री
श्रीनगर
श्रील
श्रीलंका
श्रीलङ्
श्रीलङ्का
श्रेणी
श्रेणी:
श्रेणी:CS1
श्रेणी:Har
श्रेणी:Harv
ष
षय
षा
षाण
ष्
ष्ट
ष्ट्र
ष्ठ
ष्ण
ष्णकट
ष्णकटिबंधीय
स
स")
स](https://hi.wikipedia.org/wiki/
सँ
सं
संख्या
संधान
सङ्
सङ्ख्या
सत
सद
सभ
सभक
सभक_सूची
सभक_सूची?action=edit&redlink=1
सभा
सम
समिया
समूह
सर
सहितक\_पृष्ठसभ#
सा
साँच
साँचा:
साँचा_वार्ता:
सां
सांख्य
सास
सासनिक
सित
सिया
सी
सून
से
सेट
सेना
सैनिक
स्
स्क
स्कृत
स्कृति
स्चेंज
स्ट
स्त
स्तक
स्ता
स्तान
स्तिकता
स्त्र
स्थ
स्था
स्थान
स्थाप
स्ला
स्लाम
स्लि
स्लिम
स्व
ह
हन
हम
हमदा
हमदाबाद
हर
हरा
हरिया
हरियाणा
हरी
हा
हाँ
हाई
हाजन
हाजनप
हाजनपद
हात्
हात्मा
हाद्वीप
हाब
हाबलि
हाबलिपुरम
हाय
हायता
हायता:
हायता:उ
हायता:उद्
हायता:उद्द
हायता:उद्दरण
हार
हारज
हारजिस्ट्रार
हाराष्ट्र
हास
हासागर
हि
हित
हितक
हितक\_पृष्ठसभ
हितक\_पृष्ठसभ#
हित्य
हिन्द
हिन्दी
हिमा
हिमाचल
हिमालय
हीं
हु
हुमूल्य
हू
हें
हैदराबाद
ऻ
़
़तर
ऽ
ा
ा:
ा_
ा_व
ा_वार्ता:
ाँ
ांग
ांग्ला
ांग्लादेश
ांध
ांधी
ाइ
ाइल
ाइल:
ाई
ाएं
ाक
ाकृष्ण
ाग
ागर
ाङ्
ाङ्लादेश
ाट
ात
ाद
ादरा
ाद्वीप
ान
ानक
ानगर
ानपान
ानव
ाना
ानी
ानून
ाने
ानेर-
ानेर-पा
ानेर-पावा
ानेर-पावागढ़
ाप
ापक
ाम
ामित्व
ाय
ार
ारम्भ
ारा
ारी
ारो
ार्
ार्क
ार्कट
ार्कटिका
ार्ट
ार्ता:
ार्वभौम
ार्श
ाल
ालदीव
ालय
ालर
ाला
ाली
ाली")
ाले
ालैंड
ाल्दिभ्स
ाष्ट्र
ास
ास्
ा।
ि
िंध
िंधु
िंह
िक
िकता
िका
िकास
िकिस्तान
िकी
िकेट
िकेश
िकोबार
िक्
िक्कि
िक्किम
िक्ष
िक्षा
िख
िङ्ग
िङ्गा
िङ्गापुर
िज
िजस्तान
िज़
िज़ोर
िज़ोरम
िट
िड़
िड़ला
िण
ित
ित्व
िन
िनेमा
िन्
िन्धु
िन्धु-गंगा
िन्स
िप
िप्ट
िबंध
िबंधीय
िम
िमोर
िय
ियत
ियतनाम
ियन
ियम
िया
िया")
िया](https://mai.wikipedia.org/wiki/
िया](https://mai.wikipedia.org/wiki/अ
ियाँ
ियां
ियान
ियार
िये
ियों
िर
िरपे
िरपेक्ष
िरा
िरेट्स
िल
िला
िलि
िलिङ
िलिङ)
िलिप
िलिपिन्स
िलों
िल्ल
िल्ली
िल्ली")
िव
िवस
िवार
िवास
िवेश
िश
िशा
िस
िसी
िस्ट
िस्ट्रार
िस्तान
िहार
ी
ी")
ी")
-
ी"))
ी.
ी.पी
ी?action=edit&redlink=1
ी](https://hi.wikipedia.org/wiki/
ी](https://hi.wikipedia.org/wiki/अ
ी](https://hi.wikipedia.org/wiki/द
ी](https://hi.wikipedia.org/wiki/दिल्ली
ी](https://hi.wikipedia.org/wiki/न
ी](https://hi.wikipedia.org/wiki/प
ी](https://hi.wikipedia.org/wiki/म
ी](https://hi.wikipedia.org/wiki/स
ी](https://mai.wikipedia.org/wiki/
ी_
ी_भाषा
ी_स
ीं
ीक
ीकरण
ीगढ़
ीत
ीन
ीप
ीपी
ीपी)
ीपीपी)
ीम
ीमा
ीमित
ीय
ीय_
ील
ीस
ु
ुंबई
ुक
ुख
ुट
ुटान
ुम्ब
ुम्बई
ुरा
ुरु
ुल
ुस
ुसार
ुस्तान
ू
ूच
ूचना
ूचना-विज्ञान
ूची
ूड़
ून
ूना
ूनाइ
ूनाइटे
ूनाइटेड
ूनिव
ूनिवर्स
ूनिवर्सिट
ूप
ूबर
ूर
ूरो
ूरोप
ूरोपीय
ूर्
ूर्ण
ूर्व
ूर्वी
ूल
ूल्य
ूस
ूह
ृ
ृत
ृति
ृत्य
ृद्ध
ृष
ृषि
ृष्
ृष्ठ
ृष्ठसभ
ृष्ण
े
ें
ेंगल
ेंगलुरु
ेंज
ेंद्र
ेंस
ेक
ेकिस्तान
ेकेल
ेख
ेघ
ेघालय
ेज
ेट
ेटका
ेट्स
ेड
ेत्र
ेन
ेय
ेल
ेला
ेली
ेव
ेश
ेशन
ेशिया
ेशिया")
ेश्वर
ेष
ेस
ेस्ट
ेहरा
ेहराद
ेहरादून
ै
ैंड
ैक
ैकमिल
ैकमिलन
ैजान
ैथ
ैथिल
ैद
ैदरा
ैदराबाद
ैदान
ैदिक
ैन
ैनिक
ैनी
ैनीताल
ैम्ब
ैम्ब्रिज
ैल
ॉ
ॉक
ॉल
ॊ
ो
ों
ों_और
ों_की_स
ों_की_सूची
ों_की_सूची?action=edit&redlink=1
ोंक
ोंकणी
ोक
ोकोस
ोग
ोगरी
ोट
ोटे
ोड
ोड़
ोड़ा
ोडो
ोण
ोणार्क
ोत
ोत्तर
ोन
ोने
ोनेसिया
ोब
ोबार
ोम
ोमाल
ोर
ोर्
ोर्ट
ोर्ड
ोर्न
ोर्नो
ोर्नो-
ोर्नो-कार
ोर्नो-कारा
ोर्नो-काराबा
ोर्नो-काराबाख
ोल
ोलका
ोलकाता
ोलन
ोला
ोलावी
ोलावीरा
ोली
ोलॉ
ोलॉग
ोवियत
ोष
ोस
ोहन
ौ
ौद्ध
ौद्योगिक
ौप
ौपदी
ौर
ौर्य
ौसेना
्
्ग
्च
्छ
्ट
्ड
्त
्तन
्तनत
्ता:
्द
्दि
्दिभ
्दिभ्स
्म
्य
्यट
्यटन
्यटन")
्यता
्यपालिका
्यव
्यवस्था
्या
्यां
्यांमार
्याचल
्याण्ड
्यान
्यानम
्यानमार
्यान्म
्यान्मार
्याल
्यालेस्ट
्यालेस्टाइ
्यु
्यूरो
्यों
्र
्रम
्रय
्रह
्रह्म
्रह्मपु
्रह्मपुत्र
्रा
्रां
्रांति
्रार
्राष्ट्र
्राष्ट्रिय
्रिज
्रिट
्रिटिश
्रिटिस
्रिस
्रिसम
्रिसमस
्री
्रीका
्रु
्रुने
्रुनेई
्रे
्रेणी
्रो
्रोत
्रोत/
्रोत/978
्रोति
्रोतिरी
्ल
्ला
्लेट
्व
्वतंत्रता
्वभ
्वभौ
्वभौम
्वर
्वरूप
्वार
्वीप
्वे
्ष
्षेत्र
्स
्स्तान
॔
।
।


।[[
०
००
०१
१
१८५७
१९
२
२,
२००
२०१
२६
३
४
४.
४०
४२
४७
५
५०
६
७
८
८५
८५७
९
॰
ం
ం")
ం"),
ం,
ం.
ం:
ం?action=edit&redlink=1
ం](https://te.wikipedia.org/wiki/
ం](https://te.wikipedia.org/wiki/అ
ం](https://te.wikipedia.org/wiki/క
ం](https://te.wikipedia.org/wiki/భారతీయ
ంక
ంకణి
ంకేతి
ంకేతిక
ంగ
ంగా
ంగీ
ంగీతం
ంగో
ంగ్
ంగ్రె
ంగ్లాదేశ్
ంగ్లీ
ంగ్లీషు
ంగ్లీష్
ంచ
ంచి
ంజా
ంజాబ
ంజాబ్
ంట
ంటర్నేషనల్
ంటారు.
ంటి
ంటు
ంటుంది.
ంటో
ండ
ండమా
ండమాన్
ండర్
ండా
ండి
ండిచ్చేరి
ండియా
ండీ
ండీగఢ
ండు
ండో
ండ్
ండ్య
ంత
ంతం
ంతాల
ంతి
ంతో
ంద
ంది
ంది.
ందిన
ంద్ర
ంధ
ంధీ
ంధు
ంధ్రప్రదేశ్
ంప
ంపెనీ
ంబ
ంబంధ
ంబే
ంలో
ంశ
ంస్కృ
ంస్కృతం
ః
అ
ఆ
ఆఫ్
ఆఫ్ఘ
ఆఫ్ఘనిస్తాన్
ఆసియా
ఆసియా")
ఇ
ఈ
ఉ
ఋ
ఎ
ఎలక్టోరల్
ఏ
ఏప్రిల్
ఐ
ఒ
ఒడి
ఒలింప
ఒలింపిక్
ఓ
ఔ
క
కత
కళ
కా
కారం
కాల
కాశ్మీ
కాహార
కి
కిస్తాన్
కిస్థాన్
కీ
కీయ
కు
కుడు
కూ
కై
కైవు
కొ
కో
కోబార్
కోవ
క్
క్క
క్కి
క్కు
క్కువ
క్ట
క్తి
క్య
క్ర
క్రమ
క్ష
క్షరాస్యత
క్స్
క్‌
క్‌సభ
ఖ
ఖండ
ఖో
ఖ్య
గ
గం
గంగా
గఢ
గణ
గణతంత్ర
గణతంత్ర_
గణమన
గర
గర్
గలు
గష్టు
గా
గా,
గాంధీ
గి
గిన
గు
గుజరా
గుజరాత్
గుప్
గుప్త
గుర్
గువ
గో
గోళ
గ్
ఘ
చ
చల్
చు
చే
చ్
చ్చ
చ్చు
చ్చే
చ్చేరి
ఛ
జ
జన
జనపద
జరా
జా
జాత
జాతీయ
జాబితా
జి
జిల్
జీ
జీరియా
జు
జె
జ్
జ్ఞాన
జ్య
జ్యం
ఞ
ఞాన
ట
టక
టన్
టర్
టా
టాక్
టి
టిక
టిబె
టిబెట్
టిలో
టీ
టు
టుంబ
టె
టెక్
టెక్నాలజీ
టెడ్
ట్
ట్ట
ట్టు
ట్టుపూర్వోత్తర
ట్రో
ట్లాడే
ట్లు
ఠ
డ
డమ
డా
డామన్
డి
డిన
డిప
డియా
డు
డుకు
డే
డో
డ్
డ్డ
ఢ
ఢాకా
ఢిల్లీ
ణ
ణంగా
ణా
ణాసియా
ణి
ణిపూర్
ణే
త
తం
తం")
తం?action=edit&redlink=1
తంత్ర
తక
తమిళ
తమిళనాడు
తము
తము")
తర
తా
తాక
తాజ్
తాజ్‌మహల్
తాబ్ద
తావరణ
తి
తి")
తి](https://te.wikipedia.org/wiki/
తిశీ
తీ
తు
తున్న
తూర్పు
తెలంగాణ
తెలుగు
తే
తై
తో
త్
త్త
త్తర
త్తరా
త్తీస్
త్య
త్యేక
త్ర
త్రి
త్రిక
త్రిపుర
త్వ
త్వా
త్స
థ
థారిటీ
ద
దక్ష
దక్షి
దక్షిణ
దక్షిణ_
దక్షిణ_ఆసియా
దక్షిణాసియా
దరంగ
దా
దాద్రా
దాయ
దావరి
ది
ది.
దిన
దినోత్స
దీ
దీవ
దు
దే
దేశ
దేశం
దేశాల
దేశాలు
దేశ్
ద్
ద్ద
ద్ధ
ద్ధం
ద్ధి
ద్య
ద్యు
ద్యుత్
ద్ర
ద్రా
ద్వీ
ధ
ధాన
ధి
ధిక
ధ్య
న
నంద
నల్
నా
నాగ
నాగరికత
నాగాలాండ
నాట
నాట్య
నాడు
నాథ
నాభా
నాయ
నాయక
నాల
నాలజీ
నాలు
ని
నిక
నికి
నిడ్
నిమా
నియన్
నియా
నిస్తాన్
నీ
ను
నుమ
నే
నేపాల
నేపాల్
నేషనల్
నేషియా
నై
నో
న్
న్")
న్](https://te.wikipedia.org/wiki/
న్క
న్న
న్నడ
న్నాయ
న్నాయి.
న్ని
న్నిక
న్నో
న్‌
న్‌ఫ
న్‌ఫర్మేషన్
ప
పంచ
పతి
పద
పా
పాకిస్తాన్
పాల
పాలన
పాలిటన్
పు
పుర
పూ
పూ.
పూర్
పూర్వోత్తర
పై
ప్
ప్ప
ప్పటిక
ప్ర
ప్రత్యేక
ప్రత్యేక:
ప్రత్యేక:E
ప్రత్యేక:Edit
ప్రత్యేక:EditP
ప్రత్యేక:EditPage
ప్రత్యేక:EditPage/
ప్రత్యేక:EditPage/మూస:
ప్రదాయ
ప్రదాయాలు
ప్రదేశ్
ప్రధాన
ప్రధానమంత్రి
ప్రధానమంత్రి](https://te.wikipedia.org/wiki/
ప్రధానమంత్రి](https://te.wikipedia.org/wiki/ప్రధానమంత్రి
ప్రపంచ
ప్రపంచము
ప్రిల్
ఫ
ఫ్
బ
బడ
బడింది.
బడిన
బడ్డ
బడ్డీ
బర్
బా
బాదు
బాద్
బార్
బి
బితా
బె
బెంగ
బెంగాల
బెంగాలీ
బెంగాల్
బై
బ్
బ్ద
భ
భర
భరత
భా
భార
భారత
భారత_
భారతదేశ
భారతదేశ_
భారతదేశ_రాష్ట్రాలు,_కేంద్రపాలిత_ప్రాంత
భారతదేశ_రాష్ట్రాలు,_కేంద్రపాలిత_ప్రాంతాలు
భారతదేశం
భారతదేశం
Category:
భారతీయ
భాష
భి
భిన్న
భూ
భూట
భూటాన్
మ
మం
మంత్రి
మన
మన్
మర
మల
మహ
మా
మాఖ్య
మాతర
మాతరం
మాన
మార్
మి
మించ
మిజ
మిజో
మిజోరా
మిళ
మీ
ము
ము")
ముంబ
ముంబై
ముఖ్య
ముద్ర
మూస:
మె
మెరి
మెరికా
మే
మై
మైన
మైనది.
మ్
మ్మ
మ్మూ
మ్మూ_
మ్మూ_కాశ్మీ
మ్య
మ్రా
మ్రాజ్య
మ్రాజ్యం
య
యం
యన
యన్
యన్మార్
యా
యాలో
యి
యి.
యు
యుగ
యుద్ధం
యునై
యునైటెడ్
యూ
యె
యో
య్య
య్యూ
ర
రంగ
రణ
రా
రాజ
రాజస్థాన్
రాజ్య
రాజ్యం
రాఠ
రాన్
రాష్ట్ర
రాష్ట్రపతి
రాష్ట్రాలు,
రాష్ట్రాలు,_క
రాష్ట్రాలు,_కేంద్రపాలిత_ప్రాంత
రాస్యత
రి
రించ
రికత
రిజ
రిత్ర
రియా
రిహ
రిహద్
రిహద్దు
రీ
రీక్ష
రు
రుగు
రుగుబా
రుగుబాటు
రుణా
రుణాచల్
రుపు
రువా
రె
రే
రేడు
రేబి
రేబియా
రో
రోపా
ర్
ర్")
ర్కొ
ర్చ
ర్చ:
ర్జె
ర్ణా
ర్ణాటక
ర్ద
ర్దూ
ర్ధిక
ర్నేషనల్
ర్మే
ర్మేషన్
ర్య
ర్యా
ర్యానా
ర్లు
ర్వ
ర్వోత్తర
ర్ష
ర్‌
ల
లం
లంక
లకు
లక్ట
లక్టోరల్
లక్ష
లక్షద్వీ
లక్షద్వీప్
లడ
లడఖ
లతో
లను
లయా
లయాళ
లలో
లస
లా
లాడే
లాదేశ్
లాహోర్
లి
లింప
లియా
లీ
లు
లు")
లు?action=edit&redlink=1
లు](https://te.wikipedia.org/wiki/
లుపు
లె
లే
లేషియా
లో
లో](https://te.wikipedia.org/wiki/
లోక్‌సభ
లోన్
లోమీ
లోయ
ల్
ల్ప
ల్ల
ల్లవ
ల్లో
ల్వే
ళ
ళా
ళి
ళు
ళ్
ళ్ళ
వ
వ](https://te.wikipedia.org/wiki/List_of_countries
వ](https://te.wikipedia.org/wiki/List_of_countries_and_d
వ](https://te.wikipedia.org/wiki/List_of_countries_and_dependencies
వ](https://te.wikipedia.org/wiki/List_of_countries_and_dependencies_by
వ](https://te.wikipedia.org/wiki/List_of_countries_by
వ](https://te.wikipedia.org/wiki/List_of_countries_by_G
వ](https://te.wikipedia.org/wiki/List_of_countries_by_GDP
వ](https://te.wikipedia.org/wiki/List_of_countries_by_GDP_(
వం
వందే
వంశ
వంశం
వత్రిక
వర
వరణ
వరి
వర్
వర్గ
వర్గం:
వర్గం:Harv
వర్ష
వా
వాణా
వాతంత్ర
వాతంత్ర్య
వాతావరణ
వాద
వార
వార్
వాహన
వి
వి.
విజ
వీ
వు
వె
వెను
వే
వేద
వేలీ
వై
వో
శ
శ.
శా
శాఖ
శాస్త్ర
శీ
శు
శో
శోకుడు
శ్చి
శ్చిమ
శ్మీ
శ్రమ
శ్రీ
శ్రీలంక
శ్వ
శ్వా
శ్వాస
ష
షనల్
షన్
షా
షి
షియా
షు
ష్
ష్ట
ష్టు
ష్ట్ర
ష్ణ
స
సభ
సా
సా.శ.
సార్
సి
సింగ్
సింది.
సిన
సియా
సు
స్
స్")
స్?action=edit&redlink=1
స్](https://te.wikipedia.org/wiki/
స్క
స్కరణ
స్కృ
స్కృతి
స్ట
స్ట్
స్త
స్తా
స్తాన్
స్తారు
స్తు
స్త్ర
స్త్రం:
స్థ
స్థాన్
స్య
స్యత
స్రా
స్లా
స్లాం
స్లామా
స్లామాబాద్
స్వ
స్వతంత్ర
స్వా
స్వాతంత్ర్య
స్వామ్య
స్స
స్సా
హ
హక
హకార
హద
హదార
హన
హా
హాకీ
హాత్
హాత్మా
హాయ
హాయం:
హార
హారాష్ట్ర
హాస
హాసముద్ర
హి
హింద
హిందీ
హిందూ
హిత
హిమ
హిమా
హిమాచల్
హిమాలయ
హిమాలయాలు
హు
హోర్
హ్
హ్మ
ా
ాంగ
ాకా
ాన
ానికి
ాన్
ాయ
ాయి
ాయి.
ార
ారం
ారస
ారస్వ
ారి
ారిగా
ారిటీ
ారు
ారు.
ారు.


ార్
ార్ఖండ
ార్టీ
ార్థ
ార్ల
ార్లమె
ార్లమెంట
ాల
ాలను
ాలయ
ాలలో
ాలా
ాలాండ
ాలు
ాలు


ాలు

-
ాలు

ప్రధాన
ాలు")
ాలు")
-
ాలు,
ాలు?action=edit&redlink=1
ాలు](https://te.wikipedia.org/wiki/
ాలుగా
ాలె
ాలో
ాల్
ాల్దీవ
ాల్దీవులు
ాల్లో
ాళు
ాళుక్య
ాష్ట్ర
ి
ి.
ించ
ించింది.
ించిన
ింద
ింది.
ిక
ిక,
ికలు
ికి
ిక్
ిటన్
ిత
ిన
ిలి
ిలీ
ిల్
ిల్లీ
ీ
ీ;
ీ](https://te.wikipedia.org/wiki/
ీక
ీకరణ
ీఠ
ీన
ీయ
ీర
ీర్
ీర్ణ
ీలు
ీస్
ీహ
ీహార్
ు
ుకు
ుప్ర
ుప్రీ
ుప్రీం
ుమ
ుల
ులు
ులు")
ులు"),
ులు,
ులు?action=edit&redlink=1
ులు](https://te.wikipedia.org/wiki/
ుల్
ుల్తా
ుల్తాన
ువు
ూ
ూచ
ూచి
ూప
ూపా
ూరు
ూర్
ూర్పు
ూస
ూస:
ృ
ృత్య
ృద్ధి
ృష్
ృష్ణా
ె
ెగ
ెట్
ెట్రో
ెద్ద
ెన
ెనీ
ెన్న
ెన్నై
ెర్
ెల
ెలంగా
ెలంగాణ
ెలవు
ెలవుదిన
ెలు
ెలుగు
ెహ
ే
ే,
ేంద్ర
ేంద్రపాల
ేంద్రపాలిత
ేంద్రపాలిత_ప్రా
ేంద్రపాలిత_ప్రాంత
ేక
ేఘ
ేఘాలయ
ేజి
ేతి
ేన
ేర
ేరళ
ై
ైద
ైదరా
ైన
ైనా
ైనిక
ొ
ొగలు
ొయ
ో
ోత్తర
ోత్స
ోర
ోరల్
ోర్
ోర్చు
ోర్చుగ
ోల్
ోల్‌కాతా
ోళ
ౌ
ౌక
ౌద్ధ
ౌర
ౌర్య
్
్")
్](https://te.wikipedia.org/wiki/
్చ
్చి
్ట
్టీ
్మ
్మీ
్య
్యం
్యవ
్యవస్థ
్యా
్యాయ
్యాలె
్ర
్రప్రదేశ్
్రమ
్రా
్రాన్
్రామ
్రి
్రిటి
్రిటిషు
్రిటిష్
్రీ
్రీ.
్రీ.పూ.
్రీడ
్రూ
్రె
్రే
్రై
్రైస్త
్రైస్తవ
్రో
్వ
్వా
్వాల్
ṅ
ṇ
Ṛ
ṣ
ṭ
Ἰ
‌
‌కా
‌కాతా
‌మహ
‌మహల్
‌స
‍
‎
–
–1
–10
–11
–119
–120
–123
–17
–18
–19
–24
–4
–70
–Pakistan
–సా.శ.
–సా.శ.1
–సా.శ.13
–సా.శ.14
–సా.శ.159
–సా.శ.18
–సా.శ.19
–సా.శ.1947)
–సా.శ.6
–సా.శ.పూ.
–సా.శ.పూ.3
—
‘
’
“
”
†
•
′
‹
›
⁡
₹
↑
−
▁
▁"
▁"A
▁"An
▁"Andaman
▁"Austral
▁"B
▁"BRICS
▁"Bangladesh
▁"Bengal
▁"British
▁"C
▁"Cambridge
▁"Category:
▁"Central
▁"Ch
▁"Chin
▁"China")
▁"Chola
▁"Climate
▁"D
▁"Delhi
▁"Doi
▁"E
▁"East
▁"Economic
▁"Economy
▁"Ethnic
▁"F
▁"Foreign
▁"G
▁"Ge
▁"Government
▁"H
▁"Hinduism
▁"History
▁"I
▁"ISBN
▁"In
▁"Ind
▁"India
▁"Indian
▁"Indo-
▁"Indus
▁"International
▁"J
▁"K
▁"L
▁"List
▁"M
▁"Ministry
▁"Mughal
▁"N
▁"National
▁"New
▁"O
▁"Official
▁"Oxford
▁"P
▁"Pakistan
▁"Pal
▁"Portal:
▁"R
▁"Re
▁"Routledge
▁"Routledge").
▁"Russia
▁"Russia")
▁"S
▁"SAARC
▁"Sanskrit
▁"South
▁"Special:BookSources/978
▁"Special:BookSources/978-0-
▁"Special:BookSources/978-0-19
▁"Special:BookSources/978-0-521
▁"Special:BookSources/978-1
▁"Special:BookSources/978-81
▁"Special:EditPage/Template:
▁"Sri
▁"T
▁"Tamil
▁"Template
▁"Template:
▁"The
▁"U
▁"United
▁"V
▁"W
▁"World
▁"Y
▁"[
▁"अ
▁"अंग्रेज़ी
▁"आ
▁"इ
▁"उ
▁"उत्तर
▁"उर्दू
▁"ओ
▁"क
▁"का
▁"कु
▁"ख
▁"ग
▁"गुजरात
▁"गुजरात")
▁"च
▁"ची
▁"ज
▁"जम्मू
▁"ड
▁"तमिल
▁"द
▁"दक्षिण
▁"दिल्ली")
▁"न
▁"नेपाल
▁"प
▁"पंजाब
▁"पंजाबी
▁"पाकिस्तान
▁"पाकिस्तान")
▁"पु
▁"पूर्वी
▁"प्र
▁"ब
▁"बांग्ला
▁"ब्रिटिश
▁"भारत
▁"भारतक
▁"भारतीय
▁"म
▁"मध्य
▁"मराठ
▁"महाराष्ट्र
▁"महाराष्ट्र")
▁"मुंबई
▁"य
▁"राजस्थान
▁"राजस्थान")
▁"राष्ट्रीय
▁"ल
▁"व
▁"वि
▁"विशेष:EditPage/साँचा:
▁"विशेष:पुस्तक
▁"विश्व
▁"श
▁"श्रेणी:Harv
▁"स
▁"सं
▁"संयुक्त
▁"संस्कृत
▁"सा
▁"साँच
▁"साँचा
▁"साँचा:
▁"सिक्किम
▁"ह
▁"हिन्द
▁"हिन्दी")
▁"हैदराबाद
▁"అ
▁"ఆ
▁"ఇ
▁"ఇండో
▁"ఇరా
▁"ఉ
▁"ఉత్తర
▁"ఒడి
▁"క
▁"కు
▁"గ
▁"గణతంత్ర
▁"గో
▁"చ
▁"చైనా
▁"జ
▁"జన
▁"జమ్మూ
▁"ఢిల్లీ
▁"ఢిల్లీ")
▁"తమిళనాడు
▁"తూర్పు
▁"దక్షిణ
▁"ప
▁"పశ్చిమ
▁"పా
▁"పాకిస్తాన్
▁"ప్రత్యేక:EditPage/మూస:
▁"ప్రధానమంత్రి
▁"ప్రధానమంత్రి")
▁"ప్రపంచ
▁"బ
▁"బంగ్లాదేశ్
▁"భారత
▁"భారతదేశ
▁"భారతదేశం
▁"భారతదేశంలో
▁"భారతీయ
▁"భూటాన్
▁"మ
▁"మధ్య
▁"ముంబై
▁"ముంబై")
▁"మూస
▁"మూస:
▁"యునైటెడ్
▁"రాష్ట్ర
▁"వ
▁"వర్గం:Harv
▁"వి
▁"శ
▁"శ్రీలంక
▁"స
▁"సి
▁"హ
▁"హిందీ
▁"హిందూ
▁$
▁&
▁'
▁(
▁(*
▁(1):
▁(1,
▁(19
▁(199
▁(20
▁(2003
▁(2003).
▁(2006
▁(2006),
▁(2006).
▁(2007
▁(2007).
▁(201
▁(2010
▁(2010).
▁(2014
▁(2014).
▁(2016).
▁(2017).
▁(2018
▁(2018),
▁(2018).
▁(2019).
▁(India)
▁(India)")
▁(P
▁(PDF
▁(PDF)
▁(PDF).
▁(S
▁([
▁([he
▁([hel
▁([help
▁([help](https://hi.wikipedia.org/wiki/
▁([help](https://hi.wikipedia.org/wiki/श्रेणी:Harv
▁([help](https://hi.wikipedia.org/wiki/श्रेणी:Harv_and
▁([help](https://hi.wikipedia.org/wiki/श्रेणी:Harv_and_S
▁([help](https://hi.wikipedia.org/wiki/श्रेणी:Harv_and_Sfn
▁([help](https://hi.wikipedia.org/wiki/श्रेणी:Harv_and_Sfn_
▁([help](https://hi.wikipedia.org/wiki/श्रेणी:Harv_and_Sfn_templa
▁([help](https://hi.wikipedia.org/wiki/श्रेणी:Harv_and_Sfn_template_
▁([help](https://hi.wikipedia.org/wiki/श्रेणी:Harv_and_Sfn_template_errors
▁([help](https://hi.wikipedia.org/wiki/श्रेणी:Harv_and_Sfn_template_errors?action=edit&redlink=1
▁([help](https://te.wikipedia.org/wiki/
▁([help](https://te.wikipedia.org/wiki/వర్గం:Harv
▁([help](https://te.wikipedia.org/wiki/వర్గం:Harv_and_S
▁([help](https://te.wikipedia.org/wiki/వర్గం:Harv_and_Sfn
▁([help](https://te.wikipedia.org/wiki/వర్గం:Harv_and_Sfn_
▁([help](https://te.wikipedia.org/wiki/వర్గం:Harv_and_Sfn_templa
▁([help](https://te.wikipedia.org/wiki/వర్గం:Harv_and_Sfn_template_
▁([help](https://te.wikipedia.org/wiki/వర్గం:Harv_and_Sfn_template_errors
▁(a)
▁(b)
▁(ed.).
▁(eds.
▁(eds.).
▁(identifier)
▁(identifier)")
▁(identifier)"):
▁(identifier)"):[
▁(identifier)"):[10.
▁(union
▁(क
▁(भारत
▁(भारत)")
▁(సా.శ.
▁(సా.శ.1
▁(సా.శ.10
▁(సా.శ.13
▁(సా.శ.14
▁(సా.శ.15
▁(సా.శ.16
▁(సా.శ.17
▁(సా.శ.6
▁(సా.శ.పూ.
▁(సా.శ.పూ.1200
▁(సా.శ.పూ.1200–సా.శ.పూ.
▁(సా.శ.పూ.300
▁*
▁**
▁**[
▁**·
▁**·**
▁**జాతీయ
▁*A
▁*India
▁*The
▁*[
▁*[A
▁*[E
▁*[The
▁,
▁-
▁--
▁---
▁-15
▁.
▁...
▁./
▁./Category:
▁./Category:Artic
▁./Category:Articles\_containing\_
▁./Category:P
▁./Category:Pages
▁./श्रेणी:
▁./श्रेणी:CS1
▁./श्रेणी:CS1\_
▁./श्रेणी:Harv
▁./श्रेणी:Harv\_
▁./श्रेणी:Harv\_and
▁./श्रेणी:Harv\_and\_
▁./श्रेणी:Harv\_and\_S
▁./श्रेणी:Harv\_and\_Sfn
▁./श्रेणी:Harv\_and\_Sfn\_
▁./श्रेणी:Harv\_and\_Sfn\_no
▁./श्रेणी:Harv\_and\_Sfn\_no-t
▁./श्रेणी:Harv\_and\_Sfn\_no-target
▁./श्रेणी:Harv\_and\_Sfn\_no-target\_errors
▁./श्रेणी:Harv\_and\_Sfn\_no-target\_errors

▁./श्रेणी:Harv\_and\_Sfn\_no-target\_errors
6
▁./श्रेणी:Harv\_and\_Sfn\_no-target\_errors
7
▁./श्रेणी:Harv\_and\_Sfn\_no-target\_errors
8
▁./श्रेणी:जान
▁./श्रेणी:जानकार
▁./श्रेणी:जानकारी
▁./श्रेणी:जानकारीब
▁./श्रेणी:जानकारीबौ
▁./श्रेणी:जानकारीबौक
▁./श्रेणी:जानकारीबौक्स
▁./श्रेणी:जानकारीबौक्स\_देश
▁./श्रेणी:जानकारीबौक्स\_देशमे\_
▁./श्रेणी:जानकारीबौक्स\_देशमे\_अ
▁./श्रेणी:जानकारीबौक्स\_देशमे\_अज्ञ
▁./श्रेणी:जानकारीबौक्स\_देशमे\_अज्ञात
▁./श्रेणी:जानकारीबौक्स\_देशमे\_अज्ञात\_मापदण्ड
▁./श्रेणी:जानकारीबौक्स\_देशमे\_अज्ञात\_मापदण्डसभ
▁./श्रेणी:जानकारीबौक्स\_देशमे\_अज्ञात\_मापदण्डसभ\_सहितक\_पृष्ठसभ#
▁./श्रेणी:जानकारीबौक्स\_देशमे\_अज्ञात\_मापदण्डसभ\_सहितक\_पृष्ठसभ#l
▁./श्रेणी:जानकारीबौक्स\_देशमे\_अज्ञात\_मापदण्डसभ\_सहितक\_पृष्ठसभ#la
▁./श्रेणी:जानकारीबौक्स\_देशमे\_अज्ञात\_मापदण्डसभ\_सहितक\_पृष्ठसभ#lat
▁./श्रेणी:जानकारीबौक्स\_देशमे\_अज्ञात\_मापदण्डसभ\_सहितक\_पृष्ठसभ#long
▁./వర్గం:
▁./వర్గం:Ar
▁./వర్గం:Artic
▁./వర్గం:Harv
▁./వర్గం:Harv\_
▁./వర్గం:Harv\_and
▁./వర్గం:Harv\_and\_
▁./వర్గం:Harv\_and\_S
▁./వర్గం:Harv\_and\_Sfn
▁./వర్గం:Harv\_and\_Sfn\_
▁./వర్గం:Harv\_and\_Sfn\_no
▁./వర్గం:Harv\_and\_Sfn\_no-t
▁./వర్గం:Harv\_and\_Sfn\_no-target
▁./వర్గం:Harv\_and\_Sfn\_no-target\_errors
▁./వర్గం:Harv\_and\_Sfn\_no-target\_errors

▁./వర్గం:P
▁./వర్గం:Pages
▁./వర్గం:Pages\_
▁./వర్గం:Pages\_us
▁./వర్గం:Pages\_using\_
▁./వర్గం:Pages\_using\_infobox\_
▁./వర్గం:Pages\_using\_infobox\_country
▁./వర్గం:Wiki
▁./వర్గం:Wikipedia
▁./వర్గం:Wikipedia\_
▁./వర్గం:Wikipedia\_artic
▁./వర్గం:Wikipedia\_articles\_with\_
▁/
▁0.
▁1
▁1,
▁1.
▁10
▁11
▁12
▁1200
▁13
▁14
▁14.
▁15
▁16
▁17
▁18
▁19
▁1947
▁1949
▁1950
▁1960
▁1962
▁1965
▁197
▁1970
▁1980
▁199
▁1994](https://en.wikipedia.org/wiki/India#CITEREF
▁1994](https://en.wikipedia.org/wiki/India#CITEREFHarle1994
▁1994](https://en.wikipedia.org/wiki/India#CITEREFHarle1994),
▁1997](https://en.wikipedia.org/wiki/India#CITEREF
▁1997](https://en.wikipedia.org/wiki/India#CITEREFCraven1997
▁1997](https://en.wikipedia.org/wiki/India#CITEREFCraven1997),
▁1998
▁1998](https://hi.wikipedia.org/wiki/भारत#CITEREFS
▁1998](https://hi.wikipedia.org/wiki/भारत#CITEREFStein1998
▁1998](https://hi.wikipedia.org/wiki/भारत#CITEREFStein1998),
▁2
▁2,
▁2.
▁20
▁200
▁2000
▁2001
▁2001](https://en.wikipedia.org/wiki/India#CITEREF
▁2003
▁2003](https://en.wikipedia.org/wiki/India#CITEREF
▁2004
▁2004](https://hi.wikipedia.org/wiki/भारत#CITEREF
▁2004](https://hi.wikipedia.org/wiki/भारत#CITEREFKulkeRothermund2004
▁2004](https://hi.wikipedia.org/wiki/भारत#CITEREFKulkeRothermund2004),
▁2005
▁2005](https://en.wikipedia.org/wiki/India#CITEREF
▁2006](https://en.wikipedia.org/wiki/India#CITEREF
▁2006](https://en.wikipedia.org/wiki/India#CITEREFAsherTalbot
▁2006](https://en.wikipedia.org/wiki/India#CITEREFAsherTalbot2006),
▁2006](https://en.wikipedia.org/wiki/India#CITEREFMetcalfMetcalf2006
▁2006](https://en.wikipedia.org/wiki/India#CITEREFMetcalfMetcalf2006),
▁2007
▁2007

▁2007.
▁2007](https://en.wikipedia.org/wiki/India#CITEREF
▁2008
▁2008](https://en.wikipedia.org/wiki/India#CITEREF
▁2008](https://en.wikipedia.org/wiki/India#CITEREFAsherTalbot2008
▁2008](https://en.wikipedia.org/wiki/India#CITEREFAsherTalbot2008),
▁2009
▁2009.
▁2009](https://hi.wikipedia.org/wiki/भारत#CITEREFS
▁2009](https://hi.wikipedia.org/wiki/भारत#CITEREFSingh2009
▁2009](https://hi.wikipedia.org/wiki/भारत#CITEREFSingh2009),
▁201
▁2010
▁2010](https://en.wikipedia.org/wiki/India#CITEREF
▁2010](https://en.wikipedia.org/wiki/India#CITEREFStein2010
▁2010](https://en.wikipedia.org/wiki/India#CITEREFStein2010),
▁2011
▁2011.
▁2011.
-
▁2011](https://en.wikipedia.org/wiki/India#CITEREFR
▁2011](https://en.wikipedia.org/wiki/India#CITEREFRobb2011
▁2011](https://en.wikipedia.org/wiki/India#CITEREFRobb2011),
▁2012
▁2012.
▁2012](https://en.wikipedia.org/wiki/India#CITEREF
▁2012](https://en.wikipedia.org/wiki/India#CITEREFMetcalfMetcalf2012
▁2012](https://en.wikipedia.org/wiki/India#CITEREFMetcalfMetcalf2012),
▁2013
▁2013.
▁2014
▁2014.
▁2014.

▁2014.
1
▁2014](https://en.wikipedia.org/wiki/India#CITEREF
▁2014](https://en.wikipedia.org/wiki/India#CITEREFLudden2014
▁2014](https://en.wikipedia.org/wiki/India#CITEREFLudden2014),
▁2015
▁2015.
▁2016
▁2016.
▁2017
▁2018
▁2018](https://en.wikipedia.org/wiki/India#CITEREF
▁2018](https://en.wikipedia.org/wiki/India#CITEREFDyson2018
▁2018](https://en.wikipedia.org/wiki/India#CITEREFDyson2018),
▁2018](https://en.wikipedia.org/wiki/India#CITEREFFisher2018
▁2018](https://en.wikipedia.org/wiki/India#CITEREFFisher2018),
▁2019
▁2019.
▁2020
▁2020.
▁2021
▁2021.
▁2021.

▁2022
▁2022.

▁2023
▁2023.
▁2023](https://en.wikipedia.org/wiki/India#CITEREF
▁2023](https://en.wikipedia.org/wiki/India#CITEREFDikshitSchwartzberg2023
▁2023](https://en.wikipedia.org/wiki/India#CITEREFDikshitSchwartzberg2023),
▁2024
▁2024.
▁2025
▁2025.
▁2025.

▁2026
▁21
▁22
▁23
▁24
▁25
▁26
▁27
▁28
▁29
▁3
▁3,
▁30
▁31
▁35
▁36
▁4
▁5
▁50
▁6
▁6.
▁7
▁7.
▁70
▁8
▁80
▁9
▁A
▁A.
▁Ac
▁According
▁Act
▁Act,
▁Ad
▁Affairs
▁Afric
▁Africa
▁After
▁Ag
▁Age
▁Agency
▁Al
▁All
▁Although
▁Am
▁Amb
▁An
▁Ap
▁April
▁Ar
▁Arab
▁Archived
▁Art
▁As
▁Asher
▁Asher,
▁Asia
▁Asia")
▁Asian
▁Ass
▁Assembly
▁Association
▁At
▁Aug
▁August
▁B
▁B.
▁B.;
▁BCE
▁BJP
▁BRICS
▁Bangalore
▁Bangladesh
▁Bank
▁Be
▁Before
▁Bengal
▁Bharat
▁Bi
▁Book
▁British
▁Budd
▁Buddha
▁Buddhist
▁By
▁C
▁C.
▁CE
▁CITEREF
▁CITEREFKulkeRothermund2004
▁CITEREFS
▁CITEREFSingh2009
▁CITEREFStein1998
▁Ca
▁Cambridge
▁Carnatic
▁Category:
▁Cather
▁Catherine
▁Caves
▁Census
▁Central
▁Centre
▁Ch
▁Cha
▁Chand
▁China
▁Chinese
▁Civil
▁Civilisation
▁Comm
▁Commission
▁Commissioner
▁Commonwealth
▁Comp
▁Companion
▁Company
▁Con
▁Congress
▁Cons
▁Conservation
▁Constitution
▁Cooperation
▁Council
▁Cyn
▁Cynth
▁Cynthia
▁D
▁D.
▁Dance
▁Data
▁David
▁De
▁December
▁Delhi
▁Desert
▁Development
▁Di
▁Dictionary
▁During
▁Dyson
▁Dyson,
▁E
▁E.
▁East
▁Economic
▁Economy
▁Emer
▁Emergency
▁Emi
▁Emirate
▁Empire
▁Empire")
▁English
▁Environment
▁Europe
▁Europe*](https://books.google.com/books?id=
▁Europe*](https://books.google.com/books?id=ZvaGuaJIJgo
▁Europe*](https://books.google.com/books?id=ZvaGuaJIJgoC&pg=PA
▁European
▁Ex
▁Exchange
▁F
▁February
▁Food
▁Football
▁For
▁Force
▁Francis
▁From
▁Fund
▁G
▁GDP
▁Games
▁Games")
▁Gandhi
▁Ganges
▁Ge
▁General
▁Ghat
▁Government
▁Greek
▁Gu
▁Gujarat
▁H
▁H.
▁Health
▁Hima
▁Himalay
▁Himalayas
▁Hind
▁Hindi
▁Hindu
▁Hinduism
▁Hindus
▁History
▁Home
▁I
▁II
▁In
▁Inc
▁Increas
▁Increase
▁Ind
▁India
▁India")
▁India")


▁India")*.
▁India"),
▁India").
▁India").[[
▁India".
▁India's
▁India*.
▁India*](https://books.google.com/books?id=
▁India,
▁India.
▁India.[[
▁India:
▁India](https://en.wikipedia.org/wiki/C
▁India](https://en.wikipedia.org/wiki/D
▁India](https://en.wikipedia.org/wiki/E
▁India](https://en.wikipedia.org/wiki/G
▁India](https://en.wikipedia.org/wiki/Government_of_India
▁India](https://en.wikipedia.org/wiki/P
▁India](https://en.wikipedia.org/wiki/S
▁Indian
▁Indians
▁Indo-
▁Indus
▁Informatics
▁Intelligence
▁International
▁Island
▁Islands")
▁Islands](https://en.wikipedia.org/wiki/
▁It
▁Its
▁J
▁J.
▁Jain
▁January
▁John
▁Journal
▁July
▁June
▁K
▁K.
▁Kashmir
▁Kingdom
▁L
▁L.
▁Language
▁Lank
▁Law
▁Linguistic
▁List
▁London
▁M
▁M.
▁Ma
▁Machine
▁Mah
▁Man
▁Mana
▁Mar
▁March
▁May
▁Metcalf
▁Michael
▁Middle
▁Min
▁Minister
▁Minorities
▁Minorities,
▁Modern
▁Modi
▁Mon
▁Monetary
▁Movement
▁Mughal
▁Muslim
▁N
▁N.
▁Nadu
▁Nation
▁National
▁Nations
▁Nehru
▁New
▁Nicobar
▁November
▁Nuclear
▁O
▁Ocean
▁Oct
▁October
▁Official
▁Olymp
▁On
▁Organisation
▁Organisation")
▁Organization
▁Oxford
▁P
▁P.
▁Pakistan
▁Park
▁Pe
▁Per
▁Persian
▁Plain
▁Plate
▁Plateau
▁Policy
▁Population
▁Pradesh
▁Pradesh")
▁Pres
▁President
▁Press
▁Press").
▁Press,
▁Press.
▁Press](https://en.wikipedia.org/wiki/
▁Press](https://en.wikipedia.org/wiki/C
▁Press](https://en.wikipedia.org/wiki/Cambridge
▁Press](https://en.wikipedia.org/wiki/Cambridge_University_Press
▁Press](https://en.wikipedia.org/wiki/Oxford
▁Press](https://en.wikipedia.org/wiki/Oxford_University_Press
▁Prin
▁Princ
▁Princet
▁Pro
▁Programme
▁Publ
▁Public
▁Publishing
▁Publishing").
▁Punjab
▁Puran
▁Qu
▁Quote
▁Quote:
▁R
▁R.
▁Ra
▁Raj
▁Re
▁Reg
▁Registrar
▁Religion
▁Report
▁Republic
▁Research
▁Ret
▁Retrie
▁Retrieved
▁Revolution
▁River
▁River"),
▁Rothermund
▁Routledge
▁S
▁S.
▁SAARC
▁SCO
▁Sabha
▁Sanskrit
▁Schedule
▁Schwartzberg
▁Science
▁Se
▁Sea
▁Secret
▁Security
▁September
▁Sfn
▁Sh
▁Shankar
▁Sikh
▁Singh
▁So
▁Society
▁Some
▁South
▁St
▁State
▁States
▁Ste
▁Studies
▁Sub
▁Summit
▁Summit")
▁T
▁T.
▁Talbot
▁Talbot,
▁Tamil
▁Te
▁Temple
▁Territory
▁Th
▁The
▁These
▁This
▁Tho
▁Tim
▁Times
▁Trade
▁U
▁US
▁US$
▁Un
▁Union
▁United
▁University
▁Urdu
▁V
▁V.
▁Valley
▁Ved
▁Vedic
▁Vol
▁W
▁War
▁West
▁Western
▁Wiki
▁Wiley
▁World
▁Y
▁York
▁York:
▁[
▁[![
▁[![A
▁[![The
▁[![](https://upload.wikimedia.org/wikipedia/commons/thumb/
▁[![](https://upload.wikimedia.org/wikipedia/commons/thumb/c/c
▁["
▁["C
▁["G
▁["India
▁["The
▁[*
▁[*A
▁[*C
▁[*H
▁[*India
▁[*P
▁[*The
▁[...]
▁[1
▁[19
▁[1](https://en.wikipedia.org/wiki/India#cite_ref-
▁[1](https://en.wikipedia.org/wiki/India#cite_ref-FOOTNOTE
▁[1](https://hi.wikipedia.org/wiki/भारत#cite_ref-
▁[1](https://te.wikipedia.org/wiki/భారతదేశం#cite_ref-
▁[2
▁[2](https://en.wikipedia.org/wiki/India#cite_ref-
▁[2](https://en.wikipedia.org/wiki/India#cite_ref-FOOTNOTE
▁[2](https://hi.wikipedia.org/wiki/भारत#cite_ref-
▁[2](https://te.wikipedia.org/wiki/భారతదేశం#cite_ref-
▁[3
▁[3](https://en.wikipedia.org/wiki/India#cite_ref-
▁[3](https://en.wikipedia.org/wiki/India#cite_ref-FOOTNOTE
▁[4
▁[978
▁[978-0-
▁[978-0-19
▁[978-0-521
▁[978-0-521-80904-7
▁[978-0-521-80904-7](https://hi.wikipedia.org/wiki/विशेष:पुस्तक_स्रोत/978
▁[978-0-521-80904-7](https://hi.wikipedia.org/wiki/विशेष:पुस्तक_स्रोत/978-0-521-80904-7
▁[978-1
▁[978-81
▁[A
▁[Andaman
▁[Archived
▁[Archived](https://web.archive.org/web/
▁[Archived](https://web.archive.org/web/20
▁[Archived](https://web.archive.org/web/201
▁[Archived](https://web.archive.org/web/20110
▁[Archived](https://web.archive.org/web/20190
▁[Archived](https://web.archive.org/web/20210
▁[Archived](https://web.archive.org/web/2023
▁[Archived](https://web.archive.org/web/20250
▁[Asher
▁[B
▁[BRICS
▁[Bangladesh
▁[Bengal
▁[British
▁[Buddhism
▁[C
▁[Cambridge
▁[Central
▁[Ch
▁[China
▁[China](https://en.wikipedia.org/wiki/C
▁[China](https://en.wikipedia.org/wiki/China
▁[Craven
▁[D
▁[Delhi
▁[Dikshit
▁[Dyson
▁[E
▁[East
▁[European
▁[F
▁[Fisher
▁[G
▁[Ganges
▁[Government
▁[H
▁[Harle
▁[Hinduism
▁[Hinduism](https://en.wikipedia.org/wiki/H
▁[Hinduism](https://en.wikipedia.org/wiki/Hinduism
▁[History
▁[I
▁[ISBN
▁[ISBN](https://en.wikipedia.org/wiki/
▁[ISBN](https://en.wikipedia.org/wiki/ISBN
▁[ISBN](https://en.wikipedia.org/wiki/ISBN_(identifier)
▁[ISBN](https://hi.wikipedia.org/wiki/
▁[ISBN](https://hi.wikipedia.org/wiki/ISBN
▁[ISBN](https://hi.wikipedia.org/wiki/ISBN_(identifier)
▁[In
▁[India
▁[India](https://en.wikipedia.org/wiki/India
▁[India](https://en.wikipedia.org/wiki/India)
▁[Indian
▁[Indo-
▁[Indonesia
▁[Indonesia](https://en.wikipedia.org/wiki/
▁[Indonesia](https://en.wikipedia.org/wiki/Indonesia
▁[Indus
▁[International
▁[Iran
▁[Is
▁[J
▁[K
▁[Kerala
▁[Kulke
▁[L
▁[Ludden
▁[M
▁[Metcalf
▁[Ministry
▁[Mughal
▁[N
▁[National
▁[New
▁[O
▁[Oxford
▁[P
▁[Pakistan
▁[Pakistan](https://en.wikipedia.org/wiki/P
▁[Pakistan](https://en.wikipedia.org/wiki/Pakistan
▁[Pal
▁[R
▁[Re
▁[Robb
▁[Routledge
▁[Routledge](https://en.wikipedia.org/wiki/R
▁[Routledge](https://en.wikipedia.org/wiki/Routledge
▁[Russia
▁[Russia](https://en.wikipedia.org/wiki/Russia
▁[S
▁[SAARC
▁[Singh
▁[South
▁[Sri
▁[State
▁[Stein
▁[T
▁[Tamil
▁[U
▁[United
▁[V
▁[W
▁[West
▁[World
▁[Y
▁[[
▁[c
▁[d
▁[doi
▁[doi](https://en.wikipedia.org/wiki/D
▁[doi](https://en.wikipedia.org/wiki/Doi
▁[doi](https://en.wikipedia.org/wiki/Doi_(identifier)
▁[e
▁[e](
▁[e](Special:EditPage/Template:
▁[e](https://hi.wikipedia.org/wiki/
▁[e](https://hi.wikipedia.org/wiki/विशेष:EditPage/साँचा:
▁[e](https://te.wikipedia.org/wiki/
▁[e](https://te.wikipedia.org/wiki/ప్రత్యేక:EditPage/మూస:
▁[f
▁[g
▁[m
▁[n
▁[p
▁[s
▁[t
▁[t](https://en.wikipedia.org/wiki/T
▁[t](https://en.wikipedia.org/wiki/Temp
▁[t](https://en.wikipedia.org/wiki/Template_
▁[t](https://en.wikipedia.org/wiki/Template_tal
▁[t](https://en.wikipedia.org/wiki/Template_talk:
▁[t](https://hi.wikipedia.org/wiki/साँचा_वार्ता:
▁[t](https://te.wikipedia.org/wiki/మ
▁[t](https://te.wikipedia.org/wiki/మూస
▁[t](https://te.wikipedia.org/wiki/మూస_చ
▁[t](https://te.wikipedia.org/wiki/మూస_చర్చ:
▁[the
▁[v
▁[v](Template:
▁[v](https://hi.wikipedia.org/wiki/साँचा:
▁[v](https://te.wikipedia.org/wiki/మూస:
▁[world
▁[world's
▁[अ
▁[अंग्रेज़
▁[अंग्रेज़ी](https://hi.wikipedia.org/wiki/अ
▁[अंग्रेज़ी](https://hi.wikipedia.org/wiki/अंग्रेज़
▁[अंग्रेज़ी](https://hi.wikipedia.org/wiki/अंग्रेज़ी_भाषा
▁[आ
▁[इ
▁[उ
▁[उत्तर
▁[उर्दू
▁[उर्दू](https://hi.wikipedia.org/wiki/उ
▁[उर्दू](https://hi.wikipedia.org/wiki/उर्दू
▁[ए
▁[ओ
▁[क
▁[का
▁[कु
▁[ख
▁[ग
▁[गुजरात
▁[गुजरात](https://hi.wikipedia.org/wiki/गुजरात
▁[च
▁[ज
▁[ड
▁[तमिल
▁[द
▁[दक्षिण
▁[दिल्ल
▁[दिल्ली](https://hi.wikipedia.org/wiki/दिल्ली
▁[ध
▁[धर्म
▁[न
▁[ना
▁[नेपाल
▁[प
▁[पंजाब
▁[पंजाब](https://hi.wikipedia.org/wiki/पंजाब
▁[पश्चिम
▁[पाकिस्तान
▁[पाकिस्तान](https://hi.wikipedia.org/wiki/पाकिस्तान
▁[पु
▁[पुरालेखित
▁[पुरालेखित](https://web.archive.org/web/201
▁[प्र
▁[ब
▁[बांग्ला
▁[बांग्ला](https://hi.wikipedia.org/wiki/ब
▁[बांग्ला](https://hi.wikipedia.org/wiki/बांग्ला
▁[ब्रिटिश
▁[भारत
▁[भारत](https://hi.wikipedia.org/wiki/भारत
▁[भारत](https://hi.wikipedia.org/wiki/भारत)
▁[भारतीय
▁[म
▁[मध्य
▁[मराठ
▁[महाराष्ट्र
▁[महाराष्ट्र](https://hi.wikipedia.org/wiki/म
▁[महाराष्ट्र](https://hi.wikipedia.org/wiki/महाराष्ट्र
▁[मूल
▁[य
▁[राजस्थान
▁[राजस्थान](https://hi.wikipedia.org/wiki/
▁[राजस्थान](https://hi.wikipedia.org/wiki/राजस्थान
▁[राज्य
▁[राष्ट्रीय
▁[ल
▁[लोक
▁[व
▁[वि
▁[विश्व
▁[श
▁[स
▁[सं
▁[संयुक्त
▁[संस्कृत
▁[सा
▁[सिक्किम
▁[ह
▁[हिन्द
▁[हिन्दी](https://hi.wikipedia.org/wiki/
▁[हिन्दी](https://hi.wikipedia.org/wiki/हिन्दी
▁[हिन्दी](https://mai.wikipedia.org/wiki/
▁[हिन्दी](https://mai.wikipedia.org/wiki/हिन्दी
▁[అ
▁[ఆ
▁[ఇ
▁[ఇండో
▁[ఉ
▁[ఉత్తర
▁[ఒడి
▁[క
▁[కు
▁[గ
▁[గణతంత్ర
▁[గో
▁[చ
▁[చైనా
▁[జ
▁[జన
▁[జమ్మూ
▁[ఢిల్లీ
▁[ఢిల్లీ](https://te.wikipedia.org/wiki/ఢిల్లీ
▁[తమిళనాడు
▁[తూర్పు
▁[దక్షిణ
▁[నేపాల
▁[నేపాల్](https://te.wikipedia.org/wiki/
▁[నేపాల్](https://te.wikipedia.org/wiki/నేపాల్
▁[ప
▁[పశ్చిమ
▁[పా
▁[పాకిస్తాన్
▁[బ
▁[బంగ్లాదేశ్
▁[భారత
▁[భారతదేశ
▁[భారతదేశం
▁[భారతదేశంలో
▁[భారతీయ
▁[భూటాన్
▁[భూటాన్](https://te.wikipedia.org/wiki/
▁[భూటాన్](https://te.wikipedia.org/wiki/భూటాన్
▁[మ
▁[మధ్య
▁[ముంబై
▁[ముంబై](https://te.wikipedia.org/wiki/
▁[ముంబై](https://te.wikipedia.org/wiki/ముంబై
▁[ర
▁[రాష్ట్ర
▁[రాష్ట్రపతి
▁[వ
▁[వి
▁[శ
▁[శ్రీలంక
▁[శ్రీలంక](https://te.wikipedia.org/wiki/
▁[శ్రీలంక](https://te.wikipedia.org/wiki/శ్రీలంక
▁[స
▁[సి
▁[హ
▁[హింద
▁[హిందూ
▁[↑
▁[↑](https://en.wikipedia.org/wiki/India#cite_ref-
▁[↑](https://en.wikipedia.org/wiki/India#cite_ref-3
▁[↑](https://en.wikipedia.org/wiki/India#cite_ref-35
▁[↑](https://en.wikipedia.org/wiki/India#cite_ref-4
▁[↑](https://en.wikipedia.org/wiki/India#cite_ref-Combined
▁[↑](https://en.wikipedia.org/wiki/India#cite_ref-FOOTNOTE
▁[↑](https://en.wikipedia.org/wiki/India#cite_ref-FOOTNOTEB
▁[↑](https://en.wikipedia.org/wiki/India#cite_ref-FOOTNOTECraven1997
▁[↑](https://en.wikipedia.org/wiki/India#cite_ref-FOOTNOTEDikshitSchwartzberg2023
▁[↑](https://en.wikipedia.org/wiki/India#cite_ref-FOOTNOTEHarle1994
▁[↑](https://en.wikipedia.org/wiki/India#cite_ref-FOOTNOTEM
▁[↑](https://en.wikipedia.org/wiki/India#cite_ref-FOOTNOTEMetcalfMetcalf2006
▁[↑](https://en.wikipedia.org/wiki/India#cite_ref-FOOTNOTER
▁[↑](https://en.wikipedia.org/wiki/India#cite_ref-FOOTNOTEStein2010
▁[↑](https://hi.wikipedia.org/wiki/भारत#cite_ref-
▁[↑](https://hi.wikipedia.org/wiki/भारत#cite_ref-1
▁[↑](https://hi.wikipedia.org/wiki/भारत#cite_ref-10
▁[↑](https://hi.wikipedia.org/wiki/भारत#cite_ref-Combined
▁[↑](https://hi.wikipedia.org/wiki/भारत#cite_ref-FOOTNOTE
▁[↑](https://hi.wikipedia.org/wiki/भारत#cite_ref-FOOTNOTESingh2009
▁[↑](https://te.wikipedia.org/wiki/భారతదేశం#cite_ref-
▁`
▁`|
▁a
▁ab
▁about
▁above
▁ac
▁across
▁ad
▁addition
▁administrative
▁adop
▁adopted
▁after
▁ag
▁again
▁ago
▁agriculture
▁air
▁al
▁all
▁along
▁also
▁also:
▁am
▁among
▁an
▁ancient
▁and
▁ani
▁ann
▁any
▁app
▁appe
▁appro
▁approx
▁approxima
▁approximately
▁ar
▁archi
▁architecture
▁are
▁area
▁areas
▁around
▁art
▁artic
▁article:
▁arts
▁as
▁ass
▁astronom
▁at
▁att
▁b
▁band
▁bas
▁based
▁be
▁bec
▁became
▁become
▁been
▁before
▁began
▁being
▁between
▁billion
▁birth
▁bo
▁border
▁both
▁bread
▁bu
▁built
▁but
▁by
▁c
▁c.
▁called
▁can
▁cap
▁capit
▁capita
▁cas
▁caste
▁caus
▁caused
▁census
▁cent
▁central
▁centre
▁centu
▁centuries
▁century
▁century,
▁ch
▁change
▁char
▁ci
▁cities
▁class
▁classical
▁coal
▁coast
▁colle
▁colleges
▁comm
▁common
▁commun
▁comp
▁composed
▁con
▁cons
▁consid
▁constitution
▁consum
▁cont
▁contin
▁continu
▁contrib
▁control
▁coral
▁countries
▁country
▁cre
▁cricket
▁cuisine
▁cultural
▁culture
▁cultures
▁d
▁dance
▁dance")
▁dances
▁de
▁deb
▁dec
▁decad
▁def
▁defe
▁democracy
▁dependencies
▁dependent
▁develo
▁developed
▁development
▁different
▁direct
▁directly
▁dis
▁disc
▁dispu
▁dist
▁diversity
▁division
▁divisions
▁do
▁domestic
▁during
▁dynast
▁dynasty")
▁e
▁each
▁ear
▁earli
▁earliest
▁early
▁east
▁eastern
▁eat
▁eaten
▁economic
▁economy
▁ed.).
▁education
▁election
▁election"),
▁election](https://en.wikipedia.org/wiki/
▁emer
▁emerged
▁empire
▁employ
▁employed
▁en
▁end
▁endangered
▁eng
▁engineering
▁ens
▁enti
▁entire
▁epic
▁er
▁error
▁error:
▁errors
▁errors"))

▁es
▁especial
▁especially
▁establish
▁estima
▁estimate
▁et
▁even
▁ex
▁exp
▁expectancy
▁ext
▁f
▁families
▁far
▁feat
▁festival
▁fig
▁first
▁fl
▁flow
▁fol
▁following
▁for
▁forest
▁form
▁formal
▁found
▁four
▁from
▁ful
▁further
▁g
▁gar
▁ge
▁gen
▁general
▁government
▁grad
▁gre
▁grew
▁groups
▁growing
▁growth
▁h
▁had
▁hand
▁has
▁have
▁he
▁held
▁her
▁hered
▁high
▁highest
▁his
▁hist
▁historical
▁history
▁house
▁however,
▁hum
▁human
▁humans
▁im
▁imp
▁import
▁in
▁inc
▁includ
▁include
▁including
▁increas
▁increased
▁ind
▁independence
▁industry
▁inequality
▁inf
▁influ
▁influen
▁influences
▁ins
▁institution
▁inte
▁inter
▁into
▁is
▁it
▁its
▁j
▁jur
▁just
▁k
▁kingdom
▁km
▁km2
▁known
▁l
▁la
▁land
▁language
▁language")
▁language"),
▁languages
▁languages")
▁large
▁largest
▁last
▁later
▁later,
▁law
▁le
▁lead
▁leading
▁led
▁left
▁leg
▁legis
▁li
▁life
▁like
▁lim
▁lite
▁literacy
▁lo
▁local
▁long
▁longer
▁low
▁lower
▁m
▁ma
▁made
▁main
▁maint:
▁maj
▁major
▁majority
▁man
▁many
▁mar
▁mark
▁market
▁mathema
▁mathematic
▁may
▁me
▁medieval
▁member
▁members
▁men
▁met
▁mi
▁mi)
▁middle
▁mil
▁military
▁milk
▁millennium
▁million
▁minister
▁mo
▁modern
▁more
▁most
▁mountain
▁movement
▁much
▁music
▁music")
▁n
▁name
▁nation
▁national
▁ne
▁near
▁net
▁new
▁no
▁non-
▁nor
▁north
▁northern
▁not
▁now
▁nuclear
▁number
▁numbers
▁ob
▁oc
▁occ
▁occup
▁of
▁off
▁official
▁oft
▁often
▁old
▁oldest
▁on
▁one
▁only
▁op
▁or
▁orig
▁original
▁original](http://
▁original](http://www.
▁original](https://
▁original](https://www.
▁other
▁out
▁over
▁p
▁p.
▁painting
▁paper
▁par
▁parliamentary
▁part
▁parties
▁party
▁pe
▁penins
▁peninsular
▁people
▁peoples
▁per
▁period
▁pilgrim
▁pla
▁plain
▁plate
▁play
▁player
▁poli
▁policy
▁political
▁poll
▁pop
▁popular
▁population
▁power
▁pp.
▁prac
▁practices
▁pre
▁pred
▁pri
▁prime
▁prin
▁pro
▁prob
▁produc
▁producer
▁prom
▁prov
▁qu
▁r
▁ra
▁range
▁rate
▁re
▁rec
▁recogn
▁record
▁ref
▁refer
▁refor
▁reg
▁regard
▁region
▁regional
▁regions
▁relation
▁relations
▁relief
▁religion
▁religious
▁rema
▁remain
▁rep
▁report
▁republic
▁res
▁result
▁ri
▁right
▁rights
▁rise
▁river
▁ro
▁rock
▁ru
▁rul
▁rule
▁rupee
▁rural
▁s
▁same
▁sc
▁school
▁science
▁se
▁second
▁sector
▁series
▁served
▁set
▁sett
▁sever
▁sfn
▁sh
▁shar
▁sign
▁signific
▁significant
▁sim
▁simil
▁similar
▁since
▁six
▁siz
▁size
▁small
▁so
▁social
▁some
▁sou
▁south
▁southern
▁sp
▁spe
▁speak
▁speakers
▁species
▁spread
▁sq
▁st
▁stat
▁state
▁states
▁status
▁ste
▁str
▁sty
▁su
▁sub
▁subcontinent
▁subcontinent")
▁such
▁sultanate
▁summit
▁summit")
▁summits")
▁sup
▁supp
▁support
▁sur
▁surr
▁system
▁t
▁tal
▁talk:
▁target
▁target:
▁te
▁tea
▁technology
▁templa
▁template
▁ter
▁term
▁territ
▁territories
▁territory
▁territory)")
▁test
▁tex
▁texts
▁th
▁than
▁that
▁the
▁their
▁them
▁there
▁these
▁they
▁third
▁this
▁those
▁though
▁thought
▁three
▁through
▁ti
▁time
▁times
▁to
▁today
▁top
▁topic
▁topics")
▁total
▁trade
▁tradition
▁traditional
▁trans
▁transmitt
▁tree
▁trib
▁turn
▁tw
▁two
▁un
▁und
▁under
▁union
▁until
▁up
▁upper
▁urban
▁us
▁use
▁used
▁v
▁vari
▁ve
▁veget
▁vegetar
▁vegetarian
▁very
▁vict
▁villa
▁village
▁vis
▁w
▁war
▁was
▁we
▁web
▁well
▁were
▁western
▁wh
▁what
▁when
▁where
▁whi
▁which
▁who
▁whose
▁wi
▁wide
▁widely
▁win
▁with
▁within
▁women
▁won
▁work
▁workforce
▁world
▁world's
▁would
▁x
▁y
▁year
▁years
▁z
▁zone
▁|
▁|

▁|


▁|
|
▁°
▁·
▁अ
▁अग
▁अगस्त
▁अछ
▁अछि
▁अधिक
▁अधिकार
▁अधिराज्य
▁अन
▁अनु
▁अनुसंधान
▁अनुसार
▁अन्त
▁अन्य
▁अप
▁अपना
▁अपनी
▁अपने
▁अप्र
▁अप्रैल
▁अब
▁अभ
▁अभि
▁अभिगमन
▁अभियान
▁अभी
▁अमीरात
▁अमेर
▁अमेरिका
▁अरब
▁अर्थव्यवस्था
▁अलग
▁अलावा
▁अव
▁आ
▁आंद
▁आक
▁आद
▁आदि
▁आधार
▁आधिकारिक
▁आधुनिक
▁आन्द
▁आप
▁आय
▁आया
▁आयुक्त
▁आर
▁आर्थिक
▁आ॔
▁इ
▁इंडिया
▁इतिहास
▁इतिहास")
▁इन
▁इलाका
▁इस
▁इसकी
▁इसके
▁इसी
▁ई
▁ईसा
▁उ
▁उच्च
▁उत्तर
▁उत्तर-प
▁उत्पाद
▁उद्यान
▁उद्यान")
▁उद्योग
▁उन
▁उन्
▁उप
▁उपमहाद्वीप
▁उस
▁ऊ
▁ऊर्जा
▁ए
▁एक
▁एवं
▁एशिया
▁एशिया")
▁ऐ
▁ऑ
▁ऑफ
▁ओ
▁ओर
▁औ
▁और
▁औसत
▁क
▁कंपन
▁कई
▁कए
▁कएल
▁कम
▁कर
▁करता
▁करते
▁करना
▁करने
▁करोड़
▁कर्ज
▁कश्मीर
▁कह
▁का
▁काम
▁कार
▁कारण
▁कार्य
▁काल
▁कि
▁किन्तु
▁किया
▁किया।
▁किया।[[
▁किला
▁की
▁की।
▁कु
▁कुछ
▁कुल
▁के
▁कें
▁केंद्र
▁केन्द्र
▁कॉ
▁कॉंग्रेस
▁को
▁कोर
▁क्रांति
▁क्षेत्र
▁क्षेत्र")
▁क्षेत्र,
▁क्षेत्रीय
▁क्षेत्रों
▁ख
▁खाना
▁खाना")
▁खास
▁ग
▁गई
▁गए
▁गठ
▁गठबंधन
▁गण
▁गणतन्त्र
▁गणराज्य
▁गति
▁गया
▁गया।
▁गया।[[
▁गान
▁गु
▁गुफाएं
▁गेल
▁घ
▁घरेलू
▁घाट
▁घाटी
▁घोष
▁च
▁चल
▁चार
▁चु
▁चुनाव
▁चुनावों
▁छ
▁ज
▁जन
▁जनगणना
▁जनजाति
▁जनता
▁जनवरी
▁जनसंख्या
▁जनसङ्ख्या
▁जब
▁जबकि
▁जय
▁जयते
▁जल
▁जलवायु
▁जलो
▁जलोढ़
▁जहाँ
▁ज़
▁जा
▁जाता
▁जाती
▁जाते
▁जाना
▁जिन
▁जिनमें
▁जिन्
▁जिस
▁जिसके
▁जिसमें
▁जी
▁जीवन
▁जु
▁जुलाई
▁जून
▁जै
▁जो
▁ट
▁ड
▁डॉल
▁डॉलर
▁ढ
▁त
▁तक
▁तट
▁तटीय
▁तथा
▁ताप
▁ति
▁तिथ
▁तिथि
▁तिथि:
▁ती
▁तीन
▁तीस
▁तुल
▁तुलना
▁तो
▁थ
▁था
▁था,
▁था।
▁थी
▁थी।
▁थे
▁द
▁दक्षिण
▁दर
▁दर्
▁दशक
▁दिया
▁दिस
▁दिसंबर
▁दिसम्बर
▁दी
▁दृ
▁दृश्य
▁दृष्ट
▁दृष्टि
▁दे
▁देख
▁देखा
▁देव
▁देश
▁देश")
▁देशों
▁दो
▁दोन
▁दोनों
▁द्वार
▁द्वारा
▁द्वीप
▁द्वीपसमूह
▁ध
▁धरोहर
▁धर्म
▁धर्म")
▁धीरे
▁न
▁नगर
▁नद
▁नदियाँ
▁नव
▁नहीं
▁ना
▁नागर
▁नाम
▁नि
▁निभा
▁निभाई
▁निय
▁निर
▁निर्
▁निर्भर
▁निर्माण
▁नी
▁नीति
▁नृत्य
▁ने
▁नेतृत
▁नेतृत्व
▁नौसेना
▁न्या
▁न्यायाधीश
▁न्यायालय
▁प
▁पड़
▁पड़ो
▁पड़ोसी
▁पत्र
▁पब्ल
▁पर
▁परंपरा
▁परमाणु
▁परि
▁परीक्षण
▁पर्यटन
▁पर्यटन")
▁पर्वत
▁पश्चिम
▁पह
▁पहले
▁पहा
▁पहि
▁पहिन
▁पहु
▁पहुँच
▁पा
▁पाकिस्तान
▁पार्ट
▁पार्टी
▁पी
▁पु
▁पुरा
▁पुरालेखित
▁पुरालेखित।
▁पुरालेखित।,
▁पुरालेखित।.
▁पुलिस
▁पू
▁पूर्व
▁पूर्वी
▁पै
▁पैघ
▁प्र
▁प्रकार
▁प्रण
▁प्रति
▁प्रतिशत
▁प्रत्य
▁प्रदेश
▁प्रदेश")
▁प्रदेश](https://hi.wikipedia.org/wiki/मध्य
▁प्रदेश](https://hi.wikipedia.org/wiki/मध्य_प्रदेश
▁प्रधानमंत्री
▁प्रभा
▁प्रभाव
▁प्रमाण
▁प्रमुख
▁प्रया
▁प्रयास
▁प्रशास
▁प्रस
▁प्रा
▁प्राचीन
▁प्राप्त
▁प्रारम्भ
▁प्रेस
▁प्रौद्योगिक
▁प्लेट
▁फ
▁फ़रवरी
▁फै
▁ब
▁बंगाल
▁बड़ा
▁बड़ी
▁बड़े
▁बढ़
▁बन
▁बना
▁बनाने
▁बनी
▁बने
▁बल
▁बह
▁बहु
▁बहुत
▁बहुमत
▁बा
▁बाद
▁बार
▁बी
▁बीच
▁बै
▁बैंक
▁बौद्ध
▁ब्यूरो
▁ब्रिटिश
▁भ
▁भा
▁भाग
▁भाजपा
▁भारत
▁भारत")
▁भारतक
▁भारतीय
▁भाषा
▁भाषा")
▁भाषाएँ
▁भाषाएं
▁भाषाओं
▁भी
▁भू
▁भूगोल
▁भूम
▁भूमि
▁भूमिका
▁भेल
▁म
▁मंत्र
▁मंदिर
▁मंदिर")
▁मई
▁मध्य
▁मन
▁मन्दिर
▁मशीन
▁मह
▁महा
▁महारजिस्ट्रार
▁महासागर
▁मा
▁माध्यम
▁मान
▁मानचित्र
▁मानव
▁मानसून
▁माना
▁मान्यता
▁मार
▁मार्च
▁मिल
▁मिला
▁मील
▁मु
▁मुख
▁मुख्य
▁मूल
▁मे
▁में
▁में).
▁में,
▁मेला
▁मेला")
▁मेला"),
▁मेला](https://hi.wikipedia.org/wiki/
▁मैदान
▁मो
▁मौ
▁मौसम
▁य
▁यह
▁या
▁यु
▁युग
▁युद्ध
▁यूनिवर्सिट
▁यूनिवर्सिटी
▁र
▁रक्षा
▁रह
▁रहल
▁रहा
▁रहे
▁रा
▁राज
▁राजधान
▁राजनी
▁राजनीति
▁राजनीतिक
▁राजवंश
▁राजवंश")
▁राज्य
▁राज्य")
▁राज्यक्षेत्र
▁राज्यक्षेत्र")
▁राज्यों
▁राष्ट्र
▁राष्ट्रीय
▁रूप
▁ल
▁लग
▁लगभग
▁ला
▁लाख
▁लि
▁लिए
▁लिया
▁लिये
▁ले
▁लेकर
▁लेख
▁लेख:
▁लेल
▁लोक
▁लोग
▁व
▁वर्
▁वर्ग
▁वर्ण
▁वर्त
▁वर्तमान
▁वर्ष
▁वर्षा
▁वर्षों
▁वा
▁वायु
▁वार
▁वार्ता:
▁वार्ष
▁वार्षिक
▁वाला
▁वि
▁विक
▁विकास
▁विज्ञान
▁विदेश
▁विदेशी
▁विभाग
▁विभाजन
▁विभिन्न
▁विवाद
▁विश्व
▁विषय
▁विस्त
▁विस्तृत
▁वीं
▁वृद्ध
▁वृद्धि
▁व्य
▁व्यक्ति
▁व्यवस्था
▁व्या
▁व्यापार
▁श
▁शक्ति
▁शक्तिपीठ
▁शताब्
▁शताब्दी
▁शहर
▁शा
▁शांति
▁शास
▁शासन
▁शासित
▁शिक्षा
▁शु
▁शुरू
▁स
▁सँ
▁सं
▁संख्या
▁संग
▁संगीत
▁संग्रा
▁संघ
▁संघर्ष
▁संबंध
▁संयुक्त
▁संविधान
▁संसद
▁संस्कृत
▁संस्कृति
▁संस्थान
▁सक
▁सङ्घ
▁सद
▁सदस
▁सन्
▁सबसे
▁सभ
▁सभा
▁सभ्यता
▁सम
▁समय
▁समर्थ
▁समर्थन
▁समा
▁समाज
▁समान
▁समाप्त
▁समूह
▁सम्प
▁सरकार
▁सर्वोच्च
▁सल्तनत
▁सश
▁सह
▁सहयोग
▁सहाय
▁सहायक
▁सा
▁साक्षरता
▁सागर
▁साथ
▁साम्राज्य
▁साम्राज्य")
▁साल
▁सि
▁सिंह
▁सित
▁सितंबर
▁सिनेमा
▁सिनेमा"),
▁सीमा
▁सु
▁सुधार
▁सुरक्षा
▁सूच
▁सूचना
▁सूचना-विज्ञान
▁सूची
▁सूची")
▁सूची"))
▁सूर
▁से
▁से](http://
▁से](http://www.
▁से](https://
▁सेना
▁सेवा
▁सैन
▁सैन्य
▁स्
▁स्ट
▁स्त
▁स्तर
▁स्थ
▁स्था
▁स्थान
▁स्थाप
▁स्थापना
▁स्थित
▁स्रोत/978
▁स्रोत/978-0-521-80904-7
▁स्रोत/978-1
▁स्व
▁स्वतंत्रता
▁ह
▁हथियार
▁हर
▁हरिय
▁हरियर
▁हव
▁हाला
▁हालाँकि
▁हि
▁हिन्द
▁हिन्दी
▁हिमालय
▁हिल
▁हिल्स
▁हिस्
▁ही
▁हु
▁हुआ
▁हुआ।
▁हुई
▁हुए
▁है
▁है,
▁हैं
▁हैं,
▁हैं।
▁है।
▁है।


▁है।[[
▁हो
▁होत
▁होता
▁होती
▁होते
▁।
▁१
▁१२
▁१३
▁१५
▁१९
▁१९६
▁१९७
▁१९८
▁१९९
▁२
▁२००
▁२०१
▁२०११
▁३
▁५
▁६
▁७
▁८
▁९
▁అ
▁అతి
▁అత్య
▁అత్యధిక
▁అధిక
▁అధికార
▁అధికారిక
▁అని
▁అను
▁అనే
▁అనేక
▁అభి
▁అభివ
▁అభివృద్ధి
▁అయ
▁అయిన
▁అర
▁ఆ
▁ఆకు
▁ఆకుప
▁ఆకుపచ్చ
▁ఆధ
▁ఆధార
▁ఆధీన
▁ఆధీనంలో
▁ఆఫ్
▁ఆర్
▁ఆర్కైవు
▁ఆర్థ
▁ఆర్ధిక
▁ఆసియా
▁ఇ
▁ఇండియా
▁ఇండో
▁ఇండో–
▁ఇతర
▁ఇది
▁ఇవ
▁ఈ
▁ఉ
▁ఉంట
▁ఉంటాయి.
▁ఉంది.
▁ఉత్తర
▁ఉత్తరా
▁ఉన్న
▁ఉన్నాయి.
▁ఉప
▁ఉపఖండ
▁ఎ
▁ఎక్కువ
▁ఎక్కువగా
▁ఎక్స్
▁ఎన్
▁ఎన్నిక
▁ఎన్ను
▁ఎన్నో
▁ఏ
▁ఏర్
▁ఏర్ప
▁ఐ
▁ఒ
▁ఒక
▁ఒకటి
▁ఒరిజ
▁ఒరిజిన
▁ఒరిజినల్
▁క
▁కంట
▁కంపెనీ
▁కనుమ
▁కలి
▁కలిగి
▁కా
▁కాంగ్రె
▁కాంగ్రెసు
▁కార
▁కారణంగా
▁కార్య
▁కాల
▁కాలంలో
▁కాశ్మీ
▁కాశ్మీరు
▁కి
▁కింగ్
▁కు
▁కుటుంబ
▁కూ
▁కూడా
▁కూడిన
▁కే
▁కేంద్ర
▁కేంద్రపాలిత
▁కేవ
▁కేవలం
▁కొ
▁కొరియా
▁కో
▁కోట్
▁కోర్
▁కోర్టు
▁క్యాలె
▁క్రీ
▁క్రీ.శ.
▁క్రీ.శ.)
▁క్రీడ
▁ఖ
▁గ
▁గణ
▁గల
▁గా
▁గాంధీ
▁గాంధీ")
▁గుర్
▁గుర్తి
▁ఘ
▁చ
▁చరిత్ర
▁చరిత్ర")
▁చరిత్ర](https://te.wikipedia.org/wiki/భారతదేశ
▁చర్చ:
▁చి
▁చిత్ర
▁చిన్న
▁చిహ్
▁చూ
▁చూసిన
▁చె
▁చెంద
▁చెందిన
▁చెందు
▁చెందుతున్న
▁చెయ్య
▁చెయ్యబడింది.
▁చే
▁చేయ
▁చేసింది.
▁జ
▁జంత
▁జంతువు
▁జంబ
▁జంబూ
▁జన
▁జనాభా
▁జన్
▁జన్మ
▁జయ
▁జరి
▁జరిగ
▁జరిగిన
▁జరుపు
▁జరుపుకు
▁జా
▁జాతీయ
▁జాబితా
▁జాబితా")
▁జాబితా")
-
▁ట
▁టెక్నాలజీ
▁టెక్నాలజీ](https://te.wikipedia.org/wiki/ఇ
▁టెక్నాలజీ](https://te.wikipedia.org/wiki/ఇన్‌ఫర్మేషన్
▁టెక్నాలజీ](https://te.wikipedia.org/wiki/ఇన్‌ఫర్మేషన్_
▁టెక్నాలజీ](https://te.wikipedia.org/wiki/ఇన్‌ఫర్మేషన్_టెక్నాలజీ
▁టెక్నాలజీ](https://te.wikipedia.org/wiki/ఇన్‌ఫర్మేషన్_టెక్నాలజీ?action=edit&redlink=1
▁టై
▁డ
▁డయ్యూ
▁డామన్
▁డాల
▁డాలర్లు
▁త
▁తన
▁తమిళ
▁తర
▁తరువా
▁తరువాత
▁తలస
▁తలసరి
▁తి
▁తిరుగుబాటు
▁తె
▁తే
▁తేదీ
▁తేదీ:
▁ద
▁దక్షిణ
▁దక్షిణాన
▁దక్షిణాసియా
▁దా
▁దాదా
▁దాదాపు
▁దినోత్స
▁దినోత్సవ
▁దినోత్సవం")
▁దీవ
▁దేశ
▁దేశం
▁దేశం
-
▁దేశం.
▁దేశంగా
▁దేశంలో
▁దేశంలోని
▁దేశము
▁దేశానికి
▁దేశాల
▁దేశాలలో
▁దేశాలు")
▁ద్
▁ద్వార
▁ద్వారా
▁ద్వీ
▁ద్వీప
▁ధ
▁న
▁నగర
▁నడిప
▁నడిపించ
▁నది
▁నది"),
▁నలుపు
▁నాగరికత
▁నాలు
▁ని
▁నికోబార్
▁నిర్
▁నిర్మించ
▁నిర్వ
▁నిర్వహ
▁నిర్వహణ
▁ను
▁నుంచి
▁నుండి
▁నెహ
▁నే
▁నేషన్
▁న్యాయ
▁ప
▁పంచ
▁పండు
▁పక్ష
▁పట
▁పట్ట
▁పట్టణ
▁పతక
▁పతాక
▁పద
▁పద్ధ
▁పద్ధతి
▁పర
▁పరంగా
▁పరి
▁పరిపాలన
▁పరిశ్రమ
▁పరిశ్రమలు
▁పరీక్ష
▁పర్వ
▁పశ్చిమ
▁పా
▁పాకిస్తాన్
▁పాక్
▁పాత్ర
▁పార్టీ
▁పాల
▁పాలన
▁పీఠ
▁పీఠభూ
▁పు
▁పుట్ట
▁పుట్టుపూర్వోత్తర
▁పురు
▁పూ
▁పూర్
▁పెద్ద
▁పే
▁పేజీ
▁పేజీని
▁పేరు
▁పేర్కొ
▁పేర్లు
▁పై
▁పైగా
▁పొ
▁పొందిన
▁పో
▁ప్
▁ప్ర
▁ప్రకారం
▁ప్రజ
▁ప్రజల
▁ప్రజలు
▁ప్రజా
▁ప్రజాద
▁ప్రజాదరణ
▁ప్రజాస్వామ్య
▁ప్రతి
▁ప్రతిపా
▁ప్రతిపాద
▁ప్రదేశ్
▁ప్రదేశ్")
▁ప్రదేశ్](https://te.wikipedia.org/wiki/
▁ప్రదేశ్](https://te.wikipedia.org/wiki/అ
▁ప్రదేశ్](https://te.wikipedia.org/wiki/అరుణాచల్
▁ప్రదేశ్](https://te.wikipedia.org/wiki/అరుణాచల్_ప్రదేశ్
▁ప్రదేశ్](https://te.wikipedia.org/wiki/ఉత్తర
▁ప్రదేశ్](https://te.wikipedia.org/wiki/ఉత్తర_ప్రదేశ్
▁ప్రదేశ్](https://te.wikipedia.org/wiki/హిమాచల్
▁ప్రదేశ్](https://te.wikipedia.org/wiki/హిమాచల్_ప్రదేశ్
▁ప్రధాన
▁ప్రపంచ
▁ప్రపంచంలో
▁ప్రభ
▁ప్రభు
▁ప్రభుత్
▁ప్రభుత్వ
▁ప్రభుత్వం
▁ప్రము
▁ప్రముఖ
▁ప్రస్తు
▁ప్రస్తుతం
▁ప్రా
▁ప్రాంత
▁ప్రాంతం
▁ప్రాంతాల
▁ప్రాంతాలు
▁ప్రాంతాలు")
▁ప్రాంతాలు](https://te.wikipedia.org/wiki/
▁ప్రాంతాలు](https://te.wikipedia.org/wiki/భారతదేశ_రాష్ట్రాలు,_కేంద్రపాలిత_ప్రాంతాలు
▁ప్రాంతీయ
▁ప్రాచ
▁ప్రాచీన
▁ప్రారం
▁ప్రారంభ
▁ప్ల
▁ఫ
▁ఫై
▁బ
▁బహు
▁బహుళ
▁బా
▁బాం
▁బి
▁బె
▁బెంగ
▁బెంగాల్
▁బ్రిటిష్
▁భ
▁భా
▁భాగ
▁భారత
▁భారతదేశ
▁భారతదేశం
▁భారతదేశం")
▁భారతదేశంలో
▁భారతదేశపు
▁భారతదేశానికి
▁భారతీయ
▁భారత్
▁భావి
▁భాష
▁భాష")
▁భాషలు
▁భూ
▁భౌ
▁మ
▁మం
▁మంది
▁మత
▁మతం
▁మతం")
▁మతము
▁మతము")
▁మతము"),
▁మతాల
▁మధ్య
▁మన
▁మహాసముద్ర
▁మహి
▁మా
▁మాట్లాడే
▁మాతర
▁మాత్ర
▁మాత్రం
▁మార
▁మార్
▁మార్గ
▁మార్గాలు
▁మార్గాలు


▁ము
▁ముఖ్య
▁ముఖ్యమైన
▁మూ
▁మూడు
▁మై
▁మొ
▁మొట్ట
▁మొట్టమ
▁మొట్టమొ
▁మొట్టమొద
▁మొట్టమొదటి
▁మొత్
▁మొత్తం
▁మొద
▁మొదటి
▁మొదల
▁మొదలైన
▁యు
▁యుగం
▁యుద్ధం
▁ర
▁రంగ
▁రకాల
▁రవాణా
▁రహదార
▁రహదారులు"),
▁రహదారులు](https://te.wikipedia.org/wiki/
▁రా
▁రాజ
▁రాజకీయ
▁రాజవంశ
▁రాజవంశం
▁రాజవంశం")
▁రాజు
▁రాజ్య
▁రాజ్యం
▁రాజ్యం](https://te.wikipedia.org/wiki/
▁రాజ్యాంగ
▁రాజ్యాలు
▁రాష్ట్ర
▁రాష్ట్రపతి
▁రాష్ట్రాల
▁రాష్ట్రాలు
▁రాష్ట్రాలు,
▁రూపా
▁రె
▁రెండు
▁రే
▁రై
▁రైలు
▁రైల్వే
▁రైళ్
▁రైళ్లను
▁రో
▁రోడ్
▁రోడ్డు
▁ల
▁లక్ష
▁లే
▁లేదా
▁లేని
▁లో
▁లోని
▁లోయ
▁వ
▁వంట
▁వంటి
▁వంశ
▁వంశం")
▁వచ్చ
▁వచ్చింది.
▁వచ్చిన
▁వర్
▁వర్గ
▁వహ
▁వా
▁వాణి
▁వాణిజ్య
▁వాతావరణ
▁వాతావరణం")
▁వాతావరణం](https://te.wikipedia.org/wiki/
▁వారస
▁వారసత్వ
▁వి
▁విభ
▁విభజన
▁వివర
▁వివి
▁వివిధ
▁విశ
▁విస్త
▁విస్తీర్ణ
▁వీ
▁వీటిలో
▁వు
▁వుంటుంది.
▁వె
▁వెబ్
▁వెబ్‌స
▁వెబ్‌సై
▁వెబ్‌సైటు
▁వెబ్‌సైటు](http://
▁వే
▁వేగంగా
▁వేల
▁వై
▁వైవి
▁వైవిధ్య
▁వ్యవస్థ
▁వ్యవస్థలో
▁వ్యా
▁వ్యాప
▁వ్యాపార
▁వ్యాస
▁వ్యాసం:
▁శ
▁శతాబ్ద
▁శతాబ్దం](https://te.wikipedia.org/wiki/క
▁శతాబ్దం](https://te.wikipedia.org/wiki/క్రీ.పూ.
▁శా
▁శాఖ
▁శాస
▁శాసన
▁శాస్త్ర
▁శాస్త్రం](https://te.wikipedia.org/wiki/భారతీయ
▁శాస్త్రీయ
▁శెలవుదిన
▁శ్రీ
▁స
▁సం
▁సంఖ్య
▁సంగీ
▁సంగీతం
▁సంగీతం")
▁సంఘ
▁సంప్రదాయాలు
▁సంబంధ
▁సంవ
▁సంవత్స
▁సంవత్సర
▁సంస్కరణ
▁సంస్కృతి
▁సంస్థ
▁సభ
▁సభ్య
▁సమర
▁సమా
▁సమాఖ్య
▁సముద్ర
▁సరిహద్దు
▁సరిహద్దుగా
▁సర్వ
▁సర్వీ
▁సర్వీస
▁సర్వీసులు
▁సా
▁సాం
▁సాంప్రదాయ
▁సాంప్రదాయిక
▁సాంస్కృతి
▁సాంస్కృతిక
▁సాధ
▁సాధించ
▁సామ
▁సామా
▁సామాను
▁సామ్రాజ్య
▁సామ్రాజ్యం
▁సామ్రాజ్యం")
▁సామ్రాజ్యం](https://te.wikipedia.org/wiki/
▁సామ్రాజ్యం](https://te.wikipedia.org/wiki/మ
▁సామ్రాజ్యము
▁సామ్రాజ్యము")
▁సార
▁సార్
▁సార్వత్రిక
▁సి
▁సింధ
▁సినిమా
▁సిలోన్
▁సుల్తాన
▁సూచ
▁సైనిక
▁సౌక
▁సౌకర్య
▁స్
▁స్టాక్
▁స్థ
▁స్థా
▁స్థాన
▁స్థానం
▁స్థానంలో
▁స్థాయి
▁స్థి
▁స్వ
▁స్వతంత్ర
▁స్వాతంత్ర్య
▁స్వాతంత్ర్యం
▁హ
▁హర
▁హరప్
▁హరప్పా
▁హవేలీ
▁హవేలీ,
▁హిందూ
▁–
▁–సా.శ.
▁—
▁•
﻿