{
  "version": "1.0",
  "truncation": null,
  "padding": null,
  "added_tokens": [],
  "normalizer": null,
  "pre_tokenizer": {
    "type": "WhitespaceSplit"
  },
  "post_processor": null,
  "decoder": null,
  "model": {
    "type": "BPE",
    "dropout": null,
    "unk_token": "[UNK]",
    "continuing_subword_prefix": null,
    "end_of_word_suffix": null,
    "fuse_unk": false,
    "byte_fallback": false,
    "ignore_merges": false,
    "vocab": {
      "[UNK]": 0,
      "\"": 1,
      "\")": 2,
      "\",": 3,
      "\".": 4,
      "\"A": 5,
      "\"India": 6,
      "\"Min": 7,
      "\"bro": 8,
      "\"down": 9,
      "\"national": 10,
      "\"no": 11,
      "\"official": 12,
      "\"p": 13,
      "\"pro": 14,
      "\"river,": 15,
      "\"scheduled": 16,
      "\"the": 17,
      "\"untouch": 18,
      "\"గ": 19,
      "\"భ": 20,
      "\"భర": 21,
      "\"భారతదేశం": 22,
      "$": 23,
      "%": 24,
      "%),": 25,
      "%,": 26,
      "%.": 27,
      "&": 28,
      "'": 29,
      "''": 30,
      "'s": 31,
      "'the": 32,
      "(": 33,
      "(\"": 34,
      "(\".": 35,
      "('": 36,
      "(/": 37,
      "(0,": 38,
      "(0.": 39,
      "(0.36%": 40,
      "(0.9%": 41,
      "(1,": 42,
      "(1.3": 43,
      "(17.": 44,
      "(1967": 45,
      "(199": 46,
      "(1991": 47,
      "(2": 48,
      "(2)": 49,
      "(2004": 50,
      "(3,": 51,
      "(3.": 52,
      "(4,": 53,
      "(400": 54,
      "(5.": 55,
      "(8.": 56,
      "(Ar": 57,
      "(Artic": 58,
      "(BJP": 59,
      "(CEE": 60,
      "(GDP": 61,
      "(Indian": 62,
      "(NDA": 63,
      "(PP": 64,
      "(Par": 65,
      "(UPA": 66,
      "(US$": 67,
      "(WHO": 68,
      "([": 69,
      "(a": 70,
      "(after": 71,
      "(al": 72,
      "(an": 73,
      "(c": 74,
      "(c.": 75,
      "(el": 76,
      "(i": 77,
      "(i)": 78,
      "(ii": 79,
      "(ii)": 80,
      "(including": 81,
      "(liter": 82,
      "(or": 83,
      "(present": 84,
      "(sine": 85,
      "(ఇదే": 86,
      "(ఉ": 87,
      "(గి": 88,
      "(ట": 89,
      "(తా": 90,
      "(బ": 91,
      "(భారత": 92,
      "(య": 93,
      "(ర": 94,
      "(వె": 95,
      "(వెనుక": 96,
      "(వెనుకటి": 97,
      "(శక": 98,
      "(సా": 99,
      "(Ἰ": 100,
      "(Ἰνδ": 101,
      ")": 102,
      "),": 103,
      "),​": 104,
      ").": 105,
      ").​": 106,
      ");": 107,
      "+": 108,
      ",": 109,
      ",​": 110,
      "-": 111,
      "-body": 112,
      "-d": 113,
      "-day": 114,
      "-des": 115,
      "-growing": 116,
      "-largest": 117,
      "-majority": 118,
      "-r": 119,
      "-లా": 120,
      ".": 121,
      "..": 122,
      "...": 123,
      ".ఈ": 124,
      ".​": 125,
      ".​​": 126,
      "/": 127,
      "0": 128,
      "0%": 129,
      "0,": 130,
      "0,000": 131,
      "0-": 132,
      "0.": 133,
      "0.4%": 134,
      "0.7": 135,
      "0.7%": 136,
      "00": 137,
      "000": 138,
      "00–": 139,
      "01": 140,
      "0s,": 141,
      "0–": 142,
      "1": 143,
      "1%": 144,
      "1%.": 145,
      "1,": 146,
      "1,000": 147,
      "1,21": 148,
      "1,42": 149,
      "1-": 150,
      "1-7": 151,
      "1.": 152,
      "1.1": 153,
      "1.24": 154,
      "1.3": 155,
      "1.4": 156,
      "1.5": 157,
      "1.6%": 158,
      "1.7%": 159,
      "10": 160,
      "10,": 161,
      "10,00": 162,
      "100": 163,
      "100,": 164,
      "1000": 165,
      "1010": 166,
      "10th": 167,
      "11": 168,
      "11%": 169,
      "113": 170,
      "12": 171,
      "12%": 172,
      "12.": 173,
      "12.2%": 174,
      "12.6%": 175,
      "120": 176,
      "1200": 177,
      "121,": 178,
      "1250": 179,
      "13": 180,
      "13.": 181,
      "1300": 182,
      "13th": 183,
      "14": 184,
      "14%": 185,
      "14.": 186,
      "140": 187,
      "142": 188,
      "15": 189,
      "15,": 190,
      "15.": 191,
      "1500": 192,
      "1525": 193,
      "15th": 194,
      "15న": 195,
      "16": 196,
      "16.": 197,
      "16.1": 198,
      "16.6%": 199,
      "165": 200,
      "16th": 201,
      "17": 202,
      "17)": 203,
      "17.": 204,
      "172": 205,
      "176": 206,
      "17th": 207,
      "18": 208,
      "18,": 209,
      "18.": 210,
      "1820": 211,
      "184": 212,
      "185": 213,
      "1853": 214,
      "1857": 215,
      "1857.": 216,
      "1858,": 217,
      "1858.": 218,
      "189": 219,
      "18th": 220,
      "19": 221,
      "1911": 222,
      "192": 223,
      "1920": 224,
      "1921,": 225,
      "1928–": 226,
      "193": 227,
      "1930": 228,
      "1930s,": 229,
      "1930s.": 230,
      "1935": 231,
      "1935,": 232,
      "1935.": 233,
      "194": 234,
      "1946": 235,
      "1947": 236,
      "1947,": 237,
      "1947.": 238,
      "1948": 239,
      "1949": 240,
      "1949.": 241,
      "195": 242,
      "1950": 243,
      "1950,": 244,
      "1950.": 245,
      "1950s,": 246,
      "1951": 247,
      "1951,": 248,
      "1956": 249,
      "1956,": 250,
      "1957,": 251,
      "196": 252,
      "1960": 253,
      "1960s,": 254,
      "1962": 255,
      "1962,": 256,
      "1962.": 257,
      "1962లో": 258,
      "1964": 259,
      "1964,": 260,
      "1965": 261,
      "1965,": 262,
      "1966,": 263,
      "1967": 264,
      "1967,": 265,
      "197": 266,
      "1971": 267,
      "1971,": 268,
      "1972,": 269,
      "1974": 270,
      "1974లో,": 271,
      "1975,": 272,
      "1977": 273,
      "1977లో": 274,
      "198": 275,
      "1980": 276,
      "1980.": 277,
      "1981": 278,
      "1984": 279,
      "1984.": 280,
      "1985": 281,
      "1985.": 282,
      "1988.": 283,
      "1989,": 284,
      "199": 285,
      "1990": 286,
      "1990,": 287,
      "1991": 288,
      "1991,": 289,
      "1991.": 290,
      "1991లో": 291,
      "1994": 292,
      "1995.": 293,
      "1996": 294,
      "1996,": 295,
      "1998": 296,
      "1998.": 297,
      "1998లో": 298,
      "1999.": 299,
      "19th": 300,
      "1st": 301,
      "2": 302,
      "2%": 303,
      "2%.": 304,
      "2,": 305,
      "2,0": 306,
      "2.": 307,
      "2.3%": 308,
      "2.5": 309,
      "2.8": 310,
      "2.9%": 311,
      "20": 312,
      "20%": 313,
      "200": 314,
      "2001": 315,
      "2001,": 316,
      "2001.": 317,
      "2003": 318,
      "2003–": 319,
      "2004": 320,
      "2006,": 321,
      "2007": 322,
      "2007,": 323,
      "2008,": 324,
      "2008–": 325,
      "2009": 326,
      "2009–201": 327,
      "201": 328,
      "2010": 329,
      "2010,": 330,
      "2010.": 331,
      "2011": 332,
      "2011,": 333,
      "2011.": 334,
      "2012": 335,
      "2013": 336,
      "2013.": 337,
      "2014": 338,
      "2017,": 339,
      "2017.": 340,
      "2018": 341,
      "2018.": 342,
      "2019": 343,
      "202": 344,
      "2020": 345,
      "2021": 346,
      "2021,": 347,
      "2022": 348,
      "2022,": 349,
      "2023": 350,
      "2023,": 351,
      "2023.": 352,
      "2024": 353,
      "2024,": 354,
      "2024.": 355,
      "2026": 356,
      "2026,": 357,
      "2026.": 358,
      "203": 359,
      "20th": 360,
      "20th-": 361,
      "21": 362,
      "21.": 363,
      "21.2": 364,
      "21.5": 365,
      "21st": 366,
      "22": 367,
      "23": 368,
      "230": 369,
      "24": 370,
      "24%": 371,
      "25": 372,
      "25%": 373,
      "25′": 374,
      "26": 375,
      "26%": 376,
      "26,": 377,
      "26.": 378,
      "268–": 379,
      "26న": 380,
      "27%": 381,
      "27.": 382,
      "28": 383,
      "28.": 384,
      "29": 385,
      "29%.": 386,
      "2nd": 387,
      "3": 388,
      "3%": 389,
      "3,": 390,
      "3,000": 391,
      "3.": 392,
      "3.9": 393,
      "30": 394,
      "30,000": 395,
      "300": 396,
      "30′": 397,
      "31,": 398,
      "31.": 399,
      "31.1": 400,
      "31.2%": 401,
      "32": 402,
      "32,": 403,
      "34": 404,
      "343": 405,
      "35": 406,
      "35°": 407,
      "36": 408,
      "36%": 409,
      "361": 410,
      "39%": 411,
      "4": 412,
      "4%": 413,
      "4%,": 414,
      "4,": 415,
      "4.": 416,
      "4.4": 417,
      "40": 418,
      "40%": 419,
      "40,000": 420,
      "400": 421,
      "41%": 422,
      "42": 423,
      "42%.": 424,
      "43": 425,
      "43%": 426,
      "431": 427,
      "44": 428,
      "44′": 429,
      "46": 430,
      "46%": 431,
      "47": 432,
      "49.": 433,
      "4th": 434,
      "5": 435,
      "5%": 436,
      "5%,": 437,
      "5,": 438,
      "5,42": 439,
      "5-": 440,
      "5-0": 441,
      "5.": 442,
      "5.8%": 443,
      "50": 444,
      "50,000": 445,
      "500": 446,
      "50–": 447,
      "522": 448,
      "53": 449,
      "53%": 450,
      "546": 451,
      "55": 452,
      "55,": 453,
      "55,000": 454,
      "55.": 455,
      "55.6%": 456,
      "55.8%": 457,
      "580": 458,
      "5th": 459,
      "6": 460,
      "6%": 461,
      "6,": 462,
      "6.": 463,
      "6.0%": 464,
      "60": 465,
      "600": 466,
      "62": 467,
      "63": 468,
      "63.": 469,
      "64": 470,
      "65.": 471,
      "68": 472,
      "6th": 473,
      "6°": 474,
      "7": 475,
      "7%": 476,
      "7%,": 477,
      "7,": 478,
      "7,5": 479,
      "7,517": 480,
      "7.": 481,
      "7.5%": 482,
      "7.9%": 483,
      "7/": 484,
      "7/16": 485,
      "7/17": 486,
      "70": 487,
      "70%": 488,
      "70%,": 489,
      "700": 490,
      "7000": 491,
      "700–": 492,
      "72.": 493,
      "74%": 494,
      "74.": 495,
      "75,": 496,
      "79.": 497,
      "7th": 498,
      "7′": 499,
      "8": 500,
      "8%": 501,
      "8,": 502,
      "8.": 503,
      "8.6%": 504,
      "80": 505,
      "80,000": 506,
      "800": 507,
      "81-": 508,
      "82,": 509,
      "82.": 510,
      "83.": 511,
      "85.": 512,
      "8th": 513,
      "8–": 514,
      "9": 515,
      "9%": 516,
      "9%.": 517,
      "9,": 518,
      "9,000": 519,
      "9-": 520,
      "9.": 521,
      "9.39%": 522,
      "900": 523,
      "94": 524,
      "940": 525,
      "96": 526,
      "97": 527,
      "9th": 528,
      ":": 529,
      ";": 530,
      ";​": 531,
      "=": 532,
      "==": 533,
      "===": 534,
      "====": 535,
      "A": 536,
      "Ab": 537,
      "Ac": 538,
      "Academ": 539,
      "According": 540,
      "Ach": 541,
      "Achaemen": 542,
      "Across": 543,
      "Act": 544,
      "Act,": 545,
      "Ad": 546,
      "Adem": 547,
      "Además": 548,
      "Además,": 549,
      "Adiv": 550,
      "Af": 551,
      "Afgh": 552,
      "Afric": 553,
      "Africa": 554,
      "After": 555,
      "Agenc": 556,
      "Agency": 557,
      "Agency.": 558,
      "Ahm": 559,
      "Aj": 560,
      "Ajant": 561,
      "Ajanta": 562,
      "Ak": 563,
      "Akadem": 564,
      "Akbar": 565,
      "Al": 566,
      "Ali": 567,
      "All": 568,
      "Alliance": 569,
      "Almost": 570,
      "Although": 571,
      "Am": 572,
      "Amar": 573,
      "Among": 574,
      "Amrit": 575,
      "An": 576,
      "Anand": 577,
      "Ancient": 578,
      "Andam": 579,
      "Andaman": 580,
      "Andaman,": 581,
      "Andamanese,": 582,
      "Andamán": 583,
      "Any": 584,
      "Ap": 585,
      "Ar": 586,
      "Ara": 587,
      "Arabian": 588,
      "Arav": 589,
      "Araval": 590,
      "Arch": 591,
      "Archived": 592,
      "Ardh": 593,
      "Art,": 594,
      "Arund": 595,
      "Ary": 596,
      "Aryab": 597,
      "As": 598,
      "Ash": 599,
      "Ashok": 600,
      "Ashoka": 601,
      "Asi": 602,
      "Asia": 603,
      "Asia's": 604,
      "Asia,": 605,
      "Asia.": 606,
      "Asian": 607,
      "Asians": 608,
      "Asiatic": 609,
      "Asia—": 610,
      "Ass": 611,
      "Assam": 612,
      "Assem": 613,
      "Assemb": 614,
      "Assembly": 615,
      "At": 616,
      "Atal": 617,
      "Atl": 618,
      "Atomic": 619,
      "Az": 620,
      "B": 621,
      "B/": 622,
      "BBC": 623,
      "BC": 624,
      "BCE": 625,
      "BCE)": 626,
      "BCE),": 627,
      "BCE,": 628,
      "BCE.": 629,
      "BCE;": 630,
      "BJ": 631,
      "BJP": 632,
      "BJP,": 633,
      "BN": 634,
      "BS": 635,
      "Ba": 636,
      "Baby": 637,
      "Bah": 638,
      "Bahad": 639,
      "Bal": 640,
      "Balas": 641,
      "Baloch": 642,
      "Bang": 643,
      "Bangladesh": 644,
      "Bangladesh.": 645,
      "Bay": 646,
      "Be": 647,
      "Bed": 648,
      "Beng": 649,
      "Bengal": 650,
      "Bengal,": 651,
      "Bengal.": 652,
      "Bengal;": 653,
      "Bengala": 654,
      "Bengali,": 655,
      "Bengalur": 656,
      "Bet": 657,
      "Between": 658,
      "Bh": 659,
      "Bhak": 660,
      "Bhang": 661,
      "Bhangra": 662,
      "Bhar": 663,
      "Bharat": 664,
      "Bharatavar": 665,
      "Bharati": 666,
      "Bharatnat": 667,
      "Bhas": 668,
      "Bhut": 669,
      "Bi": 670,
      "Bih": 671,
      "Bihar": 672,
      "Bio": 673,
      "Biodiversity": 674,
      "Biosphere": 675,
      "Bod": 676,
      "Both": 677,
      "Boulder": 678,
      "Br": 679,
      "Bra": 680,
      "Brah": 681,
      "Brahm": 682,
      "Brahmag": 683,
      "Brahman": 684,
      "Brahmaput": 685,
      "Brit": 686,
      "British": 687,
      "British,": 688,
      "British-": 689,
      "British-style": 690,
      "Bud": 691,
      "Buddh": 692,
      "Buddha": 693,
      "Buddha.": 694,
      "Buddhism": 695,
      "Buddhism,": 696,
      "Buddhist": 697,
      "Buddhist,": 698,
      "Buddhists.": 699,
      "But": 700,
      "By": 701,
      "C": 702,
      "C,": 703,
      "C.": 704,
      "C.,": 705,
      "CE": 706,
      "CE)": 707,
      "CE),": 708,
      "CE).": 709,
      "CE,": 710,
      "CE.": 711,
      "CEE": 712,
      "CI": 713,
      "CIA": 714,
      "Cal": 715,
      "Cam": 716,
      "Can": 717,
      "Cap": 718,
      "Carn": 719,
      "Carnatic": 720,
      "Cav": 721,
      "Caves": 722,
      "Caves.": 723,
      "Cent": 724,
      "Central": 725,
      "Central,": 726,
      "Centred": 727,
      "Ch": 728,
      "Cha": 729,
      "Champ": 730,
      "Champion": 731,
      "Champions": 732,
      "Chand": 733,
      "Chandra": 734,
      "Char": 735,
      "Cher": 736,
      "Chess": 737,
      "Chhau": 738,
      "Chi": 739,
      "Chin": 740,
      "China": 741,
      "China's": 742,
      "China,": 743,
      "China.": 744,
      "Chinese": 745,
      "Cho": 746,
      "Chol": 747,
      "Chola": 748,
      "Cholas,": 749,
      "Chor": 750,
      "Chri": 751,
      "Christ": 752,
      "Christian": 753,
      "Christianity,": 754,
      "Chronic": 755,
      "Civil": 756,
      "Civilisation": 757,
      "Civilisation,": 758,
      "Civilisation.": 759,
      "Class": 760,
      "Classical": 761,
      "Climate": 762,
      "Cold": 763,
      "Com": 764,
      "Common": 765,
      "Commonwealth": 766,
      "Compa": 767,
      "Company": 768,
      "Company's": 769,
      "Compañ": 770,
      "Compañía": 771,
      "Compre": 772,
      "Con": 773,
      "Cong": 774,
      "Congres": 775,
      "Congreso": 776,
      "Congress": 777,
      "Congress\")": 778,
      "Congress's": 779,
      "Conse": 780,
      "Consejo": 781,
      "Conserv": 782,
      "Constit": 783,
      "Constitu": 784,
      "Constitución": 785,
      "Constituent": 786,
      "Constituted": 787,
      "Constitution": 788,
      "Constitution.": 789,
      "Convention": 790,
      "Cop": 791,
      "Copa": 792,
      "Coun": 793,
      "Countr": 794,
      "Country": 795,
      "Cricket": 796,
      "Crit": 797,
      "Crow": 798,
      "Críquet": 799,
      "Culture": 800,
      "Cup": 801,
      "Cups,": 802,
      "D": 803,
      "D.": 804,
      "DN": 805,
      "Dal": 806,
      "Dal,": 807,
      "Dalhou": 808,
      "Dalit": 809,
      "Dance": 810,
      "Dav": 811,
      "De": 812,
      "Dec": 813,
      "Deccan": 814,
      "Decán": 815,
      "Del": 816,
      "Delhi": 817,
      "Delhi,": 818,
      "Dem": 819,
      "Democrac": 820,
      "Democratic": 821,
      "Demograph": 822,
      "Demographics": 823,
      "Der": 824,
      "Des": 825,
      "Desai": 826,
      "Deser": 827,
      "Desert": 828,
      "Desert,": 829,
      "Despite": 830,
      "Después": 831,
      "Deter": 832,
      "Dev": 833,
      "Deve": 834,
      "Develo": 835,
      "Devi": 836,
      "Dhol": 837,
      "Dic": 838,
      "Dire": 839,
      "Dis": 840,
      "Disaff": 841,
      "Discover": 842,
      "Dog": 843,
      "Dom": 844,
      "Domin": 845,
      "Don": 846,
      "Dra": 847,
      "Dravi": 848,
      "Dravidian": 849,
      "Dur": 850,
      "Durante": 851,
      "During": 852,
      "E": 853,
      "Each": 854,
      "Early": 855,
      "East": 856,
      "East,": 857,
      "Eastern": 858,
      "Econ": 859,
      "Economic": 860,
      "Economy": 861,
      "Educ": 862,
      "Eigh": 863,
      "El": 864,
      "Ele": 865,
      "Ell": 866,
      "Em": 867,
      "Emb": 868,
      "Emergency,": 869,
      "Empi": 870,
      "Empire": 871,
      "Empire);": 872,
      "Empire,": 873,
      "Empire.": 874,
      "En": 875,
      "Eng": 876,
      "English": 877,
      "English,": 878,
      "Entre": 879,
      "Epic": 880,
      "Esc": 881,
      "Est": 882,
      "Estado": 883,
      "Estados": 884,
      "Eth": 885,
      "Ety": 886,
      "Etym": 887,
      "Etymology": 888,
      "Eur": 889,
      "Euras": 890,
      "Eurasi": 891,
      "Eurasia": 892,
      "Eurasian": 893,
      "Europ": 894,
      "Europe": 895,
      "Europe,": 896,
      "Europe.": 897,
      "European": 898,
      "Ev": 899,
      "Ex": 900,
      "Exam": 901,
      "Exp": 902,
      "External": 903,
      "F": 904,
      "Fact": 905,
      "Factbo": 906,
      "Factbook": 907,
      "Fai": 908,
      "Fed": 909,
      "Fic": 910,
      "Fol": 911,
      "Following": 912,
      "For": 913,
      "Fore": 914,
      "Forecast": 915,
      "Foreign": 916,
      "Forest": 917,
      "Four": 918,
      "Fr": 919,
      "Fren": 920,
      "From": 921,
      "Fron": 922,
      "Front": 923,
      "Front,": 924,
      "Ful": 925,
      "Further": 926,
      "Fut": 927,
      "G": 928,
      "GD": 929,
      "GDP": 930,
      "GDP,": 931,
      "Gan": 932,
      "Gand": 933,
      "Gandhi": 934,
      "Gandhi,": 935,
      "Gandhi.": 936,
      "Gandhian": 937,
      "Ganges": 938,
      "Gar": 939,
      "Gen": 940,
      "General": 941,
      "Geograph": 942,
      "Geographic": 943,
      "Geography": 944,
      "Ghat": 945,
      "Ghats": 946,
      "Ghats,": 947,
      "Ghats.": 948,
      "Ghats;": 949,
      "Go": 950,
      "Gobierno": 951,
      "God": 952,
      "Gold": 953,
      "Gond": 954,
      "Gondwan": 955,
      "Gondwana,": 956,
      "Gov": 957,
      "Govern": 958,
      "Government": 959,
      "Gow": 960,
      "Gr": 961,
      "Grad": 962,
      "Gre": 963,
      "Gree": 964,
      "Greek": 965,
      "Greeks": 966,
      "Group": 967,
      "Gu": 968,
      "Guj": 969,
      "Gujarat": 970,
      "Gujarati,": 971,
      "Gujral": 972,
      "Gup": 973,
      "Gupt": 974,
      "Gupta": 975,
      "H": 976,
      "H.": 977,
      "HZ": 978,
      "Har": 979,
      "He": 980,
      "Health": 981,
      "Hell": 982,
      "Himal": 983,
      "Himalay": 984,
      "Himalayan": 985,
      "Himalayan-": 986,
      "Himalayas": 987,
      "Himalayas,": 988,
      "Himalayas.": 989,
      "Hin": 990,
      "Hindi": 991,
      "Hindi's": 992,
      "Hindi,": 993,
      "Hindu": 994,
      "Hindu,": 995,
      "Hindu-majority": 996,
      "Hinduism": 997,
      "Hinduism,": 998,
      "Hinduism—": 999,
      "Hindus": 1000,
      "Hindus,": 1001,
      "Hindustan": 1002,
      "Hindustani": 1003,
      "Hindu–": 1004,
      "History": 1005,
      "Ho": 1006,
      "Hom": 1007,
      "However,": 1008,
      "Hy": 1009,
      "I": 1010,
      "I,": 1011,
      "I.": 1012,
      "II": 1013,
      "II,": 1014,
      "IN": 1015,
      "INC": 1016,
      "IS": 1017,
      "ISBN": 1018,
      "IT": 1019,
      "IU": 1020,
      "Im": 1021,
      "Immediately": 1022,
      "Imperio": 1023,
      "Import": 1024,
      "In": 1025,
      "Inc": 1026,
      "Increasing": 1027,
      "Ind": 1028,
      "Indi": 1029,
      "India": 1030,
      "India's": 1031,
      "India,": 1032,
      "India.": 1033,
      "India.​": 1034,
      "India:": 1035,
      "India;": 1036,
      "Indian": 1037,
      "Indian,": 1038,
      "Indian-": 1039,
      "Indians": 1040,
      "Indians.": 1041,
      "Indias": 1042,
      "India–": 1043,
      "Indio": 1044,
      "Indira": 1045,
      "Indo": 1046,
      "Indo-": 1047,
      "Indo-A": 1048,
      "Indo-Ary": 1049,
      "Indo-Aryan": 1050,
      "Indo-European": 1051,
      "Indo-G": 1052,
      "Indo-Gang": 1053,
      "Indo-Gangetic": 1054,
      "Indo-Islamic": 1055,
      "Indoi,": 1056,
      "Indones": 1057,
      "Indonesi": 1058,
      "Indonesia": 1059,
      "Indonesia.": 1060,
      "Indos": 1061,
      "Indu": 1062,
      "Indus": 1063,
      "Indus'": 1064,
      "Indus;": 1065,
      "Industri": 1066,
      "Instead": 1067,
      "Int": 1068,
      "International": 1069,
      "Iran": 1070,
      "Ire": 1071,
      "Is": 1072,
      "Islam": 1073,
      "Islam,": 1074,
      "Islam.": 1075,
      "Islamic": 1076,
      "Island": 1077,
      "Islands": 1078,
      "Islands,": 1079,
      "It": 1080,
      "Its": 1081,
      "J": 1082,
      "Jain": 1083,
      "Jain.": 1084,
      "Jainism": 1085,
      "Jainism,": 1086,
      "Jainism.": 1087,
      "Jains,": 1088,
      "Jamm": 1089,
      "Jammu": 1090,
      "Jan": 1091,
      "Janata": 1092,
      "Janu": 1093,
      "January": 1094,
      "Jaw": 1095,
      "Jawa": 1096,
      "Jawahar": 1097,
      "Jawaharl": 1098,
      "Jawaharlal": 1099,
      "Jhar": 1100,
      "Jharkh": 1101,
      "Jud": 1102,
      "June": 1103,
      "Just": 1104,
      "K": 1105,
      "K.": 1106,
      "Kal": 1107,
      "Kalari": 1108,
      "Kali": 1109,
      "Kaling": 1110,
      "Kann": 1111,
      "Kar": 1112,
      "Kas": 1113,
      "Kashm": 1114,
      "Kashmi": 1115,
      "Kashmir": 1116,
      "Kashmir,": 1117,
      "Kashmir.": 1118,
      "Kaver": 1119,
      "Kaveri": 1120,
      "Kaveri,": 1121,
      "Keral": 1122,
      "Kerala": 1123,
      "King": 1124,
      "Ko": 1125,
      "Kol": 1126,
      "Kosi": 1127,
      "Kut": 1128,
      "L": 1129,
      "La": 1130,
      "Laksh": 1131,
      "Lakshad": 1132,
      "Lakshadwe": 1133,
      "Lakshadweep": 1134,
      "Lal": 1135,
      "Langu": 1136,
      "Languages": 1137,
      "Lank": 1138,
      "Lanka": 1139,
      "Lankan": 1140,
      "Las": 1141,
      "Lati": 1142,
      "Lef": 1143,
      "Li": 1144,
      "Lib": 1145,
      "Liber": 1146,
      "Loc": 1147,
      "Lok": 1148,
      "Long": 1149,
      "Lord": 1150,
      "Los": 1151,
      "M": 1152,
      "Ma": 1153,
      "Mach": 1154,
      "Machine": 1155,
      "Maha": 1156,
      "Mahan": 1157,
      "Mahat": 1158,
      "Mahā": 1159,
      "Maith": 1160,
      "Major": 1161,
      "Mal": 1162,
      "Malay": 1163,
      "Maldiv": 1164,
      "Man": 1165,
      "Manip": 1166,
      "Manmo": 1167,
      "Many": 1168,
      "Mao": 1169,
      "Mar": 1170,
      "Marath": 1171,
      "Marri": 1172,
      "Maur": 1173,
      "Maurya": 1174,
      "Mauryan": 1175,
      "May": 1176,
      "Me": 1177,
      "Medi": 1178,
      "Medic": 1179,
      "Meh": 1180,
      "Mid": 1181,
      "Middle": 1182,
      "Mig": 1183,
      "Min": 1184,
      "Minist": 1185,
      "Ministers": 1186,
      "Mit": 1187,
      "Mo": 1188,
      "Moder": 1189,
      "Modern": 1190,
      "Modi": 1191,
      "Mohen": 1192,
      "Mohenjo": 1193,
      "Mohenjo-d": 1194,
      "Mohenjo-dar": 1195,
      "Mohenjo-daro,": 1196,
      "Mong": 1197,
      "Most": 1198,
      "Movement": 1199,
      "Mu": 1200,
      "Mughal": 1201,
      "Mughals": 1202,
      "Mum": 1203,
      "Mumba": 1204,
      "Mumbai,": 1205,
      "Mun": 1206,
      "Mundial": 1207,
      "Mus": 1208,
      "Music": 1209,
      "Muslim": 1210,
      "Muslim-majority": 1211,
      "Muslims": 1212,
      "Muslims,": 1213,
      "Myan": 1214,
      "Myanmar": 1215,
      "Myanmar,": 1216,
      "N": 1217,
      "ND": 1218,
      "NDA": 1219,
      "Na": 1220,
      "Nacional": 1221,
      "Nad": 1222,
      "Nag": 1223,
      "Nain": 1224,
      "Naras": 1225,
      "Naren": 1226,
      "Narm": 1227,
      "Nat": 1228,
      "Natak": 1229,
      "Natar": 1230,
      "National": 1231,
      "Nations": 1232,
      "Nav": 1233,
      "Ne": 1234,
      "Nehru": 1235,
      "Nehru's": 1236,
      "Nehru,": 1237,
      "Nepal": 1238,
      "Network": 1239,
      "New": 1240,
      "Newly": 1241,
      "News": 1242,
      "Ni": 1243,
      "Niam": 1244,
      "Nic": 1245,
      "Nicobar": 1246,
      "Nicobar,": 1247,
      "Nih": 1248,
      "No": 1249,
      "Non-": 1250,
      "Non-A": 1251,
      "Non-Pro": 1252,
      "Non-Proli": 1253,
      "Non-Prolifer": 1254,
      "Non-Proliferation": 1255,
      "Nor": 1256,
      "North": 1257,
      "Northeast": 1258,
      "Not": 1259,
      "Noted": 1260,
      "Nuclear": 1261,
      "Nuclear-": 1262,
      "O": 1263,
      "ON": 1264,
      "Oc": 1265,
      "Ocean": 1266,
      "October": 1267,
      "Odish": 1268,
      "Old": 1269,
      "Oly": 1270,
      "On": 1271,
      "Open": 1272,
      "Or": 1273,
      "Organ": 1274,
      "Organiz": 1275,
      "Organización": 1276,
      "Organization": 1277,
      "Ori": 1278,
      "Orient": 1279,
      "Out": 1280,
      "Outline": 1281,
      "Outside": 1282,
      "Over": 1283,
      "Ox": 1284,
      "P": 1285,
      "P.": 1286,
      "PA": 1287,
      "PI": 1288,
      "PIB": 1289,
      "PP": 1290,
      "Pa": 1291,
      "Pain": 1292,
      "Pak": 1293,
      "Pakistan": 1294,
      "Pakistan's": 1295,
      "Pakistan)": 1296,
      "Pakistan,": 1297,
      "Pakistan.": 1298,
      "Pakistán": 1299,
      "Pali": 1300,
      "Pall": 1301,
      "Pallav": 1302,
      "Pallava": 1303,
      "Pallavas": 1304,
      "Pallavas,": 1305,
      "Panch": 1306,
      "Pandy": 1307,
      "Paquistán": 1308,
      "Par": 1309,
      "Parche": 1310,
      "Parlament": 1311,
      "Part": 1312,
      "Party": 1313,
      "Party,": 1314,
      "Parv": 1315,
      "Pash": 1316,
      "Pe": 1317,
      "Per": 1318,
      "Persi": 1319,
      "Persia.": 1320,
      "Persian": 1321,
      "Persianised": 1322,
      "Phi": 1323,
      "Pl": 1324,
      "Plain": 1325,
      "Plate": 1326,
      "Plate,": 1327,
      "Plate.": 1328,
      "Plateau": 1329,
      "Plateau,": 1330,
      "Plateau.": 1331,
      "Po": 1332,
      "Pol": 1333,
      "Polit": 1334,
      "Politics": 1335,
      "Por": 1336,
      "Pr": 1337,
      "Pre": 1338,
      "President": 1339,
      "Pri": 1340,
      "Pro": 1341,
      "Profile": 1342,
      "Prog": 1343,
      "Project": 1344,
      "Pu": 1345,
      "Pun": 1346,
      "Punjab": 1347,
      "Punjab,": 1348,
      "Punjabi": 1349,
      "Punjabi,": 1350,
      "R": 1351,
      "Ra": 1352,
      "Raj": 1353,
      "Rajiv": 1354,
      "Rajput": 1355,
      "Rajputs,": 1356,
      "Rajya": 1357,
      "Rak": 1358,
      "Ram": 1359,
      "Raman": 1360,
      "Ramsar": 1361,
      "Rann": 1362,
      "Ras": 1363,
      "Re": 1364,
      "Rebellion": 1365,
      "Reli": 1366,
      "Religion": 1367,
      "Reorganisation": 1368,
      "Report.": 1369,
      "Republic": 1370,
      "Res": 1371,
      "Rev": 1372,
      "Ri": 1373,
      "Rice": 1374,
      "Rid": 1375,
      "Rig": 1376,
      "Rom": 1377,
      "Rus": 1378,
      "Rā": 1379,
      "S": 1380,
      "SI": 1381,
      "Sab": 1382,
      "Sabh": 1383,
      "Sabha": 1384,
      "Sabha,": 1385,
      "San": 1386,
      "Sanch": 1387,
      "Sang": 1388,
      "Sangam": 1389,
      "Sange": 1390,
      "Sans": 1391,
      "Sanskrit": 1392,
      "Sanskrit)": 1393,
      "Sanskrit,": 1394,
      "Sanskrit.": 1395,
      "Sant": 1396,
      "Santal": 1397,
      "Santali": 1398,
      "Sarn": 1399,
      "Sarnaism,": 1400,
      "Sarnath": 1401,
      "Sat": 1402,
      "Sched": 1403,
      "School": 1404,
      "Se": 1405,
      "Sea": 1406,
      "Sea.": 1407,
      "See": 1408,
      "Según": 1409,
      "Sept": 1410,
      "Sett": 1411,
      "Several": 1412,
      "Sh": 1413,
      "Sha": 1414,
      "Shank": 1415,
      "Shastri": 1416,
      "She": 1417,
      "Shekh": 1418,
      "Shiv": 1419,
      "Shiva": 1420,
      "Shud": 1421,
      "Si": 1422,
      "Sig": 1423,
      "Sikh": 1424,
      "Sikh,": 1425,
      "Sikhism": 1426,
      "Sikhism,": 1427,
      "Sikhism.": 1428,
      "Sikhs,": 1429,
      "Sikk": 1430,
      "Sim": 1431,
      "Simultan": 1432,
      "Simultane": 1433,
      "Simultaneous": 1434,
      "Simultaneously,": 1435,
      "Sin": 1436,
      "Since": 1437,
      "Sind": 1438,
      "Sindh": 1439,
      "Sing": 1440,
      "Singh": 1441,
      "Singh,": 1442,
      "So": 1443,
      "Soci": 1444,
      "Some": 1445,
      "Son": 1446,
      "South": 1447,
      "South,": 1448,
      "Southeast": 1449,
      "Sovi": 1450,
      "Soviet": 1451,
      "Sports": 1452,
      "Sri": 1453,
      "St": 1454,
      "Stat": 1455,
      "States": 1456,
      "States,": 1457,
      "States.": 1458,
      "Statist": 1459,
      "Still": 1460,
      "Still,": 1461,
      "Su": 1462,
      "Sultanate": 1463,
      "Sup": 1464,
      "Sū": 1465,
      "T": 1466,
      "T20": 1467,
      "Tai": 1468,
      "Tam": 1469,
      "También": 1470,
      "Tamil": 1471,
      "Tamil,": 1472,
      "Tamil.": 1473,
      "Tap": 1474,
      "Tash": 1475,
      "Tel": 1476,
      "Tem": 1477,
      "Temper": 1478,
      "Temple": 1479,
      "Ter": 1480,
      "Territor": 1481,
      "Teru": 1482,
      "Teth": 1483,
      "Th": 1484,
      "Tha": 1485,
      "Thail": 1486,
      "Than": 1487,
      "Thar": 1488,
      "The": 1489,
      "Their": 1490,
      "There": 1491,
      "These": 1492,
      "They": 1493,
      "This": 1494,
      "Thous": 1495,
      "Three": 1496,
      "Through": 1497,
      "Ti": 1498,
      "Tibet": 1499,
      "Tiger": 1500,
      "To": 1501,
      "Tod": 1502,
      "Towards": 1503,
      "Tr": 1504,
      "Treat": 1505,
      "Treaty": 1506,
      "Treaty,": 1507,
      "Trig": 1508,
      "Tro": 1509,
      "Ty": 1510,
      "U": 1511,
      "UP": 1512,
      "UPA": 1513,
      "US": 1514,
      "US$": 1515,
      "US$1,": 1516,
      "US$100": 1517,
      "US$2": 1518,
      "US$2,": 1519,
      "US$2,6": 1520,
      "US$2,7": 1521,
      "US$3,": 1522,
      "US$30": 1523,
      "US$42": 1524,
      "Uday": 1525,
      "Un": 1526,
      "Under": 1527,
      "Uni": 1528,
      "Unido": 1529,
      "Union": 1530,
      "Union.": 1531,
      "United": 1532,
      "Unión": 1533,
      "Until": 1534,
      "Untouch": 1535,
      "Ur": 1536,
      "Urdu": 1537,
      "Utt": 1538,
      "V": 1539,
      "V-": 1540,
      "V.": 1541,
      "V;": 1542,
      "VI": 1543,
      "Va": 1544,
      "Vaig": 1545,
      "Vais": 1546,
      "Vaish": 1547,
      "Vaj": 1548,
      "Vajpaye": 1549,
      "Valle": 1550,
      "Valley": 1551,
      "Var": 1552,
      "Vedic": 1553,
      "Vi": 1554,
      "Viet": 1555,
      "Vij": 1556,
      "Vijay": 1557,
      "Vijayanag": 1558,
      "Vijayanagara": 1559,
      "Virt": 1560,
      "Vis": 1561,
      "Visual": 1562,
      "Viswan": 1563,
      "W": 1564,
      "WH": 1565,
      "WHO": 1566,
      "WHO's": 1567,
      "War": 1568,
      "War,": 1569,
      "War.": 1570,
      "Wayback": 1571,
      "West": 1572,
      "Western": 1573,
      "Westmin": 1574,
      "Whe": 1575,
      "When": 1576,
      "Wid": 1577,
      "Wik": 1578,
      "With": 1579,
      "World": 1580,
      "X": 1581,
      "X,": 1582,
      "XI": 1583,
      "Y": 1584,
      "Yaksh": 1585,
      "Yakshag": 1586,
      "Yam": 1587,
      "Z": 1588,
      "Zoro": 1589,
      "Zoroastri": 1590,
      "Zoroastrian": 1591,
      "Zoroastrianism": 1592,
      "[": 1593,
      "[cit": 1594,
      "[cita": 1595,
      "[ˈ": 1596,
      "]": 1597,
      "^": 1598,
      "a": 1599,
      "a,": 1600,
      "a.": 1601,
      "a.​": 1602,
      "ab": 1603,
      "aba": 1604,
      "abad": 1605,
      "abh": 1606,
      "ability": 1607,
      "abj": 1608,
      "abl": 1609,
      "able": 1610,
      "ables,": 1611,
      "ably": 1612,
      "abo": 1613,
      "abol": 1614,
      "about": 1615,
      "above": 1616,
      "abs": 1617,
      "absol": 1618,
      "ac": 1619,
      "acces": 1620,
      "access": 1621,
      "accom": 1622,
      "accompan": 1623,
      "according": 1624,
      "accoun": 1625,
      "accounting": 1626,
      "accounts": 1627,
      "ace": 1628,
      "aced": 1629,
      "ach": 1630,
      "achi": 1631,
      "aci": 1632,
      "acion": 1633,
      "acional": 1634,
      "aciones": 1635,
      "ación": 1636,
      "ación,": 1637,
      "ack": 1638,
      "across": 1639,
      "act": 1640,
      "acter": 1641,
      "action": 1642,
      "actual": 1643,
      "acute": 1644,
      "ad": 1645,
      "ada": 1646,
      "ada,": 1647,
      "adamente": 1648,
      "adas": 1649,
      "added": 1650,
      "addition": 1651,
      "additional": 1652,
      "ade": 1653,
      "adem": 1654,
      "además": 1655,
      "adequ": 1656,
      "ades": 1657,
      "adesh": 1658,
      "adher": 1659,
      "adhered": 1660,
      "adherent": 1661,
      "adhering": 1662,
      "adi": 1663,
      "adjo": 1664,
      "administ": 1665,
      "administer": 1666,
      "administr": 1667,
      "administración": 1668,
      "administrat": 1669,
      "administration": 1670,
      "administrative": 1671,
      "ado": 1672,
      "adop": 1673,
      "adopted": 1674,
      "adopting": 1675,
      "ador": 1676,
      "adores": 1677,
      "ados": 1678,
      "adqu": 1679,
      "adv": 1680,
      "advanced": 1681,
      "advent": 1682,
      "adver": 1683,
      "adverse": 1684,
      "adversity": 1685,
      "aem": 1686,
      "aemen": 1687,
      "af": 1688,
      "aff": 1689,
      "affair": 1690,
      "affected": 1691,
      "affir": 1692,
      "affirm": 1693,
      "afir": 1694,
      "after": 1695,
      "after;": 1696,
      "afterward": 1697,
      "ag": 1698,
      "again": 1699,
      "against": 1700,
      "age": 1701,
      "age,": 1702,
      "age.": 1703,
      "age;": 1704,
      "ages": 1705,
      "ages.": 1706,
      "aggl": 1707,
      "ago": 1708,
      "ago,": 1709,
      "ago.": 1710,
      "agre": 1711,
      "agreement": 1712,
      "agric": 1713,
      "agricul": 1714,
      "agricult": 1715,
      "agricultural": 1716,
      "agriculture": 1717,
      "agriculture.": 1718,
      "agrí": 1719,
      "agrícol": 1720,
      "agu": 1721,
      "ah": 1722,
      "ahead": 1723,
      "ai": 1724,
      "ai,": 1725,
      "aic": 1726,
      "aim": 1727,
      "ain": 1728,
      "ained": 1729,
      "air": 1730,
      "aire": 1731,
      "aism,": 1732,
      "aj": 1733,
      "ajo": 1734,
      "ak": 1735,
      "akh": 1736,
      "aksh": 1737,
      "al": 1738,
      "al,": 1739,
      "ala,": 1740,
      "alber": 1741,
      "alberga": 1742,
      "ale": 1743,
      "aled": 1744,
      "ales": 1745,
      "alge": 1746,
      "algun": 1747,
      "ali": 1748,
      "alian": 1749,
      "alim": 1750,
      "all": 1751,
      "alle": 1752,
      "alled": 1753,
      "alliance": 1754,
      "allow": 1755,
      "allowing": 1756,
      "allu": 1757,
      "ally": 1758,
      "ally,": 1759,
      "ally.": 1760,
      "alo": 1761,
      "along": 1762,
      "alre": 1763,
      "als": 1764,
      "als,": 1765,
      "also": 1766,
      "altern": 1767,
      "alth": 1768,
      "alto": 1769,
      "alwar": 1770,
      "alwars": 1771,
      "am": 1772,
      "am,": 1773,
      "ama": 1774,
      "amas": 1775,
      "amb": 1776,
      "ame": 1777,
      "amend": 1778,
      "amendments": 1779,
      "ament": 1780,
      "amente": 1781,
      "amente,": 1782,
      "amework": 1783,
      "amiento": 1784,
      "amm": 1785,
      "among": 1786,
      "amp": 1787,
      "amphi": 1788,
      "amphibian": 1789,
      "ampli": 1790,
      "ams": 1791,
      "an": 1792,
      "an.": 1793,
      "ana": 1794,
      "anag": 1795,
      "anal": 1796,
      "anat": 1797,
      "anatom": 1798,
      "anatomy": 1799,
      "anc": 1800,
      "ance": 1801,
      "ance,": 1802,
      "anced": 1803,
      "ances": 1804,
      "anch": 1805,
      "ancia": 1806,
      "ancient": 1807,
      "and": 1808,
      "and,": 1809,
      "anda,": 1810,
      "anded": 1811,
      "anding": 1812,
      "ando": 1813,
      "ands": 1814,
      "andy": 1815,
      "anex": 1816,
      "ang": 1817,
      "anges": 1818,
      "angu": 1819,
      "ani": 1820,
      "animal": 1821,
      "animals": 1822,
      "animals,": 1823,
      "ank": 1824,
      "ann": 1825,
      "annex": 1826,
      "annual": 1827,
      "annually": 1828,
      "annually,": 1829,
      "ano": 1830,
      "anos": 1831,
      "another": 1832,
      "ans": 1833,
      "ans.": 1834,
      "ant": 1835,
      "anta": 1836,
      "ante": 1837,
      "anted": 1838,
      "antes": 1839,
      "antes,": 1840,
      "anti-": 1841,
      "antig": 1842,
      "antigu": 1843,
      "ants": 1844,
      "ants,": 1845,
      "any": 1846,
      "anza": 1847,
      "ap": 1848,
      "apel": 1849,
      "app": 1850,
      "appare": 1851,
      "appear": 1852,
      "appearance": 1853,
      "appel": 1854,
      "applied": 1855,
      "appoin": 1856,
      "appointed": 1857,
      "appro": 1858,
      "approx": 1859,
      "approxim": 1860,
      "approximately": 1861,
      "apro": 1862,
      "aps": 1863,
      "aput": 1864,
      "ar": 1865,
      "ara": 1866,
      "aras": 1867,
      "arat": 1868,
      "arb": 1869,
      "arc": 1870,
      "arch": 1871,
      "archaic": 1872,
      "archip": 1873,
      "architect": 1874,
      "architectural": 1875,
      "architecture,": 1876,
      "architecture.": 1877,
      "ard": 1878,
      "are": 1879,
      "are:": 1880,
      "area,": 1881,
      "area.": 1882,
      "areas": 1883,
      "areas,": 1884,
      "areas.": 1885,
      "ared": 1886,
      "aren": 1887,
      "arenas,": 1888,
      "ares": 1889,
      "ares,": 1890,
      "arg": 1891,
      "ari": 1892,
      "aria": 1893,
      "aries": 1894,
      "ario": 1895,
      "arios": 1896,
      "aris": 1897,
      "arisen": 1898,
      "arithm": 1899,
      "arly": 1900,
      "arm": 1901,
      "armies": 1902,
      "arms": 1903,
      "army": 1904,
      "arn": 1905,
      "aron": 1906,
      "arose": 1907,
      "around": 1908,
      "arqu": 1909,
      "arquitect": 1910,
      "arra": 1911,
      "arrang": 1912,
      "arri": 1913,
      "arrol": 1914,
      "ars": 1915,
      "arse": 1916,
      "art": 1917,
      "art,": 1918,
      "art.": 1919,
      "arta": 1920,
      "arter": 1921,
      "arteries": 1922,
      "artes": 1923,
      "artial": 1924,
      "artic": 1925,
      "articles": 1926,
      "articul": 1927,
      "artis": 1928,
      "artisans": 1929,
      "artist": 1930,
      "artistic": 1931,
      "artists": 1932,
      "arts": 1933,
      "arts,": 1934,
      "arts.": 1935,
      "ary": 1936,
      "ary,": 1937,
      "as": 1938,
      "as,": 1939,
      "as.": 1940,
      "as.​": 1941,
      "ased": 1942,
      "ash": 1943,
      "asi": 1944,
      "asive": 1945,
      "asiátic": 1946,
      "ass": 1947,
      "assass": 1948,
      "assassinated": 1949,
      "assert": 1950,
      "assing": 1951,
      "associ": 1952,
      "associate": 1953,
      "associated": 1954,
      "ast": 1955,
      "asta": 1956,
      "astri": 1957,
      "astring": 1958,
      "astron": 1959,
      "asured": 1960,
      "asures": 1961,
      "así": 1962,
      "at": 1963,
      "ata": 1964,
      "atak": 1965,
      "ate": 1966,
      "ated": 1967,
      "ately": 1968,
      "ater": 1969,
      "ates": 1970,
      "ath": 1971,
      "ati": 1972,
      "ati,": 1973,
      "ati.": 1974,
      "atic": 1975,
      "atical": 1976,
      "atin": 1977,
      "ating": 1978,
      "ation": 1979,
      "ation,": 1980,
      "ational": 1981,
      "ations": 1982,
      "atis": 1983,
      "ative": 1984,
      "ato": 1985,
      "atol": 1986,
      "atop": 1987,
      "ator": 1988,
      "atra": 1989,
      "atro": 1990,
      "ats": 1991,
      "att": 1992,
      "attain": 1993,
      "attra": 1994,
      "attract": 1995,
      "aty": 1996,
      "au": 1997,
      "aument": 1998,
      "aumento": 1999,
      "aut": 2000,
      "author": 2001,
      "autom": 2002,
      "auton": 2003,
      "av": 2004,
      "aval": 2005,
      "avar": 2006,
      "aved": 2007,
      "aveng": 2008,
      "aver": 2009,
      "average": 2010,
      "average.": 2011,
      "aw": 2012,
      "ay": 2013,
      "ayback": 2014,
      "ayud": 2015,
      "añ": 2016,
      "año": 2017,
      "años": 2018,
      "años,": 2019,
      "años.​": 2020,
      "aún": 2021,
      "aː": 2022,
      "a—": 2023,
      "b": 2024,
      "ba": 2025,
      "back": 2026,
      "baj": 2027,
      "baja": 2028,
      "bajo": 2029,
      "bak": 2030,
      "bal": 2031,
      "balance": 2032,
      "balanced": 2033,
      "ban": 2034,
      "band": 2035,
      "bandh": 2036,
      "bandhan": 2037,
      "banned": 2038,
      "bar": 2039,
      "bark": 2040,
      "barle": 2041,
      "bas": 2042,
      "based": 2043,
      "basin": 2044,
      "basin,": 2045,
      "basin.": 2046,
      "basis.": 2047,
      "be": 2048,
      "beach": 2049,
      "bec": 2050,
      "became": 2051,
      "becom": 2052,
      "become": 2053,
      "becoming": 2054,
      "been": 2055,
      "before": 2056,
      "beg": 2057,
      "began": 2058,
      "began,": 2059,
      "began.": 2060,
      "beginn": 2061,
      "beginnings": 2062,
      "being": 2063,
      "beli": 2064,
      "belief": 2065,
      "belief,": 2066,
      "belief.": 2067,
      "beliefs": 2068,
      "bell": 2069,
      "bellion": 2070,
      "belong": 2071,
      "below": 2072,
      "below,": 2073,
      "beng": 2074,
      "bengal": 2075,
      "bengalí,": 2076,
      "ber": 2077,
      "bes": 2078,
      "beset": 2079,
      "best": 2080,
      "best-": 2081,
      "bet": 2082,
      "between": 2083,
      "bey": 2084,
      "bez": 2085,
      "bi": 2086,
      "bian": 2087,
      "bias,": 2088,
      "bien": 2089,
      "bient": 2090,
      "bierno": 2091,
      "big": 2092,
      "bill": 2093,
      "billion": 2094,
      "billion.": 2095,
      "bio": 2096,
      "biodiversity": 2097,
      "biological": 2098,
      "bios": 2099,
      "biosphere": 2100,
      "biotech": 2101,
      "bir": 2102,
      "birch": 2103,
      "bird": 2104,
      "birth": 2105,
      "birthplace": 2106,
      "births": 2107,
      "births.": 2108,
      "biryan": 2109,
      "bit": 2110,
      "bién": 2111,
      "bl": 2112,
      "black": 2113,
      "blackbuck": 2114,
      "ble": 2115,
      "blic": 2116,
      "bloc": 2117,
      "blou": 2118,
      "blowing": 2119,
      "blurred": 2120,
      "bo": 2121,
      "bod": 2122,
      "bodi": 2123,
      "bodies": 2124,
      "body": 2125,
      "body's": 2126,
      "bodyguard": 2127,
      "bol": 2128,
      "bon": 2129,
      "bonds": 2130,
      "bor": 2131,
      "border": 2132,
      "borders": 2133,
      "borne": 2134,
      "bos": 2135,
      "both": 2136,
      "bott": 2137,
      "bottom": 2138,
      "bour": 2139,
      "bre": 2140,
      "bread": 2141,
      "bread;": 2142,
      "break": 2143,
      "breakdown": 2144,
      "breakfast": 2145,
      "breath": 2146,
      "breathing": 2147,
      "bres": 2148,
      "bri": 2149,
      "bride": 2150,
      "brief": 2151,
      "briefly": 2152,
      "brit": 2153,
      "británic": 2154,
      "bro": 2155,
      "broad": 2156,
      "broadly": 2157,
      "bron": 2158,
      "bronze": 2159,
      "bronzes": 2160,
      "brough": 2161,
      "brought": 2162,
      "bu": 2163,
      "buc": 2164,
      "buck": 2165,
      "budist": 2166,
      "building": 2167,
      "bul": 2168,
      "bulk": 2169,
      "bur": 2170,
      "bust": 2171,
      "but": 2172,
      "bution": 2173,
      "by": 2174,
      "c": 2175,
      "c.": 2176,
      "ca": 2177,
      "cab": 2178,
      "cad": 2179,
      "cada": 2180,
      "cak": 2181,
      "cal": 2182,
      "calcul": 2183,
      "calend": 2184,
      "calendar": 2185,
      "calendr": 2186,
      "call": 2187,
      "called": 2188,
      "cam": 2189,
      "cambio": 2190,
      "cambios": 2191,
      "came": 2192,
      "camp": 2193,
      "campes": 2194,
      "can": 2195,
      "canal": 2196,
      "canalled": 2197,
      "canals,": 2198,
      "canon": 2199,
      "canop": 2200,
      "cap": 2201,
      "capability": 2202,
      "capac": 2203,
      "capit": 2204,
      "capita": 2205,
      "capital": 2206,
      "capped": 2207,
      "car": 2208,
      "carbon": 2209,
      "cardam": 2210,
      "care": 2211,
      "care.": 2212,
      "caretak": 2213,
      "carg": 2214,
      "carr": 2215,
      "carry": 2216,
      "carved": 2217,
      "cas": 2218,
      "casi": 2219,
      "cast": 2220,
      "castas": 2221,
      "caste": 2222,
      "caste,": 2223,
      "caste-": 2224,
      "caste-based": 2225,
      "caste-related": 2226,
      "caste.": 2227,
      "castes,": 2228,
      "catt": 2229,
      "cattle": 2230,
      "caus": 2231,
      "cause": 2232,
      "cause.": 2233,
      "caused": 2234,
      "causing": 2235,
      "caval": 2236,
      "ce": 2237,
      "cean": 2238,
      "ced": 2239,
      "ceed": 2240,
      "celeb": 2241,
      "cen": 2242,
      "censu": 2243,
      "census": 2244,
      "census,": 2245,
      "census.": 2246,
      "cent": 2247,
      "central": 2248,
      "centralised": 2249,
      "centre": 2250,
      "centro": 2251,
      "centur": 2252,
      "centuries": 2253,
      "centuries,": 2254,
      "century": 2255,
      "century,": 2256,
      "century.": 2257,
      "cer": 2258,
      "cere": 2259,
      "cereal": 2260,
      "ces": 2261,
      "ces,": 2262,
      "cess": 2263,
      "ch": 2264,
      "cha": 2265,
      "chain": 2266,
      "chains": 2267,
      "chains.": 2268,
      "chall": 2269,
      "chang": 2270,
      "change": 2271,
      "changed": 2272,
      "changes": 2273,
      "changes.": 2274,
      "changes—": 2275,
      "chap": 2276,
      "chapati,": 2277,
      "chapter": 2278,
      "char": 2279,
      "character": 2280,
      "characterised": 2281,
      "characteristic": 2282,
      "charter": 2283,
      "charts,": 2284,
      "chas": 2285,
      "che": 2286,
      "cheap": 2287,
      "chec": 2288,
      "ched": 2289,
      "cheetah": 2290,
      "chik": 2291,
      "child": 2292,
      "cho": 2293,
      "choic": 2294,
      "choli,": 2295,
      "chool": 2296,
      "chos": 2297,
      "chose": 2298,
      "chosen": 2299,
      "chronic": 2300,
      "chur": 2301,
      "churidar": 2302,
      "churidars": 2303,
      "churidars.": 2304,
      "ci": 2305,
      "cia": 2306,
      "cial": 2307,
      "cias": 2308,
      "cient": 2309,
      "ciente": 2310,
      "cig": 2311,
      "cil": 2312,
      "cin": 2313,
      "cinc": 2314,
      "cinco": 2315,
      "cinem": 2316,
      "cing": 2317,
      "cinnam": 2318,
      "cio": 2319,
      "cion": 2320,
      "ciones": 2321,
      "cios": 2322,
      "cit": 2323,
      "cited": 2324,
      "cities": 2325,
      "cities,": 2326,
      "citiz": 2327,
      "citizen": 2328,
      "citizens": 2329,
      "city": 2330,
      "city,": 2331,
      "ciud": 2332,
      "ciudad": 2333,
      "ciudades": 2334,
      "civ": 2335,
      "civil": 2336,
      "civili": 2337,
      "civilian": 2338,
      "civilisation": 2339,
      "ción": 2340,
      "ción,": 2341,
      "cl": 2342,
      "claim": 2343,
      "claiming": 2344,
      "clan": 2345,
      "clas": 2346,
      "class": 2347,
      "class.": 2348,
      "classes": 2349,
      "classes.": 2350,
      "classical": 2351,
      "classical,": 2352,
      "cle": 2353,
      "clean": 2354,
      "cleared": 2355,
      "cli": 2356,
      "clim": 2357,
      "climate": 2358,
      "climatic": 2359,
      "clo": 2360,
      "close": 2361,
      "cloth": 2362,
      "cloth,": 2363,
      "clothes": 2364,
      "clás": 2365,
      "clásica": 2366,
      "co": 2367,
      "co-": 2368,
      "co-operation": 2369,
      "coal": 2370,
      "coal-": 2371,
      "coalición": 2372,
      "coalition": 2373,
      "coalition,": 2374,
      "coast": 2375,
      "coast;": 2376,
      "coastal": 2377,
      "coastline": 2378,
      "coasts": 2379,
      "coasts.": 2380,
      "codi": 2381,
      "codified": 2382,
      "coins.": 2383,
      "col": 2384,
      "cold": 2385,
      "coll": 2386,
      "collab": 2387,
      "collar": 2388,
      "colleg": 2389,
      "colleges": 2390,
      "collision": 2391,
      "colon": 2392,
      "colonial": 2393,
      "com": 2394,
      "comenz": 2395,
      "comenzó": 2396,
      "comer": 2397,
      "comercial": 2398,
      "comerciales": 2399,
      "comercio": 2400,
      "comfort": 2401,
      "comfortable": 2402,
      "comm": 2403,
      "commer": 2404,
      "commerce": 2405,
      "commerce;": 2406,
      "commercial": 2407,
      "commercialisation": 2408,
      "commission": 2409,
      "commit": 2410,
      "committe": 2411,
      "common": 2412,
      "commonly": 2413,
      "communit": 2414,
      "como": 2415,
      "comp": 2416,
      "compan": 2417,
      "companies": 2418,
      "companies.": 2419,
      "company": 2420,
      "compared": 2421,
      "compl": 2422,
      "comple": 2423,
      "complemented": 2424,
      "complete": 2425,
      "completed": 2426,
      "complex": 2427,
      "compos": 2428,
      "composed": 2429,
      "composite": 2430,
      "compositions": 2431,
      "comprising": 2432,
      "comprom": 2433,
      "compromise": 2434,
      "compu": 2435,
      "comun": 2436,
      "comunicación": 2437,
      "comunidad": 2438,
      "común": 2439,
      "con": 2440,
      "conce": 2441,
      "concealed": 2442,
      "concent": 2443,
      "concept": 2444,
      "concepts": 2445,
      "condition": 2446,
      "condu": 2447,
      "conduc": 2448,
      "conduct": 2449,
      "conducted": 2450,
      "coni": 2451,
      "conoc": 2452,
      "conqu": 2453,
      "cons": 2454,
      "consci": 2455,
      "conserv": 2456,
      "consi": 2457,
      "consider": 2458,
      "considerable": 2459,
      "considered": 2460,
      "considering": 2461,
      "consist": 2462,
      "consiste": 2463,
      "consistently": 2464,
      "consists": 2465,
      "conso": 2466,
      "consolid": 2467,
      "consolidate": 2468,
      "consolidated": 2469,
      "consolidation": 2470,
      "consolidations": 2471,
      "conspic": 2472,
      "constit": 2473,
      "constitutes": 2474,
      "constitution": 2475,
      "constitution)": 2476,
      "constitution,": 2477,
      "constitutional": 2478,
      "consu": 2479,
      "consum": 2480,
      "consumption": 2481,
      "cont": 2482,
      "contain": 2483,
      "contains": 2484,
      "contem": 2485,
      "context": 2486,
      "contiene": 2487,
      "contin": 2488,
      "continent": 2489,
      "continental": 2490,
      "continu": 2491,
      "continue": 2492,
      "continued": 2493,
      "conto": 2494,
      "contra": 2495,
      "contrast": 2496,
      "contravene": 2497,
      "contri": 2498,
      "contribut": 2499,
      "contributed": 2500,
      "contributing": 2501,
      "contribution": 2502,
      "contributions": 2503,
      "contributors": 2504,
      "control": 2505,
      "controlar": 2506,
      "controlled": 2507,
      "conver": 2508,
      "convert": 2509,
      "convir": 2510,
      "convirti": 2511,
      "convirtió": 2512,
      "cook": 2513,
      "cooked": 2514,
      "cooking": 2515,
      "cooper": 2516,
      "cooperation": 2517,
      "cor": 2518,
      "coral": 2519,
      "cordi": 2520,
      "cordill": 2521,
      "cording": 2522,
      "core": 2523,
      "cori": 2524,
      "cosine": 2525,
      "cosmo": 2526,
      "cost": 2527,
      "costa": 2528,
      "cot": 2529,
      "cott": 2530,
      "could": 2531,
      "coun": 2532,
      "council": 2533,
      "counted": 2534,
      "counter": 2535,
      "countr": 2536,
      "countri": 2537,
      "countries": 2538,
      "countries.": 2539,
      "country": 2540,
      "country's": 2541,
      "country,": 2542,
      "country.": 2543,
      "cour": 2544,
      "course": 2545,
      "court": 2546,
      "court,": 2547,
      "courtes": 2548,
      "courts": 2549,
      "courts,": 2550,
      "courts.": 2551,
      "cover": 2552,
      "cra": 2553,
      "cre": 2554,
      "creat": 2555,
      "create": 2556,
      "created": 2557,
      "creating": 2558,
      "creativity": 2559,
      "crec": 2560,
      "crecimiento": 2561,
      "cres": 2562,
      "creó": 2563,
      "cri": 2564,
      "cricket": 2565,
      "cris": 2566,
      "crises:": 2567,
      "crisis": 2568,
      "cristian": 2569,
      "crit": 2570,
      "criter": 2571,
      "critical": 2572,
      "critically": 2573,
      "cro": 2574,
      "crocodi": 2575,
      "cropp": 2576,
      "crow": 2577,
      "cru": 2578,
      "crucial": 2579,
      "crust": 2580,
      "crust,": 2581,
      "crustal": 2582,
      "críquet": 2583,
      "ct": 2584,
      "cu": 2585,
      "cual": 2586,
      "cuales": 2587,
      "cuando": 2588,
      "cuatro": 2589,
      "cub": 2590,
      "cuent": 2591,
      "cuenta": 2592,
      "cuff": 2593,
      "cuis": 2594,
      "cul": 2595,
      "cult": 2596,
      "cultur": 2597,
      "cultura": 2598,
      "cultural": 2599,
      "culture": 2600,
      "culture,": 2601,
      "culture.": 2602,
      "culture;": 2603,
      "cultures": 2604,
      "culture—": 2605,
      "cum": 2606,
      "cur": 2607,
      "curren": 2608,
      "currenc": 2609,
      "currency": 2610,
      "currency,": 2611,
      "currency.": 2612,
      "current": 2613,
      "curtail": 2614,
      "cust": 2615,
      "custom": 2616,
      "cut": 2617,
      "cá": 2618,
      "cámara": 2619,
      "d": 2620,
      "d.": 2621,
      "da": 2622,
      "dad": 2623,
      "dai": 2624,
      "dam": 2625,
      "dan": 2626,
      "dance": 2627,
      "dance,": 2628,
      "dance-d": 2629,
      "dance-dr": 2630,
      "dance-dramas": 2631,
      "dance.": 2632,
      "dances": 2633,
      "dances,": 2634,
      "dat": 2635,
      "data": 2636,
      "date": 2637,
      "dates": 2638,
      "dawn": 2639,
      "day": 2640,
      "day.": 2641,
      "dd": 2642,
      "de": 2643,
      "de,": 2644,
      "deal": 2645,
      "death": 2646,
      "deb": 2647,
      "dec": 2648,
      "decade": 2649,
      "decades": 2650,
      "decenn": 2651,
      "decidu": 2652,
      "deciduous": 2653,
      "decimal": 2654,
      "decis": 2655,
      "decisions": 2656,
      "decisive": 2657,
      "decl": 2658,
      "decla": 2659,
      "declared": 2660,
      "declin": 2661,
      "decline": 2662,
      "declined,": 2663,
      "declining": 2664,
      "decor": 2665,
      "decreasing": 2666,
      "ded": 2667,
      "deep": 2668,
      "def": 2669,
      "defe": 2670,
      "defeat": 2671,
      "defeated": 2672,
      "defeated.": 2673,
      "defin": 2674,
      "defined": 2675,
      "defining": 2676,
      "definition": 2677,
      "definitions": 2678,
      "deforest": 2679,
      "del": 2680,
      "deleg": 2681,
      "delegates": 2682,
      "delo": 2683,
      "delta": 2684,
      "dem": 2685,
      "demand,": 2686,
      "demarc": 2687,
      "democ": 2688,
      "democrac": 2689,
      "democracy.": 2690,
      "democratic": 2691,
      "den": 2692,
      "denomin": 2693,
      "dense": 2694,
      "density": 2695,
      "dent": 2696,
      "dentro": 2697,
      "dep": 2698,
      "depend": 2699,
      "dependent": 2700,
      "dependient": 2701,
      "deport": 2702,
      "der": 2703,
      "derec": 2704,
      "dering": 2705,
      "derived": 2706,
      "derives": 2707,
      "deriving": 2708,
      "dern": 2709,
      "ders": 2710,
      "des": 2711,
      "desarrol": 2712,
      "desarrollo": 2713,
      "desc": 2714,
      "descri": 2715,
      "desde": 2716,
      "desigual": 2717,
      "despite": 2718,
      "después": 2719,
      "dest": 2720,
      "destac": 2721,
      "destin": 2722,
      "destru": 2723,
      "detail": 2724,
      "deter": 2725,
      "dev": 2726,
      "devad": 2727,
      "devast": 2728,
      "devastating": 2729,
      "devastation": 2730,
      "devd": 2731,
      "develo": 2732,
      "develop": 2733,
      "develop.": 2734,
      "developed": 2735,
      "developed,": 2736,
      "developed;": 2737,
      "developing": 2738,
      "development": 2739,
      "development.": 2740,
      "devo": 2741,
      "devotion": 2742,
      "devotion,": 2743,
      "devotional": 2744,
      "dh": 2745,
      "dha": 2746,
      "dham": 2747,
      "dhot": 2748,
      "di": 2749,
      "dia": 2750,
      "dial": 2751,
      "dial,": 2752,
      "dian": 2753,
      "dic": 2754,
      "dice": 2755,
      "dicl": 2756,
      "dico": 2757,
      "dicos": 2758,
      "did": 2759,
      "died": 2760,
      "dient": 2761,
      "dients": 2762,
      "difer": 2763,
      "diff": 2764,
      "differ": 2765,
      "different": 2766,
      "differenti": 2767,
      "diffused": 2768,
      "diment": 2769,
      "ding": 2770,
      "dining": 2771,
      "dio": 2772,
      "dir": 2773,
      "dire": 2774,
      "direc": 2775,
      "direct": 2776,
      "directamente": 2777,
      "direction.": 2778,
      "directions": 2779,
      "directiv": 2780,
      "directly": 2781,
      "directors": 2782,
      "dis": 2783,
      "disadv": 2784,
      "disband": 2785,
      "discont": 2786,
      "discri": 2787,
      "discrimin": 2788,
      "discrimination,": 2789,
      "discriminator": 2790,
      "dise": 2791,
      "diseas": 2792,
      "dish": 2793,
      "dishes": 2794,
      "dishes.": 2795,
      "dismin": 2796,
      "disp": 2797,
      "displ": 2798,
      "display": 2799,
      "displayed": 2800,
      "dispro": 2801,
      "disputed": 2802,
      "disputes": 2803,
      "disru": 2804,
      "dist": 2805,
      "distance,": 2806,
      "distinc": 2807,
      "distinct": 2808,
      "distric": 2809,
      "dit": 2810,
      "dition": 2811,
      "div": 2812,
      "diver": 2813,
      "diversas": 2814,
      "diverse": 2815,
      "diverse,": 2816,
      "diverse.": 2817,
      "diversity": 2818,
      "diversity.": 2819,
      "divi": 2820,
      "divided": 2821,
      "divis": 2822,
      "divorce": 2823,
      "dle": 2824,
      "do": 2825,
      "doc": 2826,
      "doctr": 2827,
      "docu": 2828,
      "dol": 2829,
      "dom": 2830,
      "domestic": 2831,
      "domin": 2832,
      "dominance": 2833,
      "dominion": 2834,
      "dominions,": 2835,
      "don": 2836,
      "done": 2837,
      "dos": 2838,
      "dose": 2839,
      "dou": 2840,
      "down": 2841,
      "dr": 2842,
      "dra": 2843,
      "draf": 2844,
      "drain": 2845,
      "draped.": 2846,
      "draw": 2847,
      "drawn": 2848,
      "dre": 2849,
      "dress": 2850,
      "drew": 2851,
      "dri": 2852,
      "drift": 2853,
      "drive": 2854,
      "driving": 2855,
      "dro": 2856,
      "drop": 2857,
      "drough": 2858,
      "dry": 2859,
      "ds": 2860,
      "ds,": 2861,
      "du": 2862,
      "duc": 2863,
      "duced": 2864,
      "duct": 2865,
      "duction": 2866,
      "due": 2867,
      "dur": 2868,
      "durante": 2869,
      "during": 2870,
      "dy": 2871,
      "dyn": 2872,
      "dynam": 2873,
      "dé": 2874,
      "déc": 2875,
      "década": 2876,
      "décadas": 2877,
      "dó": 2878,
      "e": 2879,
      "e,": 2880,
      "e.": 2881,
      "e.​": 2882,
      "e;": 2883,
      "each": 2884,
      "ear": 2885,
      "earli": 2886,
      "earlier": 2887,
      "earliest": 2888,
      "early": 2889,
      "earth.": 2890,
      "east": 2891,
      "east.": 2892,
      "eastern": 2893,
      "eat": 2894,
      "eb": 2895,
      "ec": 2896,
      "echos": 2897,
      "ecologically": 2898,
      "econ": 2899,
      "econom": 2900,
      "economic": 2901,
      "economic,": 2902,
      "economically": 2903,
      "economics.": 2904,
      "economies": 2905,
      "economy": 2906,
      "economy,": 2907,
      "economy.": 2908,
      "economy;": 2909,
      "economía": 2910,
      "económic": 2911,
      "ect": 2912,
      "ected": 2913,
      "ection": 2914,
      "ection.": 2915,
      "ections": 2916,
      "ectiv": 2917,
      "ective": 2918,
      "ectos": 2919,
      "ecut": 2920,
      "ed": 2921,
      "ed,": 2922,
      "edad": 2923,
      "edic": 2924,
      "edicts": 2925,
      "educ": 2926,
      "education": 2927,
      "education,": 2928,
      "ef": 2929,
      "eff": 2930,
      "effec": 2931,
      "effect": 2932,
      "effective": 2933,
      "eight": 2934,
      "eight.": 2935,
      "eighte": 2936,
      "eighty": 2937,
      "eign": 2938,
      "eing": 2939,
      "either": 2940,
      "ej": 2941,
      "ejecut": 2942,
      "ejér": 2943,
      "ejércit": 2944,
      "el": 2945,
      "elder": 2946,
      "ele": 2947,
      "elec": 2948,
      "elecciones": 2949,
      "elected": 2950,
      "election": 2951,
      "election,": 2952,
      "election.": 2953,
      "elections": 2954,
      "elections,": 2955,
      "elections.": 2956,
      "electr": 2957,
      "elit": 2958,
      "elite": 2959,
      "elites": 2960,
      "elites,": 2961,
      "ell": 2962,
      "ely": 2963,
      "em": 2964,
      "em,": 2965,
      "emale": 2966,
      "emb": 2967,
      "embarg": 2968,
      "embargo,": 2969,
      "ember": 2970,
      "embo": 2971,
      "embro": 2972,
      "ement": 2973,
      "emente": 2974,
      "emer": 2975,
      "emerg": 2976,
      "emerge": 2977,
      "emerged": 2978,
      "emerged,": 2979,
      "emerged.": 2980,
      "emergency,": 2981,
      "emerging": 2982,
      "emission": 2983,
      "emits": 2984,
      "emp": 2985,
      "empe": 2986,
      "emper": 2987,
      "emperor": 2988,
      "emphas": 2989,
      "emphasis": 2990,
      "emphasising": 2991,
      "empire": 2992,
      "empire's": 2993,
      "emple": 2994,
      "employ": 2995,
      "employed": 2996,
      "employing": 2997,
      "employment": 2998,
      "empo": 2999,
      "empres": 3000,
      "ems": 3001,
      "en": 3002,
      "ena": 3003,
      "enab": 3004,
      "enabled": 3005,
      "enabling": 3006,
      "enac": 3007,
      "enacted": 3008,
      "enc": 3009,
      "enca": 3010,
      "ence": 3011,
      "ence.": 3012,
      "enci": 3013,
      "encia": 3014,
      "encia,": 3015,
      "encont": 3016,
      "encro": 3017,
      "encuent": 3018,
      "encuentra": 3019,
      "encuentran": 3020,
      "end": 3021,
      "endang": 3022,
      "endangered": 3023,
      "ende": 3024,
      "ended": 3025,
      "endem": 3026,
      "endemic": 3027,
      "endemic,": 3028,
      "endemic.": 3029,
      "endemics": 3030,
      "endemism": 3031,
      "endemism.": 3032,
      "ending": 3033,
      "endo": 3034,
      "endogam": 3035,
      "endé": 3036,
      "endémic": 3037,
      "ene": 3038,
      "ened": 3039,
      "enen": 3040,
      "ener": 3041,
      "energy": 3042,
      "eng": 3043,
      "ening": 3044,
      "enli": 3045,
      "enn": 3046,
      "ens": 3047,
      "ensa": 3048,
      "ense": 3049,
      "ensl": 3050,
      "ensu": 3051,
      "ensus": 3052,
      "ent": 3053,
      "enta": 3054,
      "ente": 3055,
      "enter": 3056,
      "entered": 3057,
      "enterp": 3058,
      "entes": 3059,
      "entire": 3060,
      "ently": 3061,
      "ento": 3062,
      "enton": 3063,
      "entonces": 3064,
      "entos": 3065,
      "entral": 3066,
      "entre": 3067,
      "entren": 3068,
      "env": 3069,
      "enz": 3070,
      "eograph": 3071,
      "ep": 3072,
      "epic": 3073,
      "epics,": 3074,
      "equ": 3075,
      "equall": 3076,
      "equates": 3077,
      "equator": 3078,
      "equi": 3079,
      "equival": 3080,
      "er": 3081,
      "er,": 3082,
      "er.": 3083,
      "era": 3084,
      "era,": 3085,
      "eral": 3086,
      "eran": 3087,
      "erc": 3088,
      "ere": 3089,
      "ered": 3090,
      "eren": 3091,
      "erg": 3092,
      "ergenc": 3093,
      "ergency,": 3094,
      "ergy": 3095,
      "ering": 3096,
      "erly": 3097,
      "ern": 3098,
      "erno": 3099,
      "eron": 3100,
      "eros": 3101,
      "erous": 3102,
      "erra": 3103,
      "erras": 3104,
      "ers": 3105,
      "ers,": 3106,
      "ers.": 3107,
      "ert": 3108,
      "es": 3109,
      "es\"": 3110,
      "es)": 3111,
      "es,": 3112,
      "es.": 3113,
      "es.​": 3114,
      "es:": 3115,
      "es;": 3116,
      "esc": 3117,
      "escrit": 3118,
      "ese": 3119,
      "ese,": 3120,
      "esp": 3121,
      "espec": 3122,
      "especial": 3123,
      "especially": 3124,
      "especialmente": 3125,
      "especies": 3126,
      "espite": 3127,
      "espu": 3128,
      "espués": 3129,
      "ess": 3130,
      "essent": 3131,
      "essential": 3132,
      "est": 3133,
      "est,": 3134,
      "est-": 3135,
      "esta": 3136,
      "estab": 3137,
      "establec": 3138,
      "establish": 3139,
      "established": 3140,
      "establishment": 3141,
      "estad": 3142,
      "estado": 3143,
      "estados": 3144,
      "estas": 3145,
      "estat": 3146,
      "estatus": 3147,
      "este": 3148,
      "estic": 3149,
      "estil": 3150,
      "estim": 3151,
      "estimated": 3152,
      "estimating": 3153,
      "estión": 3154,
      "estos": 3155,
      "estru": 3156,
      "estruct": 3157,
      "estu": 3158,
      "estuvo": 3159,
      "está": 3160,
      "están": 3161,
      "et": 3162,
      "eta": 3163,
      "etah": 3164,
      "ete": 3165,
      "eth": 3166,
      "ethical": 3167,
      "ethically,": 3168,
      "ethnic": 3169,
      "etho": 3170,
      "etic": 3171,
      "ets": 3172,
      "ett": 3173,
      "etwork": 3174,
      "ety": 3175,
      "etymon": 3176,
      "eur": 3177,
      "europe": 3178,
      "ev": 3179,
      "eval": 3180,
      "event": 3181,
      "eventually": 3182,
      "every": 3183,
      "everyday": 3184,
      "everywhere": 3185,
      "evidence": 3186,
      "evolved": 3187,
      "evolving": 3188,
      "ew": 3189,
      "ex": 3190,
      "exam": 3191,
      "example": 3192,
      "example,": 3193,
      "exc": 3194,
      "excav": 3195,
      "excavated": 3196,
      "exce": 3197,
      "exceed": 3198,
      "exchang": 3199,
      "exchange": 3200,
      "exchanged": 3201,
      "exclu": 3202,
      "excur": 3203,
      "exec": 3204,
      "execut": 3205,
      "executive": 3206,
      "executives": 3207,
      "exerc": 3208,
      "exist": 3209,
      "existen": 3210,
      "existing": 3211,
      "exogam": 3212,
      "exp": 3213,
      "expan": 3214,
      "expanding": 3215,
      "expans": 3216,
      "expansion": 3217,
      "expansion,": 3218,
      "expansions": 3219,
      "expect": 3220,
      "expected": 3221,
      "expen": 3222,
      "experi": 3223,
      "expor": 3224,
      "export": 3225,
      "exported": 3226,
      "exporter": 3227,
      "exporter.": 3228,
      "exporting": 3229,
      "exports": 3230,
      "exports.": 3231,
      "express": 3232,
      "expressing": 3233,
      "expression": 3234,
      "expression,": 3235,
      "ext": 3236,
      "extant": 3237,
      "exten": 3238,
      "extend": 3239,
      "extends": 3240,
      "extension": 3241,
      "extensive": 3242,
      "extensively": 3243,
      "exter": 3244,
      "external": 3245,
      "extinct": 3246,
      "extre": 3247,
      "extreme": 3248,
      "extremely": 3249,
      "ey": 3250,
      "ez": 3251,
      "f": 3252,
      "fa": 3253,
      "fables,": 3254,
      "fac": 3255,
      "faces": 3256,
      "facilitated": 3257,
      "fact": 3258,
      "factor": 3259,
      "factors": 3260,
      "fai": 3261,
      "fall": 3262,
      "falls": 3263,
      "fam": 3264,
      "famili": 3265,
      "familia": 3266,
      "families": 3267,
      "families.": 3268,
      "family": 3269,
      "famine": 3270,
      "famines,": 3271,
      "far": 3272,
      "far-": 3273,
      "far-fl": 3274,
      "far-right": 3275,
      "faraw": 3276,
      "fare": 3277,
      "farm": 3278,
      "farmers": 3279,
      "farther": 3280,
      "fash": 3281,
      "fast": 3282,
      "fastening": 3283,
      "faster": 3284,
      "fastest": 3285,
      "fastest-": 3286,
      "fav": 3287,
      "favou": 3288,
      "favour": 3289,
      "fe": 3290,
      "feat": 3291,
      "feature": 3292,
      "features": 3293,
      "featuring": 3294,
      "fed": 3295,
      "federal": 3296,
      "fel": 3297,
      "fell": 3298,
      "fem": 3299,
      "female": 3300,
      "females": 3301,
      "fend": 3302,
      "fer": 3303,
      "ferro": 3304,
      "fest": 3305,
      "festival": 3306,
      "festive": 3307,
      "feud": 3308,
      "few": 3309,
      "ff": 3310,
      "fi": 3311,
      "fic": 3312,
      "fica": 3313,
      "ficial": 3314,
      "fied": 3315,
      "fig": 3316,
      "figure": 3317,
      "figure.": 3318,
      "figures": 3319,
      "figures,": 3320,
      "figures.": 3321,
      "fil": 3322,
      "film": 3323,
      "films": 3324,
      "fin": 3325,
      "final": 3326,
      "fine": 3327,
      "fined": 3328,
      "fir": 3329,
      "fire": 3330,
      "firepower": 3331,
      "fires,": 3332,
      "first": 3333,
      "fish": 3334,
      "five": 3335,
      "five-": 3336,
      "five-year": 3337,
      "fix": 3338,
      "fl": 3339,
      "flan": 3340,
      "flanked": 3341,
      "flanking": 3342,
      "flaw": 3343,
      "flo": 3344,
      "flood": 3345,
      "floods": 3346,
      "flour": 3347,
      "flourish": 3348,
      "flourished": 3349,
      "flow": 3350,
      "flower": 3351,
      "flowering": 3352,
      "flowing": 3353,
      "fo": 3354,
      "foc": 3355,
      "foetic": 3356,
      "foeticide": 3357,
      "foeticide,": 3358,
      "fol": 3359,
      "folk": 3360,
      "folk,": 3361,
      "follow": 3362,
      "followed": 3363,
      "followed,": 3364,
      "following": 3365,
      "following,": 3366,
      "following:": 3367,
      "follows": 3368,
      "food": 3369,
      "for": 3370,
      "foray": 3371,
      "forb": 3372,
      "force": 3373,
      "forced": 3374,
      "forces": 3375,
      "fore": 3376,
      "foreign": 3377,
      "forest": 3378,
      "forest,": 3379,
      "forests": 3380,
      "forests,": 3381,
      "form": 3382,
      "form,": 3383,
      "form.": 3384,
      "forma": 3385,
      "formal": 3386,
      "formally": 3387,
      "formas": 3388,
      "formation": 3389,
      "formations,": 3390,
      "forme": 3391,
      "formed": 3392,
      "formerly": 3393,
      "forms": 3394,
      "forms,": 3395,
      "forms.": 3396,
      "formul": 3397,
      "formó": 3398,
      "fort": 3399,
      "forti": 3400,
      "fortified": 3401,
      "foss": 3402,
      "fought": 3403,
      "foun": 3404,
      "found": 3405,
      "found,": 3406,
      "foundation": 3407,
      "foundations": 3408,
      "founded": 3409,
      "founder": 3410,
      "founding": 3411,
      "four": 3412,
      "fr": 3413,
      "framework": 3414,
      "fre": 3415,
      "from": 3416,
      "ft": 3417,
      "fu": 3418,
      "fue": 3419,
      "fuer": 3420,
      "fueron": 3421,
      "fuerza": 3422,
      "fuerzas": 3423,
      "ful": 3424,
      "full": 3425,
      "fun": 3426,
      "fund": 3427,
      "fundament": 3428,
      "fundamental": 3429,
      "further": 3430,
      "fut": 3431,
      "fía": 3432,
      "g": 3433,
      "ga": 3434,
      "gain": 3435,
      "gained": 3436,
      "gan": 3437,
      "gana": 3438,
      "ganó": 3439,
      "gap": 3440,
      "gar": 3441,
      "garlic": 3442,
      "garlic,": 3443,
      "garment,": 3444,
      "garment.": 3445,
      "garments": 3446,
      "gas": 3447,
      "gation,": 3448,
      "gave": 3449,
      "ge": 3450,
      "gen": 3451,
      "genc": 3452,
      "gence": 3453,
      "gender": 3454,
      "genders": 3455,
      "gener": 3456,
      "general": 3457,
      "generally": 3458,
      "generally,": 3459,
      "generate": 3460,
      "generated": 3461,
      "generation": 3462,
      "generic": 3463,
      "genetic": 3464,
      "gent": 3465,
      "geograph": 3466,
      "geographical": 3467,
      "geographically": 3468,
      "geolog": 3469,
      "geologically": 3470,
      "gh": 3471,
      "ghal": 3472,
      "ghar": 3473,
      "ght": 3474,
      "gi": 3475,
      "giant": 3476,
      "gig": 3477,
      "gigaw": 3478,
      "gil": 3479,
      "ging": 3480,
      "gion": 3481,
      "gir": 3482,
      "give": 3483,
      "gives": 3484,
      "gión": 3485,
      "gl": 3486,
      "glaci": 3487,
      "glo": 3488,
      "glob": 3489,
      "global": 3490,
      "gn": 3491,
      "go": 3492,
      "goals": 3493,
      "gober": 3494,
      "gobern": 3495,
      "gobierno": 3496,
      "god": 3497,
      "gods": 3498,
      "gol": 3499,
      "gold": 3500,
      "good": 3501,
      "goods": 3502,
      "gos": 3503,
      "govern": 3504,
      "governed": 3505,
      "governing": 3506,
      "government": 3507,
      "government's": 3508,
      "government,": 3509,
      "government;": 3510,
      "governments": 3511,
      "gr": 3512,
      "gra": 3513,
      "grad": 3514,
      "gradient": 3515,
      "gradual": 3516,
      "gradually": 3517,
      "grain": 3518,
      "gramm": 3519,
      "gran": 3520,
      "grand": 3521,
      "grande": 3522,
      "grandes": 3523,
      "grands": 3524,
      "granted": 3525,
      "grass": 3526,
      "grazed": 3527,
      "gre": 3528,
      "great": 3529,
      "greater": 3530,
      "greatly": 3531,
      "green": 3532,
      "greenhouse": 3533,
      "grew": 3534,
      "gro": 3535,
      "groom": 3536,
      "gross": 3537,
      "group": 3538,
      "groupings": 3539,
      "groups": 3540,
      "groups,": 3541,
      "grow": 3542,
      "growing": 3543,
      "growing,": 3544,
      "growing.": 3545,
      "grown": 3546,
      "growth": 3547,
      "growth.": 3548,
      "gru": 3549,
      "grupos": 3550,
      "gu": 3551,
      "guard": 3552,
      "guerra": 3553,
      "guide": 3554,
      "gun": 3555,
      "gó": 3556,
      "gún": 3557,
      "h": 3558,
      "ha": 3559,
      "hab": 3560,
      "habit": 3561,
      "habitat": 3562,
      "habitats.": 3563,
      "habl": 3564,
      "había": 3565,
      "habían": 3566,
      "hac": 3567,
      "hace": 3568,
      "hacia": 3569,
      "had": 3570,
      "had,": 3571,
      "hal": 3572,
      "half": 3573,
      "ham": 3574,
      "hamb": 3575,
      "hambrun": 3576,
      "hamstr": 3577,
      "han": 3578,
      "har": 3579,
      "harsh": 3580,
      "has": 3581,
      "hasta": 3582,
      "hat": 3583,
      "hau": 3584,
      "hav": 3585,
      "have": 3586,
      "having": 3587,
      "hay": 3588,
      "he": 3589,
      "head": 3590,
      "headed": 3591,
      "heads,": 3592,
      "heart": 3593,
      "heav": 3594,
      "hel": 3595,
      "held": 3596,
      "hen": 3597,
      "her": 3598,
      "herbal": 3599,
      "herds": 3600,
      "here": 3601,
      "here.": 3602,
      "hered": 3603,
      "heredit": 3604,
      "hereditary": 3605,
      "heredity.": 3606,
      "herent": 3607,
      "hi": 3608,
      "hi,": 3609,
      "hic": 3610,
      "hig": 3611,
      "high": 3612,
      "highe": 3613,
      "higher": 3614,
      "highest": 3615,
      "highly": 3616,
      "him": 3617,
      "hindi": 3618,
      "hindu": 3619,
      "hinduismo": 3620,
      "his": 3621,
      "histor": 3622,
      "histori": 3623,
      "historiadores": 3624,
      "historians": 3625,
      "historical": 3626,
      "historically": 3627,
      "histories": 3628,
      "history": 3629,
      "history,": 3630,
      "history.": 3631,
      "hm": 3632,
      "ho": 3633,
      "hoc": 3634,
      "hol": 3635,
      "holding": 3636,
      "hom": 3637,
      "home": 3638,
      "hon": 3639,
      "hood": 3640,
      "hooded": 3641,
      "hor": 3642,
      "horiz": 3643,
      "hos": 3644,
      "host": 3645,
      "hosts": 3646,
      "hots": 3647,
      "hotspot": 3648,
      "hou": 3649,
      "hour": 3650,
      "hous": 3651,
      "house": 3652,
      "houses": 3653,
      "houses:": 3654,
      "however,": 3655,
      "hoy": 3656,
      "hru": 3657,
      "hub": 3658,
      "hubs": 3659,
      "hum": 3660,
      "human": 3661,
      "humanos": 3662,
      "humans": 3663,
      "humid": 3664,
      "humped": 3665,
      "hun": 3666,
      "hund": 3667,
      "hunter": 3668,
      "hunter-": 3669,
      "hunter-ga": 3670,
      "hunter-gather": 3671,
      "hunter-gatherers,": 3672,
      "hy": 3673,
      "hydro": 3674,
      "hym": 3675,
      "hymn": 3676,
      "hymns": 3677,
      "há": 3678,
      "hú": 3679,
      "hā": 3680,
      "i": 3681,
      "i)": 3682,
      "i,": 3683,
      "i-": 3684,
      "i.": 3685,
      "ia": 3686,
      "ial": 3687,
      "ially": 3688,
      "ian": 3689,
      "ians": 3690,
      "ias": 3691,
      "iat": 3692,
      "ic": 3693,
      "ic,": 3694,
      "ic.": 3695,
      "ica": 3696,
      "ica,": 3697,
      "icación": 3698,
      "ical": 3699,
      "ically": 3700,
      "ically,": 3701,
      "icas": 3702,
      "ice": 3703,
      "ich": 3704,
      "icial": 3705,
      "icias": 3706,
      "icide": 3707,
      "ición": 3708,
      "icken": 3709,
      "icon": 3710,
      "iconic": 3711,
      "ics": 3712,
      "ics,": 3713,
      "ict": 3714,
      "id": 3715,
      "ida": 3716,
      "idad": 3717,
      "idades": 3718,
      "idar": 3719,
      "idas": 3720,
      "ide": 3721,
      "ideas": 3722,
      "ided": 3723,
      "idence": 3724,
      "ident": 3725,
      "identity,": 3726,
      "ideological": 3727,
      "ider": 3728,
      "idi": 3729,
      "idiom": 3730,
      "idiomas": 3731,
      "idli,": 3732,
      "ido": 3733,
      "idos": 3734,
      "idu": 3735,
      "ie": 3736,
      "ied": 3737,
      "ien": 3738,
      "iene": 3739,
      "ient": 3740,
      "iente": 3741,
      "iento": 3742,
      "ientos": 3743,
      "ientras": 3744,
      "ier": 3745,
      "ieron": 3746,
      "ierto": 3747,
      "ies": 3748,
      "ies,": 3749,
      "ies.": 3750,
      "ified": 3751,
      "ig": 3752,
      "iger": 3753,
      "igh": 3754,
      "ight": 3755,
      "ign": 3756,
      "igual": 3757,
      "ik": 3758,
      "il": 3759,
      "ild": 3760,
      "ilding": 3761,
      "ildlife": 3762,
      "ile": 3763,
      "ili": 3764,
      "iling": 3765,
      "ilit": 3766,
      "ilitated": 3767,
      "ility": 3768,
      "iliz": 3769,
      "ill": 3770,
      "illed": 3771,
      "illegal": 3772,
      "ily": 3773,
      "im": 3774,
      "imal": 3775,
      "ime": 3776,
      "imedia": 3777,
      "imiento": 3778,
      "imientos": 3779,
      "immediately": 3780,
      "immen": 3781,
      "imper": 3782,
      "imperial": 3783,
      "imperio": 3784,
      "imple": 3785,
      "implement": 3786,
      "implemented": 3787,
      "impor": 3788,
      "import": 3789,
      "important": 3790,
      "important.": 3791,
      "importante": 3792,
      "importantes": 3793,
      "impro": 3794,
      "improv": 3795,
      "improved": 3796,
      "improvement": 3797,
      "in": 3798,
      "in,": 3799,
      "in.": 3800,
      "ina": 3801,
      "inated": 3802,
      "inc": 3803,
      "ince": 3804,
      "inclu": 3805,
      "include": 3806,
      "included": 3807,
      "included.": 3808,
      "includes": 3809,
      "including": 3810,
      "inclusive": 3811,
      "incluy": 3812,
      "incluyen": 3813,
      "incluyendo": 3814,
      "income": 3815,
      "income.": 3816,
      "incre": 3817,
      "increas": 3818,
      "increase": 3819,
      "increased": 3820,
      "increasing": 3821,
      "increasingly": 3822,
      "inct": 3823,
      "inction": 3824,
      "ind": 3825,
      "indefin": 3826,
      "independ": 3827,
      "independence": 3828,
      "independencia": 3829,
      "independent": 3830,
      "independient": 3831,
      "independiente": 3832,
      "indh": 3833,
      "indi": 3834,
      "india": 3835,
      "indias": 3836,
      "indias,": 3837,
      "indic": 3838,
      "indigen": 3839,
      "indigenou": 3840,
      "indigenous": 3841,
      "indio": 3842,
      "indio,": 3843,
      "indios": 3844,
      "indivi": 3845,
      "indo": 3846,
      "indu": 3847,
      "indust": 3848,
      "industr": 3849,
      "industri": 3850,
      "industria": 3851,
      "industrial": 3852,
      "industry": 3853,
      "industry,": 3854,
      "industry.": 3855,
      "ine": 3856,
      "ine.": 3857,
      "ined": 3858,
      "inequal": 3859,
      "inequality": 3860,
      "inequality,": 3861,
      "ines,": 3862,
      "inf": 3863,
      "infections": 3864,
      "inflow": 3865,
      "influ": 3866,
      "influen": 3867,
      "influence": 3868,
      "influence.": 3869,
      "influenced": 3870,
      "influences": 3871,
      "influences,": 3872,
      "inform": 3873,
      "information": 3874,
      "ing": 3875,
      "ing,": 3876,
      "ingest": 3877,
      "ingl": 3878,
      "inglés": 3879,
      "ingres": 3880,
      "ings": 3881,
      "inic": 3882,
      "ining": 3883,
      "init": 3884,
      "initi": 3885,
      "initially": 3886,
      "initiat": 3887,
      "inn": 3888,
      "inno": 3889,
      "innov": 3890,
      "ino": 3891,
      "inos": 3892,
      "ins": 3893,
      "ins.": 3894,
      "inscri": 3895,
      "instan": 3896,
      "instead": 3897,
      "institution": 3898,
      "institution.": 3899,
      "institutional": 3900,
      "instru": 3901,
      "insur": 3902,
      "int": 3903,
      "intent": 3904,
      "inter": 3905,
      "interest": 3906,
      "intermit": 3907,
      "internal": 3908,
      "international": 3909,
      "interv": 3910,
      "intervene": 3911,
      "intervention": 3912,
      "into": 3913,
      "intro": 3914,
      "introduced": 3915,
      "introduced,": 3916,
      "introduction": 3917,
      "inv": 3918,
      "inval": 3919,
      "invas": 3920,
      "invasive": 3921,
      "inve": 3922,
      "invention": 3923,
      "involved": 3924,
      "involving": 3925,
      "io": 3926,
      "ion": 3927,
      "ion,": 3928,
      "ioned": 3929,
      "iones": 3930,
      "ions": 3931,
      "ions,": 3932,
      "ior": 3933,
      "ios": 3934,
      "ip": 3935,
      "iqu": 3936,
      "ir": 3937,
      "ird": 3938,
      "ire": 3939,
      "iron": 3940,
      "irreg": 3941,
      "irrig": 3942,
      "irt": 3943,
      "is": 3944,
      "is.": 3945,
      "isation": 3946,
      "ise": 3947,
      "ised": 3948,
      "ises": 3949,
      "ish": 3950,
      "ished": 3951,
      "isi": 3952,
      "ising": 3953,
      "ision": 3954,
      "isl": 3955,
      "islam": 3956,
      "island": 3957,
      "ism": 3958,
      "ism,": 3959,
      "ism.": 3960,
      "ismo": 3961,
      "isol": 3962,
      "isolat": 3963,
      "isolation": 3964,
      "ission": 3965,
      "ist": 3966,
      "ista": 3967,
      "istan": 3968,
      "istas": 3969,
      "isters": 3970,
      "istic": 3971,
      "isting": 3972,
      "istor": 3973,
      "istory": 3974,
      "ists": 3975,
      "istán": 3976,
      "it": 3977,
      "ita": 3978,
      "ital": 3979,
      "itat": 3980,
      "itated": 3981,
      "ite": 3982,
      "itect": 3983,
      "ited": 3984,
      "ith": 3985,
      "ither": 3986,
      "ities": 3987,
      "ition": 3988,
      "ition,": 3989,
      "itions": 3990,
      "its": 3991,
      "itself": 3992,
      "itu": 3993,
      "itude": 3994,
      "ity": 3995,
      "ity,": 3996,
      "iv": 3997,
      "iva": 3998,
      "ival": 3999,
      "ivas": 4000,
      "ive": 4001,
      "ived": 4002,
      "ives": 4003,
      "ivil": 4004,
      "ivilisation": 4005,
      "iving": 4006,
      "ivity": 4007,
      "ivo": 4008,
      "ivos": 4009,
      "ix": 4010,
      "iz": 4011,
      "ización": 4012,
      "ió": 4013,
      "ión": 4014,
      "j": 4015,
      "ja": 4016,
      "jab": 4017,
      "jac": 4018,
      "jacket": 4019,
      "jain": 4020,
      "je": 4021,
      "ject": 4022,
      "jer": 4023,
      "jeron": 4024,
      "ji": 4025,
      "jo": 4026,
      "jor": 4027,
      "ju": 4028,
      "jur": 4029,
      "juris": 4030,
      "jurisdic": 4031,
      "jurisdiction": 4032,
      "just": 4033,
      "jó": 4034,
      "k": 4035,
      "kabad": 4036,
      "kame": 4037,
      "kameez": 4038,
      "kameez.": 4039,
      "kat": 4040,
      "katab": 4041,
      "ke": 4042,
      "ked": 4043,
      "keep": 4044,
      "ken": 4045,
      "ket": 4046,
      "key": 4047,
      "kh": 4048,
      "kho": 4049,
      "kho,": 4050,
      "kil": 4051,
      "kill": 4052,
      "killed": 4053,
      "killing": 4054,
      "kilomet": 4055,
      "kilometres": 4056,
      "kiló": 4057,
      "kilómet": 4058,
      "king": 4059,
      "kingdom": 4060,
      "kingdoms": 4061,
      "kingdoms.": 4062,
      "kingly": 4063,
      "kk": 4064,
      "kne": 4065,
      "kno": 4066,
      "known": 4067,
      "known.": 4068,
      "krit": 4069,
      "kriti,": 4070,
      "ks": 4071,
      "kur": 4072,
      "kurta": 4073,
      "l": 4074,
      "la": 4075,
      "lab": 4076,
      "labe": 4077,
      "lack": 4078,
      "lad": 4079,
      "ladesh": 4080,
      "lam": 4081,
      "lament": 4082,
      "land": 4083,
      "landed": 4084,
      "landm": 4085,
      "landown": 4086,
      "lands": 4087,
      "landsli": 4088,
      "langu": 4089,
      "languag": 4090,
      "language": 4091,
      "language\"": 4092,
      "language,": 4093,
      "languages": 4094,
      "languages\".": 4095,
      "languages,": 4096,
      "languages.": 4097,
      "languages:": 4098,
      "lar": 4099,
      "larg": 4100,
      "large": 4101,
      "large-": 4102,
      "large-sc": 4103,
      "large-scale": 4104,
      "largely": 4105,
      "larger": 4106,
      "largest": 4107,
      "largest,": 4108,
      "largest.": 4109,
      "largo": 4110,
      "las": 4111,
      "lass": 4112,
      "last": 4113,
      "lasted": 4114,
      "lat": 4115,
      "late": 4116,
      "lately": 4117,
      "later": 4118,
      "later,": 4119,
      "later.": 4120,
      "latit": 4121,
      "lative": 4122,
      "latter": 4123,
      "latter,": 4124,
      "law": 4125,
      "laws": 4126,
      "lay": 4127,
      "layer": 4128,
      "layered": 4129,
      "ld": 4130,
      "le": 4131,
      "lead": 4132,
      "leader": 4133,
      "leader,": 4134,
      "leading": 4135,
      "leads": 4136,
      "leaf": 4137,
      "lear": 4138,
      "learned": 4139,
      "leb": 4140,
      "lec": 4141,
      "led": 4142,
      "left": 4143,
      "leg": 4144,
      "legac": 4145,
      "legal": 4146,
      "legido": 4147,
      "legis": 4148,
      "legisl": 4149,
      "legislat": 4150,
      "legislative": 4151,
      "legislature": 4152,
      "legislatures": 4153,
      "leng": 4154,
      "length": 4155,
      "lengu": 4156,
      "lenguas": 4157,
      "lent": 4158,
      "les": 4159,
      "less": 4160,
      "lev": 4161,
      "leve": 4162,
      "level": 4163,
      "levels": 4164,
      "li": 4165,
      "li,": 4166,
      "liance": 4167,
      "liber": 4168,
      "liberal": 4169,
      "liberalisation": 4170,
      "liberalise": 4171,
      "libert": 4172,
      "liberty": 4173,
      "lic": 4174,
      "lid": 4175,
      "lie": 4176,
      "lied": 4177,
      "lies": 4178,
      "life": 4179,
      "life,": 4180,
      "life-": 4181,
      "life;": 4182,
      "lig": 4183,
      "ligen": 4184,
      "like": 4185,
      "likeli": 4186,
      "likely": 4187,
      "lim": 4188,
      "limate": 4189,
      "limit": 4190,
      "limited": 4191,
      "lin": 4192,
      "line": 4193,
      "lineages": 4194,
      "lines": 4195,
      "ling": 4196,
      "lingered": 4197,
      "lingu": 4198,
      "lingü": 4199,
      "lingüíst": 4200,
      "links": 4201,
      "liqu": 4202,
      "lish": 4203,
      "list": 4204,
      "lit": 4205,
      "liter": 4206,
      "literac": 4207,
      "literacy": 4208,
      "literacy,": 4209,
      "literary": 4210,
      "literat": 4211,
      "literatura": 4212,
      "literature": 4213,
      "literature,": 4214,
      "live": 4215,
      "lived": 4216,
      "living": 4217,
      "ll": 4218,
      "llam": 4219,
      "llan": 4220,
      "llanura": 4221,
      "lleg": 4222,
      "llev": 4223,
      "lo": 4224,
      "loc": 4225,
      "local": 4226,
      "local,": 4227,
      "localised": 4228,
      "locations": 4229,
      "long": 4230,
      "long-": 4231,
      "long-last": 4232,
      "long-term": 4233,
      "long.": 4234,
      "longer": 4235,
      "longest-": 4236,
      "loose": 4237,
      "loose-": 4238,
      "loose-k": 4239,
      "loose-kn": 4240,
      "loose-knit": 4241,
      "loosely": 4242,
      "lop": 4243,
      "los": 4244,
      "losing": 4245,
      "loss": 4246,
      "low": 4247,
      "low-": 4248,
      "low.": 4249,
      "low;": 4250,
      "lower": 4251,
      "lower-body": 4252,
      "lowered": 4253,
      "lowing": 4254,
      "loy": 4255,
      "loyal": 4256,
      "ls": 4257,
      "lu": 4258,
      "lugar": 4259,
      "ly": 4260,
      "ly,": 4261,
      "ly.": 4262,
      "lying": 4263,
      "lí": 4264,
      "m": 4265,
      "ma": 4266,
      "made": 4267,
      "main": 4268,
      "mainland": 4269,
      "mainly": 4270,
      "mainstre": 4271,
      "maintain": 4272,
      "maintained": 4273,
      "maintaining": 4274,
      "maintains": 4275,
      "major": 4276,
      "majority": 4277,
      "majority.": 4278,
      "mak": 4279,
      "make": 4280,
      "makes": 4281,
      "mal": 4282,
      "males.": 4283,
      "maln": 4284,
      "mam": 4285,
      "mamm": 4286,
      "mammals": 4287,
      "mammals,": 4288,
      "man": 4289,
      "manag": 4290,
      "mand": 4291,
      "mandate": 4292,
      "mandating": 4293,
      "mandato": 4294,
      "manera": 4295,
      "mant": 4296,
      "manten": 4297,
      "manu": 4298,
      "manufact": 4299,
      "manus": 4300,
      "manuscri": 4301,
      "manuscript": 4302,
      "manuscripts": 4303,
      "many": 4304,
      "mar": 4305,
      "mara": 4306,
      "marath": 4307,
      "marble": 4308,
      "marg": 4309,
      "margins": 4310,
      "margins.": 4311,
      "marin": 4312,
      "marit": 4313,
      "marital": 4314,
      "mark": 4315,
      "marked": 4316,
      "markedly": 4317,
      "market": 4318,
      "markets.": 4319,
      "marma": 4320,
      "marri": 4321,
      "marriage": 4322,
      "marriages": 4323,
      "married": 4324,
      "marries": 4325,
      "marry": 4326,
      "marrying": 4327,
      "marsh": 4328,
      "marshy": 4329,
      "mary": 4330,
      "mas": 4331,
      "mass": 4332,
      "mat": 4333,
      "mater": 4334,
      "material": 4335,
      "mathem": 4336,
      "mathematic": 4337,
      "mathematical": 4338,
      "mathematicians": 4339,
      "mathematics": 4340,
      "mathematics.": 4341,
      "may": 4342,
      "mayor": 4343,
      "mayoría": 4344,
      "mb": 4345,
      "mbol": 4346,
      "me": 4347,
      "meal": 4348,
      "mean": 4349,
      "meaning": 4350,
      "meas": 4351,
      "measured": 4352,
      "measures": 4353,
      "meat": 4354,
      "meat,": 4355,
      "med": 4356,
      "medi": 4357,
      "median": 4358,
      "mediately": 4359,
      "medic": 4360,
      "medicine": 4361,
      "medicines,": 4362,
      "medieval": 4363,
      "medio": 4364,
      "medios": 4365,
      "medit": 4366,
      "meet": 4367,
      "meets": 4368,
      "mega": 4369,
      "megadiverse": 4370,
      "melo": 4371,
      "member": 4372,
      "members": 4373,
      "men": 4374,
      "men,": 4375,
      "menos": 4376,
      "ment": 4377,
      "ment,": 4378,
      "ment.": 4379,
      "mental": 4380,
      "mente": 4381,
      "mente,": 4382,
      "mented": 4383,
      "mentos": 4384,
      "ments": 4385,
      "menud": 4386,
      "menudo": 4387,
      "mer": 4388,
      "merc": 4389,
      "merch": 4390,
      "merchan": 4391,
      "merchants": 4392,
      "merchants,": 4393,
      "mes": 4394,
      "meseta": 4395,
      "met": 4396,
      "meter.": 4397,
      "mi": 4398,
      "mi)": 4399,
      "mic": 4400,
      "mid": 4401,
      "mid-": 4402,
      "mid-19th": 4403,
      "mid-1st": 4404,
      "mid-20th": 4405,
      "mid-century": 4406,
      "mid-millennium": 4407,
      "middle": 4408,
      "midri": 4409,
      "miembro": 4410,
      "miembros": 4411,
      "mientras": 4412,
      "mig": 4413,
      "might": 4414,
      "migrat": 4415,
      "migration": 4416,
      "mil": 4417,
      "milit": 4418,
      "militants": 4419,
      "militar": 4420,
      "militares": 4421,
      "military": 4422,
      "mill": 4423,
      "millen": 4424,
      "millennium": 4425,
      "millennium,": 4426,
      "millennium.": 4427,
      "million": 4428,
      "million-": 4429,
      "million-pl": 4430,
      "millon": 4431,
      "millones": 4432,
      "millones.": 4433,
      "min": 4434,
      "ming": 4435,
      "miniat": 4436,
      "minist": 4437,
      "minister": 4438,
      "minister.": 4439,
      "minister;": 4440,
      "ministers.": 4441,
      "ministro": 4442,
      "minor": 4443,
      "minority": 4444,
      "mis": 4445,
      "mismo": 4446,
      "mit": 4447,
      "mitad": 4448,
      "mix": 4449,
      "mo": 4450,
      "mo,": 4451,
      "mob": 4452,
      "model": 4453,
      "modelo": 4454,
      "moder": 4455,
      "modern": 4456,
      "modern,": 4457,
      "modern-day": 4458,
      "moist": 4459,
      "moisture": 4460,
      "mon": 4461,
      "monkey": 4462,
      "monsoon": 4463,
      "montan": 4464,
      "mor": 4465,
      "morally": 4466,
      "more": 4467,
      "moreover": 4468,
      "mos": 4469,
      "most": 4470,
      "moun": 4471,
      "mov": 4472,
      "moved": 4473,
      "movement": 4474,
      "movement.": 4475,
      "movements.": 4476,
      "movimiento": 4477,
      "moving": 4478,
      "ms": 4479,
      "mu": 4480,
      "much": 4481,
      "muchas": 4482,
      "mucho": 4483,
      "mud": 4484,
      "muj": 4485,
      "mujer": 4486,
      "mujeres": 4487,
      "mult": 4488,
      "multi": 4489,
      "multi-": 4490,
      "multiling": 4491,
      "mun": 4492,
      "mundial": 4493,
      "mundo": 4494,
      "mundo,": 4495,
      "mundo.​": 4496,
      "mus": 4497,
      "music": 4498,
      "music.": 4499,
      "musical": 4500,
      "musicians": 4501,
      "musics": 4502,
      "must": 4503,
      "musul": 4504,
      "musulman": 4505,
      "musulmanes": 4506,
      "muy": 4507,
      "my": 4508,
      "más": 4509,
      "mé": 4510,
      "mús": 4511,
      "música": 4512,
      "n": 4513,
      "na": 4514,
      "na,": 4515,
      "nacion": 4516,
      "nacional": 4517,
      "nacionales": 4518,
      "nam": 4519,
      "name": 4520,
      "napp": 4521,
      "nar": 4522,
      "narrow": 4523,
      "nas": 4524,
      "nat": 4525,
      "natal": 4526,
      "nation": 4527,
      "national": 4528,
      "nationalism.": 4529,
      "nationalist": 4530,
      "native": 4531,
      "natural": 4532,
      "naval": 4533,
      "nd": 4534,
      "ne": 4535,
      "near": 4536,
      "near-": 4537,
      "nearly": 4538,
      "ned": 4539,
      "need": 4540,
      "neg": 4541,
      "neigh": 4542,
      "neighbour": 4543,
      "neither": 4544,
      "neo": 4545,
      "ner": 4546,
      "network": 4547,
      "new": 4548,
      "newly": 4549,
      "next": 4550,
      "ng": 4551,
      "ni": 4552,
      "nic": 4553,
      "nific": 4554,
      "nificant": 4555,
      "nin": 4556,
      "ning": 4557,
      "ninth": 4558,
      "ninth-largest": 4559,
      "niqu": 4560,
      "nium": 4561,
      "nive": 4562,
      "nivel": 4563,
      "no": 4564,
      "nolog": 4565,
      "nological": 4566,
      "nom": 4567,
      "nomin": 4568,
      "nominal": 4569,
      "nominated": 4570,
      "non": 4571,
      "non-": 4572,
      "non-Congress": 4573,
      "non-European": 4574,
      "non-Muslim": 4575,
      "non-co-": 4576,
      "non-economic": 4577,
      "non-traditional": 4578,
      "non-violence": 4579,
      "nonviol": 4580,
      "nonviolent": 4581,
      "nor": 4582,
      "nore": 4583,
      "norm": 4584,
      "norte": 4585,
      "north": 4586,
      "north,": 4587,
      "north-": 4588,
      "north-east": 4589,
      "north-western": 4590,
      "north.": 4591,
      "north;": 4592,
      "northeast,": 4593,
      "northern": 4594,
      "northwest": 4595,
      "northwest,": 4596,
      "northwest.": 4597,
      "nos": 4598,
      "not": 4599,
      "notable": 4600,
      "notably": 4601,
      "noun": 4602,
      "now": 4603,
      "nuclear": 4604,
      "nuev": 4605,
      "nuevas": 4606,
      "num": 4607,
      "number": 4608,
      "number,": 4609,
      "numbers": 4610,
      "numbers,": 4611,
      "numeral": 4612,
      "numerals": 4613,
      "numerals.": 4614,
      "nú": 4615,
      "númer": 4616,
      "número": 4617,
      "o": 4618,
      "o,": 4619,
      "o.": 4620,
      "o.​": 4621,
      "oast": 4622,
      "ob": 4623,
      "obar": 4624,
      "oblig": 4625,
      "obras": 4626,
      "obsc": 4627,
      "observed": 4628,
      "obstru": 4629,
      "obstruct": 4630,
      "obtuvo": 4631,
      "oc": 4632,
      "occ": 4633,
      "occas": 4634,
      "occasion": 4635,
      "occasions,": 4636,
      "occident": 4637,
      "occidental": 4638,
      "occup": 4639,
      "occupation": 4640,
      "occupation,": 4641,
      "occupational": 4642,
      "occupies": 4643,
      "occupy": 4644,
      "occupying": 4645,
      "occurred": 4646,
      "ocean": 4647,
      "och": 4648,
      "ocho": 4649,
      "ocrac": 4650,
      "ocrat": 4651,
      "ocratic": 4652,
      "ocup": 4653,
      "od": 4654,
      "od,": 4655,
      "ods": 4656,
      "oest": 4657,
      "oeste": 4658,
      "of": 4659,
      "off": 4660,
      "offer": 4661,
      "offic": 4662,
      "office": 4663,
      "official": 4664,
      "officially": 4665,
      "oficial": 4666,
      "ofile": 4667,
      "often": 4668,
      "og": 4669,
      "ogam": 4670,
      "ogra": 4671,
      "ograph": 4672,
      "ography": 4673,
      "ográ": 4674,
      "ográfica": 4675,
      "ok": 4676,
      "ol": 4677,
      "old": 4678,
      "old.": 4679,
      "oldest": 4680,
      "olly": 4681,
      "olog": 4682,
      "ological": 4683,
      "ologically": 4684,
      "ology": 4685,
      "olon": 4686,
      "oluc": 4687,
      "olution": 4688,
      "olved": 4689,
      "olving": 4690,
      "ológ": 4691,
      "ológic": 4692,
      "om": 4693,
      "omb": 4694,
      "ome": 4695,
      "oment": 4696,
      "omet": 4697,
      "omic": 4698,
      "omin": 4699,
      "omy": 4700,
      "on": 4701,
      "on,": 4702,
      "on-": 4703,
      "ond": 4704,
      "one": 4705,
      "one's": 4706,
      "ones": 4707,
      "ong": 4708,
      "onial": 4709,
      "onic": 4710,
      "only": 4711,
      "onomet": 4712,
      "ons": 4713,
      "onset": 4714,
      "onward": 4715,
      "op": 4716,
      "ope": 4717,
      "open": 4718,
      "oper": 4719,
      "operation": 4720,
      "ople": 4721,
      "oppos": 4722,
      "opposed": 4723,
      "opposing": 4724,
      "opposition": 4725,
      "or": 4726,
      "ora": 4727,
      "oral": 4728,
      "orally": 4729,
      "orce": 4730,
      "ord": 4731,
      "order": 4732,
      "orders": 4733,
      "ore": 4734,
      "ores": 4735,
      "organ": 4736,
      "organisation": 4737,
      "organised": 4738,
      "orig": 4739,
      "origin": 4740,
      "original": 4741,
      "originally": 4742,
      "originated": 4743,
      "origins,": 4744,
      "orld": 4745,
      "oro": 4746,
      "orogen": 4747,
      "ors": 4748,
      "ors.": 4749,
      "orte": 4750,
      "ory": 4751,
      "ory.": 4752,
      "os": 4753,
      "os,": 4754,
      "os.": 4755,
      "os.​": 4756,
      "ose": 4757,
      "oso": 4758,
      "ot": 4759,
      "oth": 4760,
      "other": 4761,
      "others": 4762,
      "others.": 4763,
      "others:": 4764,
      "others—": 4765,
      "otra": 4766,
      "otras": 4767,
      "otro": 4768,
      "otros": 4769,
      "ou": 4770,
      "ough": 4771,
      "ought": 4772,
      "oul": 4773,
      "ould": 4774,
      "oulder": 4775,
      "oun": 4776,
      "ound": 4777,
      "ounded": 4778,
      "oup": 4779,
      "our": 4780,
      "ources": 4781,
      "ous": 4782,
      "ousand": 4783,
      "ously": 4784,
      "out": 4785,
      "outh": 4786,
      "outheast": 4787,
      "output": 4788,
      "outside": 4789,
      "oven": 4790,
      "over": 4791,
      "overall": 4792,
      "overl": 4793,
      "overn": 4794,
      "overnment": 4795,
      "overran": 4796,
      "own": 4797,
      "p": 4798,
      "pa": 4799,
      "paci": 4800,
      "paid": 4801,
      "pain": 4802,
      "painting": 4803,
      "painting,": 4804,
      "painting.": 4805,
      "paintings": 4806,
      "pal": 4807,
      "pan": 4808,
      "panc": 4809,
      "panch": 4810,
      "pant": 4811,
      "pants": 4812,
      "pants,": 4813,
      "pany": 4814,
      "papel": 4815,
      "paper": 4816,
      "par": 4817,
      "para": 4818,
      "paralle": 4819,
      "paren": 4820,
      "parents": 4821,
      "parity": 4822,
      "parks": 4823,
      "parlament": 4824,
      "parli": 4825,
      "parliament": 4826,
      "parliament.": 4827,
      "parliamentary": 4828,
      "part": 4829,
      "parte": 4830,
      "partes": 4831,
      "partially": 4832,
      "partic": 4833,
      "particip": 4834,
      "particular": 4835,
      "partido": 4836,
      "partidos": 4837,
      "parties": 4838,
      "parties.": 4839,
      "partition": 4840,
      "partition.": 4841,
      "partitioned": 4842,
      "partn": 4843,
      "parts": 4844,
      "party": 4845,
      "party;": 4846,
      "pas": 4847,
      "pass": 4848,
      "passages": 4849,
      "passes": 4850,
      "passing": 4851,
      "past": 4852,
      "pastim": 4853,
      "pastoral": 4854,
      "pat": 4855,
      "patr": 4856,
      "patron": 4857,
      "pay": 4858,
      "paye": 4859,
      "payments": 4860,
      "paí": 4861,
      "país": 4862,
      "país.": 4863,
      "países": 4864,
      "pe": 4865,
      "peace": 4866,
      "peace,": 4867,
      "peak": 4868,
      "peas": 4869,
      "pect": 4870,
      "ped": 4871,
      "ped.": 4872,
      "pee": 4873,
      "peh": 4874,
      "pel": 4875,
      "pen": 4876,
      "pendient": 4877,
      "penins": 4878,
      "peninsular": 4879,
      "peo": 4880,
      "people": 4881,
      "people,": 4882,
      "people.": 4883,
      "peque": 4884,
      "per": 4885,
      "perce": 4886,
      "percent": 4887,
      "percentage": 4888,
      "perform": 4889,
      "perh": 4890,
      "peri": 4891,
      "perio": 4892,
      "period": 4893,
      "period.": 4894,
      "perman": 4895,
      "permanec": 4896,
      "permit": 4897,
      "pero": 4898,
      "persist": 4899,
      "persist.": 4900,
      "persistent": 4901,
      "person": 4902,
      "perv": 4903,
      "perí": 4904,
      "períod": 4905,
      "período": 4906,
      "pes": 4907,
      "pesar": 4908,
      "pet": 4909,
      "petroc": 4910,
      "petrole": 4911,
      "pettic": 4912,
      "ph": 4913,
      "phar": 4914,
      "pharma": 4915,
      "pharmace": 4916,
      "pharmaceut": 4917,
      "pharmaceutical": 4918,
      "pi": 4919,
      "pic": 4920,
      "pical": 4921,
      "pically": 4922,
      "piec": 4923,
      "pied": 4924,
      "piedad": 4925,
      "pil": 4926,
      "pilaf": 4927,
      "piled": 4928,
      "pill": 4929,
      "pire": 4930,
      "piv": 4931,
      "pl": 4932,
      "plac": 4933,
      "placa": 4934,
      "place": 4935,
      "placed": 4936,
      "plain": 4937,
      "plain,": 4938,
      "plain.": 4939,
      "plainly": 4940,
      "plains,": 4941,
      "plains.": 4942,
      "plan": 4943,
      "plann": 4944,
      "plant": 4945,
      "plants": 4946,
      "plate": 4947,
      "plate,": 4948,
      "plateau": 4949,
      "play": 4950,
      "playback": 4951,
      "played": 4952,
      "plays": 4953,
      "ple": 4954,
      "pleated": 4955,
      "ples": 4956,
      "pli": 4957,
      "plural": 4958,
      "po": 4959,
      "pobl": 4960,
      "población": 4961,
      "pobre": 4962,
      "poco": 4963,
      "poder": 4964,
      "poet": 4965,
      "poin": 4966,
      "pointed": 4967,
      "points": 4968,
      "pol": 4969,
      "polic": 4970,
      "policies": 4971,
      "policies,": 4972,
      "policy": 4973,
      "polit": 4974,
      "political": 4975,
      "politics": 4976,
      "poll": 4977,
      "polling": 4978,
      "pollu": 4979,
      "pollution": 4980,
      "pollution.": 4981,
      "polític": 4982,
      "política": 4983,
      "pop": 4984,
      "popul": 4985,
      "popular": 4986,
      "popular.": 4987,
      "populares": 4988,
      "popularity": 4989,
      "population": 4990,
      "population,": 4991,
      "population.": 4992,
      "populous": 4993,
      "por": 4994,
      "port": 4995,
      "port.": 4996,
      "ported": 4997,
      "portfo": 4998,
      "portion": 4999,
      "portra": 5000,
      "ports": 5001,
      "ports,": 5002,
      "pos": 5003,
      "posed": 5004,
      "poss": 5005,
      "post": 5006,
      "post-": 5007,
      "poster": 5008,
      "posterior": 5009,
      "pot": 5010,
      "poten": 5011,
      "potter": 5012,
      "poul": 5013,
      "pover": 5014,
      "poverty": 5015,
      "poverty,": 5016,
      "power": 5017,
      "power.": 5018,
      "powers": 5019,
      "pp": 5020,
      "pr": 5021,
      "pra": 5022,
      "pract": 5023,
      "practic": 5024,
      "practice": 5025,
      "practices": 5026,
      "practices,": 5027,
      "practices.": 5028,
      "prana": 5029,
      "pre": 5030,
      "pread": 5031,
      "prec": 5032,
      "predomin": 5033,
      "predominant": 5034,
      "predominate": 5035,
      "predominates": 5036,
      "prefer": 5037,
      "pren": 5038,
      "prep": 5039,
      "pres": 5040,
      "presence": 5041,
      "present": 5042,
      "presenta": 5043,
      "president": 5044,
      "president,": 5045,
      "presidente": 5046,
      "prev": 5047,
      "prevent": 5048,
      "previ": 5049,
      "pri": 5050,
      "pride,": 5051,
      "priest": 5052,
      "primary": 5053,
      "prime": 5054,
      "primer": 5055,
      "primera": 5056,
      "princ": 5057,
      "prince": 5058,
      "princes": 5059,
      "princes,": 5060,
      "princip": 5061,
      "principal": 5062,
      "principales": 5063,
      "principalmente": 5064,
      "prior": 5065,
      "priv": 5066,
      "pro": 5067,
      "prob": 5068,
      "probably": 5069,
      "proces": 5070,
      "process": 5071,
      "processes": 5072,
      "produ": 5073,
      "produc": 5074,
      "produce": 5075,
      "produced": 5076,
      "producer": 5077,
      "producer,": 5078,
      "product": 5079,
      "production": 5080,
      "productos": 5081,
      "prof": 5082,
      "proj": 5083,
      "projected": 5084,
      "projection": 5085,
      "prom": 5086,
      "promin": 5087,
      "prominence": 5088,
      "prominent": 5089,
      "promised": 5090,
      "promo": 5091,
      "promote": 5092,
      "promotion": 5093,
      "promul": 5094,
      "pron": 5095,
      "proper": 5096,
      "propi": 5097,
      "propiedad": 5098,
      "propios": 5099,
      "propor": 5100,
      "proporcion": 5101,
      "proportion": 5102,
      "proposed": 5103,
      "prot": 5104,
      "protag": 5105,
      "protec": 5106,
      "protected": 5107,
      "protection": 5108,
      "prov": 5109,
      "provi": 5110,
      "provided": 5111,
      "provinc": 5112,
      "province": 5113,
      "provision": 5114,
      "pru": 5115,
      "práct": 5116,
      "pt": 5117,
      "ption": 5118,
      "ptions,": 5119,
      "pts": 5120,
      "pu": 5121,
      "pub": 5122,
      "public": 5123,
      "pueb": 5124,
      "puestos": 5125,
      "pul": 5126,
      "pulmon": 5127,
      "puls": 5128,
      "pur": 5129,
      "purch": 5130,
      "pursu": 5131,
      "push": 5132,
      "put": 5133,
      "py": 5134,
      "pú": 5135,
      "públic": 5136,
      "pública": 5137,
      "q": 5138,
      "qu": 5139,
      "quad": 5140,
      "qual": 5141,
      "quality": 5142,
      "quarter": 5143,
      "que": 5144,
      "que,": 5145,
      "ques": 5146,
      "quet": 5147,
      "quier": 5148,
      "quierda": 5149,
      "quin": 5150,
      "quistán": 5151,
      "quite": 5152,
      "quí": 5153,
      "r": 5154,
      "ra": 5155,
      "ra,": 5156,
      "ra.": 5157,
      "rac": 5158,
      "ración": 5159,
      "rada": 5160,
      "rag": 5161,
      "raga": 5162,
      "rai": 5163,
      "raid": 5164,
      "rail": 5165,
      "railway": 5166,
      "railways,": 5167,
      "rain": 5168,
      "rainf": 5169,
      "raising": 5170,
      "rak": 5171,
      "ral": 5172,
      "ran": 5173,
      "rang": 5174,
      "range": 5175,
      "range,": 5176,
      "ranges": 5177,
      "rank": 5178,
      "rap": 5179,
      "raph": 5180,
      "rapid": 5181,
      "rare": 5182,
      "ras": 5183,
      "rat": 5184,
      "rate": 5185,
      "rate,": 5186,
      "rates": 5187,
      "rates).": 5188,
      "rates,": 5189,
      "rather": 5190,
      "rati": 5191,
      "ratio,": 5192,
      "ration": 5193,
      "ratios": 5194,
      "rative": 5195,
      "raw": 5196,
      "re": 5197,
      "re-": 5198,
      "reach": 5199,
      "reached": 5200,
      "reaching": 5201,
      "read": 5202,
      "real": 5203,
      "realiz": 5204,
      "reas": 5205,
      "reasing": 5206,
      "reat": 5207,
      "rebellion": 5208,
      "rece": 5209,
      "receive": 5210,
      "received": 5211,
      "recent": 5212,
      "reci": 5213,
      "recient": 5214,
      "reco": 5215,
      "recogn": 5216,
      "recognised": 5217,
      "recognises": 5218,
      "recognition": 5219,
      "recomm": 5220,
      "reconoc": 5221,
      "recor": 5222,
      "record": 5223,
      "recorded": 5224,
      "recording": 5225,
      "recourse": 5226,
      "red": 5227,
      "redi": 5228,
      "reduc": 5229,
      "reduced": 5230,
      "ree": 5231,
      "ree-": 5232,
      "refer": 5233,
      "reference": 5234,
      "referred": 5235,
      "referring": 5236,
      "refl": 5237,
      "reflect": 5238,
      "reflected": 5239,
      "reform": 5240,
      "reform,": 5241,
      "reform;": 5242,
      "reformas": 5243,
      "reforms": 5244,
      "reforms,": 5245,
      "reg": 5246,
      "regar": 5247,
      "region": 5248,
      "region,": 5249,
      "region-": 5250,
      "region.": 5251,
      "regional": 5252,
      "regionales.": 5253,
      "regionally": 5254,
      "regiones": 5255,
      "regions": 5256,
      "regions.": 5257,
      "regist": 5258,
      "registers": 5259,
      "región": 5260,
      "regul": 5261,
      "regulation": 5262,
      "rehab": 5263,
      "reinos": 5264,
      "reject": 5265,
      "rel": 5266,
      "relacion": 5267,
      "relaciones": 5268,
      "relat": 5269,
      "related": 5270,
      "relations": 5271,
      "relative": 5272,
      "reli": 5273,
      "relied": 5274,
      "relief": 5275,
      "relief,": 5276,
      "reliefs": 5277,
      "religi": 5278,
      "religion": 5279,
      "religion.": 5280,
      "religiones": 5281,
      "religions": 5282,
      "religions,": 5283,
      "religions.": 5284,
      "religions:": 5285,
      "religios": 5286,
      "religious": 5287,
      "religious-": 5288,
      "remain": 5289,
      "remained": 5290,
      "remaining": 5291,
      "reme": 5292,
      "remit": 5293,
      "ren": 5294,
      "renew": 5295,
      "renewable": 5296,
      "renewal": 5297,
      "renewed": 5298,
      "renta": 5299,
      "repe": 5300,
      "repeated": 5301,
      "repeatedly": 5302,
      "report": 5303,
      "report.": 5304,
      "reported": 5305,
      "reports": 5306,
      "repres": 5307,
      "represent": 5308,
      "rept": 5309,
      "reptil": 5310,
      "reptile": 5311,
      "republic": 5312,
      "republic.": 5313,
      "republic;": 5314,
      "repul": 5315,
      "requ": 5316,
      "requer": 5317,
      "requerida": 5318,
      "requerida]": 5319,
      "res": 5320,
      "res,": 5321,
      "res.": 5322,
      "resent": 5323,
      "reser": 5324,
      "reserv": 5325,
      "reserve": 5326,
      "reserved": 5327,
      "resident": 5328,
      "residents": 5329,
      "residents,": 5330,
      "resist": 5331,
      "resolution": 5332,
      "resour": 5333,
      "resources": 5334,
      "resources,": 5335,
      "resp": 5336,
      "respective": 5337,
      "respon": 5338,
      "response": 5339,
      "response,": 5340,
      "responsi": 5341,
      "ress": 5342,
      "ressed": 5343,
      "rest": 5344,
      "restric": 5345,
      "result": 5346,
      "resulting": 5347,
      "resur": 5348,
      "retreat": 5349,
      "return": 5350,
      "returned": 5351,
      "reve": 5352,
      "reven": 5353,
      "revenu": 5354,
      "revenues": 5355,
      "rey": 5356,
      "rhy": 5357,
      "ri": 5358,
      "ri,": 5359,
      "ric": 5360,
      "rica": 5361,
      "rice;": 5362,
      "rich": 5363,
      "riches": 5364,
      "ricket": 5365,
      "rico": 5366,
      "ried": 5367,
      "rig": 5368,
      "righ": 5369,
      "right": 5370,
      "right-": 5371,
      "rights": 5372,
      "rigid": 5373,
      "rimon": 5374,
      "rin": 5375,
      "ring": 5376,
      "riqu": 5377,
      "ris": 5378,
      "rise": 5379,
      "risen": 5380,
      "rising": 5381,
      "risks": 5382,
      "rit": 5383,
      "rite": 5384,
      "ritor": 5385,
      "ritual": 5386,
      "river": 5387,
      "river,": 5388,
      "river-": 5389,
      "rivers": 5390,
      "rivers,": 5391,
      "riya,": 5392,
      "ro": 5393,
      "roc": 5394,
      "rocin": 5395,
      "rock": 5396,
      "rocked": 5397,
      "rocky": 5398,
      "rol": 5399,
      "role": 5400,
      "rom": 5401,
      "romo": 5402,
      "ron": 5403,
      "ronic": 5404,
      "root": 5405,
      "ros": 5406,
      "ross": 5407,
      "rot": 5408,
      "rough": 5409,
      "roughly": 5410,
      "round": 5411,
      "row": 5412,
      "roy": 5413,
      "ru": 5414,
      "rul": 5415,
      "rule": 5416,
      "rule,": 5417,
      "rule.": 5418,
      "ruled": 5419,
      "ruler": 5420,
      "rulers": 5421,
      "rulers,": 5422,
      "ruling": 5423,
      "run": 5424,
      "rupe": 5425,
      "rural": 5426,
      "rural-": 5427,
      "rush": 5428,
      "ry": 5429,
      "rá": 5430,
      "ráp": 5431,
      "rápido": 5432,
      "rátic": 5433,
      "rí": 5434,
      "ríquet": 5435,
      "ró": 5436,
      "s": 5437,
      "s,": 5438,
      "s.": 5439,
      "s.​": 5440,
      "s;": 5441,
      "sa": 5442,
      "sa,": 5443,
      "sac": 5444,
      "saf": 5445,
      "safe": 5446,
      "safeguard": 5447,
      "safety": 5448,
      "sal": 5449,
      "sales": 5450,
      "same": 5451,
      "san": 5452,
      "sandy": 5453,
      "sap": 5454,
      "sar": 5455,
      "sari": 5456,
      "sari's": 5457,
      "sari,": 5458,
      "sas": 5459,
      "sav": 5460,
      "saved": 5461,
      "savour": 5462,
      "savoury": 5463,
      "saw": 5464,
      "sc": 5465,
      "scen": 5466,
      "scene": 5467,
      "scenes": 5468,
      "sch": 5469,
      "sched": 5470,
      "scheduled": 5471,
      "school": 5472,
      "schools": 5473,
      "schools.": 5474,
      "sci": 5475,
      "science.": 5476,
      "scri": 5477,
      "script": 5478,
      "script,": 5479,
      "scripts": 5480,
      "scripture": 5481,
      "scrit": 5482,
      "scul": 5483,
      "sculpt": 5484,
      "sculpting": 5485,
      "sculptors": 5486,
      "sculpture": 5487,
      "sculpture,": 5488,
      "se": 5489,
      "se,": 5490,
      "seaf": 5491,
      "sealed": 5492,
      "seals": 5493,
      "seals,": 5494,
      "seas,": 5495,
      "seats": 5496,
      "sec": 5497,
      "secon": 5498,
      "second": 5499,
      "second-largest": 5500,
      "second-largest.": 5501,
      "sect": 5502,
      "sector": 5503,
      "secular": 5504,
      "secular,": 5505,
      "secure": 5506,
      "sediment": 5507,
      "see": 5508,
      "seen": 5509,
      "seg": 5510,
      "segu": 5511,
      "seguido": 5512,
      "según": 5513,
      "seis": 5514,
      "sel": 5515,
      "self": 5516,
      "self-": 5517,
      "self-des": 5518,
      "sem": 5519,
      "separ": 5520,
      "separat": 5521,
      "separated": 5522,
      "sequ": 5523,
      "sequent": 5524,
      "sequently": 5525,
      "ser": 5526,
      "series": 5527,
      "series.": 5528,
      "serv": 5529,
      "servants": 5530,
      "served": 5531,
      "served,": 5532,
      "serves": 5533,
      "service": 5534,
      "serving": 5535,
      "set": 5536,
      "setback": 5537,
      "sett": 5538,
      "setting": 5539,
      "settings,": 5540,
      "settle": 5541,
      "settling": 5542,
      "seven": 5543,
      "sever": 5544,
      "several": 5545,
      "severe": 5546,
      "severely": 5547,
      "severity": 5548,
      "sex": 5549,
      "sex-": 5550,
      "sh": 5551,
      "sha": 5552,
      "shalwar": 5553,
      "shar": 5554,
      "share": 5555,
      "shared": 5556,
      "shares": 5557,
      "she": 5558,
      "sheared": 5559,
      "sheets": 5560,
      "sher": 5561,
      "ship": 5562,
      "shirt": 5563,
      "sho": 5564,
      "shook": 5565,
      "shor": 5566,
      "shore": 5567,
      "shores.": 5568,
      "short": 5569,
      "shorter": 5570,
      "shoulder": 5571,
      "show": 5572,
      "showing": 5573,
      "si": 5574,
      "sia,": 5575,
      "sidad": 5576,
      "side": 5577,
      "sideline": 5578,
      "sido": 5579,
      "sig": 5580,
      "siglo": 5581,
      "siglos": 5582,
      "signed": 5583,
      "signific": 5584,
      "significant": 5585,
      "significantly": 5586,
      "signing": 5587,
      "sigu": 5588,
      "sij": 5589,
      "sil": 5590,
      "silk": 5591,
      "silt": 5592,
      "silver": 5593,
      "sim": 5594,
      "simil": 5595,
      "similar": 5596,
      "simple": 5597,
      "sin": 5598,
      "since": 5599,
      "sine": 5600,
      "sing": 5601,
      "singers.": 5602,
      "single": 5603,
      "sion": 5604,
      "siones": 5605,
      "sist": 5606,
      "sistem": 5607,
      "sistema": 5608,
      "sit": 5609,
      "sitar": 5610,
      "sites": 5611,
      "sites,": 5612,
      "sity": 5613,
      "sive": 5614,
      "sively": 5615,
      "six": 5616,
      "sixte": 5617,
      "sixth": 5618,
      "size": 5619,
      "sizes": 5620,
      "sión": 5621,
      "sli": 5622,
      "slid": 5623,
      "slow": 5624,
      "slowing": 5625,
      "slowly,": 5626,
      "sm": 5627,
      "small": 5628,
      "small,": 5629,
      "smaller": 5630,
      "smo": 5631,
      "smoking": 5632,
      "smooth": 5633,
      "so": 5634,
      "sober": 5635,
      "sobre": 5636,
      "soci": 5637,
      "social": 5638,
      "sociales": 5639,
      "socialist": 5640,
      "socially": 5641,
      "sociedad": 5642,
      "societ": 5643,
      "societies": 5644,
      "society": 5645,
      "society,": 5646,
      "society.": 5647,
      "socio": 5648,
      "sof": 5649,
      "soj": 5650,
      "sol": 5651,
      "sold": 5652,
      "soldi": 5653,
      "sole": 5654,
      "soli": 5655,
      "solo": 5656,
      "some": 5657,
      "somet": 5658,
      "sometim": 5659,
      "sometimes": 5660,
      "son": 5661,
      "son:": 5662,
      "soon": 5663,
      "sos": 5664,
      "sou": 5665,
      "sought": 5666,
      "south": 5667,
      "south,": 5668,
      "south-": 5669,
      "south-east.": 5670,
      "south-west": 5671,
      "south-west,": 5672,
      "south-western": 5673,
      "south.": 5674,
      "southeast,": 5675,
      "southern": 5676,
      "southwest": 5677,
      "southwest,": 5678,
      "sover": 5679,
      "sovereign": 5680,
      "sovereignty": 5681,
      "sovereignty,": 5682,
      "sovereignty.": 5683,
      "sp": 5684,
      "spe": 5685,
      "speak": 5686,
      "speakers": 5687,
      "speaking": 5688,
      "spec": 5689,
      "speci": 5690,
      "species": 5691,
      "species,": 5692,
      "species.": 5693,
      "specif": 5694,
      "speed": 5695,
      "spending": 5696,
      "sphere": 5697,
      "spic": 5698,
      "spiced": 5699,
      "spices": 5700,
      "spite": 5701,
      "split": 5702,
      "spo": 5703,
      "spons": 5704,
      "spor": 5705,
      "sport": 5706,
      "sporting": 5707,
      "sports": 5708,
      "spr": 5709,
      "spread": 5710,
      "spreading": 5711,
      "ss": 5712,
      "st": 5713,
      "st-": 5714,
      "st.": 5715,
      "stable": 5716,
      "stage": 5717,
      "stamp": 5718,
      "stan": 5719,
      "stand": 5720,
      "standar": 5721,
      "standardis": 5722,
      "standardised": 5723,
      "stands": 5724,
      "stant": 5725,
      "start": 5726,
      "stat": 5727,
      "state": 5728,
      "state's": 5729,
      "state,": 5730,
      "state.": 5731,
      "state:": 5732,
      "states": 5733,
      "states,": 5734,
      "states.": 5735,
      "states:": 5736,
      "statist": 5737,
      "statu": 5738,
      "statues.": 5739,
      "statuett": 5740,
      "status": 5741,
      "status.": 5742,
      "ste": 5743,
      "stead": 5744,
      "steadi": 5745,
      "steam": 5746,
      "steamed": 5747,
      "steat": 5748,
      "stee": 5749,
      "stem": 5750,
      "sti": 5751,
      "stian": 5752,
      "stiff": 5753,
      "stig": 5754,
      "still": 5755,
      "stit": 5756,
      "stitched": 5757,
      "stitutes": 5758,
      "stitution": 5759,
      "sto": 5760,
      "stone": 5761,
      "stop": 5762,
      "story": 5763,
      "str": 5764,
      "strate": 5765,
      "stre": 5766,
      "streng": 5767,
      "strength": 5768,
      "stres": 5769,
      "stressed": 5770,
      "stret": 5771,
      "stri": 5772,
      "strident": 5773,
      "strike": 5774,
      "strong": 5775,
      "strongly": 5776,
      "stru": 5777,
      "struct": 5778,
      "structure": 5779,
      "stud": 5780,
      "study": 5781,
      "study,": 5782,
      "stup": 5783,
      "sty": 5784,
      "styl": 5785,
      "style": 5786,
      "styles": 5787,
      "styles,": 5788,
      "styles.": 5789,
      "su": 5790,
      "sub": 5791,
      "sub-": 5792,
      "subcaste,": 5793,
      "subcontinent": 5794,
      "subcontinent's": 5795,
      "subcontinent,": 5796,
      "subcontinent.": 5797,
      "subcontinente": 5798,
      "subduct": 5799,
      "subduction": 5800,
      "subdue": 5801,
      "subject": 5802,
      "subord": 5803,
      "subsequent": 5804,
      "subsequently": 5805,
      "substant": 5806,
      "substantially": 5807,
      "subtropical": 5808,
      "suc": 5809,
      "succeed": 5810,
      "success": 5811,
      "such": 5812,
      "sultan": 5813,
      "sultanate": 5814,
      "sultanate's": 5815,
      "sultanate,": 5816,
      "sultanato": 5817,
      "sum": 5818,
      "summary": 5819,
      "summer": 5820,
      "sung": 5821,
      "sup": 5822,
      "super": 5823,
      "supercontinent": 5824,
      "superi": 5825,
      "supp": 5826,
      "suppl": 5827,
      "supplanted": 5828,
      "suppli": 5829,
      "supplied": 5830,
      "supplies": 5831,
      "supplying": 5832,
      "support": 5833,
      "support,": 5834,
      "support.": 5835,
      "supported": 5836,
      "suppressed": 5837,
      "supre": 5838,
      "supreme": 5839,
      "sur": 5840,
      "sur,": 5841,
      "surround": 5842,
      "surv": 5843,
      "surve": 5844,
      "survive": 5845,
      "survived": 5846,
      "survives": 5847,
      "surviving": 5848,
      "sus": 5849,
      "swa": 5850,
      "swi": 5851,
      "sy": 5852,
      "syn": 5853,
      "system": 5854,
      "system's": 5855,
      "system,": 5856,
      "system.": 5857,
      "systematic": 5858,
      "systems": 5859,
      "sán": 5860,
      "sánscrit": 5861,
      "sí": 5862,
      "símbol": 5863,
      "símbolos": 5864,
      "t": 5865,
      "t,": 5866,
      "ta": 5867,
      "ta,": 5868,
      "tabl": 5869,
      "tail": 5870,
      "tain": 5871,
      "tak": 5872,
      "taken": 5873,
      "takes": 5874,
      "taking": 5875,
      "tal": 5876,
      "tala": 5877,
      "talk": 5878,
      "tam": 5879,
      "también": 5880,
      "tamil": 5881,
      "tan": 5882,
      "tando": 5883,
      "tandoor": 5884,
      "tang": 5885,
      "tanto": 5886,
      "tas": 5887,
      "tasa": 5888,
      "tau": 5889,
      "tax": 5890,
      "taxation": 5891,
      "taxes": 5892,
      "taxes,": 5893,
      "taxpay": 5894,
      "te": 5895,
      "teach": 5896,
      "teak": 5897,
      "team": 5898,
      "tec": 5899,
      "tech": 5900,
      "techniqu": 5901,
      "technolog": 5902,
      "technological": 5903,
      "technology": 5904,
      "technology,": 5905,
      "tecnolog": 5906,
      "tecnología": 5907,
      "tect": 5908,
      "tection": 5909,
      "ted": 5910,
      "teg": 5911,
      "teleg": 5912,
      "tem": 5913,
      "temp": 5914,
      "temper": 5915,
      "temperate": 5916,
      "tempered": 5917,
      "temple": 5918,
      "temples": 5919,
      "ten": 5920,
      "tend": 5921,
      "ter": 5922,
      "ter.": 5923,
      "terc": 5924,
      "tercera": 5925,
      "term": 5926,
      "term.": 5927,
      "tern": 5928,
      "ternacional": 5929,
      "ternal": 5930,
      "ternational": 5931,
      "territor": 5932,
      "territorial": 5933,
      "territories": 5934,
      "territories.": 5935,
      "territorio": 5936,
      "territorios": 5937,
      "territory": 5938,
      "test": 5939,
      "testing": 5940,
      "tex": 5941,
      "text": 5942,
      "textil": 5943,
      "textile": 5944,
      "texts": 5945,
      "texts,": 5946,
      "th": 5947,
      "th,": 5948,
      "th-largest": 5949,
      "th.": 5950,
      "than": 5951,
      "that": 5952,
      "that,": 5953,
      "the": 5954,
      "theast": 5955,
      "theast,": 5956,
      "their": 5957,
      "them": 5958,
      "them,": 5959,
      "them.": 5960,
      "thematic": 5961,
      "then": 5962,
      "then,": 5963,
      "theore": 5964,
      "ther": 5965,
      "there": 5966,
      "there.": 5967,
      "thereafter": 5968,
      "thereafter,": 5969,
      "thereby": 5970,
      "therefore": 5971,
      "therefore,": 5972,
      "thern": 5973,
      "thes": 5974,
      "these": 5975,
      "they": 5976,
      "thic": 5977,
      "thicken": 5978,
      "thin": 5979,
      "thing": 5980,
      "third": 5981,
      "third-largest": 5982,
      "this": 5983,
      "thm": 5984,
      "thor": 5985,
      "thorn": 5986,
      "those": 5987,
      "though": 5988,
      "thought": 5989,
      "thought,": 5990,
      "threat": 5991,
      "threatened": 5992,
      "threats": 5993,
      "three": 5994,
      "three-": 5995,
      "through": 5996,
      "throughout": 5997,
      "thus": 5998,
      "ti": 5999,
      "tic": 6000,
      "tied": 6001,
      "tiempo": 6002,
      "tiene": 6003,
      "tienen": 6004,
      "tierra": 6005,
      "ties": 6006,
      "tig": 6007,
      "tiger": 6008,
      "tight": 6009,
      "til": 6010,
      "tim": 6011,
      "time": 6012,
      "time,": 6013,
      "times": 6014,
      "ting": 6015,
      "tion": 6016,
      "tion.": 6017,
      "tions": 6018,
      "tle": 6019,
      "to": 6020,
      "toad": 6021,
      "tober": 6022,
      "tod": 6023,
      "todas": 6024,
      "today": 6025,
      "todo": 6026,
      "todos": 6027,
      "tol": 6028,
      "tons": 6029,
      "took": 6030,
      "top": 6031,
      "top;": 6032,
      "tores": 6033,
      "tos": 6034,
      "total": 6035,
      "total.": 6036,
      "touch": 6037,
      "towards": 6038,
      "town": 6039,
      "town,": 6040,
      "towns": 6041,
      "tr": 6042,
      "tra": 6043,
      "trad": 6044,
      "trade": 6045,
      "traded": 6046,
      "traders,": 6047,
      "tradic": 6048,
      "tradicion": 6049,
      "tradicional": 6050,
      "tradicionales": 6051,
      "tradiciones": 6052,
      "tradition": 6053,
      "tradition.": 6054,
      "traditional": 6055,
      "traditionally": 6056,
      "traditions": 6057,
      "traditions,": 6058,
      "traditions.": 6059,
      "training": 6060,
      "tran": 6061,
      "trans": 6062,
      "transaction": 6063,
      "transformed": 6064,
      "translat": 6065,
      "transm": 6066,
      "transmit": 6067,
      "transmitted": 6068,
      "tras": 6069,
      "trav": 6070,
      "través": 6071,
      "tre": 6072,
      "treat": 6073,
      "treatment": 6074,
      "trees": 6075,
      "tres": 6076,
      "tri": 6077,
      "triad": 6078,
      "trial": 6079,
      "tribal": 6080,
      "tribes": 6081,
      "tribut": 6082,
      "trig": 6083,
      "tro": 6084,
      "tropical": 6085,
      "trough": 6086,
      "trous": 6087,
      "ts": 6088,
      "tt": 6089,
      "tu": 6090,
      "tuber": 6091,
      "tubercul": 6092,
      "tuberculos": 6093,
      "tuberculosis": 6094,
      "tuc": 6095,
      "tun": 6096,
      "tunic.": 6097,
      "tunics": 6098,
      "tur": 6099,
      "turmer": 6100,
      "turn": 6101,
      "turned": 6102,
      "tuvo": 6103,
      "tw": 6104,
      "two": 6105,
      "ty": 6106,
      "ty,": 6107,
      "ty.": 6108,
      "typical": 6109,
      "typically": 6110,
      "té": 6111,
      "tér": 6112,
      "términ": 6113,
      "términos": 6114,
      "u": 6115,
      "u,": 6116,
      "ual": 6117,
      "ually": 6118,
      "ub": 6119,
      "ubic": 6120,
      "ubs": 6121,
      "uc": 6122,
      "uch": 6123,
      "ución": 6124,
      "uclear": 6125,
      "ud": 6126,
      "udi": 6127,
      "ue": 6128,
      "uer": 6129,
      "uev": 6130,
      "ug": 6131,
      "uis": 6132,
      "uj": 6133,
      "uk": 6134,
      "ul": 6135,
      "ula": 6136,
      "ular": 6137,
      "uled": 6138,
      "ult": 6139,
      "ultan": 6140,
      "ultanate": 6141,
      "ulti-": 6142,
      "ulture": 6143,
      "um": 6144,
      "un": 6145,
      "una": 6146,
      "unan": 6147,
      "uncommon": 6148,
      "uncommon,": 6149,
      "unconstitutional": 6150,
      "und": 6151,
      "unda": 6152,
      "under": 6153,
      "under,": 6154,
      "under-": 6155,
      "undergr": 6156,
      "unders": 6157,
      "underwent": 6158,
      "une": 6159,
      "uneas": 6160,
      "ung": 6161,
      "uni": 6162,
      "uniform": 6163,
      "union": 6164,
      "uniqu": 6165,
      "unit": 6166,
      "unitary": 6167,
      "united": 6168,
      "units": 6169,
      "univer": 6170,
      "unión": 6171,
      "unle": 6172,
      "unlin": 6173,
      "uno": 6174,
      "unos": 6175,
      "unpre": 6176,
      "unque": 6177,
      "unres": 6178,
      "unresolved": 6179,
      "unrest": 6180,
      "until": 6181,
      "unto": 6182,
      "untouch": 6183,
      "untouchability": 6184,
      "up": 6185,
      "upon": 6186,
      "upper": 6187,
      "upper-body": 6188,
      "upsur": 6189,
      "ur": 6190,
      "ura": 6191,
      "ura,": 6192,
      "ural": 6193,
      "uras": 6194,
      "urban": 6195,
      "urban;": 6196,
      "urbana": 6197,
      "urbanisation": 6198,
      "urbanisation.": 6199,
      "ure": 6200,
      "ure,": 6201,
      "ure.": 6202,
      "ured": 6203,
      "ures": 6204,
      "uri": 6205,
      "uring": 6206,
      "urred": 6207,
      "urt": 6208,
      "urther": 6209,
      "us": 6210,
      "usage": 6211,
      "use": 6212,
      "use\"": 6213,
      "used": 6214,
      "ush": 6215,
      "using": 6216,
      "uso": 6217,
      "ust": 6218,
      "usu": 6219,
      "usually": 6220,
      "ut": 6221,
      "utas": 6222,
      "ute": 6223,
      "uted": 6224,
      "utes": 6225,
      "utiliz": 6226,
      "ution": 6227,
      "uy": 6228,
      "v": 6229,
      "vac": 6230,
      "val": 6231,
      "valle": 6232,
      "valley,": 6233,
      "valley.": 6234,
      "valu": 6235,
      "vari": 6236,
      "varias": 6237,
      "variations": 6238,
      "varied,": 6239,
      "variety": 6240,
      "varios": 6241,
      "various": 6242,
      "varn": 6243,
      "varna,": 6244,
      "varna.": 6245,
      "varnas": 6246,
      "vary": 6247,
      "varying": 6248,
      "vast": 6249,
      "ve": 6250,
      "vec": 6251,
      "ved": 6252,
      "veg": 6253,
      "veget": 6254,
      "vegetables,": 6255,
      "vegetari": 6256,
      "velo": 6257,
      "vement": 6258,
      "ven": 6259,
      "vene": 6260,
      "vent": 6261,
      "vention": 6262,
      "ver": 6263,
      "ver,": 6264,
      "verag": 6265,
      "veral": 6266,
      "verbal": 6267,
      "vers": 6268,
      "very": 6269,
      "ves": 6270,
      "vestre": 6271,
      "vez": 6272,
      "vi": 6273,
      "vice": 6274,
      "vict": 6275,
      "victor": 6276,
      "victories": 6277,
      "victory": 6278,
      "vida": 6279,
      "view": 6280,
      "vig": 6281,
      "vill": 6282,
      "village": 6283,
      "villages": 6284,
      "ving": 6285,
      "viol": 6286,
      "violence": 6287,
      "violence;": 6288,
      "vir": 6289,
      "vis": 6290,
      "visi": 6291,
      "visit": 6292,
      "visited": 6293,
      "vo": 6294,
      "vol": 6295,
      "volcan": 6296,
      "voted": 6297,
      "vult": 6298,
      "vé": 6299,
      "w": 6300,
      "wa": 6301,
      "wage": 6302,
      "waist": 6303,
      "waist.": 6304,
      "waistline": 6305,
      "walled": 6306,
      "wan": 6307,
      "wanted": 6308,
      "war": 6309,
      "war,": 6310,
      "war.": 6311,
      "ward": 6312,
      "wards": 6313,
      "warmer": 6314,
      "warri": 6315,
      "warriors": 6316,
      "warriors.": 6317,
      "wars": 6318,
      "wars.": 6319,
      "was": 6320,
      "wat": 6321,
      "way": 6322,
      "we": 6323,
      "weak": 6324,
      "wealth": 6325,
      "wealthy": 6326,
      "weap": 6327,
      "weapon": 6328,
      "weapons": 6329,
      "wear": 6330,
      "wear,": 6331,
      "wearer": 6332,
      "web": 6333,
      "webs": 6334,
      "wed": 6335,
      "ween": 6336,
      "weight": 6337,
      "wel": 6338,
      "welfare": 6339,
      "well": 6340,
      "well,": 6341,
      "well-": 6342,
      "well-regul": 6343,
      "well-sett": 6344,
      "well.": 6345,
      "went": 6346,
      "wer": 6347,
      "were": 6348,
      "west": 6349,
      "west,": 6350,
      "west;": 6351,
      "western": 6352,
      "wet": 6353,
      "wet,": 6354,
      "wetlands": 6355,
      "wever,": 6356,
      "wh": 6357,
      "what": 6358,
      "when": 6359,
      "where": 6360,
      "whereas": 6361,
      "which": 6362,
      "which,": 6363,
      "while": 6364,
      "whim": 6365,
      "who": 6366,
      "whose": 6367,
      "wi": 6368,
      "wide": 6369,
      "widely": 6370,
      "widely,": 6371,
      "wides": 6372,
      "wil": 6373,
      "wild": 6374,
      "wildlife": 6375,
      "wildlife,": 6376,
      "will": 6377,
      "win": 6378,
      "winds": 6379,
      "wing": 6380,
      "winning": 6381,
      "winter": 6382,
      "with": 6383,
      "within": 6384,
      "wn": 6385,
      "wo": 6386,
      "wom": 6387,
      "women": 6388,
      "women,": 6389,
      "won": 6390,
      "wood,": 6391,
      "wor": 6392,
      "work": 6393,
      "work,": 6394,
      "working": 6395,
      "works": 6396,
      "works,": 6397,
      "world": 6398,
      "world's": 6399,
      "world,": 6400,
      "world.": 6401,
      "worldwide": 6402,
      "worn": 6403,
      "worship": 6404,
      "would": 6405,
      "wrap": 6406,
      "writ": 6407,
      "writing,": 6408,
      "written": 6409,
      "x": 6410,
      "y": 6411,
      "y,": 6412,
      "y.": 6413,
      "ya": 6414,
      "ya,": 6415,
      "yan": 6416,
      "yar": 6417,
      "yas": 6418,
      "year": 6419,
      "year,": 6420,
      "year-": 6421,
      "year.": 6422,
      "years": 6423,
      "years,": 6424,
      "years;": 6425,
      "yed": 6426,
      "yes": 6427,
      "youn": 6428,
      "yth": 6429,
      "z": 6430,
      "za": 6431,
      "zas": 6432,
      "ze": 6433,
      "zebu": 6434,
      "zed": 6435,
      "zer": 6436,
      "zes": 6437,
      "zo": 6438,
      "zon": 6439,
      "zonas": 6440,
      "zone": 6441,
      "zones": 6442,
      "|": 6443,
      "ª": 6444,
      "«": 6445,
      "°": 6446,
      "°C": 6447,
      "°F": 6448,
      "»": 6449,
      "Á": 6450,
      "Áf": 6451,
      "Í": 6452,
      "Ín": 6453,
      "Ö": 6454,
      "Ön": 6455,
      "á": 6456,
      "áct": 6457,
      "ámic": 6458,
      "án": 6459,
      "ánic": 6460,
      "ár": 6461,
      "áreas": 6462,
      "ás": 6463,
      "ás,": 6464,
      "átic": 6465,
      "â": 6466,
      "é": 6467,
      "élit": 6468,
      "élite": 6469,
      "élites": 6470,
      "én": 6471,
      "ér": 6472,
      "és": 6473,
      "étic": 6474,
      "ética": 6475,
      "í": 6476,
      "í,": 6477,
      "ía": 6478,
      "ía,": 6479,
      "ían": 6480,
      "ías": 6481,
      "ías,": 6482,
      "ífer": 6483,
      "ín": 6484,
      "íst": 6485,
      "ític": 6486,
      "ñ": 6487,
      "ña": 6488,
      "ñan": 6489,
      "ños": 6490,
      "ó": 6491,
      "óg": 6492,
      "ómic": 6493,
      "ón": 6494,
      "ú": 6495,
      "úl": 6496,
      "últi": 6497,
      "últim": 6498,
      "últimas": 6499,
      "últimos": 6500,
      "ún": 6501,
      "ús": 6502,
      "út": 6503,
      "ü": 6504,
      "ā": 6505,
      "ārat": 6506,
      "āy": 6507,
      "ī": 6508,
      "Ś": 6509,
      "Śul": 6510,
      "ū": 6511,
      "ɑ": 6512,
      "ə": 6513,
      "ɦ": 6514,
      "ɪ": 6515,
      "ɾ": 6516,
      "ʊ": 6517,
      "ʌ": 6518,
      "ʱ": 6519,
      "ˈ": 6520,
      "ː": 6521,
      "̪": 6522,
      "ί": 6523,
      "α": 6524,
      "δ": 6525,
      "ι": 6526,
      "ν": 6527,
      "νδ": 6528,
      "ο": 6529,
      "ς": 6530,
      "ό": 6531,
      "ँ": 6532,
      "ँकि": 6533,
      "ँच": 6534,
      "ं": 6535,
      "ंक": 6536,
      "ंग": 6537,
      "ंगा": 6538,
      "ंग्रे": 6539,
      "ंग्रेस": 6540,
      "ंट": 6541,
      "ंड": 6542,
      "ंति": 6543,
      "ंत्र": 6544,
      "ंत्रिक": 6545,
      "ंध": 6546,
      "ंधी": 6547,
      "ंधु": 6548,
      "ंप": 6549,
      "ंह": 6550,
      "ं।": 6551,
      "ः": 6552,
      "अ": 6553,
      "अंग्रे": 6554,
      "अंग्रेज़ी": 6555,
      "अंग्रेजी": 6556,
      "अग": 6557,
      "अति": 6558,
      "अधि": 6559,
      "अधिक": 6560,
      "अधिकार": 6561,
      "अन": 6562,
      "अनु": 6563,
      "अनुसार": 6564,
      "अने": 6565,
      "अनेक": 6566,
      "अन्": 6567,
      "अन्त": 6568,
      "अन्तर": 6569,
      "अन्य": 6570,
      "अप": 6571,
      "अपना": 6572,
      "अपनी": 6573,
      "अपने": 6574,
      "अप्र": 6575,
      "अप्रै": 6576,
      "अप्रैल": 6577,
      "अफ": 6578,
      "अफ्री": 6579,
      "अफ्रीका": 6580,
      "अब": 6581,
      "अभ": 6582,
      "अभिया": 6583,
      "अभी": 6584,
      "अम": 6585,
      "अमरी": 6586,
      "अमरीकी": 6587,
      "अमे": 6588,
      "अमेरि": 6589,
      "अमेरिका": 6590,
      "अर": 6591,
      "अरब": 6592,
      "अर्थ": 6593,
      "अर्थव्यवस्था": 6594,
      "अलग": 6595,
      "अलावा": 6596,
      "अल्": 6597,
      "अव": 6598,
      "अवशेष": 6599,
      "असम": 6600,
      "आ": 6601,
      "आं": 6602,
      "आग": 6603,
      "आगमन": 6604,
      "आज": 6605,
      "आत": 6606,
      "आदि": 6607,
      "आध": 6608,
      "आधार": 6609,
      "आधिकार": 6610,
      "आधिकारिक": 6611,
      "आधु": 6612,
      "आधुनिक": 6613,
      "आन्": 6614,
      "आन्दोलन": 6615,
      "आप": 6616,
      "आय": 6617,
      "आया": 6618,
      "आर": 6619,
      "आर्थ": 6620,
      "आर्थिक": 6621,
      "आस": 6622,
      "इ": 6623,
      "इं": 6624,
      "इंड": 6625,
      "इंडिया": 6626,
      "इंदि": 6627,
      "इंदिरा": 6628,
      "इतिहास": 6629,
      "इन": 6630,
      "इस": 6631,
      "इसका": 6632,
      "इसकी": 6633,
      "इसके": 6634,
      "इसमें": 6635,
      "इसी": 6636,
      "इसे": 6637,
      "इस्": 6638,
      "इस्ला": 6639,
      "ई": 6640,
      "ई,": 6641,
      "ईसा": 6642,
      "ई।": 6643,
      "उ": 6644,
      "उच्च": 6645,
      "उत्": 6646,
      "उत्तर": 6647,
      "उत्तर-": 6648,
      "उत्तरी": 6649,
      "उत्पाद": 6650,
      "उद्योग": 6651,
      "उन": 6652,
      "उनकी": 6653,
      "उनके": 6654,
      "उन्हें": 6655,
      "उप": 6656,
      "उपमहाद्वीप": 6657,
      "उपयोग": 6658,
      "उष्ण": 6659,
      "उस": 6660,
      "उसके": 6661,
      "उसे": 6662,
      "ऊ": 6663,
      "ऊँ": 6664,
      "ऊँची": 6665,
      "ऋ": 6666,
      "ऋतु": 6667,
      "ए": 6668,
      "एँ": 6669,
      "एं": 6670,
      "एक": 6671,
      "एन": 6672,
      "एव": 6673,
      "एवं": 6674,
      "एश": 6675,
      "एशिया": 6676,
      "ऐ": 6677,
      "ऑ": 6678,
      "ऑफ": 6679,
      "ओ": 6680,
      "ओं": 6681,
      "ओर": 6682,
      "औ": 6683,
      "और": 6684,
      "क": 6685,
      "कई": 6686,
      "कटि": 6687,
      "कटिबंधीय": 6688,
      "कप": 6689,
      "कम": 6690,
      "कर": 6691,
      "करण": 6692,
      "करता": 6693,
      "करती": 6694,
      "करते": 6695,
      "करना": 6696,
      "करने": 6697,
      "करोड़": 6698,
      "कर्": 6699,
      "कर्ज": 6700,
      "कर्म": 6701,
      "कल": 6702,
      "कश्": 6703,
      "कश्मी": 6704,
      "कश्मीर": 6705,
      "कह": 6706,
      "कहते": 6707,
      "का": 6708,
      "काम": 6709,
      "कार": 6710,
      "कारण": 6711,
      "कार्य": 6712,
      "कार्यकाल": 6713,
      "कार्यपालिका": 6714,
      "काल": 6715,
      "कालीन": 6716,
      "कि": 6717,
      "किए": 6718,
      "किन्तु": 6719,
      "किया": 6720,
      "किया,": 6721,
      "किया।": 6722,
      "किये": 6723,
      "किसी": 6724,
      "की": 6725,
      "की।": 6726,
      "कु": 6727,
      "कुछ": 6728,
      "कुल": 6729,
      "कृ": 6730,
      "कृष": 6731,
      "कृषि": 6732,
      "के": 6733,
      "कें": 6734,
      "केंद्र": 6735,
      "केन्द्र": 6736,
      "केवल": 6737,
      "कॉ": 6738,
      "कॉंग्रेस": 6739,
      "को": 6740,
      "कोई": 6741,
      "क्": 6742,
      "क्ट": 6743,
      "क्त": 6744,
      "क्ति": 6745,
      "क्यों": 6746,
      "क्र": 6747,
      "क्रम": 6748,
      "क्ष": 6749,
      "क्षर": 6750,
      "क्षा": 6751,
      "क्षे": 6752,
      "क्षेत्र": 6753,
      "क्षेत्रीय": 6754,
      "ख": 6755,
      "खन": 6756,
      "खा": 6757,
      "खे": 6758,
      "ख्या": 6759,
      "ग": 6760,
      "गंगा": 6761,
      "गई": 6762,
      "गई।": 6763,
      "गए": 6764,
      "गठ": 6765,
      "गठबंधन": 6766,
      "गण": 6767,
      "गणराज्य": 6768,
      "गत": 6769,
      "गति": 6770,
      "गया": 6771,
      "गया।": 6772,
      "गर": 6773,
      "गा": 6774,
      "गांधी": 6775,
      "गी": 6776,
      "गु": 6777,
      "गुजरा": 6778,
      "गुप्त": 6779,
      "गो": 6780,
      "ग्": 6781,
      "ग्र": 6782,
      "घ": 6783,
      "घर": 6784,
      "घा": 6785,
      "घोष": 6786,
      "घोषणा": 6787,
      "च": 6788,
      "चना": 6789,
      "चर": 6790,
      "चल": 6791,
      "चा": 6792,
      "चार": 6793,
      "चि": 6794,
      "चित": 6795,
      "ची": 6796,
      "चीन": 6797,
      "चीफ": 6798,
      "चु": 6799,
      "चुनाव": 6800,
      "चुनावों": 6801,
      "चे": 6802,
      "चो": 6803,
      "च्": 6804,
      "च्च": 6805,
      "च्छ": 6806,
      "छ": 6807,
      "छो": 6808,
      "छोटे": 6809,
      "छोड़": 6810,
      "ज": 6811,
      "जट": 6812,
      "जन": 6813,
      "जनजाति": 6814,
      "जनता": 6815,
      "जनवरी": 6816,
      "जनसंख्या": 6817,
      "जब": 6818,
      "जबकि": 6819,
      "जमा": 6820,
      "जरा": 6821,
      "जल": 6822,
      "जलवायु": 6823,
      "जलो": 6824,
      "जलोढ़": 6825,
      "जहाँ": 6826,
      "ज़": 6827,
      "ज़ी": 6828,
      "जा": 6829,
      "जाता": 6830,
      "जाति": 6831,
      "जाती": 6832,
      "जाते": 6833,
      "जाना": 6834,
      "जि": 6835,
      "जिन": 6836,
      "जिनमें": 6837,
      "जिन्हें": 6838,
      "जिस": 6839,
      "जिसका": 6840,
      "जिसके": 6841,
      "जिसमें": 6842,
      "जी": 6843,
      "जीत": 6844,
      "जीवन": 6845,
      "जु": 6846,
      "जू": 6847,
      "जून": 6848,
      "जै": 6849,
      "जैसे": 6850,
      "जो": 6851,
      "जों": 6852,
      "ज्य": 6853,
      "झ": 6854,
      "ञ": 6855,
      "ट": 6856,
      "टक": 6857,
      "टन": 6858,
      "टल": 6859,
      "टा": 6860,
      "टि": 6861,
      "टी": 6862,
      "टे": 6863,
      "टेलीवि": 6864,
      "ठ": 6865,
      "ड": 6866,
      "ड़": 6867,
      "ड़ा": 6868,
      "ड़ी": 6869,
      "ड़े": 6870,
      "डा": 6871,
      "डालर": 6872,
      "डि": 6873,
      "डी": 6874,
      "डॉ": 6875,
      "डॉलर": 6876,
      "ढ": 6877,
      "ढ़": 6878,
      "ढा": 6879,
      "ण": 6880,
      "ण,": 6881,
      "णा": 6882,
      "णी": 6883,
      "ण्": 6884,
      "ण्ड": 6885,
      "त": 6886,
      "तंत्र": 6887,
      "तः": 6888,
      "तक": 6889,
      "तट": 6890,
      "तथा": 6891,
      "तन": 6892,
      "तनाव": 6893,
      "तब": 6894,
      "तम": 6895,
      "तमिल": 6896,
      "तर": 6897,
      "तरह": 6898,
      "ता": 6899,
      "ति": 6900,
      "तिक": 6901,
      "तिहा": 6902,
      "तिहास": 6903,
      "ती": 6904,
      "तीन": 6905,
      "तीस": 6906,
      "तु": 6907,
      "तुलना": 6908,
      "तृ": 6909,
      "ते": 6910,
      "तो": 6911,
      "त्": 6912,
      "त्न": 6913,
      "त्म": 6914,
      "त्य": 6915,
      "त्या": 6916,
      "त्र": 6917,
      "त्रि": 6918,
      "त्री": 6919,
      "त्व": 6920,
      "थ": 6921,
      "था": 6922,
      "था,": 6923,
      "था।": 6924,
      "थी": 6925,
      "थी।": 6926,
      "थे": 6927,
      "थे।": 6928,
      "द": 6929,
      "दक्ष": 6930,
      "दक्षिण": 6931,
      "दर": 6932,
      "दर्": 6933,
      "दल": 6934,
      "दश": 6935,
      "दशक": 6936,
      "दा": 6937,
      "दान": 6938,
      "दार": 6939,
      "दारी": 6940,
      "दि": 6941,
      "दिया": 6942,
      "दिया।": 6943,
      "दिल्": 6944,
      "दिल्ली": 6945,
      "दी": 6946,
      "दु": 6947,
      "दू": 6948,
      "दृ": 6949,
      "दृष्ट": 6950,
      "दृष्टि": 6951,
      "दे": 6952,
      "देख": 6953,
      "देखा": 6954,
      "देव": 6955,
      "देश": 6956,
      "देशों": 6957,
      "दो": 6958,
      "दोनों": 6959,
      "दोलन": 6960,
      "द्": 6961,
      "द्ध": 6962,
      "द्य": 6963,
      "द्योग": 6964,
      "द्योगिकी": 6965,
      "द्र": 6966,
      "द्रो": 6967,
      "द्वार": 6968,
      "द्वारा": 6969,
      "द्वी": 6970,
      "द्वीप": 6971,
      "ध": 6972,
      "धर्म": 6973,
      "धान": 6974,
      "धार": 6975,
      "धि": 6976,
      "धिक": 6977,
      "धिकार": 6978,
      "धी": 6979,
      "धीरे": 6980,
      "ध्य": 6981,
      "ध्यम": 6982,
      "न": 6983,
      "नदिया": 6984,
      "नदियाँ": 6985,
      "नम": 6986,
      "नव": 6987,
      "नहीं": 6988,
      "ना": 6989,
      "नागर": 6990,
      "नागरिक": 6991,
      "नागा": 6992,
      "नाम": 6993,
      "नाव": 6994,
      "नि": 6995,
      "निक": 6996,
      "निभा": 6997,
      "निभाई": 6998,
      "निम्": 6999,
      "निय": 7000,
      "निर": 7001,
      "निरपेक्ष": 7002,
      "निर्": 7003,
      "निर्माण": 7004,
      "निवेश": 7005,
      "नी": 7006,
      "ने": 7007,
      "नेतृ": 7008,
      "नेतृत्व": 7009,
      "नेमा": 7010,
      "नेह": 7011,
      "नै": 7012,
      "नों": 7013,
      "नौ": 7014,
      "नौसेना": 7015,
      "न्": 7016,
      "न्तु": 7017,
      "न्द्र": 7018,
      "न्ध": 7019,
      "न्न": 7020,
      "न्या": 7021,
      "न्याया": 7022,
      "न्यायालय": 7023,
      "न्ह": 7024,
      "न्हें": 7025,
      "प": 7026,
      "पं": 7027,
      "पंजा": 7028,
      "पंजाब": 7029,
      "पड़": 7030,
      "पड़ो": 7031,
      "पड़ोसी": 7032,
      "पत्": 7033,
      "पद": 7034,
      "पर": 7035,
      "परंप": 7036,
      "परंपरा": 7037,
      "परंपरागत": 7038,
      "परमाण": 7039,
      "परमाणु": 7040,
      "परिण": 7041,
      "परिणामस्वरूप": 7042,
      "परी": 7043,
      "परीक्ष": 7044,
      "परीक्षण": 7045,
      "परे": 7046,
      "पर्य": 7047,
      "पर्यटन": 7048,
      "पर्व": 7049,
      "पर्वत": 7050,
      "पश्": 7051,
      "पश्चि": 7052,
      "पश्चिम": 7053,
      "पश्चिमी": 7054,
      "पह": 7055,
      "पहले": 7056,
      "पहा": 7057,
      "पहु": 7058,
      "पहुँच": 7059,
      "पा": 7060,
      "पाँच": 7061,
      "पाकि": 7062,
      "पाकिस्तान": 7063,
      "पात": 7064,
      "पाद": 7065,
      "पान": 7066,
      "पाया": 7067,
      "पार": 7068,
      "पार्ट": 7069,
      "पार्टी": 7070,
      "पालि": 7071,
      "पालिका": 7072,
      "पास": 7073,
      "पि": 7074,
      "पी": 7075,
      "पु": 7076,
      "पुर": 7077,
      "पुरु": 7078,
      "पुरुष": 7079,
      "पुर्त": 7080,
      "पुर्तगा": 7081,
      "पू": 7082,
      "पूरा": 7083,
      "पूरे": 7084,
      "पूर्": 7085,
      "पूर्ण": 7086,
      "पूर्व": 7087,
      "पूर्वी": 7088,
      "पे": 7089,
      "पेक्ष": 7090,
      "पै": 7091,
      "प्": 7092,
      "प्त": 7093,
      "प्र": 7094,
      "प्रका": 7095,
      "प्रकार": 7096,
      "प्रचल": 7097,
      "प्रणा": 7098,
      "प्रणाली": 7099,
      "प्रति": 7100,
      "प्रतिशत": 7101,
      "प्रत्य": 7102,
      "प्रत्ये": 7103,
      "प्रत्येक": 7104,
      "प्रदान": 7105,
      "प्रदेश": 7106,
      "प्रधान": 7107,
      "प्रधानमंत्री": 7108,
      "प्रभा": 7109,
      "प्रभाव": 7110,
      "प्रभु": 7111,
      "प्रमुख": 7112,
      "प्रयास": 7113,
      "प्रशासन": 7114,
      "प्रा": 7115,
      "प्राचीन": 7116,
      "प्राप्त": 7117,
      "प्रार": 7118,
      "प्रारम्भ": 7119,
      "प्रौ": 7120,
      "प्रौद्योगिकी": 7121,
      "प्ले": 7122,
      "प्लेट": 7123,
      "फ": 7124,
      "फल": 7125,
      "फ़": 7126,
      "फा": 7127,
      "फि": 7128,
      "फैली": 7129,
      "फ्रा": 7130,
      "फ्रां": 7131,
      "ब": 7132,
      "बंगा": 7133,
      "बंध": 7134,
      "बंधन": 7135,
      "बंधीय": 7136,
      "बजट": 7137,
      "बड़ा": 7138,
      "बड़ी": 7139,
      "बड़े": 7140,
      "बढ़": 7141,
      "बढ़कर": 7142,
      "बढ़ती": 7143,
      "बद": 7144,
      "बदल": 7145,
      "बन": 7146,
      "बना": 7147,
      "बनाने": 7148,
      "बनी": 7149,
      "बने": 7150,
      "बर": 7151,
      "बह": 7152,
      "बहु": 7153,
      "बहुत": 7154,
      "बहुमत": 7155,
      "बा": 7156,
      "बाद": 7157,
      "बार": 7158,
      "बाहरी": 7159,
      "बि": 7160,
      "बी": 7161,
      "बीच": 7162,
      "बे": 7163,
      "बै": 7164,
      "बो": 7165,
      "बौ": 7166,
      "बौद्ध": 7167,
      "ब्": 7168,
      "ब्र": 7169,
      "ब्रि": 7170,
      "ब्रिटि": 7171,
      "ब्रिटिश": 7172,
      "भ": 7173,
      "भग": 7174,
      "भर": 7175,
      "भरा": 7176,
      "भा": 7177,
      "भाग": 7178,
      "भागी": 7179,
      "भाज": 7180,
      "भाजपा": 7181,
      "भार": 7182,
      "भारत": 7183,
      "भारतीय": 7184,
      "भाष": 7185,
      "भाषा": 7186,
      "भाषाएँ": 7187,
      "भाषाएं": 7188,
      "भाषाओं": 7189,
      "भाषी": 7190,
      "भि": 7191,
      "भी": 7192,
      "भील": 7193,
      "भु": 7194,
      "भू": 7195,
      "भूमि": 7196,
      "भूमिका": 7197,
      "म": 7198,
      "म,": 7199,
      "मंत्र": 7200,
      "मंत्रिम": 7201,
      "मंत्रिमण्ड": 7202,
      "मंत्रिमण्डल": 7203,
      "मंत्री": 7204,
      "मत": 7205,
      "मध्य": 7206,
      "मन": 7207,
      "मह": 7208,
      "महा": 7209,
      "महाद्वीप": 7210,
      "मा": 7211,
      "माज": 7212,
      "माण": 7213,
      "माता": 7214,
      "माध्यम": 7215,
      "मान": 7216,
      "मानसू": 7217,
      "मानसून": 7218,
      "माना": 7219,
      "मार्": 7220,
      "माल": 7221,
      "मि": 7222,
      "मिल": 7223,
      "मिला": 7224,
      "मिलियन": 7225,
      "मी": 7226,
      "मु": 7227,
      "मुख": 7228,
      "मुख्य": 7229,
      "मुस्": 7230,
      "मुस्लिम": 7231,
      "मू": 7232,
      "मूल": 7233,
      "मे": 7234,
      "में": 7235,
      "में,": 7236,
      "मै": 7237,
      "मैदान": 7238,
      "मैदानी": 7239,
      "मो": 7240,
      "मोहन": 7241,
      "मौ": 7242,
      "मौर्य": 7243,
      "म्": 7244,
      "म्भ": 7245,
      "य": 7246,
      "यक": 7247,
      "यत": 7248,
      "यन": 7249,
      "यह": 7250,
      "यहाँ": 7251,
      "या": 7252,
      "यास": 7253,
      "या।": 7254,
      "यि": 7255,
      "यु": 7256,
      "युक्त": 7257,
      "युग": 7258,
      "युद्ध": 7259,
      "यू": 7260,
      "यूरो": 7261,
      "यूरोप": 7262,
      "यूरोपीय": 7263,
      "ये": 7264,
      "यों": 7265,
      "योग": 7266,
      "र": 7267,
      "र-": 7268,
      "रक्षा": 7269,
      "रख": 7270,
      "रल": 7271,
      "रह": 7272,
      "रहा": 7273,
      "रहा।": 7274,
      "रही": 7275,
      "रहे": 7276,
      "रा": 7277,
      "राज": 7278,
      "राजधान": 7279,
      "राजधानी": 7280,
      "राजनी": 7281,
      "राजनीतिक": 7282,
      "राजनै": 7283,
      "राजनैतिक": 7284,
      "राजवंश": 7285,
      "राजा": 7286,
      "राज्य": 7287,
      "राज्यसभा": 7288,
      "राज्यों": 7289,
      "राष्ट्र": 7290,
      "राष्ट्रीय": 7291,
      "रि": 7292,
      "रिक": 7293,
      "री": 7294,
      "रु": 7295,
      "रू": 7296,
      "रूप": 7297,
      "रूस": 7298,
      "रे": 7299,
      "रो": 7300,
      "र्": 7301,
      "र्त": 7302,
      "र्थ": 7303,
      "र्म": 7304,
      "र्य": 7305,
      "र्व": 7306,
      "र्वो": 7307,
      "र्ष": 7308,
      "ल": 7309,
      "ल,": 7310,
      "लं": 7311,
      "लंबे": 7312,
      "लग": 7313,
      "लगभग": 7314,
      "लगा": 7315,
      "लड़ा": 7316,
      "लन": 7317,
      "लना": 7318,
      "लय": 7319,
      "लर": 7320,
      "ला": 7321,
      "ला,": 7322,
      "लाख": 7323,
      "लावा": 7324,
      "लि": 7325,
      "लिए": 7326,
      "लिम": 7327,
      "लिया": 7328,
      "लिये": 7329,
      "ली": 7330,
      "ली,": 7331,
      "लीन": 7332,
      "लीवि": 7333,
      "लु": 7334,
      "ले": 7335,
      "लेकर": 7336,
      "लै": 7337,
      "लो": 7338,
      "लों": 7339,
      "लोक": 7340,
      "लोकप्र": 7341,
      "लोकप्रिय": 7342,
      "लोग": 7343,
      "लोगों": 7344,
      "लौ": 7345,
      "ल्": 7346,
      "व": 7347,
      "व,": 7348,
      "वं": 7349,
      "वंश": 7350,
      "वन": 7351,
      "वरी": 7352,
      "वर्": 7353,
      "वर्ग": 7354,
      "वर्ण": 7355,
      "वर्त": 7356,
      "वर्तमान": 7357,
      "वर्ष": 7358,
      "वर्षों": 7359,
      "वल": 7360,
      "वा": 7361,
      "वाद": 7362,
      "वादी": 7363,
      "वायु": 7364,
      "वार": 7365,
      "वाली": 7366,
      "वास": 7367,
      "वास्त": 7368,
      "वि": 7369,
      "विक": 7370,
      "विकसित": 7371,
      "विका": 7372,
      "विकास": 7373,
      "विज": 7374,
      "वित": 7375,
      "विदेश": 7376,
      "विदेशी": 7377,
      "विधान": 7378,
      "विभि": 7379,
      "विभिन्न": 7380,
      "वियत": 7381,
      "विरो": 7382,
      "विवाद": 7383,
      "विशेष": 7384,
      "विश्व": 7385,
      "विस्त": 7386,
      "विस्तार": 7387,
      "विस्तृत": 7388,
      "वी": 7389,
      "वीं": 7390,
      "वे": 7391,
      "वेश": 7392,
      "वै": 7393,
      "व्य": 7394,
      "व्यव": 7395,
      "व्यवस्था": 7396,
      "व्या": 7397,
      "व्यापार": 7398,
      "श": 7399,
      "शक्ति": 7400,
      "शत": 7401,
      "शता": 7402,
      "शताब्": 7403,
      "शताब्दी": 7404,
      "शन": 7405,
      "शहर": 7406,
      "शहरी": 7407,
      "शा": 7408,
      "शांति": 7409,
      "शाली": 7410,
      "शास": 7411,
      "शासन": 7412,
      "शासित": 7413,
      "शि": 7414,
      "शिक्": 7415,
      "शिक्षा": 7416,
      "शी": 7417,
      "शील": 7418,
      "शु": 7419,
      "शुरु": 7420,
      "शुरुआत": 7421,
      "शुरू": 7422,
      "शुष्क": 7423,
      "शे": 7424,
      "शेष": 7425,
      "श्": 7426,
      "श्री": 7427,
      "श्रीलं": 7428,
      "श्रीलंका": 7429,
      "श्व": 7430,
      "ष": 7431,
      "षा": 7432,
      "ष्": 7433,
      "ष्क": 7434,
      "ष्ट": 7435,
      "ष्ट्र": 7436,
      "ष्ठ": 7437,
      "ष्ण": 7438,
      "स": 7439,
      "स,": 7440,
      "सं": 7441,
      "संख्या": 7442,
      "संग": 7443,
      "संगी": 7444,
      "संगीत": 7445,
      "संघ": 7446,
      "संघर्ष": 7447,
      "संघीय": 7448,
      "संबंध": 7449,
      "संबंधों": 7450,
      "संयुक्त": 7451,
      "संविधान": 7452,
      "संसद": 7453,
      "संस्कृ": 7454,
      "संस्कृत": 7455,
      "संस्कृति": 7456,
      "सक": 7457,
      "सक्र": 7458,
      "सक्रिय": 7459,
      "सत": 7460,
      "सद": 7461,
      "सदन": 7462,
      "सदस": 7463,
      "सदस्य": 7464,
      "सदस्यों": 7465,
      "सन्": 7466,
      "सफल": 7467,
      "सब": 7468,
      "सबसे": 7469,
      "सभ": 7470,
      "सभा": 7471,
      "सभ्यता": 7472,
      "सम": 7473,
      "समझ": 7474,
      "समय": 7475,
      "समर्थ": 7476,
      "समर्थन": 7477,
      "समा": 7478,
      "समाज": 7479,
      "समाप्त": 7480,
      "समृद्ध": 7481,
      "सम्": 7482,
      "सर": 7483,
      "सरकार": 7484,
      "सरकारें": 7485,
      "सरे": 7486,
      "सर्वो": 7487,
      "सर्वोच्च": 7488,
      "सल्": 7489,
      "सल्तन": 7490,
      "सल्तनत": 7491,
      "सश": 7492,
      "सह": 7493,
      "सहयोग": 7494,
      "सहा": 7495,
      "सहायक": 7496,
      "सा": 7497,
      "सां": 7498,
      "सांस्कृतिक": 7499,
      "सागर": 7500,
      "साथ": 7501,
      "साम": 7502,
      "सामरिक": 7503,
      "सामाज": 7504,
      "सामाजिक": 7505,
      "साम्रा": 7506,
      "साम्राज्य": 7507,
      "सार": 7508,
      "साल": 7509,
      "साह": 7510,
      "सि": 7511,
      "सिंधु": 7512,
      "सिंह": 7513,
      "सित": 7514,
      "सिनेमा": 7515,
      "सी": 7516,
      "सु": 7517,
      "सू": 7518,
      "सूची": 7519,
      "से": 7520,
      "से,": 7521,
      "सेना": 7522,
      "सेवा": 7523,
      "सैन": 7524,
      "सैनिक": 7525,
      "सैन्य": 7526,
      "सो": 7527,
      "सोवियत": 7528,
      "स्": 7529,
      "स्कृ": 7530,
      "स्कृतिक": 7531,
      "स्ट": 7532,
      "स्त": 7533,
      "स्तर": 7534,
      "स्तान": 7535,
      "स्त्र": 7536,
      "स्थ": 7537,
      "स्था": 7538,
      "स्थान": 7539,
      "स्थाप": 7540,
      "स्थापना": 7541,
      "स्थि": 7542,
      "स्थित": 7543,
      "स्थिति": 7544,
      "स्व": 7545,
      "स्वतंत्र": 7546,
      "स्वतंत्रता": 7547,
      "स्वरूप": 7548,
      "ह": 7549,
      "हथ": 7550,
      "हथियार": 7551,
      "हन": 7552,
      "हर": 7553,
      "हरा": 7554,
      "हरी": 7555,
      "हा": 7556,
      "हाँ": 7557,
      "हाल": 7558,
      "हाला": 7559,
      "हालाँकि": 7560,
      "हि": 7561,
      "हिं": 7562,
      "हिन्": 7563,
      "हिन्द": 7564,
      "हिन्दी": 7565,
      "हिन्दु": 7566,
      "हिन्दू": 7567,
      "हिमा": 7568,
      "हिमालय": 7569,
      "हिस्": 7570,
      "ही": 7571,
      "हीं": 7572,
      "हु": 7573,
      "हुआ": 7574,
      "हुआ।": 7575,
      "हुई": 7576,
      "हुई।": 7577,
      "हुए": 7578,
      "है": 7579,
      "है,": 7580,
      "हैं": 7581,
      "हैं,": 7582,
      "हैं:": 7583,
      "हैं।": 7584,
      "है।": 7585,
      "हॉ": 7586,
      "हॉकी": 7587,
      "हो": 7588,
      "होता": 7589,
      "होती": 7590,
      "होते": 7591,
      "होना": 7592,
      "़": 7593,
      "ा": 7594,
      "ान": 7595,
      "ाना": 7596,
      "ाने": 7597,
      "ाम": 7598,
      "ामस्वरूप": 7599,
      "ार": 7600,
      "ारा": 7601,
      "ारी": 7602,
      "ार्": 7603,
      "ि": 7604,
      "िक": 7605,
      "िकी": 7606,
      "िक्": 7607,
      "िण": 7608,
      "ित": 7609,
      "िम": 7610,
      "िय": 7611,
      "ियन": 7612,
      "िया": 7613,
      "ियाँ": 7614,
      "ियां": 7615,
      "ियार": 7616,
      "िये": 7617,
      "ियों": 7618,
      "ी": 7619,
      "ीय": 7620,
      "ु": 7621,
      "ू": 7622,
      "ूट": 7623,
      "ूत": 7624,
      "ृ": 7625,
      "ृत": 7626,
      "ृत्य": 7627,
      "ृद्ध": 7628,
      "े": 7629,
      "ें": 7630,
      "ेक्षा": 7631,
      "ै": 7632,
      "ैन": 7633,
      "ैली": 7634,
      "ॉ": 7635,
      "ो": 7636,
      "ों": 7637,
      "ोग": 7638,
      "ोड़": 7639,
      "ोत": 7640,
      "ोष": 7641,
      "ौ": 7642,
      "ौर": 7643,
      "ौह": 7644,
      "्": 7645,
      "्ञ": 7646,
      "्ञान": 7647,
      "्ट": 7648,
      "्म": 7649,
      "्य": 7650,
      "्यता": 7651,
      "्या": 7652,
      "्यादा": 7653,
      "्यों": 7654,
      "्र": 7655,
      "्रा": 7656,
      "्री": 7657,
      "्रे": 7658,
      "्ष": 7659,
      "।": 7660,
      "०": 7661,
      "०,": 7662,
      "००": 7663,
      "०००": 7664,
      "१": 7665,
      "१४": 7666,
      "१५": 7667,
      "१८": 7668,
      "१९": 7669,
      "१९५": 7670,
      "१९५०": 7671,
      "१९६": 7672,
      "१९७": 7673,
      "१९८": 7674,
      "१९९": 7675,
      "२": 7676,
      "२.": 7677,
      "२०": 7678,
      "२००": 7679,
      "२००४": 7680,
      "२४": 7681,
      "३": 7682,
      "४": 7683,
      "४.": 7684,
      "४०": 7685,
      "४७": 7686,
      "५": 7687,
      "६": 7688,
      "७": 7689,
      "८": 7690,
      "९": 7691,
      "॰": 7692,
      "ం": 7693,
      "ం,": 7694,
      "ం.": 7695,
      "ం:": 7696,
      "ం;": 7697,
      "ంక": 7698,
      "ంకా": 7699,
      "ంగ": 7700,
      "ంగం": 7701,
      "ంగా": 7702,
      "ంగా,": 7703,
      "ంగ్ల": 7704,
      "ంచ": 7705,
      "ంచి": 7706,
      "ంచిన": 7707,
      "ంట": 7708,
      "ంటి": 7709,
      "ంటు": 7710,
      "ంటుంది.": 7711,
      "ంటే": 7712,
      "ంటో": 7713,
      "ండ": 7714,
      "ండర్": 7715,
      "ండా": 7716,
      "ండి": 7717,
      "ండి,": 7718,
      "ండు": 7719,
      "ండ్": 7720,
      "ంత": 7721,
      "ంతో": 7722,
      "ంత్ర": 7723,
      "ంద": 7724,
      "ంది": 7725,
      "ంది.": 7726,
      "ందింది.": 7727,
      "ందిన": 7728,
      "ందు": 7729,
      "ంద్ర": 7730,
      "ంధ": 7731,
      "ంబ": 7732,
      "ంభ": 7733,
      "ంలో": 7734,
      "ంలో,": 7735,
      "ః": 7736,
      "అ": 7737,
      "అంక": 7738,
      "అంట": 7739,
      "అంటారు.": 7740,
      "అంటార్": 7741,
      "అంటే": 7742,
      "అంత": 7743,
      "అంతర్": 7744,
      "అంతర్జాతీయ": 7745,
      "అంద": 7746,
      "అంది": 7747,
      "అక్ష": 7748,
      "అక్షరాస్యత": 7749,
      "అఖండ": 7750,
      "అణ": 7751,
      "అణు": 7752,
      "అణ్వ": 7753,
      "అతి": 7754,
      "అతిపెద్ద": 7755,
      "అతిముఖ్యమైన": 7756,
      "అతివేగంగా": 7757,
      "అతిశీ": 7758,
      "అత్య": 7759,
      "అత్యధిక": 7760,
      "అత్యధికంగా": 7761,
      "అది": 7762,
      "అద్ద": 7763,
      "అధి": 7764,
      "అధిక": 7765,
      "అధికార": 7766,
      "అధికారం": 7767,
      "అధికారంలో": 7768,
      "అధికారక": 7769,
      "అధికారాలు": 7770,
      "అధికారి": 7771,
      "అధికారిక": 7772,
      "అధికారికంగా": 7773,
      "అని": 7774,
      "అని,": 7775,
      "అను": 7776,
      "అనునది": 7777,
      "అనుమతి": 7778,
      "అనువైన": 7779,
      "అనుసరి": 7780,
      "అనే": 7781,
      "అనేక": 7782,
      "అన్న": 7783,
      "అన్ని": 7784,
      "అప్ప": 7785,
      "అభ": 7786,
      "అభి": 7787,
      "అభివృ": 7788,
      "అభివృద్ధ": 7789,
      "అభివృద్ధి": 7790,
      "అమె": 7791,
      "అమెరిక": 7792,
      "అయ": 7793,
      "అయింది.": 7794,
      "అయిత": 7795,
      "అయిన": 7796,
      "అయినప్పటికీ,": 7797,
      "అయినా,": 7798,
      "అర": 7799,
      "అరు": 7800,
      "అరే": 7801,
      "అలం": 7802,
      "అవ": 7803,
      "అవతర": 7804,
      "అవసర": 7805,
      "అవి": 7806,
      "అవి,": 7807,
      "అవినీ": 7808,
      "అశో": 7809,
      "అస్": 7810,
      "అహ": 7811,
      "అహమ్మ": 7812,
      "అహ్మ": 7813,
      "ఆ": 7814,
      "ఆక్రమ": 7815,
      "ఆక్రమణ": 7816,
      "ఆక్రమించ": 7817,
      "ఆక్రమించిన": 7818,
      "ఆక్షరాస్యత": 7819,
      "ఆగ": 7820,
      "ఆగ్": 7821,
      "ఆచార": 7822,
      "ఆటలు": 7823,
      "ఆణి": 7824,
      "ఆతి": 7825,
      "ఆదాయ": 7826,
      "ఆదేశ": 7827,
      "ఆధ": 7828,
      "ఆధార": 7829,
      "ఆధారప": 7830,
      "ఆధారపడిన": 7831,
      "ఆధారాలు.": 7832,
      "ఆధారిత": 7833,
      "ఆధీన": 7834,
      "ఆధు": 7835,
      "ఆధ్య": 7836,
      "ఆనం": 7837,
      "ఆనా": 7838,
      "ఆఫ": 7839,
      "ఆఫ్": 7840,
      "ఆఫ్ఘ": 7841,
      "ఆఫ్ఘనిస్తాన్": 7842,
      "ఆఫ్ఘా": 7843,
      "ఆయా": 7844,
      "ఆర్": 7845,
      "ఆర్థ": 7846,
      "ఆర్థిక": 7847,
      "ఆర్థిక,": 7848,
      "ఆర్ధిక": 7849,
      "ఆలో": 7850,
      "ఆవల": 7851,
      "ఆవి": 7852,
      "ఆసియా": 7853,
      "ఆహార": 7854,
      "ఆహారం": 7855,
      "ఆహారం.": 7856,
      "ఆహార్యం": 7857,
      "ఇ": 7858,
      "ఇ-": 7859,
      "ఇంకా": 7860,
      "ఇంగ్ల": 7861,
      "ఇంగ్లండు": 7862,
      "ఇంగ్లీ": 7863,
      "ఇంగ్లీషు": 7864,
      "ఇంటి": 7865,
      "ఇండ": 7866,
      "ఇండి": 7867,
      "ఇండియా": 7868,
      "ఇండియా,": 7869,
      "ఇండియాలో": 7870,
      "ఇండో": 7871,
      "ఇండో-": 7872,
      "ఇంది": 7873,
      "ఇందు": 7874,
      "ఇక్క": 7875,
      "ఇచ్చే": 7876,
      "ఇటీ": 7877,
      "ఇతను": 7878,
      "ఇతర": 7879,
      "ఇతరదేశాల": 7880,
      "ఇతరు": 7881,
      "ఇతి": 7882,
      "ఇది": 7883,
      "ఇదే": 7884,
      "ఇను": 7885,
      "ఇప్పటిక": 7886,
      "ఇము": 7887,
      "ఇయ": 7888,
      "ఇవ": 7889,
      "ఇవన్నీ": 7890,
      "ఇవి": 7891,
      "ఇవిక": 7892,
      "ఇవ్వ": 7893,
      "ఇస్లా": 7894,
      "ఇస్లామాబాద్": 7895,
      "ఇస్లామాబాద్-": 7896,
      "ఇస్లామాబాద్:": 7897,
      "ఈ": 7898,
      "ఈశ": 7899,
      "ఈశాన": 7900,
      "ఈశాన్య": 7901,
      "ఈస్": 7902,
      "ఈస్ట్": 7903,
      "ఉ": 7904,
      "ఉంట": 7905,
      "ఉంటాయి": 7906,
      "ఉంటాయి.": 7907,
      "ఉంటుంది.": 7908,
      "ఉంటూ": 7909,
      "ఉండ": 7910,
      "ఉండగా,": 7911,
      "ఉండట": 7912,
      "ఉండటం": 7913,
      "ఉండు": 7914,
      "ఉంది.": 7915,
      "ఉత్": 7916,
      "ఉత్కృ": 7917,
      "ఉత్త": 7918,
      "ఉత్తర": 7919,
      "ఉత్తర,": 7920,
      "ఉత్తరాన": 7921,
      "ఉత్సాహ": 7922,
      "ఉద్": 7923,
      "ఉనిక": 7924,
      "ఉన్న": 7925,
      "ఉన్నట్లు": 7926,
      "ఉన్నతంగా": 7927,
      "ఉన్నాయి": 7928,
      "ఉన్నాయి.": 7929,
      "ఉన్నారు": 7930,
      "ఉన్నారు.": 7931,
      "ఉప": 7932,
      "ఉపఖండ": 7933,
      "ఉపఖండం": 7934,
      "ఉపఖండపు": 7935,
      "ఉపఖండములో": 7936,
      "ఉపయో": 7937,
      "ఉపయోగి": 7938,
      "ఉపరాష్ట్ర": 7939,
      "ఉపా": 7940,
      "ఉష్ణ": 7941,
      "ఋ": 7942,
      "ఎ": 7943,
      "ఎంతో": 7944,
      "ఎక్కువ": 7945,
      "ఎక్కువగా": 7946,
      "ఎక్కువై": 7947,
      "ఎగు": 7948,
      "ఎగువ": 7949,
      "ఎడ": 7950,
      "ఎడమ": 7951,
      "ఎడారి": 7952,
      "ఎన్న": 7953,
      "ఎన్నిక": 7954,
      "ఎన్నికలలో": 7955,
      "ఎన్నికల్లో": 7956,
      "ఎన్ను": 7957,
      "ఎన్నుకు": 7958,
      "ఎన్నుకో": 7959,
      "ఎన్నుకోబడత": 7960,
      "ఎన్నుకోబడతారు.": 7961,
      "ఎన్నో": 7962,
      "ఎమ": 7963,
      "ఎల": 7964,
      "ఎలక్": 7965,
      "ఎలక్ట": 7966,
      "ఎలక్టోర": 7967,
      "ఎలక్టోరల్": 7968,
      "ఎల్ల": 7969,
      "ఏ": 7970,
      "ఏకత్వ": 7971,
      "ఏటా": 7972,
      "ఏడ": 7973,
      "ఏడు": 7974,
      "ఏప్ర": 7975,
      "ఏప్రిల్": 7976,
      "ఏర్": 7977,
      "ఏర్ప": 7978,
      "ఏర్పడ": 7979,
      "ఏర్పడిన": 7980,
      "ఏర్పడే": 7981,
      "ఏర్పడ్డ": 7982,
      "ఏర్పడ్డాయి.": 7983,
      "ఏర్పాటు": 7984,
      "ఏళ్ళ": 7985,
      "ఐ": 7986,
      "ఐక్య": 7987,
      "ఐదు": 7988,
      "ఐరో": 7989,
      "ఐరోపా": 7990,
      "ఒ": 7991,
      "ఒక": 7992,
      "ఒకటి": 7993,
      "ఒకటిగా": 7994,
      "ఒకటిగా,": 7995,
      "ఒకే": 7996,
      "ఒకేఒక": 7997,
      "ఒకేమా": 7998,
      "ఒక్": 7999,
      "ఒరి": 8000,
      "ఒలం": 8001,
      "ఓ": 8002,
      "ఓటర్": 8003,
      "ఓడ": 8004,
      "ఔ": 8005,
      "క": 8006,
      "క,": 8007,
      "కం": 8008,
      "కంటే": 8009,
      "కంపెనీ": 8010,
      "కంపెనీపై": 8011,
      "కట్ట": 8012,
      "కత్వ": 8013,
      "కథ": 8014,
      "కథకళ": 8015,
      "కథక్": 8016,
      "కథన": 8017,
      "కని": 8018,
      "కను": 8019,
      "కనుక": 8020,
      "కనుమ": 8021,
      "కనుమలు": 8022,
      "కన్న": 8023,
      "కన్నడ": 8024,
      "కన్నడ,": 8025,
      "కన్నడ;": 8026,
      "కన్నడం,": 8027,
      "కబడ్డ": 8028,
      "కమల": 8029,
      "కమీ": 8030,
      "కర": 8031,
      "కరంత": 8032,
      "కరణ": 8033,
      "కరా": 8034,
      "కర్": 8035,
      "కర్య": 8036,
      "కల": 8037,
      "కలక": 8038,
      "కలగలు": 8039,
      "కలదు": 8040,
      "కలి": 8041,
      "కలిగ": 8042,
      "కలిగి": 8043,
      "కలిగిన": 8044,
      "కలిసి": 8045,
      "కలిసివ": 8046,
      "కలు": 8047,
      "కలుగు": 8048,
      "కల్": 8049,
      "కల్గి": 8050,
      "కల్పించ": 8051,
      "కల్పే": 8052,
      "కళ": 8053,
      "కళలు,": 8054,
      "కళలు.": 8055,
      "కష్ట": 8056,
      "కా": 8057,
      "కా-": 8058,
      "కాంగ": 8059,
      "కాంగ్రె": 8060,
      "కాంగ్రెసు": 8061,
      "కాంగ్రెసును": 8062,
      "కాంగ్రెసే": 8063,
      "కాంగ్రెస్": 8064,
      "కాగా,": 8065,
      "కానీ": 8066,
      "కాపా": 8067,
      "కాపాడుకుంట": 8068,
      "కాపాడుకుంటూ": 8069,
      "కాయ": 8070,
      "కార": 8071,
      "కారణంగా": 8072,
      "కారణంగా,": 8073,
      "కార్": 8074,
      "కార్య": 8075,
      "కార్యక్రమ": 8076,
      "కార్యక్రమాలలో": 8077,
      "కార్యక్రమాలు": 8078,
      "కార్యనిర్": 8079,
      "కాల": 8080,
      "కాలంలో": 8081,
      "కాలంలో,": 8082,
      "కాలపరి": 8083,
      "కాలాల్లో": 8084,
      "కాలు": 8085,
      "కాలే": 8086,
      "కావడం": 8087,
      "కాశ్": 8088,
      "కాశ్మీ": 8089,
      "కాశ్మీర": 8090,
      "కాశ్మీరు": 8091,
      "కాశ్మీర్": 8092,
      "కాహార": 8093,
      "కి": 8094,
      "కిం": 8095,
      "కింద": 8096,
      "కిందకు": 8097,
      "కిందట": 8098,
      "కిత": 8099,
      "కిమీ": 8100,
      "కిలో": 8101,
      "కిలోమీ": 8102,
      "కిలోమీటర్": 8103,
      "కిలోమీటర్లకు": 8104,
      "కీ": 8105,
      "కీయ": 8106,
      "కు": 8107,
      "కు,": 8108,
      "కుంట": 8109,
      "కుటు": 8110,
      "కుటుంబ": 8111,
      "కుటుంబాలకు": 8112,
      "కుటుంబాలు": 8113,
      "కుడ": 8114,
      "కుడి": 8115,
      "కుడ్య": 8116,
      "కుమారు": 8117,
      "కుమార్": 8118,
      "కుర్": 8119,
      "కుల": 8120,
      "కులం": 8121,
      "కులాలు,": 8122,
      "కులు": 8123,
      "కూ": 8124,
      "కూచి": 8125,
      "కూడ": 8126,
      "కూడా": 8127,
      "కూడి": 8128,
      "కూడిన": 8129,
      "కూడినది.": 8130,
      "కూడు": 8131,
      "కూడుకు": 8132,
      "కూడుకుని": 8133,
      "కూడుకున్నది.": 8134,
      "కూడుకొని": 8135,
      "కృ": 8136,
      "కృష్": 8137,
      "కృష్ణ": 8138,
      "కే": 8139,
      "కేంద్ర": 8140,
      "కేంద్రపాల": 8141,
      "కేంద్రపాలిత": 8142,
      "కేంద్రాల్లో": 8143,
      "కేంద్రీ": 8144,
      "కేవ": 8145,
      "కేవలం": 8146,
      "కొ": 8147,
      "కొంక": 8148,
      "కొంటు": 8149,
      "కొద్": 8150,
      "కొన": 8151,
      "కొనసా": 8152,
      "కొని": 8153,
      "కొన్ని": 8154,
      "కొన్ని:": 8155,
      "కో": 8156,
      "కోటి": 8157,
      "కోట్ల": 8158,
      "కోడు": 8159,
      "కోర్": 8160,
      "కోర్ట": 8161,
      "కోర్టు": 8162,
      "కోర్టు,": 8163,
      "కోర్టులకు": 8164,
      "కోర్టులు": 8165,
      "కోర్టులు,": 8166,
      "కోల్": 8167,
      "కోల్పో": 8168,
      "కోల్‌": 8169,
      "కోల్‌క": 8170,
      "కోల్‌కాత": 8171,
      "కోల్‌కాతా": 8172,
      "కోవార": 8173,
      "కోసం": 8174,
      "క్": 8175,
      "క్క": 8176,
      "క్కను": 8177,
      "క్కు": 8178,
      "క్కువ": 8179,
      "క్త": 8180,
      "క్య": 8181,
      "క్యార": 8182,
      "క్యాలెండ": 8183,
      "క్యాలెండర్": 8184,
      "క్యాలెండర్)": 8185,
      "క్యాలెండర్:": 8186,
      "క్ర": 8187,
      "క్రమ": 8188,
      "క్రమంగా": 8189,
      "క్రి.": 8190,
      "క్రీ": 8191,
      "క్రీ.": 8192,
      "క్రీ.పూ.": 8193,
      "క్రీడ": 8194,
      "క్రీడ:": 8195,
      "క్రీడల": 8196,
      "క్రీడలలో": 8197,
      "క్రీడలు": 8198,
      "క్రీడా": 8199,
      "క్ష": 8200,
      "క్షణ": 8201,
      "క్షరా": 8202,
      "క్షరాస్యత": 8203,
      "ఖ": 8204,
      "ఖండ": 8205,
      "ఖని": 8206,
      "ఖనిజాలు": 8207,
      "ఖో-": 8208,
      "ఖ్య": 8209,
      "గ": 8210,
      "గంగ": 8211,
      "గంగ,": 8212,
      "గంగా": 8213,
      "గంగో": 8214,
      "గణ": 8215,
      "గణత": 8216,
      "గణతంత్ర": 8217,
      "గణిత": 8218,
      "గత": 8219,
      "గమ": 8220,
      "గమన": 8221,
      "గర": 8222,
      "గర్": 8223,
      "గల": 8224,
      "గలు": 8225,
      "గా": 8226,
      "గా,": 8227,
      "గాంచిన": 8228,
      "గాంధ": 8229,
      "గాంధీ": 8230,
      "గి": 8231,
      "గిన": 8232,
      "గినది.": 8233,
      "గీ": 8234,
      "గీతం": 8235,
      "గు": 8236,
      "గుత్తా": 8237,
      "గుర్త": 8238,
      "గుర్తిం": 8239,
      "గుర్తించ": 8240,
      "గుర్తించింది.": 8241,
      "గువ": 8242,
      "గె": 8243,
      "గెలు": 8244,
      "గెలుచ": 8245,
      "గెలుచుకో": 8246,
      "గెలుచుకోవడం": 8247,
      "గే": 8248,
      "గేయ": 8249,
      "గో": 8250,
      "గోడు": 8251,
      "గోదా": 8252,
      "గోళ": 8253,
      "గ్": 8254,
      "గ్ర": 8255,
      "గ్రం": 8256,
      "గ్రా": 8257,
      "గ్రీ": 8258,
      "ఘ": 8259,
      "ఘట్ట": 8260,
      "ఘోర": 8261,
      "చ": 8262,
      "చ.": 8263,
      "చట్ట": 8264,
      "చద": 8265,
      "చదరంగ": 8266,
      "చన": 8267,
      "చము": 8268,
      "చరి": 8269,
      "చరిత్ర": 8270,
      "చరిత్రలో": 8271,
      "చవి": 8272,
      "చవిచ": 8273,
      "చవితి,": 8274,
      "చార": 8275,
      "చారిత్రక": 8276,
      "చారిత్రకంగా": 8277,
      "చాల": 8278,
      "చాలా": 8279,
      "చి": 8280,
      "చింది.": 8281,
      "చిత్ర": 8282,
      "చిత్రకళ": 8283,
      "చిత్రమ": 8284,
      "చిన్న": 8285,
      "చిరు": 8286,
      "చీ": 8287,
      "చు": 8288,
      "చుట్ట": 8289,
      "చూడ": 8290,
      "చూడండి": 8291,
      "చూప": 8292,
      "చె": 8293,
      "చెంద": 8294,
      "చెందాయి.": 8295,
      "చెంది": 8296,
      "చెందిన": 8297,
      "చెందు": 8298,
      "చెందుతున్న": 8299,
      "చెన్న": 8300,
      "చెన్నై": 8301,
      "చెప్": 8302,
      "చెప్పుకో": 8303,
      "చే": 8304,
      "చేయ": 8305,
      "చేయట": 8306,
      "చేయడ": 8307,
      "చేర,": 8308,
      "చేసింది.": 8309,
      "చేసు": 8310,
      "చేసే": 8311,
      "చైన": 8312,
      "చైనా,": 8313,
      "చైనాతో": 8314,
      "చైనాన": 8315,
      "చైనాను": 8316,
      "చ్చ": 8317,
      "చ్చే": 8318,
      "ఛ": 8319,
      "జ": 8320,
      "జంత": 8321,
      "జంబ": 8322,
      "జంబూ": 8323,
      "జన": 8324,
      "జనగణ": 8325,
      "జనగణన": 8326,
      "జనగణమన": 8327,
      "జనతా": 8328,
      "జనవరి": 8329,
      "జనా": 8330,
      "జనాభ": 8331,
      "జనాభా": 8332,
      "జనాభాతో": 8333,
      "జనాభాలో": 8334,
      "జన్": 8335,
      "జన్మ": 8336,
      "జన్మదిన": 8337,
      "జన్మని": 8338,
      "జన్మస్థాన": 8339,
      "జమ్మ": 8340,
      "జమ్మూ": 8341,
      "జరి": 8342,
      "జరిగ": 8343,
      "జరిగా": 8344,
      "జరిగిన": 8345,
      "జరిగే": 8346,
      "జరు": 8347,
      "జరుపు": 8348,
      "జరుపుకు": 8349,
      "జరుపుకుంట": 8350,
      "జరుపుకుంటారు.": 8351,
      "జల": 8352,
      "జాత": 8353,
      "జాతి": 8354,
      "జాతి,": 8355,
      "జాతిప": 8356,
      "జాతీయ": 8357,
      "జాతులు,": 8358,
      "జాన": 8359,
      "జాబ": 8360,
      "జాబిత": 8361,
      "జాబితా": 8362,
      "జాబితాలో": 8363,
      "జాలు": 8364,
      "జి": 8365,
      "జిల్ల": 8366,
      "జీ": 8367,
      "జీవి": 8368,
      "జై": 8369,
      "జైన": 8370,
      "జో": 8371,
      "జోక": 8372,
      "జోన్": 8373,
      "జ్": 8374,
      "జ్య": 8375,
      "ఞ": 8376,
      "ట": 8377,
      "టం": 8378,
      "టక": 8379,
      "టన్": 8380,
      "టర్": 8381,
      "టలు": 8382,
      "టా": 8383,
      "టాగో": 8384,
      "టాన్": 8385,
      "టి": 8386,
      "టిక": 8387,
      "టిలో": 8388,
      "టీ": 8389,
      "టు": 8390,
      "టె": 8391,
      "టెన్ని": 8392,
      "టెలి": 8393,
      "టే": 8394,
      "టై": 8395,
      "టైటి": 8396,
      "టో": 8397,
      "ట్": 8398,
      "ట్ట": 8399,
      "ట్ర": 8400,
      "ట్రా": 8401,
      "ట్రో": 8402,
      "ట్ల": 8403,
      "ట్లకు": 8404,
      "ట్లు": 8405,
      "ట్‌": 8406,
      "ఠ": 8407,
      "డ": 8408,
      "డబు": 8409,
      "డాల": 8410,
      "డి": 8411,
      "డిన": 8412,
      "డిస్": 8413,
      "డు": 8414,
      "డుకు": 8415,
      "డుకుంట": 8416,
      "డుతున్న": 8417,
      "డే": 8418,
      "డ్": 8419,
      "డ్డ": 8420,
      "డ్డు": 8421,
      "డ్ర": 8422,
      "ఢ": 8423,
      "ఢా": 8424,
      "ఢాకా-": 8425,
      "ఢాకా-ఢిల్లీ-లా": 8426,
      "ఢాకా-ఢిల్లీ-లాహో": 8427,
      "ఢిల్ల": 8428,
      "ఢిల్లీ": 8429,
      "ఢిల్లీ,": 8430,
      "ఢిల్లీ-లా": 8431,
      "ణ": 8432,
      "ణం": 8433,
      "ణంగా": 8434,
      "ణా": 8435,
      "ణి": 8436,
      "త": 8437,
      "త,": 8438,
      "తం": 8439,
      "తంగా": 8440,
      "తంలో": 8441,
      "తక్కువ": 8442,
      "తత్వ": 8443,
      "తత్వానికి": 8444,
      "తదు": 8445,
      "తన": 8446,
      "తనలో": 8447,
      "తను": 8448,
      "తమి": 8449,
      "తమిళ": 8450,
      "తమిళం,": 8451,
      "తమిళం.": 8452,
      "తమిళం;": 8453,
      "తము": 8454,
      "తర": 8455,
      "తరతరాలు": 8456,
      "తరాలు": 8457,
      "తరు": 8458,
      "తరువాత": 8459,
      "తరువాత,": 8460,
      "తరువాతి": 8461,
      "తర్": 8462,
      "తర్వాత": 8463,
      "తల": 8464,
      "తలం": 8465,
      "తలల": 8466,
      "తా": 8467,
      "తాజ": 8468,
      "తార": 8469,
      "తి": 8470,
      "తి,": 8471,
      "తిక": 8472,
      "తిగా": 8473,
      "తిని": 8474,
      "తిరి": 8475,
      "తిరు": 8476,
      "తిరుగు": 8477,
      "తిరుగుబా": 8478,
      "తిరుగుబాటు": 8479,
      "తీ": 8480,
      "తు": 8481,
      "తుంది.": 8482,
      "తున్న": 8483,
      "తురు": 8484,
      "తుల": 8485,
      "తులతో": 8486,
      "తులు": 8487,
      "తూ": 8488,
      "తూర్పు": 8489,
      "తె": 8490,
      "తెలి": 8491,
      "తెలు": 8492,
      "తెలుగు": 8493,
      "తెలుగు,": 8494,
      "తెలుగు;": 8495,
      "తే": 8496,
      "తేది": 8497,
      "తేల": 8498,
      "తో": 8499,
      "త్": 8500,
      "త్త": 8501,
      "త్తా": 8502,
      "త్య": 8503,
      "త్ర": 8504,
      "త్రి": 8505,
      "త్వ": 8506,
      "త్వంలో": 8507,
      "త్వా": 8508,
      "త్వాన్ని": 8509,
      "థ": 8510,
      "థాన": 8511,
      "థార్": 8512,
      "ద": 8513,
      "దం": 8514,
      "దండ": 8515,
      "దక్ష": 8516,
      "దక్షి": 8517,
      "దక్షిణ": 8518,
      "దక్షిణది": 8519,
      "దక్షిణా": 8520,
      "దక్షిణాన": 8521,
      "దక్షిణాన,": 8522,
      "దక్షిణాసియా": 8523,
      "దగా": 8524,
      "దగ్": 8525,
      "దన": 8526,
      "దర": 8527,
      "దరా": 8528,
      "దర్": 8529,
      "దర్శ": 8530,
      "దశ": 8531,
      "దస": 8532,
      "దా": 8533,
      "దాట": 8534,
      "దాటే": 8535,
      "దాదా": 8536,
      "దాదాపు": 8537,
      "దాదాపుగా": 8538,
      "దాయ": 8539,
      "దాయంలో": 8540,
      "దార": 8541,
      "ది": 8542,
      "ది.": 8543,
      "దికి": 8544,
      "దిగువ": 8545,
      "దిన": 8546,
      "దినాలు": 8547,
      "దీ": 8548,
      "దీన": 8549,
      "దీని": 8550,
      "దీన్ని": 8551,
      "దు": 8552,
      "దుగా": 8553,
      "దుస్తులు": 8554,
      "దూ": 8555,
      "దృ": 8556,
      "దే": 8557,
      "దేశ": 8558,
      "దేశం": 8559,
      "దేశం.": 8560,
      "దేశంగా": 8561,
      "దేశంలో": 8562,
      "దేశంలోని": 8563,
      "దేశపు": 8564,
      "దేశమ": 8565,
      "దేశము": 8566,
      "దేశరాజకీయ": 8567,
      "దేశా": 8568,
      "దేశాధ": 8569,
      "దేశానికి": 8570,
      "దేశాన్ని": 8571,
      "దేశాల": 8572,
      "దేశాలకూ": 8573,
      "దేశాలతో": 8574,
      "దేశాలను": 8575,
      "దేశాలలో": 8576,
      "దేశాల్": 8577,
      "దైన": 8578,
      "ద్": 8579,
      "ద్ద": 8580,
      "ద్దు": 8581,
      "ద్ధ": 8582,
      "ద్ధం": 8583,
      "ద్ధి": 8584,
      "ద్య": 8585,
      "ద్ర": 8586,
      "ద్రా": 8587,
      "ద్వార": 8588,
      "ద్వారా": 8589,
      "ద్వి": 8590,
      "ద్వీ": 8591,
      "ద్వీప": 8592,
      "ద్వీప-": 8593,
      "ద్వీపం.": 8594,
      "ద్వీపకల్": 8595,
      "ద్వీపే": 8596,
      "ద్వై": 8597,
      "ధ": 8598,
      "ధర": 8599,
      "ధరి": 8600,
      "ధాన": 8601,
      "ధి": 8602,
      "ధిక": 8603,
      "ధీన": 8604,
      "ధు": 8605,
      "ధ్య": 8606,
      "న": 8607,
      "న,": 8608,
      "నం": 8609,
      "నగర": 8610,
      "నగరాలను": 8611,
      "నగరాలనే": 8612,
      "నగరాలు": 8613,
      "నగరాలు,": 8614,
      "నడి": 8615,
      "నడిపించ": 8616,
      "నడిపించట": 8617,
      "నడిపించటం": 8618,
      "నడిపించవచ్చని": 8619,
      "నడిపించాలనే": 8620,
      "నడిపించి,": 8621,
      "నత": 8622,
      "నద": 8623,
      "నది": 8624,
      "నా": 8625,
      "నాగర": 8626,
      "నాగరికత": 8627,
      "నాగరికత.": 8628,
      "నాగరికతకు": 8629,
      "నాటి": 8630,
      "నాథ": 8631,
      "నాయ": 8632,
      "నాయక": 8633,
      "నాయకత్వ": 8634,
      "నాయకుల": 8635,
      "నాల": 8636,
      "నాలు": 8637,
      "నాలుగు": 8638,
      "ని": 8639,
      "నిక": 8640,
      "నిడి": 8641,
      "నిడివి": 8642,
      "నిపు": 8643,
      "నిపుణ": 8644,
      "నిపుణులు": 8645,
      "నియ": 8646,
      "నియమించ": 8647,
      "నియో": 8648,
      "నిర": 8649,
      "నిర్": 8650,
      "నిర్మ": 8651,
      "నిర్వ": 8652,
      "నిర్వహ": 8653,
      "నిర్వహణ": 8654,
      "నిర్వహణలో": 8655,
      "నిర్వహించింది.": 8656,
      "నిల": 8657,
      "నిలిచ": 8658,
      "నివా": 8659,
      "నిష": 8660,
      "నిస్తాన్": 8661,
      "నీ": 8662,
      "ను": 8663,
      "నుంచి": 8664,
      "నుండి": 8665,
      "నుండి,": 8666,
      "నుక": 8667,
      "నున్న": 8668,
      "నులు,": 8669,
      "నూ": 8670,
      "నృ": 8671,
      "నె": 8672,
      "నెమ": 8673,
      "నెర": 8674,
      "నెల": 8675,
      "నెహ": 8676,
      "నెహ్ర": 8677,
      "నే": 8678,
      "నేపాల": 8679,
      "నేపాలీ;": 8680,
      "నేపాల్,": 8681,
      "నేరు": 8682,
      "నేరే": 8683,
      "నేరేడు": 8684,
      "నో": 8685,
      "న్": 8686,
      "న్న": 8687,
      "న్నది.": 8688,
      "న్నాయి.": 8689,
      "న్నారు.": 8690,
      "న్ని": 8691,
      "న్నీ": 8692,
      "న్యాయ": 8693,
      "న్యాయవ్యవస్థ": 8694,
      "న్యాయవ్యవస్థలో": 8695,
      "న్యాయస్థాన": 8696,
      "న్‌": 8697,
      "ప": 8698,
      "పం": 8699,
      "పంచ": 8700,
      "పంచాయ": 8701,
      "పంచె": 8702,
      "పంజాబ": 8703,
      "పండు": 8704,
      "పండుగ": 8705,
      "పండుగలు": 8706,
      "పండ్": 8707,
      "పంప": 8708,
      "పక్క": 8709,
      "పక్కన": 8710,
      "పక్ష": 8711,
      "పక్షం": 8712,
      "పక్షి": 8713,
      "పచ్చ": 8714,
      "పట": 8715,
      "పటం": 8716,
      "పట్ట": 8717,
      "పట్టణ": 8718,
      "పట్టణాల": 8719,
      "పట్టణాలను": 8720,
      "పట్టణాలు": 8721,
      "పట్టణాలు,": 8722,
      "పట్టాలు": 8723,
      "పట్టు": 8724,
      "పడు": 8725,
      "పత": 8726,
      "పతకం": 8727,
      "పతకాలు": 8728,
      "పతా": 8729,
      "పతాక": 8730,
      "పతి": 8731,
      "పతి,": 8732,
      "పద": 8733,
      "పదవి": 8734,
      "పదవి.": 8735,
      "పదార్థ": 8736,
      "పది": 8737,
      "పద్ధ": 8738,
      "పద్ధతి": 8739,
      "పద్ధతి:": 8740,
      "పద్ధతిలో": 8741,
      "పద్ధతులు": 8742,
      "పర": 8743,
      "పరంగా": 8744,
      "పరమ": 8745,
      "పరమైన": 8746,
      "పరి": 8747,
      "పరిఢ": 8748,
      "పరిధి": 8749,
      "పరిపాలన": 8750,
      "పరిపాలించ": 8751,
      "పరిశో": 8752,
      "పరిశ్ర": 8753,
      "పరిశ్రమ": 8754,
      "పరిశ్రమలు": 8755,
      "పరీక్ష": 8756,
      "పరో": 8757,
      "పర్యా": 8758,
      "పర్యాయ": 8759,
      "పర్యాయాలు": 8760,
      "పర్వ": 8761,
      "పలు": 8762,
      "పల్ల": 8763,
      "పల్లె": 8764,
      "పవి": 8765,
      "పవిత్ర": 8766,
      "పశ": 8767,
      "పశ్చిమ": 8768,
      "పశ్చిమాన": 8769,
      "పస": 8770,
      "పా": 8771,
      "పాండ": 8772,
      "పాంత": 8773,
      "పాకి": 8774,
      "పాకిస్తాన్": 8775,
      "పాకిస్తాన్,": 8776,
      "పాకిస్తాన్తో": 8777,
      "పాకిస్థాన్": 8778,
      "పాకిస్థాన్,": 8779,
      "పాకిస్థాన్కు": 8780,
      "పాక్": 8781,
      "పాక్,": 8782,
      "పాటు": 8783,
      "పాత్ర": 8784,
      "పాద": 8785,
      "పార": 8786,
      "పార్": 8787,
      "పార్ట": 8788,
      "పార్టీ": 8789,
      "పార్టీ,": 8790,
      "పార్టీకి": 8791,
      "పార్టీగా": 8792,
      "పార్టీల": 8793,
      "పార్టీలతో": 8794,
      "పార్టీలు": 8795,
      "పార్లమె": 8796,
      "పార్సీ": 8797,
      "పాల": 8798,
      "పాలకు": 8799,
      "పాలకులు": 8800,
      "పాలన": 8801,
      "పాలనలో": 8802,
      "పాలయ": 8803,
      "పాలించ": 8804,
      "పాలించారు.": 8805,
      "పావ": 8806,
      "పి": 8807,
      "పించ": 8808,
      "పిక": 8809,
      "పిక్‌": 8810,
      "పీ": 8811,
      "పీఠ": 8812,
      "పీఠభూ": 8813,
      "పీఠిక": 8814,
      "పు": 8815,
      "పుకో": 8816,
      "పుట్ట": 8817,
      "పుట్టాయి.": 8818,
      "పుట్టి": 8819,
      "పుట్టిల్": 8820,
      "పుట్టు": 8821,
      "పుతూ": 8822,
      "పున": 8823,
      "పురు": 8824,
      "పురుష": 8825,
      "పురుషు": 8826,
      "పుష్": 8827,
      "పూ": 8828,
      "పూ.": 8829,
      "పూణ": 8830,
      "పూర్": 8831,
      "పూర్తిగా": 8832,
      "పూర్వ": 8833,
      "పూర్వం": 8834,
      "పూర్వపు": 8835,
      "పె": 8836,
      "పెద్ద": 8837,
      "పెద్దగా": 8838,
      "పెద్దపు": 8839,
      "పెనీ": 8840,
      "పే": 8841,
      "పేదర": 8842,
      "పేరు": 8843,
      "పేరు,": 8844,
      "పేరుతో": 8845,
      "పేరుమీ": 8846,
      "పేర్": 8847,
      "పేర్కొ": 8848,
      "పేర్కొన": 8849,
      "పేర్లు": 8850,
      "పేస్,": 8851,
      "పై": 8852,
      "పైగా": 8853,
      "పొ": 8854,
      "పొందిన": 8855,
      "పొందినది.": 8856,
      "పో": 8857,
      "పోటీ": 8858,
      "పోయింది.": 8859,
      "పోరా": 8860,
      "పోలో,": 8861,
      "పోస్": 8862,
      "పౌర": 8863,
      "ప్": 8864,
      "ప్ప": 8865,
      "ప్పటిక": 8866,
      "ప్పటికినీ": 8867,
      "ప్పటికీ,": 8868,
      "ప్ర": 8869,
      "ప్రకార": 8870,
      "ప్రకారం": 8871,
      "ప్రకారం,": 8872,
      "ప్రఖ్య": 8873,
      "ప్రజ": 8874,
      "ప్రజల": 8875,
      "ప్రజలకు": 8876,
      "ప్రజలచే": 8877,
      "ప్రజలు": 8878,
      "ప్రజా": 8879,
      "ప్రజాదర": 8880,
      "ప్రజాదరణ": 8881,
      "ప్రజాస్వామ్య": 8882,
      "ప్రజాస్వామ్య,": 8883,
      "ప్రణా": 8884,
      "ప్రతి": 8885,
      "ప్రతిని": 8886,
      "ప్రతిపక్ష": 8887,
      "ప్రతిపా": 8888,
      "ప్రతిపాదన": 8889,
      "ప్రతిపాదనకు": 8890,
      "ప్రతిపాదనల్లో": 8891,
      "ప్రత్య": 8892,
      "ప్రథ": 8893,
      "ప్రదాయ": 8894,
      "ప్రదేశ": 8895,
      "ప్రదేశాల": 8896,
      "ప్రదేశే,": 8897,
      "ప్రదేశ్‌": 8898,
      "ప్రధాన": 8899,
      "ప్రధానమంత్ర": 8900,
      "ప్రధానమంత్రి": 8901,
      "ప్రధానమంత్రిని": 8902,
      "ప్రపంచ": 8903,
      "ప్రపంచంలో": 8904,
      "ప్రపంచంలోని": 8905,
      "ప్రపంచంలోనే": 8906,
      "ప్రపంచదేశాలలో": 8907,
      "ప్రపంచములో": 8908,
      "ప్రభు": 8909,
      "ప్రభుత్వ": 8910,
      "ప్రభుత్వం": 8911,
      "ప్రభుత్వం,": 8912,
      "ప్రభుత్వంచ": 8913,
      "ప్రభుత్వంలో": 8914,
      "ప్రభుత్వాన్ని": 8915,
      "ప్రభుత్వాల": 8916,
      "ప్రమా": 8917,
      "ప్రముఖ": 8918,
      "ప్రముఖమైన": 8919,
      "ప్రయా": 8920,
      "ప్రయో": 8921,
      "ప్రసి": 8922,
      "ప్రసిద్ధి": 8923,
      "ప్రస్తు": 8924,
      "ప్రస్తుత": 8925,
      "ప్రస్తుతం": 8926,
      "ప్రస్తుతము": 8927,
      "ప్రా": 8928,
      "ప్రాంత": 8929,
      "ప్రాంతాల": 8930,
      "ప్రాంతాలకు": 8931,
      "ప్రాంతాలతో": 8932,
      "ప్రాంతాలు": 8933,
      "ప్రాంతాలు.": 8934,
      "ప్రాంతాల్లో": 8935,
      "ప్రాంతీయ": 8936,
      "ప్రాచ": 8937,
      "ప్రాచీన": 8938,
      "ప్రాచు": 8939,
      "ప్రాచ్య": 8940,
      "ప్రాజ": 8941,
      "ప్రాదేశ": 8942,
      "ప్రాబ": 8943,
      "ప్రాముఖ్య": 8944,
      "ప్రాయ": 8945,
      "ప్రాయమైనది.": 8946,
      "ప్రార": 8947,
      "ప్రారంభ": 8948,
      "ప్రారంభమైన": 8949,
      "ప్రారంభించ": 8950,
      "ప్రార్థ": 8951,
      "ప్రాసె": 8952,
      "ప్ల": 8953,
      "ప్లగ్": 8954,
      "ప్లాన": 8955,
      "ఫ": 8956,
      "ఫల": 8957,
      "ఫలం": 8958,
      "ఫలిత": 8959,
      "బ": 8960,
      "బంగ": 8961,
      "బంగా": 8962,
      "బంగారు": 8963,
      "బంగ్ల": 8964,
      "బంగ్లాదేశ": 8965,
      "బంగ్లాదేశ్,": 8966,
      "బంగ్లాదేశ్‌": 8967,
      "బడ": 8968,
      "బడత": 8969,
      "బడతాయి.": 8970,
      "బడింది.": 8971,
      "బడిన": 8972,
      "బడ్": 8973,
      "బడ్డ": 8974,
      "బహ": 8975,
      "బహాయ": 8976,
      "బహి": 8977,
      "బహు": 8978,
      "బహుభాష": 8979,
      "బహుమతి": 8980,
      "బహుళ": 8981,
      "బా": 8982,
      "బాంబ": 8983,
      "బాగా": 8984,
      "బాద్": 8985,
      "బాబ్": 8986,
      "బి": 8987,
      "బు": 8988,
      "బుక్": 8989,
      "బె": 8990,
      "బెంగ": 8991,
      "బెంగాల": 8992,
      "బెంగాలీ": 8993,
      "బెంగాలీ.": 8994,
      "బెంగాలీ;": 8995,
      "బెంగాల్": 8996,
      "బెంగు": 8997,
      "బొ": 8998,
      "బౌ": 8999,
      "బౌద్ధ": 9000,
      "బ్యా": 9001,
      "బ్రా": 9002,
      "బ్రి": 9003,
      "బ్రిటి": 9004,
      "బ్రిటిషు": 9005,
      "బ్రిటిష్": 9006,
      "బ్రిటీ": 9007,
      "భ": 9008,
      "భంగం": 9009,
      "భక్": 9010,
      "భక్తి": 9011,
      "భక్తి,": 9012,
      "భరత": 9013,
      "భవ": 9014,
      "భా": 9015,
      "భాగ": 9016,
      "భాగం": 9017,
      "భాగం,": 9018,
      "భాగం.": 9019,
      "భాగస్వా": 9020,
      "భాగా": 9021,
      "భాగాన్ని": 9022,
      "భాజ": 9023,
      "భార": 9024,
      "భారత": 9025,
      "భారత,": 9026,
      "భారతం,": 9027,
      "భారతంలో,": 9028,
      "భారతదేశ": 9029,
      "భారతదేశం": 9030,
      "భారతదేశం,": 9031,
      "భారతదేశం.": 9032,
      "భారతదేశంలో": 9033,
      "భారతదేశంలోని": 9034,
      "భారతదేశపు": 9035,
      "భారతదేశము": 9036,
      "భారతదేశానికి": 9037,
      "భారతీయ": 9038,
      "భారతీయుల": 9039,
      "భారతీయులు": 9040,
      "భారత్": 9041,
      "భారత్,": 9042,
      "భారత్‌": 9043,
      "భారత్‌లో": 9044,
      "భార్": 9045,
      "భార‌": 9046,
      "భావి": 9047,
      "భావిస్త": 9048,
      "భాష": 9049,
      "భాష,": 9050,
      "భాషలతో,": 9051,
      "భాషలను": 9052,
      "భాషలలో": 9053,
      "భాషలు": 9054,
      "భాషలు.": 9055,
      "భాషా": 9056,
      "భిం": 9057,
      "భిన్న": 9058,
      "భిన్నత్వ": 9059,
      "భు": 9060,
      "భూ": 9061,
      "భూటాన్": 9062,
      "భూభాగం": 9063,
      "భౌ": 9064,
      "భౌగో": 9065,
      "భౌగోళిక": 9066,
      "భౌత": 9067,
      "భ్య": 9068,
      "మ": 9069,
      "మం": 9070,
      "మంచి": 9071,
      "మంత్ర": 9072,
      "మంత్రి": 9073,
      "మంత్రిత్వ": 9074,
      "మంత్రివర్గ": 9075,
      "మంత్రుల": 9076,
      "మంది": 9077,
      "మత": 9078,
      "మతం,": 9079,
      "మతము": 9080,
      "మతస్తులు": 9081,
      "మతాల": 9082,
      "మతాలకు": 9083,
      "మతాలతో": 9084,
      "మతాలు": 9085,
      "మతాలు,": 9086,
      "మతి": 9087,
      "మధ్య": 9088,
      "మధ్య,": 9089,
      "మధ్యకాలంలో": 9090,
      "మధ్యల": 9091,
      "మన": 9092,
      "మనదేశం": 9093,
      "మనదేశంలో": 9094,
      "మనమే": 9095,
      "మని": 9096,
      "మనోర": 9097,
      "మయ": 9098,
      "మర": 9099,
      "మరా": 9100,
      "మరె": 9101,
      "మరో": 9102,
      "మర్రి": 9103,
      "మల": 9104,
      "మలయాళ": 9105,
      "మలు": 9106,
      "మసాల": 9107,
      "మహ": 9108,
      "మహా": 9109,
      "మహాత్": 9110,
      "మహాత్మా": 9111,
      "మహాభారతం,": 9112,
      "మహాసముద్ర": 9113,
      "మహి": 9114,
      "మా": 9115,
      "మాండ": 9116,
      "మాజ": 9117,
      "మాట్ల": 9118,
      "మాట్లాడే": 9119,
      "మాత": 9120,
      "మాతృ": 9121,
      "మాత్ర": 9122,
      "మాత్రం": 9123,
      "మాత్రమే": 9124,
      "మాన": 9125,
      "మానం:": 9126,
      "మానవు": 9127,
      "మాబాద్": 9128,
      "మామి": 9129,
      "మార": 9130,
      "మారు": 9131,
      "మార్": 9132,
      "మార్క": 9133,
      "మార్గ": 9134,
      "మార్గం": 9135,
      "మార్గంలో": 9136,
      "మార్గము": 9137,
      "మార్గాల": 9138,
      "మార్గాలను": 9139,
      "మార్గాలలో": 9140,
      "మార్గాలు": 9141,
      "మాలు": 9142,
      "మి": 9143,
      "మించ": 9144,
      "మిగి": 9145,
      "మిత": 9146,
      "మిన": 9147,
      "మిస్తు": 9148,
      "మీ": 9149,
      "మీదగా": 9150,
      "మీర్": 9151,
      "ము": 9152,
      "ము,": 9153,
      "ము.": 9154,
      "ముందు": 9155,
      "ముంబ": 9156,
      "ముంబాయి": 9157,
      "ముంబై": 9158,
      "ముంబైలో": 9159,
      "ముఖ": 9160,
      "ముఖ్య": 9161,
      "ముఖ్యంగా": 9162,
      "ముఖ్యమైన": 9163,
      "ముడి": 9164,
      "ముద్ర": 9165,
      "ములో": 9166,
      "ముస్": 9167,
      "ముస్లిం": 9168,
      "మూ": 9169,
      "మూడ": 9170,
      "మూడవ": 9171,
      "మూడు": 9172,
      "మూడే.": 9173,
      "మూల": 9174,
      "మె": 9175,
      "మెహ": 9176,
      "మే": 9177,
      "మే.": 9178,
      "మేన": 9179,
      "మేనకల": 9180,
      "మేనని": 9181,
      "మేర": 9182,
      "మేరో": 9183,
      "మేళ": 9184,
      "మై": 9185,
      "మైద": 9186,
      "మైన": 9187,
      "మైనది.": 9188,
      "మొ": 9189,
      "మొగలు": 9190,
      "మొట్ట": 9191,
      "మొట్టమొదటి": 9192,
      "మొత్": 9193,
      "మొత్తం": 9194,
      "మొద": 9195,
      "మొదటి": 9196,
      "మొదటిది": 9197,
      "మొదటిసార": 9198,
      "మొదల": 9199,
      "మొదలగు": 9200,
      "మొదలగువ": 9201,
      "మొదలైన": 9202,
      "మొదలైనటు": 9203,
      "మొదలైనవి": 9204,
      "మొదలైనవి.": 9205,
      "మౌ": 9206,
      "మౌర": 9207,
      "మౌర్య": 9208,
      "మ్": 9209,
      "మ్మ": 9210,
      "మ్య": 9211,
      "య": 9212,
      "యం": 9213,
      "యథ": 9214,
      "యా": 9215,
      "యాత్ర": 9216,
      "యాలు": 9217,
      "యాలో": 9218,
      "యాళ": 9219,
      "యావత్": 9220,
      "యింది.": 9221,
      "యిత": 9222,
      "యు": 9223,
      "యు.": 9224,
      "యుగ": 9225,
      "యుద్ధ": 9226,
      "యుద్ధం": 9227,
      "యున": 9228,
      "యో": 9229,
      "యోచన": 9230,
      "ర": 9231,
      "ర,": 9232,
      "రం": 9233,
      "రంగ": 9234,
      "రంగం": 9235,
      "రంగంలో": 9236,
      "రంగా": 9237,
      "రంగాల": 9238,
      "రంగాల్లో": 9239,
      "రకాల": 9240,
      "రకాలు": 9241,
      "రచ": 9242,
      "రచయిత": 9243,
      "రత": 9244,
      "రలో": 9245,
      "రవాణా": 9246,
      "రవీ": 9247,
      "రహ": 9248,
      "రహద": 9249,
      "రహదార": 9250,
      "రహదారులు": 9251,
      "రహదారులు,": 9252,
      "రా": 9253,
      "రాజ": 9254,
      "రాజకీయ": 9255,
      "రాజకీయాలు": 9256,
      "రాజధాన": 9257,
      "రాజు": 9258,
      "రాజు.": 9259,
      "రాజ్య": 9260,
      "రాజ్యంగా": 9261,
      "రాజ్యా": 9262,
      "రాజ్యాంగ": 9263,
      "రాజ్యాంగం": 9264,
      "రాజ్యాలను": 9265,
      "రాజ్యాలు": 9266,
      "రాజ్యాలుగా": 9267,
      "రామ": 9268,
      "రాష్ట": 9269,
      "రాష్ట్ర": 9270,
      "రాష్ట్రపతి": 9271,
      "రాష్ట్రపతి,": 9272,
      "రాష్ట్రపతిచే": 9273,
      "రాష్ట్రపు": 9274,
      "రాష్ట్రానికి": 9275,
      "రాష్ట్రాల": 9276,
      "రాష్ట్రాలు": 9277,
      "రాష్ట్రాలు,": 9278,
      "రాష్ట్రాలు:": 9279,
      "రాష్ట్రాలుగా,": 9280,
      "రాస": 9281,
      "రి": 9282,
      "రి.": 9283,
      "రిక": 9284,
      "రిట్ల": 9285,
      "రిట్లు": 9286,
      "రీ": 9287,
      "రీతులు": 9288,
      "రు": 9289,
      "రుచ": 9290,
      "రూ": 9291,
      "రూప": 9292,
      "రూపాంత": 9293,
      "రెండ": 9294,
      "రెండవ": 9295,
      "రెండు": 9296,
      "రెండువై": 9297,
      "రెండో": 9298,
      "రే": 9299,
      "రై": 9300,
      "రైలు": 9301,
      "రైలు.": 9302,
      "రైల్": 9303,
      "రైల్వే": 9304,
      "రైల్వేశాఖ": 9305,
      "రైళ్ల": 9306,
      "రైళ్లను": 9307,
      "రొ": 9308,
      "రో": 9309,
      "రోడ": 9310,
      "రోడ్డు": 9311,
      "రోడ్డుకు": 9312,
      "ర్": 9313,
      "ర్,": 9314,
      "ర్చ": 9315,
      "ర్చు": 9316,
      "ర్త": 9317,
      "ర్పు": 9318,
      "ర్య": 9319,
      "ర్వ": 9320,
      "ర్ష": 9321,
      "ర్షణ": 9322,
      "ర్‌": 9323,
      "ర్‌ల": 9324,
      "ర‌": 9325,
      "ల": 9326,
      "లం": 9327,
      "లంక": 9328,
      "లకు": 9329,
      "లక్ష": 9330,
      "లక్ష.": 9331,
      "లక్షణ": 9332,
      "లక్షణా": 9333,
      "లక్షల": 9334,
      "లఘ": 9335,
      "లతో": 9336,
      "లతో,": 9337,
      "లను": 9338,
      "లమె": 9339,
      "లలో": 9340,
      "లస్య": 9341,
      "లా": 9342,
      "లాంటి": 9343,
      "లాభ": 9344,
      "లి": 9345,
      "లిం": 9346,
      "లిచ": 9347,
      "లీ": 9348,
      "లు": 9349,
      "లు,": 9350,
      "లు.": 9351,
      "లుగా": 9352,
      "లె": 9353,
      "లెక్క": 9354,
      "లెజి": 9355,
      "లే": 9356,
      "లేదా": 9357,
      "లేదు": 9358,
      "లేని": 9359,
      "లో": 9360,
      "లో,": 9361,
      "లోక్": 9362,
      "లోక్‌సభ": 9363,
      "లోని": 9364,
      "లోను": 9365,
      "లోన్": 9366,
      "లోపం": 9367,
      "లోయ": 9368,
      "లౌ": 9369,
      "లౌక": 9370,
      "ల్": 9371,
      "ల్ప": 9372,
      "ల్ల": 9373,
      "ల్లో": 9374,
      "ళ": 9375,
      "ళా": 9376,
      "ళి,": 9377,
      "ళిక": 9378,
      "ళు": 9379,
      "ళ్": 9380,
      "ళ్ల": 9381,
      "ళ్లను": 9382,
      "ళ్ళ": 9383,
      "వ": 9384,
      "వం": 9385,
      "వంట": 9386,
      "వంటకాలు": 9387,
      "వంటలకు": 9388,
      "వంటలు": 9389,
      "వంటి": 9390,
      "వంత": 9391,
      "వంశ": 9392,
      "వచ్చ": 9393,
      "వచ్చని": 9394,
      "వచ్చి,": 9395,
      "వచ్చింది.": 9396,
      "వచ్చిన": 9397,
      "వచ్చినది": 9398,
      "వచ్చు.": 9399,
      "వజ": 9400,
      "వడ": 9401,
      "వడం": 9402,
      "వత": 9403,
      "వత్": 9404,
      "వద్ద": 9405,
      "వన": 9406,
      "వనాలు": 9407,
      "వర": 9408,
      "వరకూ": 9409,
      "వరి": 9410,
      "వరీ": 9411,
      "వరు": 9412,
      "వరుస": 9413,
      "వర్": 9414,
      "వర్గ": 9415,
      "వర్గాలలో": 9416,
      "వర్గాలు": 9417,
      "వర్గీ": 9418,
      "వర్ణ": 9419,
      "వర్తి": 9420,
      "వర్ధ": 9421,
      "వర్ష": 9422,
      "వల": 9423,
      "వలన": 9424,
      "వలస": 9425,
      "వలె": 9426,
      "వల్ల": 9427,
      "వహ": 9428,
      "వహించింది.": 9429,
      "వహించే": 9430,
      "వహిస్త": 9431,
      "వా": 9432,
      "వాటి": 9433,
      "వాటిలో": 9434,
      "వాణా": 9435,
      "వాణి": 9436,
      "వాణిజ్య": 9437,
      "వాణిజ్యపరంగా": 9438,
      "వాత": 9439,
      "వాతావర": 9440,
      "వాతావరణం": 9441,
      "వాద": 9442,
      "వాదం": 9443,
      "వాదన": 9444,
      "వాయు": 9445,
      "వార": 9446,
      "వారస": 9447,
      "వారసత్వ": 9448,
      "వారసత్వంగా": 9449,
      "వారసత్వానికి": 9450,
      "వారసత్వాన్ని": 9451,
      "వారి": 9452,
      "వారిగా": 9453,
      "వార్": 9454,
      "వాహ": 9455,
      "వాహన": 9456,
      "వాహనాలు": 9457,
      "వి": 9458,
      "వి.": 9459,
      "విం": 9460,
      "విజ్": 9461,
      "విద": 9462,
      "విదేశ": 9463,
      "విదేశీ": 9464,
      "విద్య": 9465,
      "విద్యు": 9466,
      "విద్యుత్": 9467,
      "విధ": 9468,
      "విధంగా": 9469,
      "విధాన": 9470,
      "విధి": 9471,
      "విధించిన": 9472,
      "విధ్య": 9473,
      "విఫల": 9474,
      "విభ": 9475,
      "విభిన్న": 9476,
      "విమాన": 9477,
      "విలు": 9478,
      "విలువల": 9479,
      "విలువైన": 9480,
      "వివర": 9481,
      "వివిధ": 9482,
      "విశ": 9483,
      "విశాఖ": 9484,
      "విశి": 9485,
      "విశ్": 9486,
      "విష": 9487,
      "విషయాలు": 9488,
      "విస్త": 9489,
      "విస్తర": 9490,
      "విస్తారు.": 9491,
      "విస్తీర్ణ": 9492,
      "విస్తృ": 9493,
      "వీ": 9494,
      "వీటిలో": 9495,
      "వు": 9496,
      "వుతుంది.": 9497,
      "వున్న": 9498,
      "వులు": 9499,
      "వులు,": 9500,
      "వూప": 9501,
      "వృ": 9502,
      "వృక్ష": 9503,
      "వె": 9504,
      "వెబ": 9505,
      "వెబ్": 9506,
      "వెబ్‌": 9507,
      "వెబ్‌సై": 9508,
      "వెబ్‌సైటు": 9509,
      "వెలు": 9510,
      "వెల్ల": 9511,
      "వే": 9512,
      "వే.": 9513,
      "వేగంగా": 9514,
      "వేద": 9515,
      "వేల": 9516,
      "వై": 9517,
      "వైన": 9518,
      "వైవిధ్య": 9519,
      "వైవిధ్యం": 9520,
      "వైవిధ్యమైన": 9521,
      "వైవిధ్యమైనది.": 9522,
      "వైశ": 9523,
      "వ్య": 9524,
      "వ్యయ": 9525,
      "వ్యవ": 9526,
      "వ్యవస్థ": 9527,
      "వ్యవస్థ)": 9528,
      "వ్యవస్థకు": 9529,
      "వ్యవస్థకు,": 9530,
      "వ్యవస్థగా": 9531,
      "వ్యవస్థల": 9532,
      "వ్యవస్థలో": 9533,
      "వ్యవస్థలోని": 9534,
      "వ్యవహార": 9535,
      "వ్యా": 9536,
      "వ్యాపార": 9537,
      "వ్యాపారం": 9538,
      "వ్యాపారవే": 9539,
      "శ": 9540,
      "శక": 9541,
      "శకు": 9542,
      "శక్": 9543,
      "శక్తిగా": 9544,
      "శక్తులు": 9545,
      "శత": 9546,
      "శతాబ్": 9547,
      "శతాబ్ద": 9548,
      "శతాబ్దం": 9549,
      "శర": 9550,
      "శా": 9551,
      "శాఖ": 9552,
      "శాశ్": 9553,
      "శాస": 9554,
      "శాసన": 9555,
      "శాస్త్ర": 9556,
      "శాస్త్రం": 9557,
      "శాస్త్రం,": 9558,
      "శాస్త్రీయ": 9559,
      "శి": 9560,
      "శిలా": 9561,
      "శిల్": 9562,
      "శీ": 9563,
      "శెల": 9564,
      "శెలవు": 9565,
      "శెలవుదినాలు": 9566,
      "శై": 9567,
[...]
