{
  "version": "1.0",
  "truncation": null,
  "padding": null,
  "added_tokens": [],
  "normalizer": null,
  "pre_tokenizer": {
    "type": "WhitespaceSplit"
  },
  "post_processor": null,
  "decoder": null,
  "model": {
    "type": "BPE",
    "dropout": null,
    "unk_token": "[UNK]",
    "continuing_subword_prefix": null,
    "end_of_word_suffix": null,
    "fuse_unk": false,
    "byte_fallback": false,
    "ignore_merges": false,
    "vocab": {
      "[UNK]": 0,
      "\"": 1,
      "$": 2,
      "%": 3,
      "'": 4,
      "(": 5,
      ")": 6,
      ",": 7,
      "-": 8,
      ".": 9,
      "/": 10,
      "0": 11,
      "1": 12,
      "2": 13,
      "3": 14,
      "4": 15,
      "5": 16,
      "6": 17,
      "7": 18,
      "8": 19,
      "9": 20,
      ":": 21,
      ";": 22,
      "=": 23,
      "A": 24,
      "B": 25,
      "C": 26,
      "D": 27,
      "E": 28,
      "F": 29,
      "G": 30,
      "H": 31,
      "I": 32,
      "J": 33,
      "K": 34,
      "L": 35,
      "M": 36,
      "N": 37,
      "O": 38,
      "P": 39,
      "R": 40,
      "S": 41,
      "T": 42,
      "U": 43,
      "V": 44,
      "W": 45,
      "X": 46,
      "Y": 47,
      "Z": 48,
      "[": 49,
      "]": 50,
      "a": 51,
      "b": 52,
      "c": 53,
      "d": 54,
      "e": 55,
      "f": 56,
      "g": 57,
      "h": 58,
      "i": 59,
      "j": 60,
      "k": 61,
      "l": 62,
      "m": 63,
      "n": 64,
      "o": 65,
      "p": 66,
      "q": 67,
      "r": 68,
      "s": 69,
      "t": 70,
      "u": 71,
      "v": 72,
      "w": 73,
      "x": 74,
      "y": 75,
      "z": 76,
      "ª": 77,
      "«": 78,
      "°": 79,
      "»": 80,
      "Á": 81,
      "Í": 82,
      "Ö": 83,
      "á": 84,
      "â": 85,
      "é": 86,
      "í": 87,
      "ñ": 88,
      "ó": 89,
      "ú": 90,
      "ü": 91,
      "ā": 92,
      "ī": 93,
      "Ś": 94,
      "ū": 95,
      "ɑ": 96,
      "ə": 97,
      "ɦ": 98,
      "ɪ": 99,
      "ɾ": 100,
      "ʊ": 101,
      "ʌ": 102,
      "ʱ": 103,
      "ˈ": 104,
      "ː": 105,
      "̪": 106,
      "ί": 107,
      "α": 108,
      "δ": 109,
      "ι": 110,
      "ν": 111,
      "ο": 112,
      "ς": 113,
      "ό": 114,
      "ग": 115,
      "ज": 116,
      "ण": 117,
      "त": 118,
      "भ": 119,
      "य": 120,
      "र": 121,
      "ा": 122,
      "्": 123,
      "ṅ": 124,
      "ṇ": 125,
      "ṣ": 126,
      "ṭ": 127,
      "Ἰ": 128,
      "​": 129,
      "–": 130,
      "—": 131,
      "―": 132,
      "‘": 133,
      "’": 134,
      "′": 135,
      "₹": 136,
      "an": 137,
      "th": 138,
      "in": 139,
      "er": 140,
      "on": 141,
      "en": 142,
      "es": 143,
      "the": 144,
      "al": 145,
      "ar": 146,
      "di": 147,
      "as": 148,
      "ti": 149,
      "or": 150,
      "ed": 151,
      "In": 152,
      "and": 153,
      "de": 154,
      "of": 155,
      "is": 156,
      "re": 157,
      "Indi": 158,
      "ent": 159,
      "at": 160,
      "ic": 161,
      "om": 162,
      "ing": 163,
      "os": 164,
      "India": 165,
      "la": 166,
      "it": 167,
      "ur": 168,
      "to": 169,
      "el": 170,
      "tion": 171,
      "ci": 172,
      "ad": 173,
      "un": 174,
      "==": 175,
      "li": 176,
      "tr": 177,
      "con": 178,
      "le": 179,
      "am": 180,
      "us": 181,
      "ter": 182,
      "pr": 183,
      "ly": 184,
      "ch": 185,
      "Th": 186,
      "ver": 187,
      "ol": 188,
      "ul": 189,
      "te": 190,
      "il": 191,
      "se": 192,
      "for": 193,
      "be": 194,
      "The": 195,
      "gr": 196,
      "ce": 197,
      "ow": 198,
      "est": 199,
      "ma": 200,
      "op": 201,
      "19": 202,
      "im": 203,
      "by": 204,
      "ou": 205,
      "Indian": 206,
      "su": 207,
      "ment": 208,
      "ir": 209,
      "s,": 210,
      "st": 211,
      "ig": 212,
      "20": 213,
      "ve": 214,
      "com": 215,
      "ation": 216,
      "ab": 217,
      "od": 218,
      "id": 219,
      "co": 220,
      "par": 221,
      "wi": 222,
      "ion": 223,
      "ct": 224,
      "ex": 225,
      "wh": 226,
      "'s": 227,
      "tic": 228,
      "s.": 229,
      "ag": 230,
      "ere": 231,
      "with": 232,
      "qu": 233,
      "ri": 234,
      "===": 235,
      "por": 236,
      "was": 237,
      "em": 238,
      "so": 239,
      "ist": 240,
      "pe": 241,
      "cl": 242,
      "ast": 243,
      "a,": 244,
      "ang": 245,
      "fr": 246,
      "per": 247,
      "tu": 248,
      "ra": 249,
      "es,": 250,
      "ate": 251,
      "sh": 252,
      "has": 253,
      "over": 254,
      "ally": 255,
      "00": 256,
      "oc": 257,
      "ich": 258,
      "si": 259,
      "los": 260,
      "from": 261,
      "are": 262,
      "ap": 263,
      "ac": 264,
      "ón": 265,
      "which": 266,
      "ant": 267,
      "et": 268,
      "cent": 269,
      "ern": 270,
      "gh": 271,
      "und": 272,
      "mil": 273,
      "ut": 274,
      "um": 275,
      "ong": 276,
      "ear": 277,
      "uc": 278,
      "ha": 279,
      "end": 280,
      "ud": 281,
      "del": 282,
      "ity": 283,
      "ay": 284,
      "es.": 285,
      "its": 286,
      "ind": 287,
      "arg": 288,
      "me": 289,
      "ain": 290,
      "India's": 291,
      "min": 292,
      "ak": 293,
      "ec": 294,
      "mar": 295,
      "ism": 296,
      "cre": 297,
      "wor": 298,
      "were": 299,
      "ess": 300,
      "tern": 301,
      "gen": 302,
      "form": 303,
      "las": 304,
      "larg": 305,
      "ob": 306,
      "aci": 307,
      "ari": 308,
      "ous": 309,
      "y,": 310,
      "ated": 311,
      "que": 312,
      "econ": 313,
      "gion": 314,
      "low": 315,
      "outh": 316,
      "no": 317,
      "Con": 318,
      "ary": 319,
      "rit": 320,
      "up": 321,
      "tra": 322,
      "port": 323,
      "nor": 324,
      "res": 325,
      "cul": 326,
      "ans": 327,
      "af": 328,
      "ld": 329,
      "vi": 330,
      "ber": 331,
      "oth": 332,
      "econom": 333,
      "Ch": 334,
      "ough": 335,
      "ical": 336,
      "India,": 337,
      "ame": 338,
      "cont": 339,
      "overn": 340,
      "sti": 341,
      "tw": 342,
      "sub": 343,
      "201": 344,
      "fe": 345,
      "all": 346,
      "indi": 347,
      "lion": 348,
      "age": 349,
      "overnment": 350,
      ".​": 351,
      "man": 352,
      "ved": 353,
      "minis": 354,
      "ts": 355,
      "ance": 356,
      "ass": 357,
      "uring": 358,
      "ely": 359,
      "igh": 360,
      "incl": 361,
      "tri": 362,
      "tem": 363,
      "ca": 364,
      "o,": 365,
      "hi": 366,
      "lo": 367,
      "ro": 368,
      "into": 369,
      "centur": 370,
      "ost": 371,
      "má": 372,
      "pop": 373,
      "stitu": 374,
      "CE": 375,
      "200": 376,
      "1,": 377,
      "ni": 378,
      "eral": 379,
      "cial": 380,
      "gan": 381,
      "region": 382,
      "fir": 383,
      "Ind": 384,
      "angu": 385,
      "north": 386,
      "Asi": 387,
      "bi": 388,
      "fic": 389,
      "mi": 390,
      "ine": 391,
      "pi": 392,
      "po": 393,
      "ati": 394,
      "pla": 395,
      "India.": 396,
      "Hind": 397,
      "a.": 398,
      "prim": 399,
      "des": 400,
      "ado": 401,
      "pro": 402,
      "contin": 403,
      "but": 404,
      "government": 405,
      "langu": 406,
      "mo": 407,
      "year": 408,
      "ori": 409,
      "reli": 410,
      "ture": 411,
      "más": 412,
      "pre": 413,
      "tur": 414,
      "ore": 415,
      "ament": 416,
      "came": 417,
      "world": 418,
      "mer": 419,
      "eng": 420,
      "ord": 421,
      "ome": 422,
      "lat": 423,
      "ne": 424,
      "En": 425,
      "ru": 426,
      "sy": 427,
      "ence": 428,
      "ales": 429,
      "as,": 430,
      "lation": 431,
      "first": 432,
      "dis": 433,
      "odern": 434,
      "pu": 435,
      "ones": 436,
      "art": 437,
      "peci": 438,
      "ser": 439,
      "tradi": 440,
      "ban": 441,
      "land": 442,
      "una": 443,
      "creas": 444,
      "tan": 445,
      "lu": 446,
      "peri": 447,
      "cu": 448,
      "during": 449,
      "had": 450,
      "ty": 451,
      "lear": 452,
      "used": 453,
      "became": 454,
      "after": 455,
      "stitution": 456,
      "sys": 457,
      "cas": 458,
      "og": 459,
      "ple": 460,
      "av": 461,
      "jor": 462,
      "ral": 463,
      "elec": 464,
      "fo": 465,
      "fer": 466,
      "har": 467,
      "mon": 468,
      "ok": 469,
      "pl": 470,
      "ten": 471,
      "diver": 472,
      "ish": 473,
      "La": 474,
      "bl": 475,
      "hist": 476,
      "south": 477,
      "ta": 478,
      "estern": 479,
      "also": 480,
      "ates": 481,
      "pres": 482,
      "been": 483,
      "199": 484,
      "ational": 485,
      "cted": 486,
      "have": 487,
      "largest": 488,
      "Congr": 489,
      "pire": 490,
      "system": 491,
      "i,": 492,
      "continent": 493,
      "iv": 494,
      "modern": 495,
      "inf": 496,
      "ación": 497,
      "ada": 498,
      "Hindu": 499,
      "gre": 500,
      "most": 501,
      "more": 502,
      "ía": 503,
      "tive": 504,
      "urban": 505,
      "such": 506,
      "million": 507,
      "minister": 508,
      "dev": 509,
      "str": 510,
      "lit": 511,
      "long": 512,
      "num": 513,
      "war": 514,
      "imal": 515,
      "South": 516,
      "led": 517,
      "pan": 518,
      "y.": 519,
      "that": 520,
      "increas": 521,
      "major": 522,
      "195": 523,
      "202": 524,
      "uclear": 525,
      "tradition": 526,
      "Congress": 527,
      "gi": 528,
      "omin": 529,
      "fi": 530,
      "ular": 531,
      "Ma": 532,
      "cr": 533,
      "ose": 534,
      "Em": 535,
      "Un": 536,
      "both": 537,
      "ces": 538,
      "ial": 539,
      "ting": 540,
      "grow": 541,
      "coun": 542,
      "tical": 543,
      "under": 544,
      "two": 545,
      "prime": 546,
      "ev": 547,
      "ción": 548,
      "196": 549,
      "0,": 550,
      "not": 551,
      "sur": 552,
      "tim": 553,
      "able": 554,
      "istan": 555,
      "Bud": 556,
      "BCE": 557,
      "aj": 558,
      "een": 559,
      "ever": 560,
      "ies": 561,
      "sig": 562,
      "ulation": 563,
      "ther": 564,
      "though": 565,
      "main": 566,
      "out": 567,
      "riti": 568,
      "class": 569,
      "mill": 570,
      "economic": 571,
      "includ": 572,
      "years": 573,
      "caste": 574,
      "o-": 575,
      "sus": 576,
      "ene": 577,
      "leg": 578,
      "olog": 579,
      "blic": 580,
      "An": 581,
      "Ar": 582,
      "Pak": 583,
      "pa": 584,
      "lim": 585,
      "Budd": 586,
      "1.": 587,
      "Com": 588,
      "mic": 589,
      "ite": 590,
      "ext": 591,
      "subcontinent": 592,
      "),": 593,
      "Briti": 594,
      "mus": 595,
      "rough": 596,
      "ted": 597,
      "ure": 598,
      "this": 599,
      "erg": 600,
      "ers": 601,
      "their": 602,
      "isation": 603,
      "tions": 604,
      "life": 605,
      "000": 606,
      "population": 607,
      "language": 608,
      "number": 609,
      "Empire": 610,
      "British": 611,
      "18": 612,
      "bre": 613,
      "bel": 614,
      "du": 615,
      "sin": 616,
      "medi": 617,
      "fol": 618,
      "cons": 619,
      "bas": 620,
      "ced": 621,
      "kh": 622,
      "pos": 623,
      "anges": 624,
      "divers": 625,
      "6%": 626,
      "cord": 627,
      "dance": 628,
      "hum": 629,
      "ving": 630,
      "western": 631,
      "al,": 632,
      "ali": 633,
      "betw": 634,
      "began": 635,
      "own": 636,
      "sup": 637,
      "social": 638,
      "ism,": 639,
      "large": 640,
      "lowing": 641,
      "many": 642,
      "Pakistan": 643,
      "between": 644,
      "7,": 645,
      "pen": 646,
      "til": 647,
      "tiv": 648,
      "cient": 649,
      "milit": 650,
      "influ": 651,
      "Eur": 652,
      "ogr": 653,
      "red": 654,
      "liter": 655,
      "Al": 656,
      "El": 657,
      "col": 658,
      "gl": 659,
      "gu": 660,
      "our": 661,
      "set": 662,
      "como": 663,
      "parti": 664,
      "Af": 665,
      "It": 666,
      "agr": 667,
      "ef": 668,
      "mu": 669,
      "nuclear": 670,
      "pol": 671,
      "pow": 672,
      "speci": 673,
      "we": 674,
      "ered": 675,
      "on-": 676,
      "ree": 677,
      "ited": 678,
      "ural": 679,
      "try": 680,
      "ages": 681,
      "river": 682,
      "northern": 683,
      "Asia": 684,
      "world's": 685,
      "later": 686,
      "Mu": 687,
      "cri": 688,
      "ambi": 689,
      "para": 690,
      "part": 691,
      "general": 692,
      "he": 693,
      "some": 694,
      "án": 695,
      "ese": 696,
      "os,": 697,
      "contr": 698,
      "mente": 699,
      "public": 700,
      "Beng": 701,
      "one": 702,
      "ust": 703,
      "territ": 704,
      "oduc": 705,
      "inclu": 706,
      "By": 707,
      "Ne": 708,
      "ach": 709,
      "can": 710,
      "der": 711,
      "fin": 712,
      "ket": 713,
      "rate": 714,
      "son": 715,
      "than": 716,
      "there": 717,
      "ures": 718,
      "elop": 719,
      "cia": 720,
      "among": 721,
      "cour": 722,
      "peop": 723,
      "aph": 724,
      "Chin": 725,
      "election": 726,
      "increased": 727,
      "classical": 728,
      "including": 729,
      "since": 730,
      "After": 731,
      "power": 732,
      "ual": 733,
      "ins": 734,
      "liament": 735,
      "ami": 736,
      "ultan": 737,
      "194": 738,
      "ctor": 739,
      "acion": 740,
      "Mugh": 741,
      "fu": 742,
      "ge": 743,
      "han": 744,
      "198": 745,
      "ident": 746,
      "soci": 747,
      "do": 748,
      "ven": 749,
      "ya": 750,
      "as.": 751,
      "ope": 752,
      "period": 753,
      "Bengal": 754,
      "territori": 755,
      "Mughal": 756,
      "5,": 757,
      "S$": 758,
      "US$": 759,
      "br": 760,
      "dos": 761,
      "high": 762,
      "jab": 763,
      "late": 764,
      "mid": 765,
      "o.": 766,
      "west": 767,
      "én": 768,
      "enni": 769,
      "ise": 770,
      "ised": 771,
      "constitution": 772,
      "fore": 773,
      "sty": 774,
      "state": 775,
      "parliament": 776,
      "work": 777,
      "cultur": 778,
      "religion": 779,
      "religi": 780,
      "new": 781,
      "rule": 782,
      "develop": 783,
      "diversity": 784,
      "people": 785,
      "Himal": 786,
      "au": 787,
      "bu": 788,
      "her": 789,
      "hab": 790,
      "pend": 791,
      "tal": 792,
      "orig": 793,
      "ica": 794,
      "ados": 795,
      "unjab": 796,
      "ign": 797,
      "Himalay": 798,
      "2.": 799,
      "5.": 800,
      "Punjab": 801,
      "bil": 802,
      "fa": 803,
      "men": 804,
      "emerg": 805,
      "Cent": 806,
      "Sans": 807,
      "cur": 808,
      "gar": 809,
      "dire": 810,
      "ando": 811,
      "lead": 812,
      "central": 813,
      "origin": 814,
      "17": 815,
      "2,": 816,
      "Mus": 817,
      "krit": 818,
      "ned": 819,
      "non-": 820,
      "t,": 821,
      "ually": 822,
      "through": 823,
      "eron": 824,
      "them": 825,
      "thema": 826,
      "asi": 827,
      "time": 828,
      "offic": 829,
      "ately": 830,
      "tech": 831,
      "ild": 832,
      "forest": 833,
      "may": 834,
      "vement": 835,
      "ange": 836,
      "other": 837,
      "caused": 838,
      "Indus": 839,
      "served": 840,
      "pany": 841,
      "millenni": 842,
      "music": 843,
      "military": 844,
      "Europe": 845,
      "ograph": 846,
      "Sanskrit": 847,
      "millennium": 848,
      "Re": 849,
      "car": 850,
      "fed": 851,
      "ga": 852,
      "vid": 853,
      "icul": 854,
      "ades": 855,
      "old": 856,
      "gener": 857,
      "agricul": 858,
      "control": 859,
      "Del": 860,
      "Is": 861,
      "ath": 862,
      "cen": 863,
      "dr": 864,
      "loc": 865,
      "pic": 866,
      "rural": 867,
      "ís": 868,
      "especi": 869,
      "ele": 870,
      "trans": 871,
      "cho": 872,
      "197": 873,
      "abl": 874,
      "Indo-": 875,
      "human": 876,
      "As": 877,
      "Gand": 878,
      "Si": 879,
      "Wor": 880,
      "añ": 881,
      "put": 882,
      "yan": 883,
      "ash": 884,
      "prop": 885,
      "poli": 886,
      "ambién": 887,
      "Delhi": 888,
      "Gandhi": 889,
      "World": 890,
      "-largest": 891,
      "0.": 892,
      "day": 893,
      "east": 894,
      "far": 895,
      "fami": 896,
      "king": 897,
      "pob": 898,
      "tre": 899,
      "ann": 900,
      "inde": 901,
      "theast": 902,
      "ell": 903,
      "amp": 904,
      "becom": 905,
      "owever": 906,
      "mathema": 907,
      "import": 908,
      "ird": 909,
      "ation,": 910,
      "cook": 911,
      "wide": 912,
      "who": 913,
      "culture": 914,
      "ight": 915,
      "century": 916,
      "majority": 917,
      "cording": 918,
      "influen": 919,
      "crip": 920,
      "billion": 921,
      "Muslim": 922,
      "owever,": 923,
      "BJ": 924,
      "Jan": 925,
      "mal": 926,
      "roc": 927,
      "ante": 928,
      "inv": 929,
      "dic": 930,
      "dem": 931,
      "indus": 932,
      "Central": 933,
      "BJP": 934,
      "6,": 935,
      "Se": 936,
      "mit": 937,
      "nacion": 938,
      "ped": 939,
      "vari": 940,
      "este": 941,
      "contri": 942,
      "prin": 943,
      "2011": 944,
      "ministr": 945,
      "present": 946,
      "Ganges": 947,
      "aw": 948,
      "den": 949,
      "dom": 950,
      "ke": 951,
      "vil": 952,
      "ún": 953,
      "arch": 954,
      "dec": 955,
      "amil": 956,
      "ido": 957,
      "popular": 958,
      "%.": 959,
      "Am": 960,
      "East": 961,
      "Jain": 962,
      "Plate": 963,
      "cap": 964,
      "cada": 965,
      "dle": 966,
      "dam": 967,
      "eas": 968,
      "ked": 969,
      "last": 970,
      "nolog": 971,
      "también": 972,
      "wom": 973,
      "za": 974,
      "third": 975,
      "arn": 976,
      "div": 977,
      "ties": 978,
      "ory": 979,
      "ed,": 980,
      "ento": 981,
      "ing,": 982,
      "ciones": 983,
      "produc": 984,
      "ly,": 985,
      "made": 986,
      "ments": 987,
      "common": 988,
      "ations": 989,
      "coast": 990,
      "party": 991,
      "export": 992,
      "tics": 993,
      "emp": 994,
      "early": 995,
      "economy": 996,
      "feat": 997,
      "century,": 998,
      "plain": 999,
      "found": 1000,
      "great": 1001,
      "growth": 1002,
      "times": 1003,
      "Company": 1004,
      "following": 1005,
      "include": 1006,
      "court": 1007,
      "ultanate": 1008,
      "religious": 1009,
      "mayor": 1010,
      "Sikh": 1011,
      "political": 1012,
      "women": 1013,
      ").": 1014,
      "Des": 1015,
      "bal": 1016,
      "bir": 1017,
      "ood": 1018,
      "ron": 1019,
      "inter": 1020,
      "dif": 1021,
      "prom": 1022,
      "tex": 1023,
      "ocra": 1024,
      "amente": 1025,
      "federal": 1026,
      "Dem": 1027,
      "Los": 1028,
      "Mo": 1029,
      "vir": 1030,
      "animal": 1031,
      "era": 1032,
      "entr": 1033,
      "entre": 1034,
      "ice": 1035,
      "13": 1036,
      "7.": 1037,
      "ai": 1038,
      "hat": 1039,
      "hous": 1040,
      "hru": 1041,
      "ning": 1042,
      "ves": 1043,
      "val": 1044,
      "stat": 1045,
      "ecu": 1046,
      "Nehru": 1047,
      "%,": 1048,
      "9.": 1049,
      "Bi": 1050,
      "Hindi": 1051,
      "Its": 1052,
      "Man": 1053,
      "St": 1054,
      "bo": 1055,
      "cal": 1056,
      "ces,": 1057,
      "cup": 1058,
      "dan": 1059,
      "dra": 1060,
      "eth": 1061,
      "ft": 1062,
      "fig": 1063,
      "kn": 1064,
      "ling": 1065,
      "national": 1066,
      "ound": 1067,
      "pain": 1068,
      "rul": 1069,
      "sing": 1070,
      "scul": 1071,
      "vo": 1072,
      "yed": 1073,
      "anti": 1074,
      "ancient": 1075,
      "ers,": 1076,
      "ond": 1077,
      "they": 1078,
      "arti": 1079,
      "tiene": 1080,
      "educ": 1081,
      "remain": 1082,
      "ating": 1083,
      "ically": 1084,
      "tion.": 1085,
      "lid": 1086,
      "lies": 1087,
      "cond": 1088,
      "use": 1089,
      "There": 1090,
      "second": 1091,
      "occup": 1092,
      "ity,": 1093,
      "marri": 1094,
      "market": 1095,
      "formed": 1096,
      "lower": 1097,
      "Constitution": 1098,
      "viol": 1099,
      "movement": 1100,
      "pread": 1101,
      "Engl": 1102,
      "histor": 1103,
      "grew": 1104,
      "fied": 1105,
      "United": 1106,
      "country": 1107,
      "Andam": 1108,
      "país": 1109,
      "based": 1110,
      "support": 1111,
      "literac": 1112,
      "parliamentary": 1113,
      "emerged": 1114,
      "European": 1115,
      "census": 1116,
      "especially": 1117,
      "painting": 1118,
      "sculp": 1119,
      "English": 1120,
      "3,": 1121,
      "4,": 1122,
      "6.": 1123,
      "bac": 1124,
      "cin": 1125,
      "iz": 1126,
      "ión": 1127,
      "pur": 1128,
      "sion": 1129,
      "ar,": 1130,
      "arm": 1131,
      "decl": 1132,
      "cip": 1133,
      "adas": 1134,
      "nific": 1135,
      "regional": 1136,
      "1947,": 1137,
      "local": 1138,
      "pobla": 1139,
      "back": 1140,
      "28": 1141,
      "Pro": 1142,
      "ba": 1143,
      "mb": 1144,
      "és": 1145,
      "enti": 1146,
      "dist": 1147,
      "ores": 1148,
      "ente": 1149,
      "cion": 1150,
      "sever": 1151,
      "grand": 1152,
      "oper": 1153,
      "parte": 1154,
      "legis": 1155,
      "Buddh": 1156,
      "consid": 1157,
      "penins": 1158,
      "China": 1159,
      "peninsular": 1160,
      "Bhar": 1161,
      "Raj": 1162,
      "Tamil": 1163,
      "ble": 1164,
      "bod": 1165,
      "hel": 1166,
      "here": 1167,
      "iern": 1168,
      "mund": 1169,
      "ste": 1170,
      "ub": 1171,
      "uj": 1172,
      "vis": 1173,
      "liber": 1174,
      "condu": 1175,
      "sequ": 1176,
      "ismo": 1177,
      "obiern": 1178,
      "direct": 1179,
      "15": 1180,
      "3.": 1181,
      "30": 1182,
      "4%": 1183,
      "4.": 1184,
      "400": 1185,
      "Ac": 1186,
      "Act": 1187,
      "DP": 1188,
      "During": 1189,
      "Government": 1190,
      "GDP": 1191,
      "National": 1192,
      "Per": 1193,
      "Western": 1194,
      "air": 1195,
      "c.": 1196,
      "domin": 1197,
      "fast": 1198,
      "je": 1199,
      "kil": 1200,
      "oul": 1201,
      "rates": 1202,
      "sultanate": 1203,
      "tain": 1204,
      "won": 1205,
      "well": 1206,
      "ank": 1207,
      "encia": 1208,
      "ard": 1209,
      "arr": 1210,
      "organ": 1211,
      "defin": 1212,
      "often": 1213,
      "reg": 1214,
      "reat": 1215,
      "republic": 1216,
      "ata": 1217,
      "oss": 1218,
      "urther": 1219,
      "tion,": 1220,
      "adv": 1221,
      "administr": 1222,
      "union": 1223,
      "term": 1224,
      "ched": 1225,
      "These": 1226,
      "oup": 1227,
      "outheast": 1228,
      "Indians": 1229,
      "sum": 1230,
      "commer": 1231,
      "comple": 1232,
      "compos": 1233,
      "exp": 1234,
      "execu": 1235,
      "whose": 1236,
      "ants": 1237,
      "earli": 1238,
      "created": 1239,
      "ternal": 1240,
      "contain": 1241,
      "alled": 1242,
      "centuries": 1243,
      "Hindus": 1244,
      "languages": 1245,
      "lands": 1246,
      "diverse": 1247,
      "ished": 1248,
      "southern": 1249,
      "longer": 1250,
      "traditional": 1251,
      "five": 1252,
      "Buddhist": 1253,
      "head": 1254,
      "styl": 1255,
      "official": 1256,
      "technolog": 1257,
      "Isla": 1258,
      "independ": 1259,
      "become": 1260,
      "Among": 1261,
      "eastern": 1262,
      "Andaman": 1263,
      "nificant": 1264,
      "body": 1265,
      "sequent": 1266,
      "According": 1267,
      "Persi": 1268,
      "adi": 1269,
      "bro": 1270,
      "tt": 1271,
      "vast": 1272,
      "dial": 1273,
      "ley": 1274,
      "chos": 1275,
      "disput": 1276,
      "serv": 1277,
      "important": 1278,
      "población": 1279,
      "obierno": 1280,
      "25": 1281,
      "42": 1282,
      "da": 1283,
      "edi": 1284,
      "ho": 1285,
      "hen": 1286,
      "mul": 1287,
      "ris": 1288,
      "uch": 1289,
      "wan": 1290,
      "ende": 1291,
      "estim": 1292,
      "aron": 1293,
      "os.": 1294,
      "uni": 1295,
      "proc": 1296,
      "continu": 1297,
      "colon": 1298,
      "consider": 1299,
      "0%": 1300,
      "10": 1301,
      "8.": 1302,
      "Bra": 1303,
      "De": 1304,
      "Nor": 1305,
      "aver": 1306,
      "ep": 1307,
      "equ": 1308,
      "ian": 1309,
      "mir": 1310,
      "nat": 1311,
      "otr": 1312,
      "pay": 1313,
      "ry": 1314,
      "sm": 1315,
      "ena": 1316,
      "enc": 1317,
      "istic": 1318,
      "ura": 1319,
      "tric": 1320,
      "forma": 1321,
      "oder": 1322,
      "sobre": 1323,
      "app": 1324,
      "Constitu": 1325,
      "prote": 1326,
      "histori": 1327,
      "president": 1328,
      "polic": 1329,
      "curr": 1330,
      "ashmir": 1331,
      "Brah": 1332,
      "-s": 1333,
      "3%": 1334,
      "7%": 1335,
      "9%": 1336,
      "For": 1337,
      "Ghat": 1338,
      "II": 1339,
      "Kashmir": 1340,
      "Nuclear": 1341,
      "Southeast": 1342,
      "ah": 1343,
      "cos": 1344,
      "cast": 1345,
      "ded": 1346,
      "dur": 1347,
      "fund": 1348,
      "further": 1349,
      "hy": 1350,
      "however,": 1351,
      "ide": 1352,
      "line": 1353,
      "mem": 1354,
      "now": 1355,
      "pass": 1356,
      "rich": 1357,
      "rise": 1358,
      "spread": 1359,
      "tle": 1360,
      "uary": 1361,
      "way": 1362,
      "wild": 1363,
      "xim": 1364,
      "three": 1365,
      "er,": 1366,
      "ens": 1367,
      "als": 1368,
      "alth": 1369,
      "along": 1370,
      "around": 1371,
      "and,": 1372,
      "off": 1373,
      "reform": 1374,
      "record": 1375,
      "ita": 1376,
      "elf": 1377,
      "tional": 1378,
      "until": 1379,
      "trop": 1380,
      "left": 1381,
      "press": 1382,
      "This": 1383,
      "olved": 1384,
      "ility": 1385,
      "sector": 1386,
      "group": 1387,
      "establ": 1388,
      "states": 1389,
      "coali": 1390,
      "ions": 1391,
      "cture": 1392,
      "empire": 1393,
      "peak": 1394,
      "angered": 1395,
      "shor": 1396,
      "anted": 1397,
      "ety": 1398,
      "endangered": 1399,
      "worn": 1400,
      "genc": 1401,
      "aciones": 1402,
      "resul": 1403,
      "resident": 1404,
      "subsequent": 1405,
      "CE,": 1406,
      "poin": 1407,
      "ative": 1408,
      "place": 1409,
      "ength": 1410,
      "art,": 1411,
      "four": 1412,
      "system,": 1413,
      "increasing": 1414,
      "Union": 1415,
      "growing": 1416,
      "survi": 1417,
      "every": 1418,
      "significant": 1419,
      "Although": 1420,
      "glob": 1421,
      "much": 1422,
      "species,": 1423,
      "election,": 1424,
      "mid-": 1425,
      "middle": 1426,
      "style": 1427,
      "religions": 1428,
      "leading": 1429,
      "ographic": 1430,
      "Sanskrit,": 1431,
      "chool": 1432,
      "kingdom": 1433,
      "cooked": 1434,
      "widely": 1435,
      "influenced": 1436,
      "January": 1437,
      "rock": 1438,
      "nacional": 1439,
      "villa": 1440,
      "emplo": 1441,
      "birth": 1442,
      "differ": 1443,
      "known": 1444,
      "education": 1445,
      "literacy": 1446,
      "sculpture": 1447,
      "held": 1448,
      "executive": 1449,
      "earliest": 1450,
      "Persian": 1451,
      "member": 1452,
      "tropical": 1453,
      "50": 1454,
      "cor": 1455,
      "fl": 1456,
      "pon": 1457,
      "sis": 1458,
      "sit": 1459,
      "va": 1460,
      "vel": 1461,
      "ític": 1462,
      "ini": 1463,
      "intr": 1464,
      "ert": 1465,
      "ara": 1466,
      "tici": 1467,
      "rep": 1468,
      "rela": 1469,
      "vers": 1470,
      "gran": 1471,
      "grad": 1472,
      "cep": 1473,
      "comer": 1474,
      "idad": 1475,
      "vidi": 1476,
      "proxim": 1477,
      "1950": 1478,
      "Maur": 1479,
      "agricultur": 1480,
      "democra": 1481,
      "Bharat": 1482,
      "8,": 1483,
      "Gup": 1484,
      "No": 1485,
      "West": 1486,
      "band": 1487,
      "dé": 1488,
      "e.": 1489,
      "gún": 1490,
      "ham": 1491,
      "jo": 1492,
      "nu": 1493,
      "pat": 1494,
      "rat": 1495,
      "ws": 1496,
      "dio": 1497,
      "represent": 1498,
      "entes": 1499,
      "os.​": 1500,
      "tres": 1501,
      "conso": 1502,
      "exten": 1503,
      "frica": 1504,
      "india": 1505,
      "2001": 1506,
      "Asia,": 1507,
      "1950,": 1508,
      "contribu": 1509,
      "princip": 1510,
      "fundament": 1511,
      "consolid": 1512,
      "1200": 1513,
      "Cr": 1514,
      "Civ": 1515,
      "Est": 1516,
      "Sing": 1517,
      "ade": 1518,
      "crit": 1519,
      "kb": 1520,
      "ll": 1521,
      "nomin": 1522,
      "stic": 1523,
      "sari": 1524,
      "went": 1525,
      "dish": 1526,
      "ital": 1527,
      "total": 1528,
      "addi": 1529,
      "am,": 1530,
      "amas": 1531,
      "prac": 1532,
      "secul": 1533,
      "emple": 1534,
      "aries": 1535,
      "cade": 1536,
      "bio": 1537,
      "pot": 1538,
      "cuent": 1539,
      "harma": 1540,
      "tax": 1541,
      "1991": 1542,
      "fue": 1543,
      "habit": 1544,
      "multi": 1545,
      "introduc": 1546,
      "fundamental": 1547,
      "Civil": 1548,
      "Singh": 1549,
      "-dr": 1550,
      "1%": 1551,
      "2%": 1552,
      "300": 1553,
      "Africa": 1554,
      "Dra": 1555,
      "Dec": 1556,
      "Gree": 1557,
      "Guj": 1558,
      "However,": 1559,
      "PA": 1560,
      "Sab": 1561,
      "Val": 1562,
      "act": 1563,
      "aist": 1564,
      "bor": 1565,
      "cli": 1566,
      "cost": 1567,
      "ctions": 1568,
      "called": 1569,
      "down": 1570,
      "ff": 1571,
      "flo": 1572,
      "get": 1573,
      "his": 1574,
      "ies,": 1575,
      "ived": 1576,
      "ief": 1577,
      "just": 1578,
      "ks": 1579,
      "ken": 1580,
      "lar": 1581,
      "mas": 1582,
      "ns": 1583,
      "pharma": 1584,
      "ran": 1585,
      "rig": 1586,
      "righ": 1587,
      "rene": 1588,
      "right": 1589,
      "s;": 1590,
      "sil": 1591,
      "sport": 1592,
      "saf": 1593,
      "scrip": 1594,
      "school": 1595,
      "tak": 1596,
      "ty,": 1597,
      "utical": 1598,
      "wed": 1599,
      "wear": 1600,
      "writ": 1601,
      "waist": 1602,
      "ómic": 1603,
      "in.": 1604,
      "ared": 1605,
      "associ": 1606,
      "ties,": 1607,
      "oro": 1608,
      "ising": 1609,
      "ission": 1610,
      "relation": 1611,
      "reach": 1612,
      "ents": 1613,
      "ic,": 1614,
      "ict": 1615,
      "omy": 1616,
      "lay": 1617,
      "ured": 1618,
      "took": 1619,
      "touch": 1620,
      "elit": 1621,
      "tions,": 1622,
      "cities": 1623,
      "ung": 1624,
      "undial": 1625,
      "====": 1626,
      "liance": 1627,
      "ush": 1628,
      "teri": 1629,
      "che": 1630,
      "char": 1631,
      "changes": 1632,
      "change": 1633,
      "very": 1634,
      "olu": 1635,
      "tema": 1636,
      "before": 1637,
      "Their": 1638,
      "ceutical": 1639,
      "est-": 1640,
      "imperi": 1641,
      "veget": 1642,
      "comm": 1643,
      "compan": 1644,
      "ably": 1645,
      "about": 1646,
      "ability": 1647,
      "cog": 1648,
      "external": 1649,
      "express": 1650,
      "when": 1651,
      "where": 1652,
      "again": 1653,
      "ago.": 1654,
      "within": 1655,
      "qual": 1656,
      "soon": 1657,
      "ists": 1658,
      "show": 1659,
      "ally,": 1660,
      "sive": 1661,
      "areas.": 1662,
      "apon": 1663,
      "approxim": 1664,
      "etwork": 1665,
      "uced": 1666,
      "meat": 1667,
      "aksh": 1668,
      "ism.": 1669,
      "ternational": 1670,
      "genous": 1671,
      "upper": 1672,
      "indios": 1673,
      "indigenous": 1674,
      "cause": 1675,
      "regions": 1676,
      "Asian": 1677,
      "languag": 1678,
      "turned": 1679,
      "creasing": 1680,
      "avour": 1681,
      "plate": 1682,
      "south-": 1683,
      "Hinduism": 1684,
      "Hinduism,": 1685,
      "minister.": 1686,
      "ward": 1687,
      "traditionally": 1688,
      "crust": 1689,
      "0,000": 1690,
      "BCE,": 1691,
      "thought": 1692,
      "Ancient": 1693,
      "Arab": 1694,
      "extant": 1695,
      "ergy": 1696,
      "below": 1697,
      "dance-dr": 1698,
      "supp": 1699,
      "Pakistan.": 1700,
      "influence": 1701,
      "reduced": 1702,
      "All": 1703,
      "species": 1704,
      "weapon": 1705,
      "fuer": 1706,
      "west,": 1707,
      "constitutional": 1708,
      "foreign": 1709,
      "rule.": 1710,
      "developed": 1711,
      "development": 1712,
      "Punjab,": 1713,
      "factor": 1714,
      "time,": 1715,
      "vided": 1716,
      "oldest": 1717,
      "agriculture": 1718,
      "elected": 1719,
      "families": 1720,
      "cooking": 1721,
      "culture.": 1722,
      "contribut": 1723,
      "archite": 1724,
      "decades": 1725,
      "Plateau": 1726,
      "third-largest": 1727,
      "commonly": 1728,
      "features": 1729,
      "greater": 1730,
      "house": 1731,
      "Many": 1732,
      "dances": 1733,
      "single": 1734,
      "violence": 1735,
      "operation": 1736,
      "Buddhism": 1737,
      "conducted": 1738,
      "directly": 1739,
      "commercial": 1740,
      "composed": 1741,
      "Hindustan": 1742,
      "technology": 1743,
      "endemic": 1744,
      "estimated": 1745,
      "continued": 1746,
      "small": 1747,
      "enacted": 1748,
      "recorded": 1749,
      "established": 1750,
      "resulting": 1751,
      "global": 1752,
      "kingdoms": 1753,
      "vidian": 1754,
      "agricultural": 1755,
      "Dravidian": 1756,
      "Valley": 1757,
      "pharmaceutical": 1758,
      "rights": 1759,
      "relations": 1760,
      "approximately": 1761,
      "dance-dramas": 1762,
      "24": 1763,
      "35": 1764,
      "9,": 1765,
      "Bang": 1766,
      "Lank": 1767,
      "Mal": 1768,
      "Par": 1769,
      "Sri": 1770,
      "Wi": 1771,
      "cru": 1772,
      "dar": 1773,
      "ez": 1774,
      "ia": 1775,
      "mam": 1776,
      "oci": 1777,
      "poder": 1778,
      "sim": 1779,
      "vict": 1780,
      "astr": 1781,
      "titu": 1782,
      "li,": 1783,
      "cha": 1784,
      "separ": 1785,
      "odu": 1786,
      "endo": 1787,
      "es.​": 1788,
      "económic": 1789,
      "migr": 1790,
      "ine.": 1791,
      "primer": 1792,
      "desde": 1793,
      "cris": 1794,
      "extre": 1795,
      "pendi": 1796,
      "incluy": 1797,
      "cultural": 1798,
      "propi": 1799,
      "Janata": 1800,
      "Bangla": 1801,
      "crucial": 1802,
      "26": 1803,
      "500": 1804,
      "94": 1805,
      "Ex": 1806,
      "Im": 1807,
      "Nic": 1808,
      "Pr": 1809,
      "Pal": 1810,
      "UPA": 1811,
      "Vi": 1812,
      "bri": 1813,
      "baj": 1814,
      "hal": 1815,
      "ie": 1816,
      "idi": 1817,
      "jo-": 1818,
      "mat": 1819,
      "tes": 1820,
      "ya,": 1821,
      "zon": 1822,
      "ana": 1823,
      "incom": 1824,
      "ale": 1825,
      "diment": 1826,
      "edad": 1827,
      "deci": 1828,
      "entos": 1829,
      "lian": 1830,
      "produ": 1831,
      "Thar": 1832,
      "estado": 1833,
      "exist": 1834,
      "emper": 1835,
      "ario": 1836,
      "reser": 1837,
      "respe": 1838,
      "Indones": 1839,
      "devo": 1840,
      "stru": 1841,
      "eval": 1842,
      "extin": 1843,
      "185": 1844,
      "industri": 1845,
      "Mohen": 1846,
      "mundo": 1847,
      "colonial": 1848,
      "extrem": 1849,
      "Nicob": 1850,
      "Mohenjo-": 1851,
      "\".": 1852,
      ");": 1853,
      "100": 1854,
      "21": 1855,
      "At": 1856,
      "Ade": 1857,
      "DA": 1858,
      "Econ": 1859,
      "Fron": 1860,
      "Ge": 1861,
      "Mar": 1862,
      "Modern": 1863,
      "Myan": 1864,
      "NDA": 1865,
      "Or": 1866,
      "ace": 1867,
      "cut": 1868,
      "dent": 1869,
      "e,": 1870,
      "fle": 1871,
      "fil": 1872,
      "god": 1873,
      "hā": 1874,
      "hind": 1875,
      "jer": 1876,
      "kame": 1877,
      "mant": 1878,
      "marg": 1879,
      "oli": 1880,
      "och": 1881,
      "átic": 1882,
      "ér": 1883,
      "úl": 1884,
      "úblic": 1885,
      "anos": 1886,
      "anag": 1887,
      "esti": 1888,
      "estic": 1889,
      "almente": 1890,
      "ares": 1891,
      "oral": 1892,
      "edomin": 1893,
      "de,": 1894,
      "ofic": 1895,
      "is.": 1896,
      "refer": 1897,
      "reven": 1898,
      "Indira": 1899,
      "lac": 1900,
      "lament": 1901,
      "civil": 1902,
      "convir": 1903,
      "predomin": 1904,
      "imin": 1905,
      "impro": 1906,
      "comun": 1907,
      "coal": 1908,
      "porter": 1909,
      "clas": 1910,
      "acter": 1911,
      "antes": 1912,
      "ender": 1913,
      "trav": 1914,
      "norte": 1915,
      "respon": 1916,
      "ganiz": 1917,
      "miento": 1918,
      "ati,": 1919,
      "play": 1920,
      "model": 1921,
      "ples": 1922,
      "1991,": 1923,
      "1965,": 1924,
      "millones": 1925,
      "literat": 1926,
      "polític": 1927,
      "China,": 1928,
      "acional": 1929,
      "propor": 1930,
      "mayoría": 1931,
      "legislat": 1932,
      "heredi": 1933,
      "ubs": 1934,
      "ject": 1935,
      "Brahma": 1936,
      "durante": 1937,
      "Maurya": 1938,
      "Gupta": 1939,
      "practic": 1940,
      "daro,": 1941,
      "Palla": 1942,
      "Mohenjo-daro,": 1943,
      "Myanmar": 1944,
      "Organiz": 1945,
      "kameez": 1946,
      "convirti": 1947,
      "(i": 1948,
      "(c.": 1949,
      "16": 1950,
      "23": 1951,
      "26%": 1952,
      "5%": 1953,
      "8%": 1954,
      "Ash": 1955,
      "Bay": 1956,
      "Dance": 1957,
      "Ear": 1958,
      "Fr": 1959,
      "HO": 1960,
      "Kal": 1961,
      "Min": 1962,
      "Mid": 1963,
      "Mundial": 1964,
      "Non-": 1965,
      "She": 1966,
      "Treat": 1967,
      "Va": 1968,
      "War": 1969,
      "WHO": 1970,
      "atic": 1971,
      "bes": 1972,
      "bord": 1973,
      "bour": 1974,
      "ction": 1975,
      "cess": 1976,
      "ctiv": 1977,
      "dri": 1978,
      "eign": 1979,
      "edic": 1980,
      "fem": 1981,
      "fall": 1982,
      "gas": 1983,
      "gain": 1984,
      "good": 1985,
      "gobierno": 1986,
      "ier": 1987,
      "ither": 1988,
      "kes": 1989,
      "lin": 1990,
      "less": 1991,
      "lated": 1992,
      "med": 1993,
      "mand": 1994,
      "nation": 1995,
      "near": 1996,
      "name": 1997,
      "oeste": 1998,
      "ph": 1999,
      "pal": 2000,
      "pover": 2001,
      "pite": 2002,
      "range": 2003,
      "ross": 2004,
      "slow": 2005,
      "sched": 2006,
      "speak": 2007,
      "test": 2008,
      "ue": 2009,
      "ues": 2010,
      "varn": 2011,
      "woul": 2012,
      "ze": 2013,
      "ías": 2014,
      "–201": 2015,
      "ans.": 2016,
      "anced": 2017,
      "another": 2018,
      "then": 2019,
      "thor": 2020,
      "those": 2021,
      "these": 2022,
      "th-largest": 2023,
      "threat": 2024,
      "in,": 2025,
      "ining": 2026,
      "ines,": 2027,
      "institution": 2028,
      "inning": 2029,
      "ened": 2030,
      "energy": 2031,
      "als,": 2032,
      "armi": 2033,
      "dise": 2034,
      "asa": 2035,
      "tified": 2036,
      "orally": 2037,
      "anding": 2038,
      "decade": 2039,
      "ister": 2040,
      "recent": 2041,
      "report": 2042,
      "recog": 2043,
      "related": 2044,
      "enter": 2045,
      "ato": 2046,
      "ator": 2047,
      "icket": 2048,
      "ings": 2049,
      "laws": 2050,
      "urid": 2051,
      "top": 2052,
      "tow": 2053,
      "today": 2054,
      "elig": 2055,
      "ciud": 2056,
      "adop": 2057,
      "added": 2058,
      "une": 2059,
      "untouch": 2060,
      "lied": 2061,
      "try,": 2062,
      "level": 2063,
      "ample": 2064,
      "uscrip": 2065,
      "prob": 2066,
      "chang": 2067,
      "chain": 2068,
      "churid": 2069,
      "vereign": 2070,
      "olving": 2071,
      "uld": 2072,
      "uled": 2073,
      "ulous": 2074,
      "ulture": 2075,
      "ilway": 2076,
      "semb": 2077,
      "being": 2078,
      "cean": 2079,
      "está": 2080,
      "makes": 2081,
      "oppos": 2082,
      "19th": 2083,
      "imi": 2084,
      "super": 2085,
      "stand": 2086,
      "20th": 2087,
      "comprom": 2088,
      "odo": 2089,
      "co-": 2090,
      "could": 2091,
      "parts": 2092,
      "ion,": 2093,
      "ions,": 2094,
      "cts": 2095,
      "ctos": 2096,
      "exchange": 2097,
      "example": 2098,
      "ago,": 2099,
      "emb": 2100,
      "sovereign": 2101,
      "pear": 2102,
      "cloth": 2103,
      "pero": 2104,
      "rap": 2105,
      "rather": 2106,
      "railway": 2107,
      "share": 2108,
      "ally.": 2109,
      "six": 2110,
      "side": 2111,
      "loss": 2112,
      "areas": 2113,
      "appear": 2114,
      "across": 2115,
      "having": 2116,
      "marked": 2117,
      "creci": 2118,
      "gence": 2119,
      "forms": 2120,
      "formal": 2121,
      "ritán": 2122,
      "trade": 2123,
      "economía": 2124,
      "economy.": 2125,
      "2011,": 2126,
      "manuscrip": 2127,
      "assert": 2128,
      "tribal": 2129,
      "round": 2130,
      "century.": 2131,
      "centuries,": 2132,
      "populous": 2133,
      "1,000": 2134,
      "regions.": 2135,
      "Asia.": 2136,
      "mi)": 2137,
      "miem": 2138,
      "ine,": 2139,
      "inequal": 2140,
      "ativ": 2141,
      "placed": 2142,
      "played": 2143,
      "primary": 2144,
      "desh": 2145,
      "provided": 2146,
      "government,": 2147,
      "governments": 2148,
      "moist": 2149,
      "year.": 2150,
      "world.": 2151,
      "merch": 2152,
      "ometres": 2153,
      "latter": 2154,
      "discr": 2155,
      "ty.": 2156,
      "elections": 2157,
      "oka": 2158,
      "system.": 2159,
      "urbanisation": 2160,
      "ministers.": 2161,
      "strong": 2162,
      "strength": 2163,
      "wars": 2164,
      "1951,": 2165,
      "BCE.": 2166,
      "signed": 2167,
      "maintain": 2168,
      "Aryan": 2169,
      "limate": 2170,
      "Buddha": 2171,
      "subcontinent,": 2172,
      "life,": 2173,
      "language\"": 2174,
      "language,": 2175,
      "Empire.": 2176,
      "breath": 2177,
      "belong": 2178,
      "bellion": 2179,
      "belief": 2180,
      "due": 2181,
      "mediately": 2182,
      "folk": 2183,
      "follow": 2184,
      "consists": 2185,
      "Eurasi": 2186,
      "guard": 2187,
      "setting": 2188,
      "wealth": 2189,
      "sometimes": 2190,
      "deriv": 2191,
      "classical,": 2192,
      "vention": 2193,
      "territories": 2194,
      "parliament.": 2195,
      "cultures": 2196,
      "Himalayan": 2197,
      "leader,": 2198,
      "originally": 2199,
      "them.": 2200,
      "office": 2201,
      "ography": 2202,
      "gave": 2203,
      "vida": 2204,
      "transmit": 2205,
      "ables,": 2206,
      "Indo-Aryan": 2207,
      "Assemb": 2208,
      "años": 2209,
      "east.": 2210,
      "famili": 2211,
      "becoming": 2212,
      "mathematical": 2213,
      "mathematics": 2214,
      "industry": 2215,
      "capita": 2216,
      "Democra": 2217,
      "Demographic": 2218,
      "entras": 2219,
      "13th": 2220,
      "status": 2221,
      "Stat": 2222,
      "States": 2223,
      "drain": 2224,
      "figures": 2225,
      "remaining": 2226,
      "marriages": 2227,
      "supported": 2228,
      "census,": 2229,
      "painting,": 2230,
      "mbol": 2231,
      "distin": 2232,
      "liberal": 2233,
      "kilometres": 2234,
      "oulder": 2235,
      "organisation": 2236,
      "summer": 2237,
      "expans": 2238,
      "contains": 2239,
      "styles": 2240,
      "Islam": 2241,
      "Islamic": 2242,
      "independence": 2243,
      "broad": 2244,
      "chosen": 2245,
      "disputes": 2246,
      "process": 2247,
      "North": 2248,
      "average": 2249,
      "natal": 2250,
      "Constituent": 2251,
      "protected": 2252,
      "president,": 2253,
      "currenc": 2254,
      "passing": 2255,
      "coalition": 2256,
      "gency,": 2257,
      "increasingly": 2258,
      "village": 2259,
      "employed": 2260,
      "different": 2261,
      "sistema": 2262,
      "initi": 2263,
      "gradually": 2264,
      "1950s,": 2265,
      "contributions": 2266,
      "habitat": 2267,
      "Civilisation": 2268,
      "Deccan": 2269,
      "Greek": 2270,
      "Gujar": 2271,
      "renew": 2272,
      "safe": 2273,
      "written": 2274,
      "reached": 2275,
      "character": 2276,
      "vegetari": 2277,
      "Arabian": 2278,
      "architecture": 2279,
      "mammal": 2280,
      "Bangladesh": 2281,
      "revenues": 2282,
      "Ashoka": 2283,
      "Early": 2284,
      "Middle": 2285,
      "scheduled": 2286,
      "would": 2287,
      "armies": 2288,
      "churidar": 2289,
      "compromise": 2290,
      "discrimin": 2291,
      "transmitted": 2292,
      "Assembly": 2293,
      "Demographics": 2294,
      "11": 2295,
      "14": 2296,
      "70": 2297,
      "Gr": 2298,
      "Gobierno": 2299,
      "Keral": 2300,
      "Las": 2301,
      "Ori": 2302,
      "Sin": 2303,
      "Uni": 2304,
      "aut": 2305,
      "bar": 2306,
      "bra": 2307,
      "gos": 2308,
      "ia.": 2309,
      "kim": 2310,
      "nú": 2311,
      "rest": 2312,
      "sica": 2313,
      "tando": 2314,
      "wood": 2315,
      "erra": 2316,
      "enz": 2317,
      "es:": 2318,
      "depend": 2319,
      "cil": 2320,
      "estados": 2321,
      "ida": 2322,
      "emer": 2323,
      "istán": 2324,
      "petr": 2325,
      "perí": 2326,
      "person": 2327,
      "aria": 2328,
      "indio": 2329,
      ".​​": 2330,
      "ministra": 2331,
      "mientras": 2332,
      "mero": 2333,
      "siglo": 2334,
      "musul": 2335,
      "aument": 2336,
      "Himalayas": 2337,
      "key": 2338,
      "text": 2339,
      "arrol": 2340,
      "nominal": 2341,
      "victori": 2342,
      "hindu": 2343,
      "oficial": 2344,
      "ritánic": 2345,
      "número": 2346,
      "36": 2347,
      "43": 2348,
      "80": 2349,
      "C.": 2350,
      "Cop": 2351,
      "Gond": 2352,
      "Li": 2353,
      "Nar": 2354,
      "Oc": 2355,
      "PI": 2356,
      "Ram": 2357,
      "Ti": 2358,
      "az": 2359,
      "británic": 2360,
      "cat": 2361,
      "dere": 2362,
      "fes": 2363,
      "jur": 2364,
      "jay": 2365,
      "nic": 2366,
      "nom": 2367,
      "pas": 2368,
      "pir": 2369,
      "ras": 2370,
      "sal": 2371,
      "sol": 2372,
      "smo": 2373,
      "uk": 2374,
      "vol": 2375,
      "int": 2376,
      "inno": 2377,
      "informa": 2378,
      "es;": 2379,
      "tiz": 2380,
      "tian": 2381,
      "tico": 2382,
      "andy": 2383,
      "isdic": 2384,
      "repe": 2385,
      "latitu": 2386,
      "cio": 2387,
      "civi": 2388,
      "ad,": 2389,
      "adores": 2390,
      "unit": 2391,
      "lifer": 2392,
      "sex": 2393,
      "193": 2394,
      "igual": 2395,
      "vez": 2396,
      "comenz": 2397,
      "quet": 2398,
      "pers": 2399,
      "indh": 2400,
      "2018": 2401,
      "más,": 2402,
      "2009": 2403,
      "desarrol": 2404,
      "prov": 2405,
      "tradicion": 2406,
      "lugar": 2407,
      "cual": 2408,
      "harkh": 2409,
      "plant": 2410,
      "2022,": 2411,
      "paí": 2412,
      "Common": 2413,
      "subcontinente": 2414,
      "medieval": 2415,
      "religios": 2416,
      "Himalayas,": 2417,
      "original": 2418,
      "nacionales": 2419,
      "divor": 2420,
      "Modi": 2421,
      "valle": 2422,
      "Prolifer": 2423,
      "wana,": 2424,
      "otros": 2425,
      "década": 2426,
      "nuev": 2427,
      "principales": 2428,
      "clima": 2429,
      "mater": 2430,
      "Indonesia.": 2431,
      "últim": 2432,
      "imiento": 2433,
      "Kerala": 2434,
      "musulman": 2435,
      "Copa": 2436,
      "Gondwana,": 2437,
      "jurisdic": 2438,
      "innov": 2439,
      "12.": 2440,
      "44": 2441,
      "55,": 2442,
      "Ara": 2443,
      "Akb": 2444,
      "Bal": 2445,
      "Co": 2446,
      "Dal": 2447,
      "Hist": 2448,
      "Jam": 2449,
      "Jaw": 2450,
      "Jharkh": 2451,
      "Kos": 2452,
      "Kaver": 2453,
      "Ni": 2454,
      "P.": 2455,
      "Part": 2456,
      "Relig": 2457,
      "So": 2458,
      "San": 2459,
      "Ter": 2460,
      "V.": 2461,
      "ail": 2462,
      "ahar": 2463,
      "bos": 2464,
      "cambi": 2465,
      "das": 2466,
      "dad": 2467,
      "doc": 2468,
      "duc": 2469,
      "ej": 2470,
      "fam": 2471,
      "gob": 2472,
      "hom": 2473,
      "ha,": 2474,
      "ith": 2475,
      "kur": 2476,
      "les": 2477,
      "lal": 2478,
      "leng": 2479,
      "nd": 2480,
      "oom": 2481,
      "ove": 2482,
      "pul": 2483,
      "past": 2484,
      "post": 2485,
      "sac": 2486,
      "ta,": 2487,
      "u,": 2488,
      "udi": 2489,
      "ufa": 2490,
      "zo": 2491,
      "zas": 2492,
      "élit": 2493,
      "ían": 2494,
      "íquet": 2495,
      "νδ": 2496,
      "any": 2497,
      "anat": 2498,
      "enci": 2499,
      "endem": 2500,
      "astri": 2501,
      "ti,": 2502,
      "redi": 2503,
      "refle": 2504,
      "ats": 2505,
      "ici": 2506,
      "omo": 2507,
      "osis": 2508,
      "lam": 2509,
      "advers": 2510,
      "lig": 2511,
      "trad": 2512,
      "tra,": 2513,
      "pri": 2514,
      "promin": 2515,
      "chas": 2516,
      "ilar": 2517,
      "sediment": 2518,
      "supre": 2519,
      "superi": 2520,
      "compr": 2521,
      "abs": 2522,
      "partic": 2523,
      "clá": 2524,
      "perman": 2525,
      "rati": 2526,
      "hau": 2527,
      "argo,": 2528,
      "mega": 2529,
      "minor": 2530,
      "arios": 2531,
      "culosis": 2532,
      "berculosis": 2533,
      "Cho": 2534,
      "Chand": 2535,
      "manufa": 2536,
      "caus": 2537,
      "hi,": 2538,
      "hibi": 2539,
      "2008,": 2540,
      "Entre": 2541,
      "perio": 2542,
      "devast": 2543,
      "notable": 2544,
      "legal": 2545,
      "pañ": 2546,
      "aliz": 2547,
      "Nepal": 2548,
      "fueron": 2549,
      "hangr": 2550,
      "territorial": 2551,
      "bron": 2552,
      "cultura": 2553,
      "Republic": 2554,
      "Indo-G": 2555,
      "Delhi,": 2556,
      "domestic": 2557,
      "calend": 2558,
      "artist": 2559,
      "países": 2560,
      "grande": 2561,
      "legisla": 2562,
      "Rajiv": 2563,
      "defini": 2564,
      "current": 2565,
      "II,": 2566,
      "flan": 2567,
      "comercial": 2568,
      "secular": 2569,
      "oroastri": 2570,
      "similar": 2571,
      "separati": 2572,
      "incluyen": 2573,
      "Vijay": 2574,
      "idiom": 2575,
      "industrial": 2576,
      "Nicobar": 2577,
      "Además,": 2578,
      "manten": 2579,
      "través": 2580,
      "heredit": 2581,
      "Brahmapu": 2582,
      "Pallav": 2583,
      "Myanmar,": 2584,
      "supercontinent": 2585,
      "embargo,": 2586,
      "miembr": 2587,
      "wood,": 2588,
      "361": 2589,
      "Jammu": 2590,
      "Jawahar": 2591,
      "Sovi": 2592,
      "gobern": 2593,
      "kurta": 2594,
      "lengu": 2595,
      "superior": 2596,
      "particular": 2597,
      "manufact": 2598,
      "Vijayanag": 2599,
      "Jawaharlal": 2600,
      "\")": 2601,
      "%),": 2602,
      "(2": 2603,
      "(Ἰ": 2604,
      "(Ar": 2605,
      "(including": 2606,
      "-des": 2607,
      "-year": 2608,
      "-ga": 2609,
      "-day": 2610,
      "-majority": 2611,
      "-kn": 2612,
      "-body": 2613,
      "-style": 2614,
      "1st": 2615,
      "1%.": 2616,
      "16.": 2617,
      "14%": 2618,
      "22": 2619,
      "21.": 2620,
      "2%.": 2621,
      "31.": 2622,
      "39%": 2623,
      "46%": 2624,
      "40%": 2625,
      "55.": 2626,
      "63": 2627,
      "6th": 2628,
      "7th": 2629,
      "700": 2630,
      "8–": 2631,
      "9%.": 2632,
      "Aj": 2633,
      "Agenc": 2634,
      "Acha": 2635,
      "Ba": 2636,
      "Bet": 2637,
      "Bhangr": 2638,
      "Clas": 2639,
      "Cup": 2640,
      "Cav": 2641,
      "Carn": 2642,
      "Culture": 2643,
      "Climate": 2644,
      "Dis": 2645,
      "Dev": 2646,
      "Eas": 2647,
      "Ele": 2648,
      "Emer": 2649,
      "Ety": 2650,
      "Fol": 2651,
      "Fore": 2652,
      "Gen": 2653,
      "He": 2654,
      "June": 2655,
      "Langu": 2656,
      "Lok": 2657,
      "Laksh": 2658,
      "Mum": 2659,
      "Nat": 2660,
      "Network": 2661,
      "Nacional": 2662,
      "Over": 2663,
      "Out": 2664,
      "Old": 2665,
      "Ocean": 2666,
      "PP": 2667,
      "Pla": 2668,
      "President": 2669,
      "Poli": 2670,
      "Sim": 2671,
      "Shas": 2672,
      "Sant": 2673,
      "Shi": 2674,
      "Some": 2675,
      "Sever": 2676,
      "Stil": 2677,
      "Sarn": 2678,
      "Sultanate": 2679,
      "To": 2680,
      "Temple": 2681,
      "Ur": 2682,
      "Vis": 2683,
      "Vaj": 2684,
      "Vedic": 2685,
      "Yaksh": 2686,
      "Zoroastri": 2687,
      "aː": 2688,
      "aic": 2689,
      "a.​": 2690,
      "aism,": 2691,
      "bul": 2692,
      "brough": 2693,
      "bond": 2694,
      "blac": 2695,
      "cy": 2696,
      "cá": 2697,
      "cing": 2698,
      "cab": 2699,
      "cere": 2700,
      "care": 2701,
      "cak": 2702,
      "clear": 2703,
      "ctive": 2704,
      "cy.": 2705,
      "cust": 2706,
      "camp": 2707,
      "dy": 2708,
      "dre": 2709,
      "dest": 2710,
      "dates": 2711,
      "eb": 2712,
      "ey": 2713,
      "eous": 2714,
      "eigh": 2715,
      "epic": 2716,
      "eight": 2717,
      "etici": 2718,
      "either": 2719,
      "ful": 2720,
      "fec": 2721,
      "flow": 2722,
      "fused": 2723,
      "fish": 2724,
      "fash": 2725,
      "flower": 2726,
      "favour": 2727,
      "gig": 2728,
      "govern": 2729,
      "gender": 2730,
      "ginning": 2731,
      "hun": 2732,
      "hood": 2733,
      "hubs": 2734,
      "i)": 2735,
      "ip": 2736,
      "ive": 2737,
      "ies.": 2738,
      "jac": 2739,
      "kat": 2740,
      "ls": 2741,
      "length": 2742,
      "lic,": 2743,
      "ms": 2744,
      "mú": 2745,
      "molog": 2746,
      "mns": 2747,
      "nin": 2748,
      "ner": 2749,
      "non": 2750,
      "nas": 2751,
      "nam": 2752,
      "next": 2753,
      "narr": 2754,
      "network": 2755,
      "o.​": 2756,
      "olation": 2757,
      "odiversity": 2758,
      "pes": 2759,
      "pil": 2760,
      "pant": 2761,
      "phere": 2762,
      "push": 2763,
      "públic": 2764,
      "rup": 2765,
      "ranges": 2766,
      "sc": 2767,
      "sí": 2768,
      "sic": 2769,
      "sans": 2770,
      "sical": 2771,
      "spic": 2772,
      "saw": 2773,
      "slid": 2774,
      "self": 2775,
      "savour": 2776,
      "t.": 2777,
      "tel": 2778,
      "tun": 2779,
      "tled": 2780,
      "table": 2781,
      "tasa": 2782,
      "vent": 2783,
      "vated": 2784,
      "vary": 2785,
      "vely": 2786,
      "wing": 2787,
      "wet": 2788,
      "wind": 2789,
      "ween": 2790,
      "welf": 2791,
      "wanted": 2792,
      "xed": 2793,
      "yal": 2794,
      "ying": 2795,
      "zes": 2796,
      "áfic": 2797,
      "í,": 2798,
      "aning": 2799,
      "anism": 2800,
      "th.": 2801,
      "thic": 2802,
      "inos": 2803,
      "ins.": 2804,
      "inated": 2805,
      "international": 2806,
      "erc": 2807,
      "ert,": 2808,
      "onic": 2809,
      "only": 2810,
      "onome": 2811,
      "onset": 2812,
      "ening": 2813,
      "enhouse": 2814,
      "es)": 2815,
      "ess.": 2816,
      "espread": 2817,
      "theor": 2818,
      "aled": 2819,
      "ala,": 2820,
      "alliance": 2821,
      "aris": 2822,
      "arter": 2823,
      "artic": 2824,
      "ardis": 2825,
      "did": 2826,
      "died": 2827,
      "dified": 2828,
      "asures": 2829,
      "tile": 2830,
      "tice": 2831,
      "ties.": 2832,
      "ors": 2833,
      "ed.": 2834,
      "International": 2835,
      "Increasing": 2836,
      "deb": 2837,
      "def": 2838,
      "defe": 2839,
      "deleg": 2840,
      "decreasing": 2841,
      "ises": 2842,
      "isions": 2843,
      "isolation": 2844,
      "ream": 2845,
      "rece": 2846,
      "returned": 2847,
      "rebellion": 2848,
      "enta": 2849,
      "ently": 2850,
      "entually": 2851,
      "omic": 2852,
      "osphere": 2853,
      "laim": 2854,
      "labor": 2855,
      "itated": 2856,
      "tober": 2857,
      "tioned": 2858,
      "cities,": 2859,
      "cident": 2860,
      "citiz": 2861,
      "adwe": 2862,
      "adher": 2863,
      "unres": 2864,
      "united": 2865,
      "uncommon": 2866,
      "lik": 2867,
      "liz": 2868,
      "live": 2869,
      "lived": 2870,
      "living": 2871,
      "tras": 2872,
      "try.": 2873,
      "constitu": 2874,
      "consum": 2875,
      "concep": 2876,
      "conoci": 2877,
      "amed": 2878,
      "amend": 2879,
      "usually": 2880,
      "ter-ga": 2881,
      "lying": 2882,
      "chat": 2883,
      "chap": 2884,
      "child": 2885,
      "Thail": 2886,
      "teen": 2887,
      "ill": 2888,
      "seals": 2889,
      "según": 2890,
      "seats": 2891,
      "force": 2892,
      "fortified": 2893,
      "fortable": 2894,
      "beginning": 2895,
      "They": 2896,
      "graph": 2897,
      "gradi": 2898,
      "groom": 2899,
      "ceed": 2900,
      "esta": 2901,
      "estos": 2902,
      "make": 2903,
      "open": 2904,
      "1930": 2905,
      "imple": 2906,
      "immediately": 2907,
      "Indians.": 2908,
      "suc": 2909,
      "ment,": 2910,
      "ment.": 2911,
      "mental": 2912,
      "mented": 2913,
      "stud": 2914,
      "stanti": 2915,
      "company": 2916,
      "commit": 2917,
      "comfortable": 2918,
      "above": 2919,
      "idly": 2920,
      "idespread": 2921,
      "pared": 2922,
      "parents": 2923,
      "cting": 2924,
      "expe": 2925,
      "exca": 2926,
      "exporter": 2927,
      "exerc": 2928,
      "what": 2929,
      "tic,": 2930,
      "tically": 2931,
      "agree": 2932,
      "ques": 2933,
      "quite": 2934,
      "rior": 2935,
      "portion": 2936,
      "emen": 2937,
      "emission": 2938,
      "sole": 2939,
      "peace": 2940,
      "close": 2941,
      "frame": 2942,
      "percent": 2943,
      "tuberculosis": 2944,
      "raid": 2945,
      "shy": 2946,
      "shal": 2947,
      "shared": 2948,
      "shoulder": 2949,
      "ship": 2950,
      "overran": 2951,
      "occas": 2952,
      "occur": 2953,
      "sia,": 2954,
      "sively": 2955,
      "are:": 2956,
      "area.": 2957,
      "appoin": 2958,
      "action": 2959,
      "accoun": 2960,
      "according": 2961,
      "access": 2962,
      "anta": 2963,
      "ets": 2964,
      "etah": 2965,
      "centre": 2966,
      "ght": 2967,
      "uck": 2968,
      "hacia": 2969,
      "ends": 2970,
      "ended": 2971,
      "ending": 2972,
      "meaning": 2973,
      "mini": 2974,
      "akh": 2975,
      "marry": 2976,
      "marshy": 2977,
      "creating": 2978,
      "creativ": 2979,
      "essed": 2980,
      "essenti": 2981,
      "form,": 2982,
      "forms.": 2983,
      "formally": 2984,
      "larger": 2985,
      "largely": 2986,
      "ousand": 2987,
      "ously": 2988,
      "ated.": 2989,
      "atedly": 2990,
      "que,": 2991,
      "resour": 2992,
      "affir": 2993,
      "affa": 2994,
      "vie": 2995,
      "others": 2996,
      "economy,": 2997,
      "economies": 2998,
      "Chess": 2999,
      "Champ": 3000,
      "Chris": 3001,
      "Chhau": 3002,
      "ought": 3003,
      "substanti": 3004,
      "2013": 3005,
      "2010.": 3006,
      "tspot": 3007,
      "ance,": 3008,
      "assass": 3009,
      "ighbour": 3010,
      "tries": 3011,
      "temper": 3012,
      "temples": 3013,
      "loose": 3014,
      "role": 3015,
      "CE.": 3016,
      "2004": 3017,
      "2001,": 3018,
      "region.": 3019,
      "north,": 3020,
      "north-": 3021,
      "northwest": 3022,
      "Asians": 3023,
      "ati.": 3024,
      "atives": 3025,
      "placa": 3026,
      "years,": 3027,
      "relief": 3028,
      "prevent": 3029,
      "turn": 3030,
      "neighbour": 3031,
      "ence.": 3032,
      "pués": 3033,
      "arts,": 3034,
      "serving": 3035,
      "lands,": 3036,
      "cuis": 3037,
      "ogam": 3038,
      "food": 3039,
      "foetici": 3040,
      "monsoon": 3041,
      "planted": 3042,
      "south,": 3043,
      "south.": 3044,
      "tail": 3045,
      "presence": 3046,
      "1999.": 3047,
      "Congres": 3048,
      "systems": 3049,
      "ively": 3050,
      "infec": 3051,
      "greenhouse": 3052,
      "million-": 3053,
      "struc": 3054,
      "long-": 3055,
      "numeral": 3056,
      "warrior": 3057,
      "that,": 3058,
      "1950.": 3059,
      "2026,": 3060,
      "2023.": 3061,
      "traditions": 3062,
      "traditions.": 3063,
      "give": 3064,
      "Major": 3065,
      "country,": 3066,
      "eventually": 3067,
      "1960": 3068,
      "1965": 3069,
      "1967": 3070,
      "notably": 3071,
      "therers,": 3072,
      "mainly": 3073,
      "classes": 3074,
      "millon": 3075,
      "includes": 3076,
      "years;": 3077,
      "caste,": 3078,
      "caste-": 3079,
      "leges": 3080,
      "ological": 3081,
      "ologically": 3082,
      "limited": 3083,
      "1.3": 3084,
      "extends": 3085,
      "ure,": 3086,
      "population,": 3087,
      "numbers": 3088,
      "numbers,": 3089,
      "British-style": 3090,
      "18th": 3091,
      "bread": 3092,
      "break": 3093,
      "duous": 3094,
      "humans": 3095,
      "supplanted": 3096,
      "large-s": 3097,
      "Pakistan)": 3098,
      "Pakistan,": 3099,
      "tivo": 3100,
      "literary": 3101,
      "Alliance": 3102,
      "colleges": 3103,
      "settle": 3104,
      "partially": 3105,
      "partition.": 3106,
      "efly": 3107,
      "effe": 3108,
      "pollu": 3109,
      "species.": 3110,
      "specific": 3111,
      "web": 3112,
      "river,": 3113,
      "rivers,": 3114,
      "later,": 3115,
      "ese,": 3116,
      "derived": 3117,
      "rate,": 3118,
      "thereafter": 3119,
      "therefore": 3120,
      "course": 3121,
      "election.": 3122,
      "elections.": 3123,
      "power.": 3124,
      "ultaneous": 3125,
      "geograph": 3126,
      "societ": 3127,
      "period.": 3128,
      "territories.": 3129,
      "US$2,": 3130,
      "US$100": 3131,
      "highly": 3132,
      "highest": 3133,
      "state,": 3134,
      "rule,": 3135,
      "diversity.": 3136,
      "build": 3137,
      "pending": 3138,
      "Himalayas.": 3139,
      "2.8": 3140,
      "men,": 3141,
      "garlic,": 3142,
      "17th": 3143,
      "non-Congress": 3144,
      "non-violence": 3145,
      "non-co-": 3146,
      "asive": 3147,
      "techni": 3148,
      "forest,": 3149,
      "forests,": 3150,
      "angetic": 3151,
      "music.": 3152,
      "Europe.": 3153,
      "carved": 3154,
      "generated": 3155,
      "generally,": 3156,
      "Islands,": 3157,
      "drop": 3158,
      "pically": 3159,
      "ístic": 3160,
      "transformed": 3161,
      "1971,": 3162,
      "Indo-European": 3163,
      "años,": 3164,
      "puts,": 3165,
      "far-": 3166,
      "farmer": 3167,
      "family": 3168,
      "treat": 3169,
      "annual": 3170,
      "annually": 3171,
      "independi": 3172,
      "amphibi": 3173,
      "mathematici": 3174,
      "influences": 3175,
      "males.": 3176,
      "involved": 3177,
      "involving": 3178,
      "Sea": 3179,
      "Sea.": 3180,
      "Según": 3181,
      "ped.": 3182,
      "various": 3183,
      "ministro": 3184,
      "awat": 3185,
      "dense": 3186,
      "archaic": 3187,
      "Jainism": 3188,
      "Jainism,": 3189,
      "Plate.": 3190,
      "lasted": 3191,
      "produced": 3192,
      "coastal": 3193,
      "coastline": 3194,
      "exports": 3195,
      "exported": 3196,
      "exports.": 3197,
      "emphas": 3198,
      "feature": 3199,
      "plains,": 3200,
      "courts,": 3201,
      "courts.": 3202,
      "Sikhs,": 3203,
      "Desert,": 3204,
      "ronic": 3205,
      "intervention": 3206,
      "diffused": 3207,
      "promo": 3208,
      "texts": 3209,
      "animals": 3210,
      "7.5%": 3211,
      "statu": 3212,
      "Biodiversity": 3213,
      "bodi": 3214,
      "bott": 3215,
      "cale": 3216,
      "draw": 3217,
      "ethical": 3218,
      "ethnic": 3219,
      "figur": 3220,
      "figure": 3221,
      "nationalist": 3222,
      "ruled": 3223,
      "ruling": 3224,
      "voted": 3225,
      "antigu": 3226,
      "artistic": 3227,
      "artisans": 3228,
      "remained": 3229,
      "second-largest": 3230,
      "occupation,": 3231,
      "married": 3232,
      "markets.": 3233,
      "violent": 3234,
      "movement.": 3235,
      "history,": 3236,
      "historical": 3237,
      "historically": 3238,
      "country's": 3239,
      "support.": 3240,
      "literacy,": 3241,
      "paintings": 3242,
      "arms": 3243,
      "declared": 3244,
      "bai,": 3245,
      "several": 3246,
      "severely": 3247,
      "Buddhism,": 3248,
      "Rajya": 3249,
      "Rajputs,": 3250,
      "mundo,": 3251,
      "steamed": 3252,
      "GDP,": 3253,
      "dominion": 3254,
      "dominance": 3255,
      "well-": 3256,
      "ards": 3257,
      "organised": 3258,
      "defined": 3259,
      "regul": 3260,
      "register": 3261,
      "advent": 3262,
      "advanced": 3263,
      "administration": 3264,
      "term.": 3265,
      "commerce": 3266,
      "complex": 3267,
      "expanding": 3268,
      "five-year": 3269,
      "headed": 3270,
      "styles,": 3271,
      "independent": 3272,
      "disputed": 3273,
      "service": 3274,
      "edia": 3275,
      "edicts": 3276,
      "hotspot": 3277,
      "10th": 3278,
      "Northeast": 3279,
      "paye": 3280,
      "applied": 3281,
      "historians": 3282,
      "policy": 3283,
      "policies": 3284,
      "Ghats,": 3285,
      "castes,": 3286,
      "hymns": 3287,
      "spreading": 3288,
      "wildlife": 3289,
      "coalition,": 3290,
      "short": 3291,
      "residents": 3292,
      "subsequently": 3293,
      "points": 3294,
      "Union.": 3295,
      "survives": 3296,
      "everyday": 3297,
      "villag": 3298,
      "sites": 3299,
      "relative": 3300,
      "democratic": 3301,
      "democracy.": 3302,
      "patron": 3303,
      "extensively": 3304,
      "Cricket": 3305,
      "kbuck": 3306,
      "llan": 3307,
      "dishes": 3308,
      "additional": 3309,
      "secular,": 3310,
      "biodiversity": 3311,
      "biotech": 3312,
      "cuenta": 3313,
      "multi-": 3314,
      "introduced": 3315,
      "Sabha": 3316,
      "Sabha,": 3317,
      "borne": 3318,
      "flour": 3319,
      "flood": 3320,
      "sports": 3321,
      "schools": 3322,
      "associate": 3323,
      "associated": 3324,
      "layer": 3325,
      "elites": 3326,
      "elites,": 3327,
      "terior": 3328,
      "cheetah": 3329,
      "olution": 3330,
      "imperial": 3331,
      "companies": 3332,
      "whereas": 3333,
      "against": 3334,
      "meat,": 3335,
      "languages,": 3336,
      "languages.": 3337,
      "crust,": 3338,
      "weapons": 3339,
      "contributed": 3340,
      "Plateau,": 3341,
      "Hindustani": 3342,
      "Lankan": 3343,
      "Malay": 3344,
      "migration": 3345,
      "briefly": 3346,
      "half": 3347,
      "income": 3348,
      "deciduous": 3349,
      "produce": 3350,
      "existing": 3351,
      "emperor": 3352,
      "extinct": 3353,
      "extremely": 3354,
      "Economy": 3355,
      "Front": 3356,
      "Geography": 3357,
      "Marath": 3358,
      "gods": 3359,
      "margins": 3360,
      "class.": 3361,
      "response": 3362,
      "legislature": 3363,
      "Organization": 3364,
      "Non-Prolifer": 3365,
      "Treaty,": 3366,
      "borders": 3367,
      "females": 3368,
      "gained": 3369,
      "goods": 3370,
      "poverty": 3371,
      "speakers": 3372,
      "thorn": 3373,
      "threatened": 3374,
      "diseas": 3375,
      "recogn": 3376,
      "towns": 3377,
      "adopted": 3378,
      "untouchability": 3379,
      "probably": 3380,
      "changed": 3381,
      "standardis": 3382,
      "example,": 3383,
      "railways,": 3384,
      "crecimiento": 3385,
      "manuscript": 3386,
      "inequality,": 3387,
      "strongly": 3388,
      "breathing": 3389,
      "Democratic": 3390,
      "States,": 3391,
      "liberalisation": 3392,
      "Islam,": 3393,
      "Gujarat": 3394,
      "renewable": 3395,
      "safeguard": 3396,
      "characteristic": 3397,
      "architecture,": 3398,
      "mammals,": 3399,
      "churidars.": 3400,
      "dependent": 3401,
      "período": 3402,
      "ministrative": 3403,
      "victories": 3404,
      "October": 3405,
      "PIB": 3406,
      "Tibe": 3407,
      "cattle": 3408,
      "volcan": 3409,
      "information": 3410,
      "tianity,": 3411,
      "repeatedly": 3412,
      "civilian": 3413,
      "unitary": 3414,
      "persist": 3415,
      "provin": 3416,
      "país.": 3417,
      "Commonwealth": 3418,
      "divorce": 3419,
      "climatic": 3420,
      "material": 3421,
      "jurisdiction": 3422,
      "55,000": 3423,
      "History": 3424,
      "Kosi": 3425,
      "Religion": 3426,
      "pastoral": 3427,
      "supreme": 3428,
      "comprising": 3429,
      "megadiverse": 3430,
      "Indo-Gangetic": 3431,
      "hereditary": 3432,
      "Soviet": 3433,
      "Vijayanagara": 3434,
      "(2)": 3435,
      "(Ἰνδ": 3436,
      "(Artic": 3437,
      "-knit": 3438,
      "Achaemen": 3439,
      "Between": 3440,
      "Classical": 3441,
      "Cups,": 3442,
      "Carnatic": 3443,
      "Eastern": 3444,
      "Emergency,": 3445,
      "Etymolog": 3446,
      "Following": 3447,
      "Foreign": 3448,
      "General": 3449,
      "Health": 3450,
      "Languages": 3451,
      "Lakshadwe": 3452,
      "Mumbai,": 3453,
      "Politics": 3454,
      "Simultaneous": 3455,
      "Shastri": 3456,
      "Shiva": 3457,
      "Several": 3458,
      "Still": 3459,
      "Urdu": 3460,
      "Vajpaye": 3461,
      "Yakshag": 3462,
      "Zoroastrianism": 3463,
      "bulk": 3464,
      "brought": 3465,
      "bonds": 3466,
      "blackbuck": 3467,
      "cereal": 3468,
      "cleared": 3469,
      "custom": 3470,
      "drew": 3471,
      "flowering": 3472,
      "gigawat": 3473,
      "hunter-ga": 3474,
      "jacket": 3475,
      "nonviolent": 3476,
      "narrow": 3477,
      "savoury": 3478,
      "tunic": 3479,
      "winds": 3480,
      "welfare": 3481,
      "arisen": 3482,
      "defeated.": 3483,
      "delegates": 3484,
      "laiming": 3485,
      "unresolved": 3486,
      "consump": 3487,
      "amendments": 3488,
      "beginnings": 3489,
      "committe": 3490,
      "excavated": 3491,
      "framework": 3492,
      "percentage": 3493,
      "occurred": 3494,
      "creativity": 3495,
      "essential": 3496,
      "affair": 3497,
      "Christianity,": 3498,
      "assassinated": 3499,
      "loose-knit": 3500,
      "northwest.": 3501,
      "foeticide,": 3502,
      "large-scale": 3503,
      "mathematicians": 3504,
      "bottom": 3505,
      "Non-Proliferation": 3506,
      "standardised": 3507,
      "Etymology": 3508,
      "Lakshadweep": 3509,
      "Simultaneously,": 3510,
      "hunter-gatherers,": 3511,
      "(1,": 3512,
      "12": 3513,
      "48": 3514,
      "60": 3515,
      ";​": 3516,
      "Cu": 3517,
      "Cam": 3518,
      "I,": 3519,
      "IN": 3520,
      "Mi": 3521,
      "Sup": 3522,
      "Tr": 3523,
      "Tod": 3524,
      "Way": 3525,
      "bol": 3526,
      "big": 3527,
      "fre": 3528,
      "go": 3529,
      "gun": 3530,
      "ipur": 3531,
      "lleg": 3532,
      "mis": 3533,
      "na": 3534,
      "ov": 3535,
      "rá": 3536,
      "tamil": 3537,
      "uvo": 3538,
      "ños": 3539,
      "óg": 3540,
      "anim": 3541,
      "ances": 3542,
      "ero": 3543,
      "eras": 3544,
      "enen": 3545,
      "encuent": 3546,
      "estr": 3547,
      "as.​": 3548,
      "tier": 3549,
      "ora": 3550,
      "ortal": 3551,
      "anda,": 3552,
      "iste": 3553,
      "regi": 3554,
      "recient": 3555,
      "ental": 3556,
      "ición": 3557,
      "la,": 3558,
      "lados": 3559,
      "cido": 3560,
      "ada,": 3561,
      "lio": 3562,
      "chine.": 3563,
      "olly": 3564,
      "segu": 3565,
      "gres": 3566,
      "estas": 3567,
      "estable": 3568,
      "abaj": 3569,
      "idos": 3570,
      "idades": 3571,
      "ctu": 3572,
      "quier": 3573,
      "ockey": 3574,
      "antes,": 3575,
      "nivel": 3576,
      "poco": 3577,
      "ordin": 3578,
      "neg": 3579,
      "plan": 3580,
      "continental": 3581,
      "ación,": 3582,
      "2022": 3583,
      "Machine.": 3584,
      "Arch": 3585,
      "medicin": 3586,
      "alian": 3587,
      "militar": 3588,
      "partidos": 3589,
      "agrí": 3590,
      "mujer": 3591,
      "Bengala": 3592,
      "territorio": 3593,
      "territorios": 3594,
      "especies": 3595,
      "eleg": 3596,
      "Ass": 3597,
      "año": 3598,
      "pobre": 3599,
      "capital": 3600,
      "promul": 3601,
      "textil": 3602,
      "cinco": 3603,
      "otras": 3604,
      "presidente": 3605,
      "muchas": 3606,
      "gradual": 3607,
      "comercio": 3608,
      "hambr": 3609,
      "Parlament": 3610,
      "Wikim": 3611,
      "crisis": 3612,
      "bajo": 3613,
      "zonas": 3614,
      "respectiv": 3615,
      "convirtió": 3616,
      "Unión": 3617,
      "aumento": 3618,
      "C.,": 3619,
      "desarrollo": 3620,
      "miembros": 3621,
      "símbol": 3622,
      "independiente": 3623,
      "Wayback": 3624,
      "encuentra": 3625,
      "región": 3626,
      "Wikimedia": 3627,
      ").​": 3628,
      "517": 3629,
      "68": 3630,
      "74": 3631,
      "85.": 3632,
      "Ad": 3633,
      "Ban": 3634,
      "Bolly": 3635,
      "Cal": 3636,
      "Di": 3637,
      "Dur": 3638,
      "Fed": 3639,
      "Har": 3640,
      "Lord": 3641,
      "Medi": 3642,
      "Of": 3643,
      "Open": 3644,
      "Pol": 3645,
      "Pandy": 3646,
      "Sang": 3647,
      "Ved": 3648,
      "bit": 3649,
      "cad": 3650,
      "dat": 3651,
      "fun": 3652,
      "gir": 3653,
      "hor": 3654,
      "hast": 3655,
      "hindi": 3656,
      "hockey": 3657,
      "io": 3658,
      "ible": 3659,
      "jain": 3660,
      "judi": 3661,
      "kan": 3662,
      "lí": 3663,
      "ric": 3664,
      "rom": 3665,
      "rica": 3666,
      "sa": 3667,
      "san": 3668,
      "ster": 3669,
      "sap": 3670,
      "sán": 3671,
      "sido": 3672,
      "scrit": 3673,
      "tér": 3674,
      "uy": 3675,
      "uti": 3676,
      "ument": 3677,
      "émic": 3678,
      "ín": 3679,
      "anj": 3680,
      "ana,": 3681,
      "ino": 3682,
      "infr": 3683,
      "instru": 3684,
      "era,": 3685,
      "encu": 3686,
      "espe": 3687,
      "alam,": 3688,
      "isi": 3689,
      "enton": 3690,
      "atro": 3691,
      "ingres": 3692,
      "India.​": 3693,
      "ador": 3694,
      "adamente": 3695,
      "tros": 3696,
      "trig": 3697,
      "trabaj": 3698,
      "conserv": 3699,
      "ustr": 3700,
      "termin": 3701,
      "prana": 3702,
      "versi": 3703,
      "ológ": 3704,
      "tec": 3705,
      "secu": 3706,
      "grup": 3707,
      "estat": 3708,
      "ma,": 3709,
      "2019": 3710,
      "identi": 3711,
      "parlament": 3712,
      "excl": 3713,
      "excep": 3714,
      "porte": 3715,
      "ista": 3716,
      "sha": 3717,
      "occident": 3718,
      "apel": 3719,
      "acu": 3720,
      "endémic": 3721,
      "minster": 3722,
      "mara": 3723,
      "marc": 3724,
      "resur": 3725,
      "restric": 3726,
      "Chol": 3727,
      "subordin": 3728,
      "2012": 3729,
      "inclus": 3730,
      "logr": 3731,
      "2006,": 3732,
      "cialmente": 3733,
      "ganó": 3734,
      "regiones": 3735,
      "Indo": 3736,
      "ficial": 3737,
      "descri": 3738,
      "provi": 3739,
      "previ": 3740,
      "avor": 3741,
      "elecciones": 3742,
      "folio": 3743,
      "plural": 3744,
      "1951": 3745,
      "2021,": 3746,
      "ción,": 3747,
      "sur,": 3748,
      "sigu": 3749,
      "siglos": 3750,
      "Pakistán": 3751,
      "Compañ": 3752,
      "1848": 3753,
      "1885.": 3754,
      "kho": 3755,
      "posterior": 3756,
      "diversas": 3757,
      "sociales": 3758,
      "socialist": 3759,
      "ográfic": 3760,
      "muy": 3761,
      "News": 3762,
      "1981": 3763,
      "cursion": 3764,
      "adesh": 3765,
      "annada,": 3766,
      "malnu": 3767,
      "Central,": 3768,
      "varias": 3769,
      "varios": 3770,
      "entran": 3771,
      "entren": 3772,
      "grandes": 3773,
      "ubic": 3774,
      "tton": 3775,
      "importantes": 3776,
      "considerable": 3777,
      "ensa": 3778,
      "reptil": 3779,
      "Westminster": 3780,
      "total.": 3781,
      "imperio": 3782,
      "fuerza": 3783,
      "Maldiv": 3784,
      "propios": 3785,
      "Imperio": 3786,
      "Prim": 3787,
      "Pradesh": 3788,
      "productos": 3789,
      "ciudad": 3790,
      "ciudades": 3791,
      "vegetarian": 3792,
      "festiv": 3793,
      "comenzó": 3794,
      "últimos": 3795,
      "idiomas": 3796,
      "lenguas": 3797,
      "cámara": 3798,
      "música": 3799,
      "pesar": 3800,
      "millones.": 3801,
      "llanura": 3802,
      "INC": 3803,
      "promulg": 3804,
      "hambrun": 3805,
      "Sangam": 3806,
      "hasta": 3807,
      "sánscrit": 3808,
      "términ": 3809,
      "encuentran": 3810,
      "\",": 3811,
      "\"no": 3812,
      "'.": 3813,
      "'í": 3814,
      "(B": 3815,
      "(0,": 3816,
      "(BJP": 3817,
      "(UPA": 3818,
      "(NDA": 3819,
      ",​": 3820,
      "-d": 3821,
      "..": 3822,
      "01": 3823,
      "120": 3824,
      "10,": 3825,
      "21,": 3826,
      "31": 3827,
      "64": 3828,
      "65": 3829,
      "6°": 3830,
      "600": 3831,
      "7°": 3832,
      "7′": 3833,
      "800": 3834,
      "900": 3835,
      "97°": 3836,
      "Ab": 3837,
      "Acade": 3838,
      "Br": 3839,
      "But": 3840,
      "Can": 3841,
      "Col": 3842,
      "Cap": 3843,
      "Dal,": 3844,
      "Dho": 3845,
      "Es": 3846,
      "F)": 3847,
      "Fact": 3848,
      "God": 3849,
      "Gov": 3850,
      "Homo": 3851,
      "Iran": 3852,
      "Kr": 3853,
      "Kar": 3854,
      "Kut": 3855,
      "Me": 3856,
      "Mul": 3857,
      "Map": 3858,
      "Nad": 3859,
      "Nag": 3860,
      "Nav": 3861,
      "Narm": 3862,
      "Odish": 3863,
      "Pa": 3864,
      "Pe": 3865,
      "Proc": 3866,
      "Pubs": 3867,
      "Ra": 3868,
      "Res": 3869,
      "Rus": 3870,
      "Rann": 3871,
      "Sh": 3872,
      "Sat": 3873,
      "Sund": 3874,
      "Stre": 3875,
      "Sindh": 3876,
      "T20": 3877,
      "Tap": 3878,
      "También": 3879,
      "UC": 3880,
      "Utt": 3881,
      "Vindh": 3882,
      "Yam": 3883,
      "[ˈ": 3884,
      "avi": 3885,
      "bʱ": 3886,
      "bli": 3887,
      "cer": 3888,
      "cera": 3889,
      "dó": 3890,
      "dose": 3891,
      "dho": 3892,
      "dham": 3893,
      "eur": 3894,
      "ech": 3895,
      "fas": 3896,
      "fac": 3897,
      "faci": 3898,
      "ger": 3899,
      "gla": 3900,
      "gol": 3901,
      "gil": 3902,
      "hr": 3903,
      "ili,": 3904,
      "ji": 3905,
      "jam": 3906,
      "jati": 3907,
      "kti": 3908,
      "kab": 3909,
      "khar": 3910,
      "lon": 3911,
      "list": 3912,
      "llam": 3913,
      "mpic": 3914,
      "mismo": 3915,
      "nav": 3916,
      "nam,": 3917,
      "ole": 3918,
      "py": 3919,
      "paci": 3920,
      "papel": 3921,
      "rí": 3922,
      "ren": 3923,
      "rum": 3924,
      "rata": 3925,
      "renta": 3926,
      "sar": 3927,
      "sultan": 3928,
      "tos": 3929,
      "tas,": 3930,
      "tele": 3931,
      "ug": 3932,
      "ule": 3933,
      "ual,": 3934,
      "ugu": 3935,
      "vé": 3936,
      "vul": 3937,
      "vac": 3938,
      "vice": 3939,
      "vimiento": 3940,
      "xal": 3941,
      "á'í": 3942,
      "étic": 3943,
      "ñan": 3944,
      "ancia": 3945,
      "inst": 3946,
      "insur": 3947,
      "er.": 3948,
      "eri": 3949,
      "eros": 3950,
      "erry": 3951,
      "eria": 3952,
      "on,": 3953,
      "onkan": 3954,
      "alim": 3955,
      "alber": 3956,
      "algun": 3957,
      "ar.": 3958,
      "arc": 3959,
      "ars": 3960,
      "arā": 3961,
      "aran": 3962,
      "aren": 3963,
      "aras": 3964,
      "arra": 3965,
      "dicl": 3966,
      "divi": 3967,
      "as:": 3968,
      "asim": 3969,
      "aspe": 3970,
      "tienen": 3971,
      "orar": 3972,
      "demarc": 3973,
      "isión": 3974,
      "real": 3975,
      "reve": 3976,
      "repres": 3977,
      "rector": 3978,
      "realiz": 3979,
      "Indias": 3980,
      "at,": 3981,
      "atol": 3982,
      "ingl": 3983,
      "inger": 3984,
      "India\"": 3985,
      "India:": 3986,
      "India;": 3987,
      "lavir": 3988,
      "lagos": 3989,
      "itu": 3990,
      "itan": 3991,
      "itos": 3992,
      "uri": 3993,
      "uras": 3994,
      "elo": 3995,
      "ció": 3996,
      "adha": 3997,
      "uno": 3998,
      "undi": 3999,
      "unque": 4000,
      "lip": 4001,
      "li-d": 4002,
      "condi": 4003,
      "conce": 4004,
      "consu": 4005,
      "concent": 4006,
      "contem": 4007,
      "lev": 4008,
      "ama": 4009,
      "tercera": 4010,
      "pron": 4011,
      "priv": 4012,
      "tect": 4013,
      "semin": 4014,
      "segre": 4015,
      "forme": 4016,
      "estre": 4017,
      "estuvo": 4018,
      "opol": 4019,
      "1900": 4020,
      "sula": 4021,
      "20.": 4022,
      "comb": 4023,
      "coher": 4024,
      "iones": 4025,
      "experi": 4026,
      "expan": 4027,
      "agu": 4028,
      "agore": 4029,
      "rific": 4030,
      "empres": 4031,
      "pet": 4032,
      "clan": 4033,
      "percep": 4034,
      "tuvo": 4035,
      "ateg": 4036,
      "ocup": 4037,
      "etMap": 4038,
      "etnam,": 4039,
      "ongol": 4040,
      "hace": 4041,
      "havir": 4042,
      "hakti": 4043,
      "endra": 4044,
      "udal": 4045,
      "delta": 4046,
      "marin": 4047,
      "ismo,": 4048,
      "genci": 4049,
      "formó": 4050,
      "largo": 4051,
      "oblig": 4052,
      "ari,": 4053,
      "subtropical": 4054,
      "subduc": 4055,
      "2011.": 4056,
      "2017,": 4057,
      "feudal": 4058,
      "alleng": 4059,
      "indic": 4060,
      "2007": 4061,
      "2007,": 4062,
      "1,3": 4063,
      "miti": 4064,
      "pila": 4065,
      "atiya": 4066,
      "mohan": 4067,
      "artes": 4068,
      "tradiciones": 4069,
      "tanto": 4070,
      "cuando": 4071,
      "cuatro": 4072,
      "oge": 4073,
      "avari,": 4074,
      "plic": 4075,
      "ishn": 4076,
      "Laos,": 4077,
      "1998": 4078,
      "1996,": 4079,
      "1998.": 4080,
      "adai,": 4081,
      "1956,": 4082,
      "2021": 4083,
      "2023,": 4084,
      "2024,": 4085,
      "fiel": 4086,
      "Mahan": 4087,
      "Mahat": 4088,
      "Mahavir": 4089,
      "evid": 4090,
      "1962,": 4091,
      "limit": 4092,
      "),​": 4093,
      "musical": 4094,
      "189": 4095,
      "medios": 4096,
      "consiste": 4097,
      "7,6": 4098,
      "tiling": 4099,
      "ogri,": 4100,
      "gui": 4101,
      "partido": 4102,
      "particip": 4103,
      "contrast": 4104,
      "final": 4105,
      "inspir": 4106,
      "amiento": 4107,
      "1980": 4108,
      "1985": 4109,
      "1989,": 4110,
      "braries": 4111,
      "budist": 4112,
      "había": 4113,
      "habían": 4114,
      "tala": 4115,
      "garh": 4116,
      "17.": 4117,
      "1765": 4118,
      "Refer": 4119,
      "carb": 4120,
      "local,": 4121,
      "1977": 4122,
      "1975,": 4123,
      "1972,": 4124,
      "años.​": 4125,
      "Gandhi.": 4126,
      "importante": 4127,
      "BJP,": 4128,
      "dens": 4129,
      "archi": 4130,
      "decor": 4131,
      "divasi": 4132,
      "productiv": 4133,
      "13.": 4134,
      "housie": 4135,
      "Bihar": 4136,
      "Bibli": 4137,
      "Manipur": 4138,
      "Manmohan": 4139,
      "book": 4140,
      "ización": 4141,
      "pura": 4142,
      "Project": 4143,
      "Progres": 4144,
      "Bharatiya": 4145,
      "visit": 4146,
      "30′": 4147,
      "administración": 4148,
      "adi,": 4149,
      "25′": 4150,
      "2500": 4151,
      "423": 4152,
      "multiling": 4153,
      "equi": 4154,
      "payat": 4155,
      "appa,": 4156,
      "durable": 4157,
      "ideas": 4158,
      "coral": 4159,
      "cordi": 4160,
      "repúblic": 4161,
      "Guptas,": 4162,
      "patr": 4163,
      "principalmente": 4164,
      "Críquet": 4165,
      "Estados": 4166,
      "addi,": 4167,
      "actual": 4168,
      "fuerzas": 4169,
      "35°": 4170,
      "Lanka": 4171,
      "simple": 4172,
      "incluyendo": 4173,
      "Vietnam,": 4174,
      "baja": 4175,
      "reserv": 4176,
      "1857.": 4177,
      "1858,": 4178,
      "Nicobar,": 4179,
      "Atlas": 4180,
      "dentro": 4181,
      "hārat": 4182,
      "improvis": 4183,
      "comunidad": 4184,
      "coalición": 4185,
      "literatura": 4186,
      "política": 4187,
      "Organización": 4188,
      "140": 4189,
      "Grad": 4190,
      "tandoor": 4191,
      "tandoori": 4192,
      "hinduismo": 4193,
      "Libraries": 4194,
      "Narasim": 4195,
      "Narendra": 4196,
      "Ramsar": 4197,
      "solo": 4198,
      "latitud": 4199,
      "1935,": 4200,
      "nuevas": 4201,
      "44′": 4202,
      "Araval": 4203,
      "Akbar,": 4204,
      "Dalhousie": 4205,
      "Jharkhand": 4206,
      "Kaveri": 4207,
      "Party": 4208,
      "Territ": 4209,
      "ithili,": 4210,
      "sacrific": 4211,
      "zooge": 4212,
      "encia,": 4213,
      "prominent": 4214,
      "clásica": 4215,
      "Chota": 4216,
      "Chandra": 4217,
      "comerciales": 4218,
      "Brahmaputra,": 4219,
      "Pallavas": 4220,
      "particular,": 4221,
      "ráp": 4222,
      "agríco": 4223,
      "mujeres": 4224,
      "elegido": 4225,
      "Assam": 4226,
      "textiles,": 4227,
      "68°": 4228,
      "Bollywood,": 4229,
      "Calcut": 4230,
      "Director": 4231,
      "Durante": 4232,
      "Harappa,": 4233,
      "OpenStre": 4234,
      "Pandyas": 4235,
      "sapi": 4236,
      "ológic": 4237,
      "grupos": 4238,
      "estatus": 4239,
      "Compañía": 4240,
      "reptiles": 4241,
      "términos": 4242,
      "(NDA),": 4243,
      "1206.": 4244,
      "Academi": 4245,
      "Canad": 4246,
      "Capital": 4247,
      "Dholavir": 4248,
      "Factbook": 4249,
      "Godavari,": 4250,
      "GovPubs": 4251,
      "Krishn": 4252,
      "Kutch": 4253,
      "Mehr": 4254,
      "Nagpur": 4255,
      "Narmada": 4256,
      "Odisha": 4257,
      "Rao,": 4258,
      "Reser": 4259,
      "Satpura": 4260,
      "Sundar": 4261,
      "Tapti,": 4262,
      "Uttar": 4263,
      "Vindhya": 4264,
      "Yamuna": 4265,
      "[ˈbʱ": 4266,
      "dólar": 4267,
      "dhamma": 4268,
      "europe": 4269,
      "facilit": 4270,
      "glaci": 4271,
      "gilli-d": 4272,
      "jamas,": 4273,
      "kabaddi,": 4274,
      "pyjamas,": 4275,
      "insurgenci": 4276,
      "diclof": 4277,
      "lagos:": 4278,
      "concentra": 4279,
      "contempor": 4280,
      "segreg": 4281,
      "Mahanadi,": 4282,
      "Mahatma": 4283,
      "Narasimha": 4284,
      "Directory": 4285,
      "OpenStreetMap": 4286,
      "Mehrgarh": 4287,
      "gilli-danda,": 4288,
      "\"A": 4289,
      "\"G": 4290,
      "\"the": 4291,
      "\"pr": 4292,
      "\"pu": 4293,
      "\"out": 4294,
      "\"national": 4295,
      "\"official": 4296,
      "\"bro": 4297,
      "\"down": 4298,
      "\"Min": 4299,
      "\"untouch": 4300,
      "\"breath": 4301,
      "\"scheduled": 4302,
      "\"river,": 4303,
      "\"associate": 4304,
      "\"India\"": 4305,
      "')": 4306,
      "'E": 4307,
      "'the": 4308,
      "([": 4309,
      "(a": 4310,
      "(s": 4311,
      "(an": 4312,
      "(al": 4313,
      "(or": 4314,
      "(el": 4315,
      "(Indian": 4316,
      "(ca": 4317,
      "(after": 4318,
      "(199": 4319,
      "(liter": 4320,
      "(US$": 4321,
      "(present": 4322,
      "(3,": 4323,
      "(4,": 4324,
      "(400": 4325,
      "(GDP": 4326,
      "(1991": 4327,
      "(Par": 4328,
      "(\".": 4329,
      "(WHO": 4330,
      "(PP": 4331,
      "(2004": 4332,
      "(1967": 4333,
      "(1.3": 4334,
      "(generally,": 4335,
      "(\"breath": 4336,
      "('E": 4337,
      ",6": 4338,
      "-T": 4339,
      "-n": 4340,
      "-la": 4341,
      "-sh": 4342,
      "-urban": 4343,
      "-own": 4344,
      "-origin": 4345,
      "-gener": 4346,
      "-tre": 4347,
      "-century": 4348,
      "-div": 4349,
      "-produc": 4350,
      "-Dem": 4351,
      "-market": 4352,
      "-fast": 4353,
      "-five": 4354,
      "-rich": 4355,
      "-growing": 4356,
      "-weapon": 4357,
      "-elected": 4358,
      "-colonial": 4359,
      "-round": 4360,
      "-president,": 4361,
      "-discrimin": 4362,
      "-Bhangr": 4363,
      "-wing": 4364,
      "-lived": 4365,
      "-force": 4366,
      "-million-": 4367,
      "-specific": 4368,
      "-derived": 4369,
      "-rule,": 4370,
      "-defined": 4371,
      "-castes,": 4372,
      "-borne": 4373,
      "-income": 4374,
      "-existing": 4375,
      "-tier": 4376,
      "-Pol": 4377,
      "-hor": 4378,
      "-rum": 4379,
      "-divi": 4380,
      "-inspir": 4381,
      ".7": 4382,
      ".\")": 4383,
      ".1%.": 4384,
      "0–": 4385,
      "04%": 4386,
      "094": 4387,
      "16%": 4388,
      "15,": 4389,
      "15.": 4390,
      "113": 4391,
      "1%,": 4392,
      "14.": 4393,
      "11%": 4394,
      "12%": 4395,
      "2;": 4396,
      "2),": 4397,
      "26,": 4398,
      "27.": 4399,
      "26.": 4400,
      "24.": 4401,
      "27%": 4402,
      "29,": 4403,
      "2nd": 4404,
      "29%.": 4405,
      "27,6": 4406,
      "32": 4407,
      "34": 4408,
      "31,": 4409,
      "36%": 4410,
      "30.": 4411,
      "30,000": 4412,
      "343": 4413,
      "4th": 4414,
      "41.": 4415,
      "45.": 4416,
      "49.": 4417,
      "428": 4418,
      "43%": 4419,
      "40,000": 4420,
      "4–201": 4421,
      "41%,": 4422,
      "53": 4423,
      "55": 4424,
      "59": 4425,
      "5th": 4426,
      "5%,": 4427,
      "54%": 4428,
      "53%": 4429,
      "50,000": 4430,
      "580": 4431,
      "522": 4432,
      "65.": 4433,
      "63.": 4434,
      "64%": 4435,
      "60%": 4436,
      "7000": 4437,
      "72.": 4438,
      "7%,": 4439,
      "79.": 4440,
      "74.": 4441,
      "70%": 4442,
      "731": 4443,
      "8th": 4444,
      "82.": 4445,
      "81%": 4446,
      "80,000": 4447,
      "82%.": 4448,
      "9th": 4449,
      "93.": 4450,
      "91%": 4451,
      "Ah": 4452,
      "Ak": 4453,
      "Ap": 4454,
      "Aṣ": 4455,
      "Aver": 4456,
      "Amar": 4457,
      "Acr": 4458,
      "Atal": 4459,
      "Aza": 4460,
      "Alig": 4461,
      "Austr": 4462,
      "Aug": 4463,
      "Adivasi": 4464,
      "BB": 4465,
      "Be": 4466,
      "Bh": 4467,
      "Bas": 4468,
      "Bed": 4469,
      "Bhas": 4470,
      "Both": 4471,
      "Bound": 4472,
      "Bah": 4473,
      "Bodo": 4474,
      "Boulder": 4475,
      "Bakh": 4476,
      "Bhakti": 4477,
      "Cl": 4478,
      "Cen": 4479,
      "Cri": 4480,
      "Cha": 4481,
      "Cold": 4482,
      "Credi": 4483,
      "D.": 4484,
      "DN": 4485,
      "Don": 4486,
      "Dic": 4487,
      "Dom": 4488,
      "Dere": 4489,
      "Domin": 4490,
      "Dogri,": 4491,
      "Eigh": 4492,
      "Each": 4493,
      "Evid": 4494,
      "Epic": 4495,
      "Educ": 4496,
      "Fic": 4497,
      "Ful": 4498,
      "Fem": 4499,
      "Fut": 4500,
      "Four": 4501,
      "Fai": 4502,
      "Further": 4503,
      "Gan": 4504,
      "Gar": 4505,
      "Gow": 4506,
      "Gover": 4507,
      "Gold": 4508,
      "H.": 4509,
      "Hy": 4510,
      "Hell": 4511,
      "I.": 4512,
      "IT": 4513,
      "Ire": 4514,
      "Iden": 4515,
      "IUC": 4516,
      "Jus": 4517,
      "Jap": 4518,
      "Jud": 4519,
      "K.": 4520,
      "King": 4521,
      "Kol": 4522,
      "Ksh": 4523,
      "Karn": 4524,
      "Key": 4525,
      "Kannada,": 4526,
      "Konkan": 4527,
      "Kadai,": 4528,
      "Lal": 4529,
      "Lat": 4530,
      "Loc": 4531,
      "Long": 4532,
      "Lati": 4533,
      "Lef": 4534,
      "Mit": 4535,
      "May": 4536,
      "Most": 4537,
      "Meas": 4538,
      "Moder": 4539,
      "Medic": 4540,
      "Morar": 4541,
      "Madha": 4542,
      "Mongol": 4543,
      "Na": 4544,
      "Nain": 4545,
      "Nations": 4546,
      "N-des": 4547,
      "On": 4548,
      "Ox": 4549,
      "Oly": 4550,
      "Py": 4551,
      "Pā": 4552,
      "Pan": 4553,
      "Pud": 4554,
      "Pain": 4555,
      "Phi": 4556,
      "Post": 4557,
      "P),": 4558,
      "Pali": 4559,
      "Pach": 4560,
      "Pash": 4561,
      "Parch": 4562,
      "Pream": 4563,
      "Ri": 4564,
      "Rā": 4565,
      "Ras": 4566,
      "Rom": 4567,
      "Rig": 4568,
      "Rid": 4569,
      "Rev": 4570,
      "Rice": 4571,
      "Ruk": 4572,
      "Rakh": 4573,
      "Sr": 4574,
      "Su": 4575,
      "Sū": 4576,
      "Son": 4577,
      "Sig": 4578,
      "Set": 4579,
      "Sha": 4580,
      "Sind": 4581,
      "Sport": 4582,
      "Shan": 4583,
      "Sange": 4584,
      "Sched": 4585,
      "School": 4586,
      "Soci": 4587,
      "Shal": 4588,
      "Tel": 4589,
      "Tow": 4590,
      "Tig": 4591,
      "Tra": 4592,
      "Tash": 4593,
      "Tai": 4594,
      "Teth": 4595,
      "Trig": 4596,
      "Temper": 4597,
      "Tech": 4598,
      "Uday": 4599,
      "Vir": 4600,
      "VII": 4601,
      "Varā": 4602,
      "V-Dem": 4603,
      "Whe": 4604,
      "Wild": 4605,
      "War,": 4606,
      "When": 4607,
      "Web": 4608,
      "Widespread": 4609,
      "[c": 4610,
      "a—": 4611,
      "athan": 4612,
      "adic": 4613,
      "aún": 4614,
      "ahead": 4615,
      "bur": 4616,
      "best": 4617,
      "bak": 4618,
      "bans": 4619,
      "beng": 4620,
      "blowing": 4621,
      "bust": 4622,
      "bird": 4623,
      "best-": 4624,
      "bhā": 4625,
      "cle": 4626,
      "ctic": 4627,
      "cra": 4628,
      "cum": 4629,
      "city": 4630,
      "cres": 4631,
      "call": 4632,
      "cely": 4633,
      "cro": 4634,
      "cine": 4635,
      "cori": 4636,
      "core": 4637,
      "cence": 4638,
      "cited": 4639,
      "cise": 4640,
      "cele": 4641,
      "cked": 4642,
      "ction.": 4643,
      "city,": 4644,
      "cadas": 4645,
      "cine,": 4646,
      "climate": 4647,
      "cended": 4648,
      "ds": 4649,
      "don": 4650,
      "dol": 4651,
      "dou": 4652,
      "ds,": 4653,
      "date": 4654,
      "dro": 4655,
      "dome": 4656,
      "dled": 4657,
      "drough": 4658,
      "done": 4659,
      "dhan": 4660,
      "dasi": 4661,
      "daw": 4662,
      "dai": 4663,
      "data": 4664,
      "dhy": 4665,
      "dining": 4666,
      "dings": 4667,
      "e;": 4668,
      "e—": 4669,
      "ees": 4670,
      "eat": 4671,
      "eing": 4672,
      "ece": 4673,
      "etic": 4674,
      "eper": 4675,
      "etry": 4676,
      "emente": 4677,
      "each": 4678,
      "eking": 4679,
      "eties": 4680,
      "eets": 4681,
      "f.": 4682,
      "fla": 4683,
      "fel": 4684,
      "foc": 4685,
      "fend": 4686,
      "fts": 4687,
      "flat": 4688,
      "ffer": 4689,
      "fted": 4690,
      "flowing": 4691,
      "free": 4692,
      "ffed": 4693,
      "fell": 4694,
      "foss": 4695,
      "fables,": 4696,
      "fought": 4697,
      "gare": 4698,
      "gap": 4699,
      "gend": 4700,
      "gup": 4701,
      "giv": 4702,
      "gold": 4703,
      "gentr": 4704,
      "gala,": 4705,
      "ginger": 4706,
      "hl": 4707,
      "hâ": 4708,
      "hon": 4709,
      "hic": 4710,
      "hos": 4711,
      "him": 4712,
      "hir": 4713,
      "hap": 4714,
      "hac": 4715,
      "hund": 4716,
      "hear": 4717,
      "hari": 4718,
      "host": 4719,
      "hori": 4720,
      "home": 4721,
      "hour": 4722,
      "hered": 4723,
      "hami": 4724,
      "hold": 4725,
      "hub": 4726,
      "hgala,": 4727,
      "ik": 4728,
      "ied": 4729,
      "ition": 4730,
      "ile": 4731,
      "ially": 4732,
      "ians": 4733,
      "ifer": 4734,
      "itions": 4735,
      "itime": 4736,
      "iente": 4737,
      "ition,": 4738,
      "iendo": 4739,
      "ihood": 4740,
      "ii)": 4741,
      "i-Pol": 4742,
      "jec": 4743,
      "jour": 4744,
      "jured": 4745,
      "jaz": 4746,
      "k;": 4747,
      "ka": 4748,
      "kar": 4749,
      "kent": 4750,
      "kir": 4751,
      "kut": 4752,
      "kne": 4753,
      "kies": 4754,
      "kriti": 4755,
      "kara": 4756,
      "kkim": 4757,
      "ksha": 4758,
      "ler": 4759,
      "len": 4760,
      "lor": 4761,
      "lis": 4762,
      "lop": 4763,
      "les,": 4764,
      "lut": 4765,
      "llev": 4766,
      "my": 4767,
      "mā": 4768,
      "mes": 4769,
      "ming": 4770,
      "mud": 4771,
      "mob": 4772,
      "mass": 4773,
      "might": 4774,
      "mission": 4775,
      "mundial": 4776,
      "morally": 4777,
      "mortal": 4778,
      "melo": 4779,
      "mopol": 4780,
      "n,": 4781,
      "n]": 4782,
      "ndi": 4783,
      "ncre": 4784,
      "nearly": 4785,
      "napp": 4786,
      "native": 4787,
      "ola": 4788,
      "oun": 4789,
      "oist": 4790,
      "ook": 4791,
      "oven": 4792,
      "oung": 4793,
      "ocean": 4794,
      "ot.": 4795,
      "ps": 4796,
      "pli": 4797,
      "pical": 4798,
      "ptem": 4799,
      "pose": 4800,
      "ping,": 4801,
      "pants": 4802,
      "pines,": 4803,
      "panding": 4804,
      "ppayat": 4805,
      "rar": 4806,
      "ring": 4807,
      "rur": 4808,
      "run": 4809,
      "rim": 4810,
      "rion": 4811,
      "rag": 4812,
      "ra,": 4813,
      "res,": 4814,
      "rits": 4815,
      "rical": 4816,
      "rence": 4817,
      "rice": 4818,
      "rank": 4819,
      "rhy": 4820,
      "rush": 4821,
      "rátic": 4822,
      "render": 4823,
      "s\"": 4824,
      "sw": 4825,
      "s—": 4826,
      "sor": 4827,
      "sto": 4828,
      "sci": 4829,
      "spr": 4830,
      "sch": 4831,
      "swi": 4832,
      "spe": 4833,
      "ses,": 4834,
      "same": 4835,
      "stri": 4836,
      "sine": 4837,
      "spo": 4838,
      "sales": 4839,
      "spl": 4840,
      "site": 4841,
      "slowing": 4842,
      "sau": 4843,
      "smen": 4844,
      "scen": 4845,
      "stics": 4846,
      "southeast": 4847,
      "spon": 4848,
      "sung": 4849,
      "spite": 4850,
      "stop": 4851,
      "sandy": 4852,
      "sessed": 4853,
      "sought": 4854,
      "spending": 4855,
      "s')": 4856,
      "skir": 4857,
      "t]": 4858,
      "té": 4859,
      "ton": 4860,
      "tch": 4861,
      "tment": 4862,
      "ts,": 4863,
      "tation": 4864,
      "tab": 4865,
      "tag": 4866,
      "tang": 4867,
      "tend": 4868,
      "tes.": 4869,
      "tta": 4870,
      "tados": 4871,
      "tell": 4872,
      "tling": 4873,
      "tched": 4874,
      "tally.": 4875,
      "tors": 4876,
      "tently": 4877,
      "u;": 4878,
      "ula": 4879,
      "uct": 4880,
      "uous": 4881,
      "uvi": 4882,
      "ubi": 4883,
      "uistic": 4884,
      "ucture": 4885,
      "ught": 4886,
      "vall": 4887,
      "va.": 4888,
      "vene": 4889,
      "vara": 4890,
      "vulture": 4891,
      "vati.": 4892,
      "vasive": 4893,
      "win": 4894,
      "wes": 4895,
      "wat": 4896,
      "wly": 4897,
      "wage": 4898,
      "winter": 4899,
      "wai": 4900,
      "walled": 4901,
      "winning": 4902,
      "wrap": 4903,
      "wala,": 4904,
      "will": 4905,
      "widespread": 4906,
      "wati.": 4907,
      "weri": 4908,
      "xic": 4909,
      "xture": 4910,
      "xide": 4911,
      "xuri": 4912,
      "yī": 4913,
      "yment": 4914,
      "yab": 4915,
      "yog": 4916,
      "yond": 4917,
      "yam,": 4918,
      "ypically": 4919,
      "yards": 4920,
      "yi-Pol": 4921,
      "young": 4922,
      "zed": 4923,
      "zones": 4924,
      "zone": 4925,
      "zero": 4926,
      "°C": 4927,
      "°F)": 4928,
      "Índi": 4929,
      "Ön": 4930,
      "áre": 4931,
      "ámic": 4932,
      "áctic": 4933,
      "ífer": 4934,
      "óme": 4935,
      "üístic": 4936,
      "ādhy": 4937,
      "āyī": 4938,
      "Śul": 4939,
      "ət]": 4940,
      "ɦɪ": 4941,
      "ɾət]": 4942,
      "ʊˈ": 4943,
      "ία": 4944,
      "ς),": 4945,
      "ός),": 4946,
      "ṅga": 4947,
      "ṇa,": 4948,
      "ṇini": 4949,
      "ṭādhy": 4950,
      "–Pakistan": 4951,
      "–400": 4952,
      "–2001": 4953,
      "–Arab": 4954,
      "–35": 4955,
      "–1900": 4956,
      "–29,": 4957,
      "–60%": 4958,
      "–Kadai,": 4959,
      "—to": 4960,
      "—be": 4961,
      "—co": 4962,
      "—so": 4963,
      "—which": 4964,
      "—were": 4965,
      "—such": 4966,
      "—among": 4967,
      "—cooked": 4968,
      "—express": 4969,
      "—passing": 4970,
      "—dates": 4971,
      "—notably": 4972,
      "₹20": 4973,
      "₹23": 4974,
      "an.": 4975,
      "ano": 4976,
      "anistan": 4977,
      "ances,": 4978,
      "anuj": 4979,
      "andise": 4980,
      "antra,": 4981,
      "ancy": 4982,
      "thin": 4983,
      "thus": 4984,
      "thme": 4985,
      "thmic": 4986,
      "thousand": 4987,
      "thagore": 4988,
      "in;": 4989,
      "ined": 4990,
      "inet": 4991,
      "ines.": 4992,
      "incre": 4993,
      "iniv": 4994,
      "ined,": 4995,
      "inations": 4996,
      "internal": 4997,
      "invention": 4998,
      "inici": 4999,
      "insula": 5000,
      "ering": 5001,
      "erly": 5002,
      "er's": 5003,
      "ers.": 5004,
      "erous": 5005,
      "erdo": 5006,
      "erations": 5007,
      "erwan": 5008,
      "erida": 5009,
      "onomy": 5010,
      "onists": 5011,
      "onward": 5012,
      "onmental": 5013,
      "enli": 5014,
      "ense": 5015,
      "encom": 5016,
      "enab": 5017,
      "ens.": 5018,
      "enac": 5019,
      "ences": 5020,
      "enabl": 5021,
      "envir": 5022,
      "enistic": 5023,
      "enna": 5024,
      "es\"": 5025,
      "esans": 5026,
      "escrit": 5027,
      "alo": 5028,
      "alent": 5029,
      "alid": 5030,
      "altern": 5031,
      "allow": 5032,
      "almon": 5033,
      "allowing": 5034,
      "alge": 5035,
      "alised": 5036,
      "alí,": 5037,
      "arp": 5038,
      "ars,": 5039,
      "aration": 5040,
      "arri": 5041,
      "arsh": 5042,
      "ary,": 5043,
      "arts": 5044,
      "arish": 5045,
      "arose": 5046,
      "araj": 5047,
      "arhi,": 5048,
      "arquite": 5049,
      "dira": 5050,
      "difer": 5051,
      "diers,": 5052,
      "divided": 5053,
      "dilian": 5054,
      "así": 5055,
      "asants": 5056,
      "asured": 5057,
      "asaras": 5058,
      "tial": 5059,
      "tied": 5060,
      "tiem": 5061,
      "tierra": 5062,
      "tight": 5063,
      "tiger": 5064,
      "ti-gener": 5065,
      "orism": 5066,
      "orado": 5067,
      "edom": 5068,
      "Inste": 5069,
      "Intel": 5070,
      "anded": 5071,
      "ander,": 5072,
      "de.": 5073,
      "deal": 5074,
      "deem": 5075,
      "depos": 5076,
      "decentral": 5077,
      "deforest": 5078,
      "death": 5079,
      "defeat": 5080,
      "decolon": 5081,
      "deep": 5082,
      "detail": 5083,
      "determin": 5084,
      "ofess": 5085,
      "offer": 5086,
      "is)": 5087,
      "isol": 5088,
      "isak": 5089,
      "isine": 5090,
      "island": 5091,
      "isively": 5092,
      "re\"": 5093,
      "rey": 5094,
      "reen": 5095,
      "requ": 5096,
      "refin": 5097,
      "repower": 5098,
      "rehab": 5099,
      "regar": 5100,
      "recording": 5101,
      "remit": 5102,
      "recomm": 5103,
      "reject": 5104,
      "replaced": 5105,
      "rety.": 5106,
      "reinos": 5107,
      "return": 5108,
      "recourse": 5109,
      "retreat": 5110,
      "reorganised": 5111,
      "re-elected": 5112,
      "retch": 5113,
      "Indio": 5114,
      "ent)": 5115,
      "ent,": 5116,
      "ented": 5117,
      "ents.": 5118,
      "entales": 5119,
      "entered": 5120,
      "entments": 5121,
      "attr": 5122,
      "atop": 5123,
      "atri": 5124,
      "atra": 5125,
      "ates.": 5126,
      "atak": 5127,
      "attra": 5128,
      "atures": 5129,
      "atory": 5130,
      "attain": 5131,
      "ature,": 5132,
      "atypically": 5133,
      "icación": 5134,
      "icken": 5135,
      "iconic": 5136,
      "omically": 5137,
      "omerations": 5138,
      "ingent": 5139,
      "ingest": 5140,
      "inga,": 5141,
      "ingredi": 5142,
      "os;": 5143,
      "osas": 5144,
      "osed": 5145,
      "osely": 5146,
      "osome": 5147,
      "ostitu": 5148,
      "India–Pakistan": 5149,
      "label": 5150,
      "laving": 5151,
      "labour": 5152,
      "laps": 5153,
      "it,": 5154,
      "its,": 5155,
      "itous": 5156,
      "itage": 5157,
      "itely": 5158,
      "urt": 5159,
      "urs.": 5160,
      "urces": 5161,
      "urial": 5162,
      "urred": 5163,
      "uru,": 5164,
      "toad": 5165,
      "todo": 5166,
      "todos": 5167,
      "toward": 5168,
      "todas": 5169,
      "toler": 5170,
      "tours.": 5171,
      "ellos": 5172,
      "ely,": 5173,
      "elite": 5174,
      "elder": 5175,
      "ellate": 5176,
      "elihood": 5177,
      "tioning": 5178,
      "tionately": 5179,
      "tionary,": 5180,
      "cide": 5181,
      "ciary": 5182,
      "cipi": 5183,
      "ciously": 5184,
      "cigare": 5185,
      "administer": 5186,
      "adjo": 5187,
      "adrup": 5188,
      "administrative": 5189,
      "adhered": 5190,
      "unle": 5191,
      "units": 5192,
      "unpre": 5193,
      "uneas": 5194,
      "unión": 5195,
      "untain": 5196,
      "unconstitutional": 5197,
      "unlin": 5198,
      "unrest": 5199,
      "uncil": 5200,
      "unwanted": 5201,
      "undisputed": 5202,
      "unanim": 5203,
      "lie": 5204,
      "lide": 5205,
      "lila": 5206,
      "lique": 5207,
      "like": 5208,
      "ligence": 5209,
      "lidified": 5210,
      "lier.": 5211,
      "trod": 5212,
      "truc": 5213,
      "train": 5214,
      "trous": 5215,
      "trough": 5216,
      "trical": 5217,
      "trine.": 5218,
      "conver": 5219,
      "conqu": 5220,
      "contra": 5221,
      "contiene": 5222,
      "consequent": 5223,
      "contrav": 5224,
      "context": 5225,
      "conifer": 5226,
      "contours.": 5227,
      "leaf": 5228,
      "lexic": 5229,
      "ams": 5230,
      "amma": 5231,
      "ams,": 5232,
      "amtre": 5233,
      "amah": 5234,
      "amples": 5235,
      "uso": 5236,
      "using": 5237,
      "usage": 5238,
      "usively": 5239,
      "ter.": 5240,
      "tery": 5241,
      "tered": 5242,
      "terly": 5243,
      "ters.": 5244,
      "terra": 5245,
      "terculture.": 5246,
      "terrence": 5247,
      "ters')": 5248,
      "prene": 5249,
      "prise": 5250,
      "pride": 5251,
      "práctic": 5252,
      "profess": 5253,
      "chay": 5254,
      "chec": 5255,
      "chta": 5256,
      "chi,": 5257,
      "chose": 5258,
      "charts,": 5259,
      "chronic": 5260,
      "challeng": 5261,
      "chik": 5262,
      "chicken": 5263,
      "Through": 5264,
      "Three": 5265,
      "Thousand": 5266,
      "Thanj": 5267,
      "vering": 5268,
      "verbal": 5269,
      "olished": 5270,
      "olars,": 5271,
      "ul,": 5272,
      "ultry": 5273,
      "ulsing": 5274,
      "ulating": 5275,
      "teed": 5276,
      "tead": 5277,
      "teak": 5278,
      "teach": 5279,
      "tection": 5280,
      "teams,": 5281,
      "ils": 5282,
      "iling": 5283,
      "iline": 5284,
      "illegal": 5285,
      "ilitated": 5286,
      "seen": 5287,
      "seaf": 5288,
      "seas,": 5289,
      "seal,": 5290,
      "seven": 5291,
      "sejo": 5292,
      "seals,": 5293,
      "sealed": 5294,
      "seeking": 5295,
      "seams": 5296,
      "ford": 5297,
      "foray": 5298,
      "forces": 5299,
      "forced": 5300,
      "forba": 5301,
      "beach": 5302,
      "bears": 5303,
      "beyond": 5304,
      "gration": 5305,
      "grid": 5306,
      "grain": 5307,
      "grass": 5308,
      "ground": 5309,
      "gross": 5310,
      "granted": 5311,
      "graz": 5312,
      "gramma": 5313,
      "owded": 5314,
      "est,": 5315,
      "estment": 5316,
      "ests,": 5317,
      "estab": 5318,
      "están": 5319,
      "mative": 5320,
      "opy": 5321,
      "ophi": 5322,
      "opping,": 5323,
      "1920": 5324,
      "193,": 5325,
      "1928": 5326,
      "1935": 5327,
      "1911": 5328,
      "1901": 5329,
      "1921,": 5330,
      "ims": 5331,
      "imum": 5332,
      "immen": 5333,
      "importer": 5334,
      "imitated": 5335,
      "bylon": 5336,
      "Indian,": 5337,
      "Indian-own": 5338,
      "sue": 5339,
      "sukh": 5340,
      "ments,": 5341,
      "mentation": 5342,
      "irt": 5343,
      "iron": 5344,
      "irrig": 5345,
      "irregul": 5346,
      "stup": 5347,
      "stage": 5348,
      "stati": 5349,
      "start": 5350,
      "stable": 5351,
      "stone": 5352,
      "stamp": 5353,
      "story": 5354,
      "staː": 5355,
      "stream": 5356,
      "stretch": 5357,
      "igai": 5358,
      "igarhi,": 5359,
      "20%": 5360,
      "20s.": 5361,
      "2020.": 5362,
      "2030.": 5363,
      "veill": 5364,
      "vehic": 5365,
      "común": 5366,
      "compared": 5367,
      "complic": 5368,
      "ations.": 5369,
      "abad": 5370,
      "abatic": 5371,
      "abad,": 5372,
      "abjured": 5373,
      "abolished": 5374,
      "odated": 5375,
      "id,": 5376,
      "idas": 5377,
      "ided": 5378,
      "idered": 5379,
      "idly,": 5380,
      "idli,": 5381,
      "coales": 5382,
      "covery": 5383,
      "cooperation": 5384,
      "coins.": 5385,
      "codified": 5386,
      "cotton": 5387,
      "cotta": 5388,
      "codilian": 5389,
      "parel": 5390,
      "parity": 5391,
      "parall": 5392,
      "parks": 5393,
      "ional": 5394,
      "ions.": 5395,
      "ionals,": 5396,
      "ct,": 5397,
      "ctly": 5398,
      "ctural": 5399,
      "ctancy": 5400,
      "exe": 5401,
      "expendi": 5402,
      "exceed": 5403,
      "exogam": 5404,
      "exchanged": 5405,
      "excursion": 5406,
      "white": 5407,
      "while": 5408,
      "whims": 5409,
      "tics.": 5410,
      "s.)": 5411,
      "aging": 5412,
      "aggl": 5413,
      "aged.": 5414,
      "agmentation": 5415,
      "quate": 5416,
      "quely": 5417,
      "quistán": 5418,
      "quarter": 5419,
      "quitous": 5420,
      "quadrup": 5421,
      "ri;": 5422,
      "rial": 5423,
      "ried": 5424,
      "riage": 5425,
      "riff": 5426,
      "portra": 5427,
      "em,": 5428,
      "empe": 5429,
      "emits": 5430,
      "emical": 5431,
      "embo": 5432,
      "embro": 5433,
      "sober": 5434,
      "sojour": 5435,
      "sources": 5436,
      "istance": 5437,
      "istently": 5438,
      "peque": 5439,
      "peep": 5440,
      "pees)": 5441,
      "pelagos:": 5442,
      "pehl": 5443,
      "peasants": 5444,
      "claration": 5445,
      "asts": 5446,
      "astal": 5447,
      "anged": 5448,
      "fragmentation": 5449,
      "per,": 5450,
      "perform": 5451,
      "permiti": 5452,
      "perhap": 5453,
      "pervasive": 5454,
      "tually": 5455,
      "tucked": 5456,
      "raw": 5457,
      "rainf": 5458,
      "raising": 5459,
      "raksha": 5460,
      "ate.": 5461,
      "shear": 5462,
      "shali": 5463,
      "shares": 5464,
      "sheets": 5465,
      "shook": 5466,
      "sherwan": 5467,
      "sharp": 5468,
      "shirt": 5469,
      "over,": 5470,
      "overall": 5471,
      "overlaps": 5472,
      "ock": 5473,
      "ocrátic": 5474,
      "sij": 5475,
      "sidel": 5476,
      "sible": 5477,
      "size": 5478,
      "sizes": 5479,
      "losing": 5480,
      "lost.": 5481,
      "area,": 5482,
      "areas,": 5483,
      "aped": 5484,
      "apparel": 5485,
      "acity": 5486,
      "active": 5487,
      "acy.": 5488,
      "actional": 5489,
      "accomm": 5490,
      "accompan": 5491,
      "which,": 5492,
      "antly": 5493,
      "ants,": 5494,
      "anta,": 5495,
      "antaged.": 5496,
      "eta": 5497,
      "ettes.": 5498,
      "centro": 5499,
      "cent-sh": 5500,
      "erness": 5501,
      "ghari": 5502,
      "ghten": 5503,
      "ghanistan": 5504,
      "undale": 5505,
      "utan": 5506,
      "earth.": 5507,
      "endogam": 5508,
      "end—passing": 5509,
      "udo": 5510,
      "udhar": 5511,
      "udra,": 5512,
      "delines.": 5513,
      "ity.": 5514,
      "ayud": 5515,
      "itself": 5516,
      "indo": 5517,
      "meal": 5518,
      "meet": 5519,
      "measures": 5520,
      "meets": 5521,
      "measured": 5522,
      "meter.": 5523,
      "min,": 5524,
      "akening": 5525,
      "ecologically": 5526,
      "ecasts": 5527,
      "mark": 5528,
      "mary": 5529,
      "marma": 5530,
      "marble": 5531,
      "marital": 5532,
      "maritime": 5533,
      "martial": 5534,
      "create": 5535,
      "worship": 5536,
      "ternacional": 5537,
      "geny,": 5538,
      "genetic": 5539,
      "genres,": 5540,
      "form.": 5541,
      "formas": 5542,
      "forms,": 5543,
      "formula": 5544,
      "formerly": 5545,
      "observed": 5546,
      "obstru": 5547,
      "obras": 5548,
      "obsc": 5549,
      "obstruc": 5550,
      "obtuvo": 5551,
      "ari;": 5552,
      "arities": 5553,
      "arippayat": 5554,
      "arithme": 5555,
      "ouse,": 5556,
      "low.": 5557,
      "low;": 5558,
      "lows.": 5559,
      "lowered": 5560,
      "low-income": 5561,
      "lowest,": 5562,
      "noun": 5563,
      "Conven": 5564,
      "Conserv": 5565,
      "Concurrent": 5566,
      "Consejo": 5567,
      "rite": 5568,
      "ritual,": 5569,
      "upon": 5570,
      "upati": 5571,
      "upsur": 5572,
      "tra.": 5573,
      "port.": 5574,
      "ports,": 5575,
      "portant": 5576,
      "portfolio": 5577,
      "norm": 5578,
      "northeast": 5579,
      "noreste": 5580,
      "noroeste": 5581,
      "resolution": 5582,
      "resentments": 5583,
      "resistance": 5584,
      "culus": 5585,
      "affe": 5586,
      "afía": 5587,
      "affec": 5588,
      "beration": 5589,
      "othing": 5590,
      "othly": 5591,
      "Chord": 5592,
      "Chief": 5593,
      "Chronic": 5594,
      "Cheras": 5595,
      "Chrom": 5596,
      "Charan": 5597,
      "Chenna": 5598,
      "content": 5599,
      "still": 5600,
      "stiff": 5601,
      "stiffer": 5602,
      "stitched": 5603,
      "twice": 5604,
      "subdu": 5605,
      "subject": 5606,
      "subdue": 5607,
      "subcaste,": 5608,
      "sub-castes,": 5609,
      "2014": 5610,
      "2010,": 5611,
      "2017.": 5612,
      "2013.": 5613,
      "2018.": 5614,
      "few": 5615,
      "all.": 5616,
      "alling": 5617,
      "alluvi": 5618,
      "indio,": 5619,
      "individ": 5620,
      "age,": 5621,
      "age;": 5622,
      "agement": 5623,
      "ageable": 5624,
      "manism,": 5625,
      "manera": 5626,
      "management": 5627,
      "ighat": 5628,
      "trib": 5629,
      "trial": 5630,
      "triad": 5631,
      "tries.": 5632,
      "tribut": 5633,
      "trition,": 5634,
      "tribes": 5635,
      "temple": 5636,
      "caval": 5637,
      "loor": 5638,
      "loyal": 5639,
      "loosely": 5640,
      "roach": 5641,
      "royal": 5642,
      "root.": 5643,
      "CE)": 5644,
      "CE),": 5645,
      "CE).": 5646,
      "2001.": 5647,
      "2009.": 5648,
      "2008–": 5649,
      "1,21": 5650,
      "1,428": 5651,
      "nition": 5652,
      "nized": 5653,
      "gana": 5654,
      "region,": 5655,
      "regionally": 5656,
      "region-specific": 5657,
      "fires,": 5658,
      "Indos": 5659,
      "north.": 5660,
      "north;": 5661,
      "northwest,": 5662,
      "bias,": 5663,
      "biosphere": 5664,
      "biological": 5665,
      "mixed": 5666,
      "mixture": 5667,
      "ineering": 5668,
      "pivo": 5669,
      "piece": 5670,
      "poetry": 5671,
      "poultry": 5672,
      "atite": 5673,
      "atistic": 5674,
      "places,": 5675,
      "primera": 5676,
      "despite": 5677,
      "desigual": 5678,
      "después": 5679,
      "descended": 5680,
      "destruc": 5681,
      "ado.​": 5682,
      "provis": 5683,
      "proje": 5684,
      "projec": 5685,
      "protag": 5686,
      "government;": 5687,
      "government's": 5688,
      "moved": 5689,
      "moving": 5690,
      "movimiento": 5691,
      "mountain": 5692,
      "year,": 5693,
      "year-round": 5694,
      "orities": 5695,
      "relied": 5696,
      "ture.": 5697,
      "prefer": 5698,
      "preyed": 5699,
      "prehen": 5700,
      "preva": 5701,
      "prepared": 5702,
      "preexisting": 5703,
      "pre-existing": 5704,
      "precise": 5705,
      "turmer": 5706,
      "world,": 5707,
      "worldwide": 5708,
      "merc": 5709,
      "enge": 5710,
      "engineering": 5711,
      "order": 5712,
      "orders": 5713,
      "lating": 5714,
      "lately": 5715,
      "need": 5716,
      "neoli": 5717,
      "neither": 5718,
      "neem,": 5719,
      "Energy": 5720,
      "rupees)": 5721,
      "symbol": 5722,
      "syncre": 5723,
      "ence,": 5724,
      "lation,": 5725,
      "dismin": 5726,
      "disadv": 5727,
      "distric": 5728,
      "disband": 5729,
      "display": 5730,
      "dispropor": 5731,
      "displaced": 5732,
      "displayed": 5733,
      "disrup": 5734,
      "discontent": 5735,
      "pueb": 5736,
      "puestos": 5737,
      "art.": 5738,
      "arts.": 5739,
      "series": 5740,
      "serves": 5741,
      "series.": 5742,
      "banned": 5743,
      "land.": 5744,
      "landed": 5745,
      "landown": 5746,
      "landmas": 5747,
      "landmark": 5748,
      "tances": 5749,
      "tane.": 5750,
      "luxuri": 5751,
      "cuales": 5752,
      "cuffed": 5753,
      "had,": 5754,
      "hadur": 5755,
      "typically": 5756,
      "ty-n": 5757,
      "typical": 5758,
      "ty—express": 5759,
      "learned": 5760,
      "after;": 5761,
      "afterward": 5762,
      "systema": 5763,
      "casi": 5764,
      "cases": 5765,
      "pleated": 5766,
      "pleasures": 5767,
      "avur": 5768,
      "avati,": 5769,
      "avened": 5770,
      "avarsh": 5771,
      "avenge": 5772,
      "elective": 5773,
      "electric": 5774,
      "electrical": 5775,
      "founder": 5776,
      "harsh": 5777,
      "mons": 5778,
      "monary": 5779,
      "monkey": 5780,
      "montane.": 5781,
      "plus": 5782,
      "plann": 5783,
      "plants": 5784,
      "ishing": 5785,
      "ishment": 5786,
      "ishya,": 5787,
      "bled": 5788,
      "blurred": 5789,
      "block": 5790,
      "blouse,": 5791,
      "history": 5792,
      "southwest,": 5793,
      "southwes": 5794,
      "taught": 5795,
      "1990": 5796,
      "1994": 5797,
      "1991.": 5798,
      "1995.": 5799,
      "ational,": 5800,
      "largest,": 5801,
      "largest.": 5802,
      "system's": 5803,
      "ivite": 5804,
      "ivalent": 5805,
      "modern,": 5806,
      "modern-day": 5807,
      "infanti": 5808,
      "inflows.": 5809,
      "Hindu,": 5810,
      "Hindu-majority": 5811,
      "Hindu–Arab": 5812,
      "moreover,": 5813,
      "urban;": 5814,
      "urbana": 5815,
      "minister;": 5816,
      "devadas": 5817,
      "devdasi": 5818,
      "strain": 5819,
      "strident": 5820,
      "string,": 5821,
      "strung": 5822,
      "stress.": 5823,
      "stressed": 5824,
      "strateg": 5825,
      "little": 5826,
      "long.": 5827,
      "longest-": 5828,
      "longitu": 5829,
      "numerous": 5830,
      "war,": 5831,
      "war.": 5832,
      "wars.": 5833,
      "warmer": 5834,
      "South,": 5835,
      "pancak": 5836,
      "panchay": 5837,
      "increase": 5838,
      "1957,": 5839,
      "2024": 5840,
      "2026": 5841,
      "2026.": 5842,
      "2024.": 5843,
      "tradition.": 5844,
      "traditions,": 5845,
      "Congress's": 5846,
      "Congress\")": 5847,
      "gió": 5848,
      "giant": 5849,
      "fixed": 5850,
      "firepower": 5851,
      "Mathema": 5852,
      "Mahā": 5853,
      "Maithili,": 5854,
      "Maoist": 5855,
      "cricket": 5856,
      "críquet": 5857,
      "crowded": 5858,
      "cropping,": 5859,
      "Embra": 5860,
      "Empir": 5861,
      "Until": 5862,
      "Under": 5863,
      "Untouch": 5864,
      "grown": 5865,
      "growing,": 5866,
      "counted": 5867,
      "council": 5868,
      "country.": 5869,
      "countries": 5870,
      "counterculture.": 5871,
      "countries.": 5872,
      "under,": 5873,
      "underwent": 5874,
      "under-five": 5875,
      "underskir": 5876,
      "underground": 5877,
      "evolved": 5878,
      "evolving": 5879,
      "1967,": 5880,
      "1962.": 5881,
      "1966,": 5882,
      "1964,": 5883,
      "1962;": 5884,
      "1964–201": 5885,
      "0,193,": 5886,
      "surround": 5887,
      "surpassing": 5888,
      "surveill": 5889,
      "istan,": 5890,
      "BCE)": 5891,
      "BCE;": 5892,
      "BCE),": 5893,
      "signing": 5894,
      "thought,": 5895,
      "mainland": 5896,
      "mainstream": 5897,
      "output": 5898,
      "outside": 5899,
      "outpost": 5900,
      "classes.": 5901,
      "economic,": 5902,
      "economics.": 5903,
      "economically": 5904,
      "included": 5905,
      "included.": 5906,
      "caste.": 5907,
      "o-economic": 5908,
      "o-pastoral": 5909,
      "sustain": 5910,
      "suspending": 5911,
      "legacy.": 5912,
      "ologic": 5913,
      "Any": 5914,
      "Anand": 5915,
      "Art,": 5916,
      "Ardhan": 5917,
      "Aryab": 5918,
      "Arundale": 5919,
      "paid": 5920,
      "paved": 5921,
      "paper,": 5922,
      "1.4": 5923,
      "1.5": 5924,
      "1.6%": 5925,
      "1.7%": 5926,
      "1.24": 5927,
      "Comprehen": 5928,
      "subcontinent.": 5929,
      "subcontinent's": 5930,
      "must": 5931,
      "roughly": 5932,
      "ure-la": 5933,
      "isation,": 5934,
      "life;": 5935,
      "life-force": 5936,
      "population.": 5937,
      "number,": 5938,
      "Empire,": 5939,
      "Empire);": 5940,
      "British,": 5941,
      "18,": 5942,
      "18%,": 5943,
      "18.1%.": 5944,
      "1820s.": 5945,
      "median": 5946,
      "medicine,": 5947,
      "meditation": 5948,
      "conspic": 5949,
      "consciously": 5950,
      "consistently": 5951,
      "basin": 5952,
      "basin.": 5953,
      "basis.": 5954,
      "basin,": 5955,
      "cedented": 5956,
      "kho,": 5957,
      "possessed": 5958,
      "6%,": 5959,
      "dance,": 5960,
      "dance.": 5961,
      "humped": 5962,
      "humid,": 5963,
      "began,": 5964,
      "began.": 5965,
      "suppress": 5966,
      "Pakistan's": 5967,
      "7,517": 5968,
      "peninsula": 5969,
      "tils,": 5970,
      "tiva": 5971,
      "tives": 5972,
      "tively": 5973,
      "militants": 5974,
      "militares": 5975,
      "Almost": 5976,
      "Ellor": 5977,
      "cold": 5978,
      "collar": 5979,
      "collabor": 5980,
      "collis": 5981,
      "guerra": 5982,
      "setback": 5983,
      "settled": 5984,
      "settling": 5985,
      "parties": 5986,
      "partition": 5987,
      "parties.": 5988,
      "partitioned": 5989,
      "Afghanistan": 5990,
      "agro-pastoral": 5991,
      "effec": 5992,
      "nuclear-weapon": 5993,
      "polling": 5994,
      "pollut": 5995,
      "powers": 5996,
      "weight": 5997,
      "weakening": 5998,
      "rivers": 5999,
      "river-borne": 6000,
      "Asia's": 6001,
      "Asiatic": 6002,
      "Asia—dates": 6003,
      "later.": 6004,
      "critical": 6005,
      "critically": 6006,
      "ambitions": 6007,
      "partner": 6008,
      "heavi": 6009,
      "án,": 6010,
      "Bengal,": 6011,
      "one's": 6012,
      "territory": 6013,
      "Newly": 6014,
      "achie": 6015,
      "canon": 6016,
      "canalled": 6017,
      "canals,": 6018,
      "canopy": 6019,
      "derabad": 6020,
      "finely": 6021,
      "finitely": 6022,
      "son,": 6023,
      "son:": 6024,
      "there.": 6025,
      "thereby": 6026,
      "elopment": 6027,
      "courts": 6028,
      "court,": 6029,
      "peoples,": 6030,
      "China.": 6031,
      "Chinese": 6032,
      "elections,": 6033,
      "inscrip": 6034,
      "instead": 6035,
      "1946": 6036,
      "1947": 6037,
      "1949": 6038,
      "1947.": 6039,
      "1949.": 6040,
      "ctors": 6041,
      "future": 6042,
      "geologically": 6043,
      "geologic": 6044,
      "han,": 6045,
      "1984": 6046,
      "1985.": 6047,
      "1980.": 6048,
      "1984.": 6049,
      "1988.": 6050,
      "socially": 6051,
      "society": 6052,
      "sociedad": 6053,
      "societies": 6054,
      "socio-economic": 6055,
      "yaṇa,": 6056,
      "Bengal.": 6057,
      "Bengal;": 6058,
      "Bengali,": 6059,
      "Bengaluru,": 6060,
      "Mughals": 6061,
      "5,423": 6062,
      "US$3,": 6063,
      "US$30": 6064,
      "US$42": 6065,
      "US$64": 6066,
      "US$1,3": 6067,
      "US$24.": 6068,
      "bran": 6069,
      "dosa,": 6070,
      "higher": 6071,
      "midriff": 6072,
      "west;": 6073,
      "ennial": 6074,
      "ised,": 6075,
      "constitution)": 6076,
      "constitution,": 6077,
      "state.": 6078,
      "state:": 6079,
      "state's": 6080,
      "work,": 6081,
      "works": 6082,
      "worker": 6083,
      "working": 6084,
      "works,": 6085,
      "culturally": 6086,
      "religion.": 6087,
      "religions,": 6088,
      "religions.": 6089,
      "newly": 6090,
      "develop.": 6091,
      "developing": 6092,
      "developed,": 6093,
      "people,": 6094,
      "people.": 6095,
      "author": 6096,
      "buff": 6097,
      "herbal": 6098,
      "herds": 6099,
      "heritage": 6100,
      "habla": 6101,
      "talkies": 6102,
      "ignated": 6103,
      "2.5": 6104,
      "2.3%": 6105,
      "2.9%": 6106,
      "5.24": 6107,
      "Punjabi": 6108,
      "Punjabi,": 6109,
      "faith": 6110,
      "mentioned": 6111,
      "menudo": 6112,
      "emerge": 6113,
      "emerging": 6114,
      "emerged,": 6115,
      "Centred": 6116,
      "curtail": 6117,
      "garments": 6118,
      "garment,": 6119,
      "garment.": 6120,
      "directions": 6121,
      "directiv": 6122,
      "direction.": 6123,
      "directors": 6124,
      "leads": 6125,
      "leader": 6126,
      "centralised,": 6127,
      "origins,": 6128,
      "originated": 6129,
      "17)": 6130,
      "172": 6131,
      "2,094": 6132,
      "Music": 6133,
      "non-economic": 6134,
      "non-Muslim": 6135,
      "non-European": 6136,
      "non-traditional": 6137,
      "throughout": 6138,
      "them,": 6139,
      "asiátic": 6140,
      "officially": 6141,
      "forests": 6142,
      "vement.": 6143,
      "vement;": 6144,
      "others.": 6145,
      "Indus;": 6146,
      "Industries": 6147,
      "Indus'.": 6148,
      "served,": 6149,
      "musics": 6150,
      "musicians": 6151,
      "Europe,": 6152,
      "Sanskrit)": 6153,
      "Sanskrit.": 6154,
      "millennium,": 6155,
      "millennium.": 6156,
      "Rebellion": 6157,
      "Reorganisation": 6158,
      "Repúblic": 6159,
      "Report.": 6160,
      "cardam": 6161,
      "carry": 6162,
      "carrion": 6163,
      "carried": 6164,
      "old.": 6165,
      "generic": 6166,
      "generation": 6167,
      "generate": 6168,
      "generally": 6169,
      "agricult": 6170,
      "controlar": 6171,
      "controlled": 6172,
      "Islands": 6173,
      "athes": 6174,
      "dry": 6175,
      "dress": 6176,
      "dry,": 6177,
      "locations": 6178,
      "rural-urban": 6179,
      "elements": 6180,
      "transmission": 6181,
      "transactional": 6182,
      "translating": 6183,
      "choice": 6184,
      "choli,": 6185,
      "1974": 6186,
      "1975": 6187,
      "1970–": 6188,
      "Indo-Islamic": 6189,
      "Indo-Austr": 6190,
      "humanos": 6191,
      "Sikkim": 6192,
      "yani,": 6193,
      "proper": 6194,
      "proposed": 6195,
      "politics": 6196,
      "Gandhi,": 6197,
      "Gandhian": 6198,
      "0.7": 6199,
      "0.4%": 6200,
      "0.7%": 6201,
      "day.": 6202,
      "eastward": 6203,
      "farther": 6204,
      "faraw": 6205,
      "kingly": 6206,
      "trees": 6207,
      "annexe": 6208,
      "indefinitely": 6209,
      "ampli": 6210,
      "mathematics.": 6211,
      "widely,": 6212,
      "culture,": 6213,
      "culture;": 6214,
      "culture—to": 6215,
      "majority.": 6216,
      "influences,": 6217,
      "cription": 6218,
      "billion.": 6219,
      "Muslims": 6220,
      "Muslims,": 6221,
      "Muslim-majority": 6222,
      "rocked": 6223,
      "invasive": 6224,
      "invalid": 6225,
      "investment": 6226,
      "dicos": 6227,
      "demand,": 6228,
      "industry,": 6229,
      "industry.": 6230,
      "See": 6231,
      "Septem": 6232,
      "mittently": 6233,
      "varied,": 6234,
      "variations": 6235,
      "variety": 6236,
      "princes": 6237,
      "princes,": 6238,
      "princely": 6239,
      "principi": 6240,
      "denomin": 6241,
      "den\".": 6242,
      "dom,": 6243,
      "keep": 6244,
      "decisions": 6245,
      "decisively": 6246,
      "decennial": 6247,
      "popular.": 6248,
      "populares": 6249,
      "popularity": 6250,
      "Amrits": 6251,
      "East,": 6252,
      "Jain.": 6253,
      "Jains,": 6254,
      "Jainism.": 6255,
      "Plate,": 6256,
      "capped": 6257,
      "capability": 6258,
      "capacity": 6259,
      "lasting": 6260,
      "nological": 6261,
      "nología": 6262,
      "divisions": 6263,
      "producer": 6264,
      "production": 6265,
      "producer,": 6266,
      "coast;": 6267,
      "coasts": 6268,
      "coasts.": 6269,
      "party;": 6270,
      "exporting": 6271,
      "economy;": 6272,
      "featuring": 6273,
      "plain,": 6274,
      "plain.": 6275,
      "plainly": 6276,
      "plains.": 6277,
      "found,": 6278,
      "founded": 6279,
      "founding": 6280,
      "foundation": 6281,
      "foundations": 6282,
      "greatly": 6283,
      "growth.": 6284,
      "Company's": 6285,
      "Company—so": 6286,
      "following,": 6287,
      "following:": 6288,
      "courtesans": 6289,
      "religious-": 6290,
      "Sikh,": 6291,
      "Sikhism": 6292,
      "Sikhism,": 6293,
      "Sikhism.": 6294,
      "women,": 6295,
      "Desai": 6296,
      "Desert": 6297,
      "Despite": 6298,
      "Después": 6299,
      "+": 6300,
      "|": 6301,
      "ँ": 6302,
      "ं": 6303,
      "ः": 6304,
      "अ": 6305,
      "आ": 6306,
      "इ": 6307,
      "ई": 6308,
      "उ": 6309,
      "ऊ": 6310,
      "ऋ": 6311,
      "ए": 6312,
      "ऐ": 6313,
      "ऑ": 6314,
      "ओ": 6315,
      "औ": 6316,
      "क": 6317,
      "ख": 6318,
      "घ": 6319,
      "च": 6320,
      "छ": 6321,
      "झ": 6322,
      "ञ": 6323,
      "ट": 6324,
      "ठ": 6325,
      "ड": 6326,
      "ढ": 6327,
      "थ": 6328,
      "द": 6329,
      "ध": 6330,
      "न": 6331,
      "प": 6332,
      "फ": 6333,
      "ब": 6334,
      "म": 6335,
      "ल": 6336,
      "व": 6337,
      "श": 6338,
      "ष": 6339,
      "स": 6340,
      "ह": 6341,
      "़": 6342,
      "ि": 6343,
      "ी": 6344,
      "ु": 6345,
      "ू": 6346,
      "ृ": 6347,
      "े": 6348,
      "ै": 6349,
      "ॉ": 6350,
      "ो": 6351,
      "ौ": 6352,
      "।": 6353,
      "०": 6354,
      "१": 6355,
      "२": 6356,
      "३": 6357,
      "४": 6358,
      "५": 6359,
      "६": 6360,
      "७": 6361,
      "८": 6362,
      "९": 6363,
      "॰": 6364,
      "‌": 6365,
      "‍": 6366,
      "“": 6367,
      "”": 6368,
      "†": 6369,
      "ार": 6370,
      "्र": 6371,
      "के": 6372,
      "ें": 6373,
      "में": 6374,
      "है": 6375,
      "्य": 6376,
      "भार": 6377,
      "भारत": 6378,
      "का": 6379,
      "र्": 6380,
      "या": 6381,
      "ों": 6382,
      "की": 6383,
      "और": 6384,
      "से": 6385,
      "स्": 6386,
      "प्र": 6387,
      "ने": 6388,
      "रा": 6389,
      "ना": 6390,
      "िक": 6391,
      "क्": 6392,
      "ता": 6393,
      "है।": 6394,
      "वि": 6395,
      "था": 6396,
      "मा": 6397,
      "ीय": 6398,
      "िया": 6399,
      "सा": 6400,
      "न्": 6401,
      "पर": 6402,
      "सं": 6403,
      "कर": 6404,
      "ति": 6405,
      "क्ष": 6406,
      "त्र": 6407,
      "को": 6408,
      "भा": 6409,
      "हैं": 6410,
      "जा": 6411,
      "हु": 6412,
      "राज": 6413,
      "वा": 6414,
      "दे": 6415,
      "हा": 6416,
      "ड़": 6417,
      "कार": 6418,
      "त्": 6419,
      "िय": 6420,
      "पा": 6421,
      "ित": 6422,
      "ला": 6423,
      "भारतीय": 6424,
      "भी": 6425,
      "ान": 6426,
      "कि": 6427,
      "देश": 6428,
      "नि": 6429,
      "सम": 6430,
      "्या": 6431,
      "हैं।": 6432,
      "द्": 6433,
      "शा": 6434,
      "तथा": 6435,
      "ली": 6436,
      "ंग": 6437,
      "इस": 6438,
      "तर": 6439,
      "्ट": 6440,
      "एक": 6441,
      "वर्": 6442,
      "हि": 6443,
      "ती": 6444,
      "दी": 6445,
      "हो": 6446,
      "राज्य": 6447,
      "बा": 6448,
      "मि": 6449,
      "जि": 6450,
      "ते": 6451,
      "रू": 6452,
      "पू": 6453,
      "मु": 6454,
      "श्": 6455,
      "र्व": 6456,
      "जन": 6457,
      "षा": 6458,
      "किया": 6459,
      "नी": 6460,
      "सर": 6461,
      "ंत्र": 6462,
      "तक": 6463,
      "ही": 6464,
      "अन": 6465,
      "द्र": 6466,
      "धिक": 6467,
      "ची": 6468,
      "ले": 6469,
      "स्था": 6470,
      "ंध": 6471,
      "िण": 6472,
      "लि": 6473,
      "ष्ट": 6474,
      "१९": 6475,
      "साथ": 6476,
      "धान": 6477,
      "प्": 6478,
      "यु": 6479,
      "मान": 6480,
      "भाषा": 6481,
      "उत्": 6482,
      "दो": 6483,
      "दक्ष": 6484,
      "ोग": 6485,
      "क्षे": 6486,
      "शास": 6487,
      "दक्षिण": 6488,
      "री": 6489,
      "हिन्": 6490,
      "सरकार": 6491,
      "ओं": 6492,
      "गया": 6493,
      "जी": 6494,
      "वी": 6495,
      "्रे": 6496,
      "र्म": 6497,
      "बाद": 6498,
      "क्षेत्र": 6499,
      "यह": 6500,
      "रूप": 6501,
      "ढ़": 6502,
      "कृ": 6503,
      "बसे": 6504,
      "सबसे": 6505,
      "प्रा": 6506,
      "जिस": 6507,
      "दि": 6508,
      "बहु": 6509,
      "मुख": 6510,
      "पु": 6511,
      "ष्ट्र": 6512,
      "अप": 6513,
      "सि": 6514,
      "सी": 6515,
      "ंग्रे": 6516,
      "वर्ष": 6517,
      "जो": 6518,
      "बंध": 6519,
      "सार": 6520,
      "है,": 6521,
      "स्व": 6522,
      "द्ध": 6523,
      "पूर्व": 6524,
      "धर्म": 6525,
      "्रा": 6526,
      "र्थ": 6527,
      "स्त": 6528,
      "राष्ट्र": 6529,
      "अधिक": 6530,
      "थी": 6531,
      "दिया": 6532,
      "पार": 6533,
      "मी": 6534,
      "लग": 6535,
      "सद": 6536,
      "माण": 6537,
      "मिल": 6538,
      "श्व": 6539,
      "शासन": 6540,
      "ंड": 6541,
      "बी": 6542,
      "रे": 6543,
      "ल्": 6544,
      "नाम": 6545,
      "विश्व": 6546,
      "साम": 6547,
      "चीन": 6548,
      "कु": 6549,
      "बना": 6550,
      "लो": 6551,
      "प्त": 6552,
      "उत्तर": 6553,
      "चु": 6554,
      "तु": 6555,
      "बड़": 6556,
      "स्ता": 6557,
      "हुआ": 6558,
      "हुई": 6559,
      "निर्": 6560,
      "अनु": 6561,
      "चि": 6562,
      "ज़": 6563,
      "ध्य": 6564,
      "भू": 6565,
      "म्": 6566,
      "मंत्र": 6567,
      "वार": 6568,
      "व्य": 6569,
      "ैन": 6570,
      "ोड़": 6571,
      "००": 6572,
      "सेना": 6573,
      "जाता": 6574,
      "हिन्दी": 6575,
      "ंद्र": 6576,
      "दा": 6577,
      "लय": 6578,
      "काल": 6579,
      "स्कृ": 6580,
      "देशों": 6581,
      "समय": 6582,
      "गा": 6583,
      "तिक": 6584,
      "बढ़": 6585,
      "महा": 6586,
      "रि": 6587,
      "रु": 6588,
      "वं": 6589,
      "ष्": 6590,
      "केंद्र": 6591,
      "स्थ": 6592,
      "नाव": 6593,
      "राज्यों": 6594,
      "हीं": 6595,
      "उप": 6596,
      "एश": 6597,
      "क्र": 6598,
      "खा": 6599,
      "टि": 6600,
      "टे": 6601,
      "दान": 6602,
      "वे": 6603,
      "प्रमुख": 6604,
      "संघ": 6605,
      "ियों": 6606,
      "अन्य": 6607,
      "लिए": 6608,
      "स्तान": 6609,
      "चा": 6610,
      "त्य": 6611,
      "नों": 6612,
      "सैन": 6613,
      "ारी": 6614,
      "क्त": 6615,
      "हैं,": 6616,
      "जाति": 6617,
      "अन्": 6618,
      "आध": 6619,
      "इन": 6620,
      "गर": 6621,
      "च्": 6622,
      "ज्य": 6623,
      "दश": 6624,
      "द्य": 6625,
      "पश्": 6626,
      "ब्": 6627,
      "रहा": 6628,
      "शु": 6629,
      "समा": 6630,
      "था।": 6631,
      "संस्कृ": 6632,
      "करने": 6633,
      "िये": 6634,
      "ंगा": 6635,
      "पश्चि": 6636,
      "अम": 6637,
      "अंग्रे": 6638,
      "कई": 6639,
      "गी": 6640,
      "णा": 6641,
      "तंत्र": 6642,
      "नहीं": 6643,
      "पह": 6644,
      "मन": 6645,
      "मै": 6646,
      "मध्य": 6647,
      "योग": 6648,
      "सू": 6649,
      "हर": 6650,
      "्री": 6651,
      "विधान": 6652,
      "हुए": 6653,
      "कारण": 6654,
      "त्व": 6655,
      "पाकि": 6656,
      "इसके": 6657,
      "होता": 6658,
      "प्राचीन": 6659,
      "चुनाव": 6660,
      "अनुसार": 6661,
      "व्यव": 6662,
      "एशिया": 6663,
      "पाकिस्तान": 6664,
      "कॉ": 6665,
      "गण": 6666,
      "गु": 6667,
      "धी": 6668,
      "न्या": 6669,
      "मो": 6670,
      "प्रति": 6671,
      "प्रधान": 6672,
      "क्ति": 6673,
      "न्ह": 6674,
      "संविधान": 6675,
      "करोड़": 6676,
      "क्षा": 6677,
      "ड़ा": 6678,
      "द्वार": 6679,
      "भाषाओं": 6680,
      "गया।": 6681,
      "्राज्य": 6682,
      "साम्राज्य": 6683,
      "लोक": 6684,
      "भूमि": 6685,
      "मंत्री": 6686,
      "दशक": 6687,
      "ख्या": 6688,
      "गठ": 6689,
      "चल": 6690,
      "ब्र": 6691,
      "यू": 6692,
      "रह": 6693,
      "न्न": 6694,
      "संबंध": 6695,
      "सम्": 6696,
      "पूर्": 6697,
      "किया।": 6698,
      "हिन्द": 6699,
      "ंग्रेस": 6700,
      "स्वतंत्र": 6701,
      "राष्ट्रीय": 6702,
      "पार्ट": 6703,
      "बीच": 6704,
      "मैदान": 6705,
      "चुनावों": 6706,
      "व्यवस्था": 6707,
      "द्वारा": 6708,
      "आर्थ": 6709,
      "ई।": 6710,
      "उन": 6711,
      "टी": 6712,
      "ण्": 6713,
      "तृ": 6714,
      "धि": 6715,
      "पी": 6716,
      "फ़": 6717,
      "बर": 6718,
      "बे": 6719,
      "मत": 6720,
      "रो": 6721,
      "लों": 6722,
      "में,": 6723,
      "स्ट": 6724,
      "प्रदेश": 6725,
      "नेतृ": 6726,
      "विका": 6727,
      "विस्त": 6728,
      "संख्या": 6729,
      "जाती": 6730,
      "द्वी": 6731,
      "धिकार": 6732,
      "स्थान": 6733,
      "बहुत": 6734,
      "थी।": 6735,
      "निर्माण": 6736,
      "सैन्य": 6737,
      "द्योग": 6738,
      "कॉंग्रेस": 6739,
      "आर्थिक": 6740,
      "द्वीप": 6741,
      "ंप": 6742,
      "अर": 6743,
      "अव": 6744,
      "कर्": 6745,
      "चार": 6746,
      "जब": 6747,
      "दर": 6748,
      "पर्व": 6749,
      "बन": 6750,
      "लर": 6751,
      "लिया": 6752,
      "शे": 6753,
      "ोष": 6754,
      "्यों": 6755,
      "स्त्र": 6756,
      "परमाण": 6757,
      "कार्य": 6758,
      "जनजाति": 6759,
      "स्थाप": 6760,
      "वीं": 6761,
      "हुआ।": 6762,
      "च्च": 6763,
      "पश्चिम": 6764,
      "गणराज्य": 6765,
      "न्याया": 6766,
      "प्रधानमंत्री": 6767,
      "पूर्ण": 6768,
      "परमाणु": 6769,
      "ंति": 6770,
      "ईसा": 6771,
      "ओर": 6772,
      "गति": 6773,
      "पे": 6774,
      "बो": 6775,
      "भग": 6776,
      "रक्षा": 6777,
      "लिये": 6778,
      "शन": 6779,
      "शी": 6780,
      "शता": 6781,
      "सक": 6782,
      "सह": 6783,
      "सभा": 6784,
      "२००": 6785,
      "ार्": 6786,
      "न्द्र": 6787,
      "न्तु": 6788,
      "संसद": 6789,
      "भाग": 6790,
      "भाज": 6791,
      "हाला": 6792,
      "निर": 6793,
      "१९९": 6794,
      "युद्ध": 6795,
      "क्षेत्रीय": 6796,
      "प्राप्त": 6797,
      "जिसमें": 6798,
      "मुख्य": 6799,
      "वर्षों": 6800,
      "ब्दी": 6801,
      "समाज": 6802,
      "पहले": 6803,
      "धीरे": 6804,
      "ब्रि": 6805,
      "ण्ड": 6806,
      "नेतृत्व": 6807,
      "विकास": 6808,
      "अरब": 6809,
      "शेष": 6810,
      "शताब्दी": 6811,
      "इंड": 6812,
      "एँ": 6813,
      "एवं": 6814,
      "गंगा": 6815,
      "थे": 6816,
      "दल": 6817,
      "दर्": 6818,
      "निक": 6819,
      "पै": 6820,
      "मू": 6821,
      "मौ": 6822,
      "लन": 6823,
      "लोग": 6824,
      "व्या": 6825,
      "स,": 6826,
      "सु": 6827,
      "हरी": 6828,
      "साल": 6829,
      "राजनी": 6830,
      "वायु": 6831,
      "देख": 6832,
      "हाँ": 6833,
      "ड़ी": 6834,
      "निभा": 6835,
      "वर्त": 6836,
      "जिन": 6837,
      "जनसंख्या": 6838,
      "प्ले": 6839,
      "युक्त": 6840,
      "दोनों": 6841,
      "अपने": 6842,
      "बंधन": 6843,
      "लगभग": 6844,
      "सदस": 6845,
      "कुछ": 6846,
      "कुल": 6847,
      "म्भ": 6848,
      "स्थित": 6849,
      "टिश": 6850,
      "अन्त": 6851,
      "संस्कृति": 6852,
      "न्हें": 6853,
      "भूमिका": 6854,
      "स्वतंत्रता": 6855,
      "ब्रिटिश": 6856,
      "ँच": 6857,
      "ँकि": 6858,
      "अप्र": 6859,
      "अर्थ": 6860,
      "अलग": 6861,
      "आधिकार": 6862,
      "घोष": 6863,
      "जल": 6864,
      "डी": 6865,
      "डॉ": 6866,
      "त्या": 6867,
      "तमिल": 6868,
      "थिय": 6869,
      "निय": 6870,
      "पं": 6871,
      "पड़": 6872,
      "बने": 6873,
      "बनी": 6874,
      "ये": 6875,
      "लं": 6876,
      "वल": 6877,
      "विक": 6878,
      "शि": 6879,
      "शक्ति": 6880,
      "सित": 6881,
      "हथिय": 6882,
      "ुनिक": 6883,
      "ृत": 6884,
      "२०": 6885,
      "ारम्भ": 6886,
      "केन्द्र": 6887,
      "काम": 6888,
      "सेवा": 6889,
      "स्तर": 6890,
      "प्रभा": 6891,
      "प्रकार": 6892,
      "प्रारम्भ": 6893,
      "िक्": 6894,
      "विदेश": 6895,
      "था,": 6896,
      "मालय": 6897,
      "ियाँ": 6898,
      "परंप": 6899,
      "संयुक्त": 6900,
      "करना": 6901,
      "जाते": 6902,
      "इसी": 6903,
      "वर्ग": 6904,
      "हिमालय": 6905,
      "दोलन": 6906,
      "शासित": 6907,
      "अपनी": 6908,
      "बड़ा": 6909,
      "ज़ी": 6910,
      "आधुनिक": 6911,
      "अमे": 6912,
      "गठबंधन": 6913,
      "रहे": 6914,
      "पार्टी": 6915,
      "न्यायालय": 6916,
      "भाजपा": 6917,
      "हालाँकि": 6918,
      "मूल": 6919,
      "प्लेट": 6920,
      "आधिकारिक": 6921,
      "हथियार": 6922,
      "परंपरा": 6923,
      "ंक": 6924,
      "अफ": 6925,
      "आं": 6926,
      "आग": 6927,
      "उस": 6928,
      "ऊँ": 6929,
      "एं": 6930,
      "कह": 6931,
      "गए": 6932,
      "गत": 6933,
      "ग्र": 6934,
      "जै": 6935,
      "डा": 6936,
      "णी": 6937,
      "तो": 6938,
      "दृ": 6939,
      "पहा": 6940,
      "फल": 6941,
      "बै": 6942,
      "बार": 6943,
      "भर": 6944,
      "भि": 6945,
      "म,": 6946,
      "यों": 6947,
      "वन": 6948,
      "वै": 6949,
      "वरी": 6950,
      "सत": 6951,
      "सो": 6952,
      "सर्व": 6953,
      "ृद्ध": 6954,
      "ैली": 6955,
      "१८": 6956,
      "्यता": 6957,
      "की।": 6958,
      "विज": 6959,
      "करण": 6960,
      "तिहा": 6961,
      "वाद": 6962,
      "वादी": 6963,
      "ियन": 6964,
      "पालि": 6965,
      "लावा": 6966,
      "किन्तु": 6967,
      "शांति": 6968,
      "ली,": 6969,
      "लीन": 6970,
      "वर्ण": 6971,
      "होती": 6972,
      "जनता": 6973,
      "ंधी": 6974,
      "१९७": 6975,
      "१९८": 6976,
      "युग": 6977,
      "जिसके": 6978,
      "बहुमत": 6979,
      "बड़ी": 6980,
      "बड़े": 6981,
      "गांधी": 6982,
      "महाद्वीप": 6983,
      "वंश": 6984,
      "शुरू": 6985,
      "संस्कृत": 6986,
      "अंग्रेजी": 6987,
      "विस्तृत": 6988,
      "कर्ज": 6989,
      "पर्वत": 6990,
      "शील": 6991,
      "सहयोग": 6992,
      "डॉलर": 6993,
      "विदेशी": 6994,
      "अमेरि": 6995,
      "पालिका": 6996,
      "ंह": 6997,
      "ं।": 6998,
      "अब": 6999,
      "अभी": 7000,
      "अधि": 7001,
      "आया": 7002,
      "आन्": 7003,
      "आदि": 7004,
      "इं": 7005,
      "इस्": 7006,
      "उद्योग": 7007,
      "ऋतु": 7008,
      "कम": 7009,
      "कटि": 7010,
      "गो": 7011,
      "चे": 7012,
      "जू": 7013,
      "जरा": 7014,
      "जलो": 7015,
      "टन": 7016,
      "तः": 7017,
      "तन": 7018,
      "दू": 7019,
      "नव": 7020,
      "नगर": 7021,
      "पि": 7022,
      "पीय": 7023,
      "भरा": 7024,
      "र्य": 7025,
      "रिक": 7026,
      "लु": 7027,
      "शत": 7028,
      "श्री": 7029,
      "सफल": 7030,
      "हन": 7031,
      "हार": 7032,
      "हरा": 7033,
      "िम": 7034,
      "िकी": 7035,
      "ैल": 7036,
      "ोसी": 7037,
      "ोच्च": 7038,
      "२.": 7039,
      "केवल": 7040,
      "र्ष": 7041,
      "यास": 7042,
      "प्रयास": 7043,
      "विभि": 7044,
      "विवाद": 7045,
      "माना": 7046,
      "सां": 7047,
      "करता": 7048,
      "जाना": 7049,
      "पाद": 7050,
      "पास": 7051,
      "ला,": 7052,
      "लाख": 7053,
      "समर्थ": 7054,
      "इसकी": 7055,
      "होते": 7056,
      "१९५": 7057,
      "१९६": 7058,
      "उत्पाद": 7059,
      "अपना": 7060,
      "स्वरूप": 7061,
      "अधिकार": 7062,
      "दिया।": 7063,
      "बनाने": 7064,
      "ष्ठ": 7065,
      "ष्ण": 7066,
      "क्रम": 7067,
      "अमरी": 7068,
      "अंग्रेज़ी": 7069,
      "्रीका": 7070,
      "प्रतिशत": 7071,
      "यूरो": 7072,
      "हिन्दू": 7073,
      "जबकि": 7074,
      "स्थापना": 7075,
      "व्यापार": 7076,
      "राजनीतिक": 7077,
      "वर्तमान": 7078,
      "अप्रैल": 7079,
      "अर्थव्यवस्था": 7080,
      "जलवायु": 7081,
      "पड़ोसी": 7082,
      "प्रभाव": 7083,
      "अफ्रीका": 7084,
      "दृष्ट": 7085,
      "सर्वोच्च": 7086,
      "तिहास": 7087,
      "जलोढ़": 7088,
      "विभिन्न": 7089,
      "समर्थन": 7090,
      "यूरोपीय": 7091,
      "अभ": 7092,
      "अलावा": 7093,
      "आत": 7094,
      "इतिहास": 7095,
      "उच्च": 7096,
      "एन": 7097,
      "कर्म": 7098,
      "किये": 7099,
      "गई": 7100,
      "गई।": 7101,
      "घा": 7102,
      "चना": 7103,
      "छो": 7104,
      "छोड़": 7105,
      "जिक": 7106,
      "जहाँ": 7107,
      "ण,": 7108,
      "तट": 7109,
      "तम": 7110,
      "तगा": 7111,
      "दार": 7112,
      "दारी": 7113,
      "धार": 7114,
      "नै": 7115,
      "नौ": 7116,
      "नदिया": 7117,
      "पहु": 7118,
      "फि": 7119,
      "फ्रा": 7120,
      "बौ": 7121,
      "बंगा": 7122,
      "बदल": 7123,
      "मे": 7124,
      "यक": 7125,
      "यत": 7126,
      "र-": 7127,
      "रही": 7128,
      "ल,": 7129,
      "लना": 7130,
      "सल्": 7131,
      "ृत्य": 7132,
      "ौर": 7133,
      "ौद्योग": 7134,
      "्ञ": 7135,
      "०,": 7136,
      "१४": 7137,
      "१५": 7138,
      "२४": 7139,
      "र्तगा": 7140,
      "स्लि": 7141,
      "प्रशासन": 7142,
      "प्रत्य": 7143,
      "प्रचल": 7144,
      "प्रौद्योग": 7145,
      "नेमा": 7146,
      "वियत": 7147,
      "माल": 7148,
      "माध्य": 7149,
      "माजिक": 7150,
      "साह": 7151,
      "सामाजिक": 7152,
      "न्ध": 7153,
      "परी": 7154,
      "परे": 7155,
      "पर्य": 7156,
      "संगी": 7157,
      "क्षर": 7158,
      "कोई": 7159,
      "भाष": 7160,
      "राजधान": 7161,
      "राजनै": 7162,
      "वास": 7163,
      "देव": 7164,
      "देखा": 7165,
      "भील": 7166,
      "्यादा": 7167,
      "तरह": 7168,
      "हिं": 7169,
      "हिस्": 7170,
      "तीस": 7171,
      "तीसर": 7172,
      "बाहरी": 7173,
      "मुस्लि": 7174,
      "जनवरी": 7175,
      "किया,": 7176,
      "ंत्रिक": 7177,
      "चीफ": 7178,
      "मानसू": 7179,
      "भाषाएँ": 7180,
      "सरकारें": 7181,
      "जीत": 7182,
      "कृष": 7183,
      "जिसका": 7184,
      "दिल्": 7185,
      "पुरा": 7186,
      "पुर्तगा": 7187,
      "सिंह": 7188,
      "सिनेमा": 7189,
      "पूर्वी": 7190,
      "लगा": 7191,
      "मिलियन": 7192,
      "हुई।": 7193,
      "बढ़कर": 7194,
      "स्थि": 7195,
      "उपमहाद्वीप": 7196,
      "वेश": 7197,
      "संघीय": 7198,
      "संघर्ष": 7199,
      "सैनिक": 7200,
      "अन्तर": 7201,
      "आधार": 7202,
      "शुरु": 7203,
      "समाप्त": 7204,
      "पश्चिमी": 7205,
      "गुप्त": 7206,
      "विस्तार": 7207,
      "पेक्ष": 7208,
      "निरपेक्ष": 7209,
      "इंडिया": 7210,
      "थे।": 7211,
      "लोगों": 7212,
      "निभाई": 7213,
      "घोषणा": 7214,
      "पंजा": 7215,
      "विकसित": 7216,
      "उसके": 7217,
      "कहते": 7218,
      "जैसे": 7219,
      "अमेरिका": 7220,
      "आन्दोलन": 7221,
      "जून": 7222,
      "तनत": 7223,
      "1971": 7224,
      "दृष्टि": 7225,
      "अभिया": 7226,
      "छोटे": 7227,
      "नदियाँ": 7228,
      "सल्तनत": 7229,
      "प्रौद्योगिकी": 7230,
      "माध्यम": 7231,
      "संगीत": 7232,
      "राजधानी": 7233,
      "राजनैतिक": 7234,
      "मुस्लिम": 7235,
      "मानसून": 7236,
      ",000": 7237,
      "ंट": 7238,
      "अग": 7239,
      "अने": 7240,
      "अति": 7241,
      "अल्": 7242,
      "आज": 7243,
      "आप": 7244,
      "आय": 7245,
      "आस": 7246,
      "इसे": 7247,
      "ई,": 7248,
      "उसे": 7249,
      "उन्हें": 7250,
      "उष्ण": 7251,
      "एव": 7252,
      "कप": 7253,
      "कश्": 7254,
      "क्यों": 7255,
      "चो": 7256,
      "चित": 7257,
      "जट": 7258,
      "जों": 7259,
      "जमा": 7260,
      "टक": 7261,
      "टल": 7262,
      "टा": 7263,
      "ढा": 7264,
      "तीय": 7265,
      "तनाव": 7266,
      "दु": 7267,
      "दों": 7268,
      "न,": 7269,
      "पत्": 7270,
      "फा": 7271,
      "फैली": 7272,
      "बि": 7273,
      "बजट": 7274,
      "भु": 7275,
      "भ्यता": 7276,
      "मार्": 7277,
      "मस्वरूप": 7278,
      "यि": 7279,
      "यहाँ": 7280,
      "रख": 7281,
      "रल": 7282,
      "लै": 7283,
      "लौ": 7284,
      "लड़ा": 7285,
      "शहर": 7286,
      "शस्त्र": 7287,
      "शहरी": 7288,
      "शिक्": 7289,
      "सन्": 7290,
      "सहा": 7291,
      "सक्र": 7292,
      "सभ्यता": 7293,
      "हॉ": 7294,
      "ामस्वरूप": 7295,
      "ेक": 7296,
      "ेक्षा": 7297,
      "&": 7298,
      "^": 7299,
      "ం": 7300,
      "ః": 7301,
      "అ": 7302,
      "ఆ": 7303,
      "ఇ": 7304,
      "ఈ": 7305,
      "ఉ": 7306,
      "ఋ": 7307,
      "ఎ": 7308,
      "ఏ": 7309,
      "ఐ": 7310,
      "ఒ": 7311,
      "ఓ": 7312,
      "ఔ": 7313,
      "క": 7314,
      "ఖ": 7315,
      "గ": 7316,
      "ఘ": 7317,
      "చ": 7318,
      "ఛ": 7319,
      "జ": 7320,
      "ఞ": 7321,
      "ట": 7322,
      "ఠ": 7323,
      "డ": 7324,
      "ఢ": 7325,
      "ణ": 7326,
      "త": 7327,
      "థ": 7328,
      "ద": 7329,
      "ధ": 7330,
      "న": 7331,
      "ప": 7332,
      "ఫ": 7333,
      "బ": 7334,
      "భ": 7335,
      "మ": 7336,
      "య": 7337,
      "ర": 7338,
      "ల": 7339,
      "ళ": 7340,
      "వ": 7341,
      "శ": 7342,
      "ష": 7343,
      "స": 7344,
      "హ": 7345,
      "ా": 7346,
      "ి": 7347,
      "ీ": 7348,
      "ు": 7349,
      "ూ": 7350,
      "ృ": 7351,
      "ె": 7352,
      "ే": 7353,
      "ై": 7354,
      "ొ": 7355,
      "ో": 7356,
      "ౌ": 7357,
      "్": 7358,
      "్ర": 7359,
      "ార": 7360,
      "లు": 7361,
      "లో": 7362,
      "స్": 7363,
      "్య": 7364,
      "న్": 7365,
      "ది": 7366,
      "దే": 7367,
      "ప్ర": 7368,
      "ిం": 7369,
      "దేశ": 7370,
      "ాల": 7371,
      "ిక": 7372,
      "ర్": 7373,
      "భార": 7374,
      "భారత": 7375,
      "న్న": 7376,
      "ాలు": 7377,
      "గా": 7378,
      "ది.": 7379,
      "కు": 7380,
      "ని": 7381,
      "వి": 7382,
      "ాయ": 7383,
      "క్": 7384,
      "ాత": 7385,
      "దేశం": 7386,
      "ాన": 7387,
      "రా": 7388,
      "్ట": 7389,
      "ను": 7390,
      "ండ": 7391,
      "ము": 7392,
      "ీయ": 7393,
      "ద్": 7394,
      "ిన": 7395,
      "త్": 7396,
      "తి": 7397,
      "ల్": 7398,
      "స్త": 7399,
      "ించ": 7400,
      "ంత": 7401,
      "రి": 7402,
      "సం": 7403,
      "రు": 7404,
      "పు": 7405,
      "ులు": 7406,
      "స్థ": 7407,
      "ంట": 7408,
      "ింది.": 7409,
      "ాయి": 7410,
      "భారతదేశం": 7411,
      "ంలో": 7412,
      "భా": 7413,
      "ైన": 7414,
      "ంగ": 7415,
      "ూడ": 7416,
      "ాయి.": 7417,
      "ంగా": 7418,
      "ంది.": 7419,
      "ధిక": 7420,
      "వా": 7421,
      "సా": 7422,
      "క్ష": 7423,
      "ఉన్న": 7424,
      "పా": 7425,
      "ారు": 7426,
      "టి": 7427,
      "ార్": 7428,
      "ిత": 7429,
      "్చ": 7430,
      "ం,": 7431,
      "ష్ట": 7432,
      "కూడ": 7433,
      "జాత": 7434,
      "ప్రా": 7435,
      "రాజ": 7436,
      "కో": 7437,
      "క్ర": 7438,
      "కా": 7439,
      "చ్చ": 7440,
      "ట్ట": 7441,
      "నే": 7442,
      "మొ": 7443,
      "ంచ": 7444,
      "దు": 7445,
      "పే": 7446,
      "మా": 7447,
      "యా": 7448,
      "భారతీయ": 7449,
      "నా": 7450,
      "రై": 7451,
      "లి": 7452,
      "వ్య": 7453,
      "సి": 7454,
      "్ల": 7455,
      "త్వ": 7456,
      "తర": 7457,
      "వాత": 7458,
      "రాష్ట": 7459,
      "ారు.": 7460,
      "జాతీయ": 7461,
      "రాష్ట్ర": 7462,
      "గు": 7463,
      "తో": 7464,
      "వచ్చ": 7465,
      "ికి": 7466,
      "ద్ధ": 7467,
      "ల్ల": 7468,
      "అధిక": 7469,
      "కొ": 7470,
      "ఖ్య": 7471,
      "డు": 7472,
      "పాల": 7473,
      "మైన": 7474,
      "వే": 7475,
      "భారతదేశ": 7476,
      "ాలు,": 7477,
      "ంత్ర": 7478,
      "ఒక": 7479,
      "కాల": 7480,
      "డి": 7481,
      "ణా": 7482,
      "ద్ర": 7483,
      "మార్": 7484,
      "ండి": 7485,
      "ఉంది.": 7486,
      "చే": 7487,
      "తం": 7488,
      "ధ్య": 7489,
      "శా": 7490,
      "్‌": 7491,
      "ింద": 7492,
      "దేశాల": 7493,
      "ులు,": 7494,
      "వ్యవ": 7495,
      "ంది": 7496,
      "ఎన్న": 7497,
      "కి": 7498,
      "టు": 7499,
      "పార": 7500,
      "పంచ": 7501,
      "ాబ": 7502,
      "ాన్": 7503,
      "న్ని": 7504,
      "భారతదేశంలో": 7505,
      "ఉన్నాయి.": 7506,
      "చె": 7507,
      "డ్": 7508,
      "ధాన": 7509,
      "పె": 7510,
      "ిన్న": 7511,
      "ీ,": 7512,
      "ెండ": 7513,
      "ర్వ": 7514,
      "మార్గ": 7515,
      "వ్యవస్థ": 7516,
      "ంబ": 7517,
      "కృ": 7518,
      "కే": 7519,
      "కార": 7520,
      "తు": 7521,
      "దా": 7522,
      "మత": 7523,
      "హింద": 7524,
      "ానికి": 7525,
      "స్తు": 7526,
      "కూడా": 7527,
      "మొద": 7528,
      "అధికార": 7529,
      "కర": 7530,
      "ట్": 7531,
      "త్ర": 7532,
      "త్య": 7533,
      "దక్ష": 7534,
      "పర": 7535,
      "పరి": 7536,
      "మీ": 7537,
      "మే": 7538,
      "మధ్య": 7539,
      "వర": 7540,
      "సు": 7541,
      "ి,": 7542,
      "ప్రపంచ": 7543,
      "ప్రధాన": 7544,
      "ద్ద": 7545,
      "స్థాన": 7546,
      "భాష": 7547,
      "ప్రాంత": 7548,
      "రాజ్య": 7549,
      "పేరు": 7550,
      "రైలు": 7551,
      "దాయ": 7552,
      "ప్": 7553,
      "వార": 7554,
      "వర్": 7555,
      "సభ": 7556,
      "క్కు": 7557,
      "ాత్ర": 7558,
      "దేశంలో": 7559,
      "క్రీ": 7560,
      "పార్ట": 7561,
      "దక్షి": 7562,
      "అయ": 7563,
      "ఆర్": 7564,
      "జనా": 7565,
      "నాలు": 7566,
      "భు": 7567,
      "రో": 7568,
      "రెండ": 7569,
      "లం": 7570,
      "లా": 7571,
      "వె": 7572,
      "ప్రజ": 7573,
      "ప్రభు": 7574,
      "ించింది.": 7575,
      "హిందూ": 7576,
      "ంద్ర": 7577,
      "ఇతర": 7578,
      "తా": 7579,
      "తరు": 7580,
      "పూ": 7581,
      "పో": 7582,
      "మన": 7583,
      "మి": 7584,
      "లకు": 7585,
      "వీ": 7586,
      "వు": 7587,
      "శ్ర": 7588,
      "ష్": 7589,
      "ీన": 7590,
      "స్కృ": 7591,
      "ాల్": 7592,
      "ముఖ్య": 7593,
      "స్త్ర": 7594,
      "ించిన": 7595,
      "సాం": 7596,
      "వచ్చింది.": 7597,
      "పెద్ద": 7598,
      "క్కువ": 7599,
      "పార్టీ": 7600,
      "ం.": 7601,
      "అతి": 7602,
      "ఉత్": 7603,
      "ఉంట": 7604,
      "గర": 7605,
      "గి": 7606,
      "గీ": 7607,
      "జరి": 7608,
      "పట్ట": 7609,
      "బడ": 7610,
      "బా": 7611,
      "బె": 7612,
      "బ్ర": 7613,
      "మహ": 7614,
      "లలో": 7615,
      "వంట": 7616,
      "ుకు": 7617,
      "లు,": 7618,
      "్యం": 7619,
      "విధ": 7620,
      "భాగ": 7621,
      "వాణా": 7622,
      "మార్గాలు": 7623,
      "కేంద్ర": 7624,
      "ప్ప": 7625,
      "క్రీడ": 7626,
      "అయిన": 7627,
      "జనాభా": 7628,
      "ప్రభుత్వ": 7629,
      "తరువాత": 7630,
      "అనే": 7631,
      "ఇది": 7632,
      "ఎక్కువ": 7633,
      "ఏర్": 7634,
      "కీయ": 7635,
      "కలి": 7636,
      "గో": 7637,
      "గ్": 7638,
      "గిన": 7639,
      "జన": 7640,
      "టిక": 7641,
      "ణం": 7642,
      "బహ": 7643,
      "మంత్ర": 7644,
      "రవాణా": 7645,
      "లే": 7646,
      "లను": 7647,
      "సిం": 7648,
      "సరి": 7649,
      "ిల్ల": 7650,
      "్రా": 7651,
      "్రె": 7652,
      "ప్రస్తు": 7653,
      "ప్రదాయ": 7654,
      "క్క": 7655,
      "స్తాన్": 7656,
      "ంగ్రె": 7657,
      "సాధ": 7658,
      "పాకి": 7659,
      "రాజకీయ": 7660,
      "కాంగ్రె": 7661,
      "కాలంలో": 7662,
      "ందిన": 7663,
      "ఎన్నో": 7664,
      "ాబ్": 7665,
      "మొదటి": 7666,
      "దక్షిణ": 7667,
      "అత్య": 7668,
      "ఇండి": 7669,
      "ఉప": 7670,
      "క్య": 7671,
      "గల": 7672,
      "చిన్న": 7673,
      "పై": 7674,
      "పతి": 7675,
      "భూ": 7676,
      "మై": 7677,
      "మాన": 7678,
      "యు": 7679,
      "యో": 7680,
      "రంగ": 7681,
      "లతో": 7682,
      "వల": 7683,
      "శ్": 7684,
      "షు": 7685,
      "ా,": 7686,
      "ావర": 7687,
      "ుకో": 7688,
      "ెలు": 7689,
      "్మ": 7690,
      "ప్రతి": 7691,
      "ాలలో": 7692,
      "ాలను": 7693,
      "విస్త": 7694,
      "ండు": 7695,
      "సంస్కృ": 7696,
      "సంగీ": 7697,
      "ంగ్ల": 7698,
      "ిత్ర": 7699,
      "ప్రాచ": 7700,
      "క్రమ": 7701,
      "సిని": 7702,
      "సియా": 7703,
      "శాస్త్ర": 7704,
      "ఆర్ధిక": 7705,
      "సరిహ": 7706,
      "అత్యధిక": 7707,
      "ఇండియా": 7708,
      "ం:": 7709,
      "ంధ": 7710,
      "ఆధ": 7711,
      "కాలు": 7712,
      "గణ": 7713,
      "జ్య": 7714,
      "జాబ": 7715,
      "ట్ల": 7716,
      "ఢిల్ల": 7717,
      "ణి": 7718,
      "తిక": 7719,
      "తంత్ర": 7720,
      "దం": 7721,
      "దార": 7722,
      "ధి": 7723,
      "నె": 7724,
      "నడి": 7725,
      "పించ": 7726,
      "భిన్న": 7727,
      "మె": 7728,
      "మూడ": 7729,
      "మాత్ర": 7730,
      "రహ": 7731,
      "వై": 7732,
      "సౌ": 7733,
      "సము": 7734,
      "సింది.": 7735,
      "సమా": 7736,
      "హార": 7737,
      "ీ;": 7738,
      "ీర్": 7739,
      "స్య": 7740,
      "స్వ": 7741,
      "స్వా": 7742,
      "్యాయ": 7743,
      "ప్రము": 7744,
      "భారత్": 7745,
      "వివిధ": 7746,
      "ద్దు": 7747,
      "ంతో": 7748,
      "సామ": 7749,
      "కోర్": 7750,
      "పేర్": 7751,
      "రాష్ట్రపతి": 7752,
      "ద్ధి": 7753,
      "శాఖ": 7754,
      "డ్డ": 7755,
      "మొదల": 7756,
      "కర్య": 7757,
      "ప్రాంతాలు": 7758,
      "దేశంలోని": 7759,
      "రెండు": 7760,
      "ాల్లో": 7761,
      "ఉత్తర": 7762,
      "పట్టణ": 7763,
      "బెంగ": 7764,
      "బ్రి": 7765,
      "ప్పటిక": 7766,
      "ఏర్ప": 7767,
      "బహు": 7768,
      "మంత్రి": 7769,
      "సింధ": 7770,
      "సరిహద్దు": 7771,
      "సౌకర్య": 7772,
      "ప్రముఖ": 7773,
      "ంద": 7774,
      "ందు": 7775,
      "అభ": 7776,
      "అను": 7777,
      "కళ": 7778,
      "కల్": 7779,
      "గే": 7780,
      "గలు": 7781,
      "గంగా": 7782,
      "చార": 7783,
      "చరి": 7784,
      "చైన": 7785,
      "టీ": 7786,
      "టె": 7787,
      "తన": 7788,
      "తూ": 7789,
      "తమి": 7790,
      "తాబ్": 7791,
      "థిక": 7792,
      "నీ": 7793,
      "నగర": 7794,
      "పత": 7795,
      "పొ": 7796,
      "పద్ధ": 7797,
      "పండు": 7798,
      "మర": 7799,
      "మ్య": 7800,
      "రూ": 7801,
      "ళ్ల": 7802,
      "వడ": 7803,
      "వహ": 7804,
      "వృ": 7805,
      "వత్": 7806,
      "శతాబ్": 7807,
      "సర": 7808,
      "సై": 7809,
      "సార": 7810,
      "సర్వ": 7811,
      "ిమ": 7812,
      "ు.": 7813,
      "ుంది.": 7814,
      "లు.": 7815,
      "స్వాత": 7816,
      "ాలతో": 7817,
      "న్నాయి.": 7818,
      "గా,": 7819,
      "నిర్వ": 7820,
      "నుక": 7821,
      "నుండి": 7822,
      "త్తం": 7823,
      "ల్వే": 7824,
      "సంఖ్య": 7825,
      "ితా": 7826,
      "కూడిన": 7827,
      "మొత్తం": 7828,
      "రైల్వే": 7829,
      "వాతావర": 7830,
      "పాలన": 7831,
      "భారతదేశానికి": 7832,
      "ఒకటి": 7833,
      "చేయ": 7834,
      "దేశాలలో": 7835,
      "తున్న": 7836,
      "అధికారిక": 7837,
      "ట్లు": 7838,
      "ప్రపంచంలో": 7839,
      "వెబ": 7840,
      "ప్రజా": 7841,
      "జరిగిన": 7842,
      "వంటి": 7843,
      "అనేక": 7844,
      "ఎక్కువగా": 7845,
      "ప్రస్తుతం": 7846,
      "కాంగ్రెసు": 7847,
      "ప్రాచీన": 7848,
      "జాబితా": 7849,
      "దారులు,": 7850,
      "నడిపించ": 7851,
      "సముద్ర": 7852,
      "అభి": 7853,
      "చరిత్ర": 7854,
      "తమిళ": 7855,
      "స్వాతంత్ర": 7856,
      "నిర్వహ": 7857,
      "వాతావరణం": 7858,
      "1-": 7859,
      "అని": 7860,
      "ఆఫ": 7861,
      "ఇవ": 7862,
      "కం": 7863,
      "కల": 7864,
      "ఖండ": 7865,
      "చి": 7866,
      "జి": 7867,
      "జన్": 7868,
      "టం": 7869,
      "టా": 7870,
      "డే": 7871,
      "ణంగా": 7872,
      "దన": 7873,
      "దీ": 7874,
      "ద్య": 7875,
      "నాయ": 7876,
      "న్యాయ": 7877,
      "పం": 7878,
      "పద": 7879,
      "పశ": 7880,
      "పక్ష": 7881,
      "పాత్ర": 7882,
      "మల": 7883,
      "మలు": 7884,
      "మించ": 7885,
      "మ్మ": 7886,
      "రే": 7887,
      "ర్య": 7888,
      "రకాల": 7889,
      "లక్ష": 7890,
      "వరి": 7891,
      "సూ": 7892,
      "హా": 7893,
      "ిల్": 7894,
      "ిస్త": 7895,
      "ుల": 7896,
      "ెల": 7897,
      "ోర": 7898,
      "లోక్": 7899,
      "స్,": 7900,
      "స్లా": 7901,
      "ప్రకార": 7902,
      "ాలకు": 7903,
      "ిక,": 7904,
      "ికత": 7905,
      "ిక్": 7906,
      "కుల": 7907,
      "కుంట": 7908,
      "కుటు": 7909,
      "నిర్": 7910,
      "వి.": 7911,
      "ాయు": 7912,
      "రాస్య": 7913,
      "ము.": 7914,
      "ములో": 7915,
      "ముంబ": 7916,
      "ద్వీ": 7917,
      "తి,": 7918,
      "ల్లో": 7919,
      "సంఘ": 7920,
      "సంప్రదాయ": 7921,
      "సంవత్": 7922,
      "పుట్ట": 7923,
      "స్థాన్": 7924,
      "ంటే": 7925,
      "క్షరాస్య": 7926,
      "పాక్": 7927,
      "టిలో": 7928,
      "ంచి": 7929,
      "రైళ్ల": 7930,
      "రాష్ట్రాల": 7931,
      "రాష్ట్రాలు": 7932,
      "వచ్చిన": 7933,
      "కొన్ని": 7934,
      "పాలిత": 7935,
      "వేగంగా": 7936,
      "భారతదేశపు": 7937,
      "ణాసియా": 7938,
      "భారతదేశంలోని": 7939,
      "చెందిన": 7940,
      "డ్డు": 7941,
      "వ్యవస్థలో": 7942,
      "కార్య": 7943,
      "కరణ": 7944,
      "పరంగా": 7945,
      "పరిశ్ర": 7946,
      "మేన": 7947,
      "ప్రధానమంత్రి": 7948,
      "స్థానంలో": 7949,
      "రాజ్యాలు": 7950,
      "వారస": 7951,
      "సభ్య": 7952,
      "ఆర్థిక": 7953,
      "రోడ్డు": 7954,
      "పూ.": 7955,
      "ముఖ్యమైన": 7956,
      "సాంప్రదాయ": 7957,
      "ఉంటాయి.": 7958,
      "బాద్": 7959,
      "భాగం": 7960,
      "కేంద్రపాలిత": 7961,
      "సాధించ": 7962,
      "పాకిస్తాన్": 7963,
      "పాకిస్థాన్": 7964,
      "దక్షిణాన": 7965,
      "పైగా": 7966,
      "సంస్కృతి": 7967,
      "సంగీతం": 7968,
      "సినిమా": 7969,
      "ఆధార": 7970,
      "ఢిల్లీ": 7971,
      "మూడు": 7972,
      "మాత్రం": 7973,
      "రహదారులు,": 7974,
      "స్వతంత్ర": 7975,
      "స్వామ్య": 7976,
      "సామ్రా": 7977,
      "బెంగాల": 7978,
      "బ్రిటి": 7979,
      "శతాబ్దం": 7980,
      "సర్వీ": 7981,
      "అభివృ": 7982,
      "ఆఫ్": 7983,
      "పశ్చ": 7984,
      "కుటుంబ": 7985,
      "క్షరాస్యత": 7986,
      "(వె": 7987,
      ".పూ.": 7988,
      "40": 7989,
      "BN": 7990,
      "IS": 7991,
      "ంభ": 7992,
      "అహ": 7993,
      "అవి": 7994,
      "ఆక్రమ": 7995,
      "ఆహార": 7996,
      "ఇవి": 7997,
      "ఇంగ్ల": 7998,
      "ఇస్లా": 7999,
      "ఉండ": 8000,
      "కథ": 8001,
      "కూ": 8002,
      "కన్న": 8003,
      "కత్వ": 8004,
      "కింద": 8005,
      "కీర్": 8006,
      "చన": 8007,
      "చు": 8008,
      "చాల": 8009,
      "చిత్ర": 8010,
      "జాలు": 8011,
      "జరు": 8012,
      "జంబ": 8013,
      "టే": 8014,
      "టై": 8015,
      "టర్": 8016,
      "డిన": 8017,
      "తల": 8018,
      "తె": 8019,
      "తే": 8020,
      "తము": 8021,
      "తులు": 8022,
      "తంలో": 8023,
      "తెలు": 8024,
      "దర": 8025,
      "నది": 8026,
      "పీ": 8027,
      "పార్": 8028,
      "బి": 8029,
      "బంగ్ల": 8030,
      "బంధ": 8031,
      "బడ్డ": 8032,
      "భర": 8033,
      "భౌ": 8034,
      "మూ": 8035,
      "మౌ": 8036,
      "మాలు": 8037,
      "మతి": 8038,
      "మారు": 8039,
      "మంది": 8040,
      "యాలు": 8041,
      "లె": 8042,
      "లిం": 8043,
      "ళ్": 8044,
      "ళిక": 8045,
      "వల్ల": 8046,
      "వలం": 8047,
      "శెల": 8048,
      "సమ": 8049,
      "సహ": 8050,
      "సే": 8051,
      "స్ర": 8052,
      "సులు": 8053,
      "సైన": 8054,
      "సార్": 8055,
      "హై": 8056,
      "హిమ": 8057,
      "ాదేశ": 8058,
      "ాంగ": 8059,
      "ాపార": 8060,
      "ిగా": 8061,
      "ీర": 8062,
      "ీలు": 8063,
      "ుకొ": 8064,
      "ూప": 8065,
      "ూరు": 8066,
      "ెట్": 8067,
      "ే,": 8068,
      "్,": 8069,
      "్వ": 8070,
      "ారంభ": 8071,
      "లోయ": 8072,
      "్యా": 8073,
      "దిన": 8074,
      "దినాలు": 8075,
      "ప్రారంభ": 8076,
      "దేశపు": 8077,
      "దేశానికి": 8078,
      "ాలయ": 8079,
      "ాలనే": 8080,
      "ాలెండ": 8081,
      "ర్,": 8082,
      "ర్త": 8083,
      "ర్ష": 8084,
      "ర్‌": 8085,
      "న్నది.": 8086,
      "న్నారు.": 8087,
      "ాలు.": 8088,
      "గాంధ": 8089,
      "కులు": 8090,
      "నిస్తాన్": 8091,
      "విధ్య": 8092,
      "విభిన్న": 8093,
      "విద్య": 8094,
      "ాతో": 8095,
      "దేశంగా": 8096,
      "నుంచి": 8097,
      "ద్వార": 8098,
      "త్వా": 8099,
      "త్తా": 8100,
      "తిగా": 8101,
      "ించే": 8102,
      "ించి,": 8103,
      "సంకీర్": 8104,
      "సంబంధ": 8105,
      "పురు": 8106,
      "స్థి": 8107,
      "ంటు": 8108,
      "వాహ": 8109,
      "వాణి": 8110,
      "ఉన్నారు.": 8111,
      "పాటు": 8112,
      "పాదన": 8113,
      "కూడుకు": 8114,
      "కోల్": 8115,
      "కాశ్": 8116,
      "ట్టమొదటి": 8117,
      "నేపాల": 8118,
      "మొట్టమొదటి": 8119,
      "మాబాద్": 8120,
      "నాగర": 8121,
      "లిచ": 8122,
      "వ్యాపార": 8123,
      "గువ": 8124,
      "గుర్త": 8125,
      "వచ్చు.": 8126,
      "ద్ధం": 8127,
      "పాలించ": 8128,
      "మైనది.": 8129,
      "ఒకే": 8130,
      "చేసింది.": 8131,
      "్‌సై": 8132,
      "ఎన్నిక": 8133,
      "పెనీ": 8134,
      "కేవలం": 8135,
      "కారణంగా": 8136,
      "తుంది.": 8137,
      "దాపు": 8138,
      "దాదాపు": 8139,
      "భాషలు": 8140,
      "రాజ్యాంగ": 8141,
      "వర్గ": 8142,
      "వర్ణ": 8143,
      "దక్షిణాసియా": 8144,
      "నాలుగు": 8145,
      "ప్రజల": 8146,
      "హిందూదేశం": 8147,
      "పూర్వ": 8148,
      "వీటిలో": 8149,
      "శ్రీ": 8150,
      "ష్ణ": 8151,
      "స్కృతిక": 8152,
      "సాంస్కృతిక": 8153,
      "ఉంటుంది.": 8154,
      "బడత": 8155,
      "బడిన": 8156,
      "మహా": 8157,
      "ుకుంట": 8158,
      "క్రీడలు": 8159,
      "ప్రభుత్వం": 8160,
      "తరువాతి": 8161,
      "కలిసి": 8162,
      "కలిగి": 8163,
      "జనగణ": 8164,
      "లేదా": 8165,
      "ఉపఖండ": 8166,
      "క్యాలెండ": 8167,
      "లతో,": 8168,
      "ుకోవడ": 8169,
      "ప్రతిపాదన": 8170,
      "ిత్రక": 8171,
      "శాస్త్రీయ": 8172,
      "శాస్త్రం,": 8173,
      "వైవిధ్య": 8174,
      "సమాఖ్య": 8175,
      "కోర్ట": 8176,
      "కోర్టు": 8177,
      "పేర్లు": 8178,
      "పేర్కొ": 8179,
      "మొదలైన": 8180,
      "ప్పటికీ,": 8181,
      "ఏర్పడ్డ": 8182,
      "బహుళ": 8183,
      "సింధు": 8184,
      "చారిత్రక": 8185,
      "పతకాలు": 8186,
      "పొందిన": 8187,
      "పద్ధతి": 8188,
      "నుకటి": 8189,
      "వెబ్‌సై": 8190,
      "ప్రజాస్వామ్య": 8191,
      "స్వాతంత్ర్య": 8192,
      "నిర్వహణ": 8193,
      "కంపెనీ": 8194,
      "జన్మ": 8195,
      "ప్రకారం": 8196,
      "ముంబై": 8197,
      "ద్వీప": 8198,
      "సంప్రదాయాలు": 8199,
      "సంవత్సర": 8200,
      "రైళ్లను": 8201,
      "కార్యక్రమ": 8202,
      "పరిశ్రమలు": 8203,
      "వారసత్వ": 8204,
      "సాంప్రదాయిక": 8205,
      "సామ్రాజ్య": 8206,
      "బెంగాలీ": 8207,
      "సర్వీసులు": 8208,
      "అభివృద్ధి": 8209,
      "ఆఫ్ఘ": 8210,
      "(వెనుకటి": 8211,
      "ISBN": 8212,
      "ఇస్లామాబాద్": 8213,
      "కన్నడ": 8214,
      "చాలా": 8215,
      "జరుపు": 8216,
      "జంబూ": 8217,
      "తెలుగు": 8218,
      "పీఠ": 8219,
      "బంగ్లాదేశ": 8220,
      "ళ్ళ": 8221,
      "శెలవు": 8222,
      "హిమాలయ": 8223,
      "గాంధీ": 8224,
      "ద్వారా": 8225,
      "త్వాన్ని": 8226,
      "వాణిజ్య": 8227,
      "కాశ్మీ": 8228,
      "నాగరికత": 8229,
      "క్యాలెండర్": 8230,
      "వెబ్‌సైటు": 8231,
      "\"భర": 8232,
      "(0": 8233,
      ",0": 8234,
      "-0": 8235,
      "-లా": 8236,
      "-ఢిల్లీ": 8237,
      ".3": 8238,
      "0%),": 8239,
      "1లో": 8240,
      "29": 8241,
      "46": 8242,
      "56": 8243,
      "5-0": 8244,
      "62": 8245,
      "7/": 8246,
      "7లో": 8247,
      "83": 8248,
      "8లో": 8249,
      "CI": 8250,
      "Fac": 8251,
      "nt": 8252,
      "tbo": 8253,
      "unt": 8254,
      "ం;": 8255,
      "ంక": 8256,
      "ంకా": 8257,
      "అణ": 8258,
      "అవ": 8259,
      "అంత": 8260,
      "అంట": 8261,
      "అన్ని": 8262,
      "అప్ప": 8263,
      "అమె": 8264,
      "అక్షరాస్యత": 8265,
      "ఆసియా": 8266,
      "ఇదే": 8267,
      "ఇండ": 8268,
      "ఇక్క": 8269,
      "ఇటీ": 8270,
      "ఈశ": 8271,
      "ఈస్": 8272,
      "ఎడ": 8273,
      "ఎల": 8274,
      "ఏప్ర": 8275,
      "ఐరో": 8276,
      "ఐక్య": 8277,
      "ఒలం": 8278,
      "క,": 8279,
      "కీ": 8280,
      "కలు": 8281,
      "కాత": 8282,
      "కను": 8283,
      "కనుక": 8284,
      "కంటే": 8285,
      "కబడ్డ": 8286,
      "ఖో": 8287,
      "ఖని": 8288,
      "గత": 8289,
      "గ్ర": 8290,
      "గంగ": 8291,
      "గమన": 8292,
      "గ్రా": 8293,
      "గెలు": 8294,
      "చద": 8295,
      "చయ": 8296,
      "చవి": 8297,
      "చూడ": 8298,
      "చించిన": 8299,
      "చుకోవడ": 8300,
      "జల": 8301,
      "జీ": 8302,
      "జో": 8303,
      "జ్": 8304,
      "జమ్మ": 8305,
      "జిక,": 8306,
      "టక": 8307,
      "ట్ర": 8308,
      "టలు": 8309,
      "టన్": 8310,
      "ట్‌": 8311,
      "టాన్": 8312,
      "టోర": 8313,
      "డైన": 8314,
      "ఢా": 8315,
      "ణులు": 8316,
      "తర్": 8317,
      "తను": 8318,
      "తంగా": 8319,
      "తం,": 8320,
      "తత్వ": 8321,
      "తక్కువ": 8322,
      "తీర": 8323,
      "థ్యం": 8324,
      "దర్": 8325,
      "దగా": 8326,
      "దరా": 8327,
      "దండ": 8328,
      "ధీన": 8329,
      "నం": 8330,
      "నూ": 8331,
      "నిక": 8332,
      "పలు": 8333,
      "పిక": 8334,
      "పవి": 8335,
      "ప్ల": 8336,
      "పల్ల": 8337,
      "పడు": 8338,
      "పర్వ": 8339,
      "పతా": 8340,
      "పక్క": 8341,
      "పడిన": 8342,
      "ఫల": 8343,
      "బు": 8344,
      "బౌ": 8345,
      "బంగ": 8346,
      "భవ": 8347,
      "భక్": 8348,
      "భాతో": 8349,
      "మ్": 8350,
      "మాత": 8351,
      "మిత": 8352,
      "మరో": 8353,
      "యింది.": 8354,
      "యాత్ర": 8355,
      "యమించ": 8356,
      "రీ": 8357,
      "రిక": 8358,
      "రకాలు": 8359,
      "రచయ": 8360,
      "లీ": 8361,
      "లౌ": 8362,
      "లకొ": 8363,
      "లమె": 8364,
      "లస్య": 8365,
      "ళా": 8366,
      "ళి,": 8367,
      "వం": 8368,
      "విం": 8369,
      "వంత": 8370,
      "వరు": 8371,
      "వైన": 8372,
      "వార్": 8373,
      "వులు,": 8374,
      "వత్ర": 8375,
      "వనాలు": 8376,
      "వాయు": 8377,
      "శక": 8378,
      "శి": 8379,
      "శీ": 8380,
      "శై": 8381,
      "శో": 8382,
      "శకు": 8383,
      "శక్": 8384,
      "షయాలు": 8385,
      "సన": 8386,
      "సీ": 8387,
      "సె": 8388,
      "సాల": 8389,
      "సమర": 8390,
      "సిక్": 8391,
      "హో": 8392,
      "హ్ర": 8393,
      "ాక": 8394,
      "ామ": 8395,
      "ాన్ని": 8396,
      "ాడే": 8397,
      "ిమాన": 8398,
      "ీం": 8399,
      "ీక్ష": 8400,
      "ీషు": 8401,
      "ుత్": 8402,
      "ూనది": 8403,
      "ే.": 8404,
      "ౌర": 8405,
      "్మా": 8406,
      "‌సభ": 8407,
      "‌కాత": 8408,
      "ారి": 8409,
      "లుగా": 8410,
      "లో,": 8411,
      "లోమీ": 8412,
      "స్వీ": 8413,
      "స్కరణ": 8414,
      "స్లిం": 8415,
      "ప్రదేశ": 8416,
      "ప్రాయ": 8417,
      "ప్రసి": 8418,
      "ప్రత్య": 8419,
      "ప్రయో": 8420,
      "ప్రీం": 8421,
      "ింది": 8422,
      "దేశీ": 8423,
      "ర్పు": 8424,
      "ర్జాతీయ": 8425,
      "ర్చు": 8426,
      "ర్తిగా": 8427,
      "ర్థ్యం": 8428,
      "భారతం,": 8429,
      "భారత్‌": 8430,
      "న్నీ": 8431,
      "న్నై": 8432,
      "గాన్ని": 8433,
      "కు,": 8434,
      "నిపు": 8435,
      "నిడి": 8436,
      "నియమించ": 8437,
      "విలు": 8438,
      "విమాన": 8439,
      "విశ్": 8440,
      "విషయాలు": 8441,
      "విదేశీ": 8442,
      "క్టోర": 8443,
      "ాతం": 8444,
      "ాతి": 8445,
      "ాత్మా": 8446,
      "దేశం.": 8447,
      "ానీ": 8448,
      "ాను": 8449,
      "ాన్య": 8450,
      "నులు,": 8451,
      "ండ్": 8452,
      "ము,": 8453,
      "ముడి": 8454,
      "ముస్లిం": 8455,
      "ినీ": 8456,
      "తిరు": 8457,
      "స్తులు": 8458,
      "స్తారు": 8459,
      "ంతర": 8460,
      "సంస్కరణ": 8461,
      "పుకో": 8462,
      "పుతూ": 8463,
      "స్థావర": 8464,
      "ంటి": 8465,
      "భారతదేశం.": 8466,
      "ంలో,": 8467,
      "భావిస్త": 8468,
      "భాగాన్ని": 8469,
      "ంగా,": 8470,
      "వాదం": 8471,
      "సాహ": 8472,
      "సామా": 8473,
      "పావ": 8474,
      "పాడు": 8475,
      "పాంతర": 8476,
      "ార్థ": 8477,
      "కూడి": 8478,
      "కూడుకొ": 8479,
      "జాతి": 8480,
      "జాతులు,": 8481,
      "రాజు": 8482,
      "కోట్ల": 8483,
      "క్రి": 8484,
      "కాహార": 8485,
      "కా-ఢిల్లీ": 8486,
      "కాపాడు": 8487,
      "చ్చే": 8488,
      "నేరే": 8489,
      "మొగలు": 8490,
      "ంచిన": 8491,
      "దుగా": 8492,
      "మాట్ల": 8493,
      "యాళ": 8494,
      "నాథ": 8495,
      "తరాలు": 8496,
      "రాష్ట్రాలు,": 8497,
      "గుబా": 8498,
      "వచ్చని": 8499,
      "డు\"": 8500,
      "వే.": 8501,
      "వేద": 8502,
      "వేల": 8503,
      "కాలే": 8504,
      "డిస్": 8505,
      "ద్రా": 8506,
      "శాసన": 8507,
      "దేశాలను": 8508,
      "ందింది.": 8509,
      "ఎన్నుకో": 8510,
      "ఎన్నుకుంట": 8511,
      "కిలోమీ": 8512,
      "చెప్": 8513,
      "చెంద": 8514,
      "చెందు": 8515,
      "చెన్నై": 8516,
      "కేతిక": 8517,
      "తులతో": 8518,
      "మతాలు": 8519,
      "మతము": 8520,
      "అధికారం": 8521,
      "త్రి": 8522,
      "పర్యాయ": 8523,
      "పరీక్ష": 8524,
      "పరిపాలన": 8525,
      "మీదగా": 8526,
      "మే.": 8527,
      "వరీ": 8528,
      "సుప్రీం": 8529,
      "ప్రపంచములో": 8530,
      "స్థానం": 8531,
      "స్థానాలను": 8532,
      "భాషా": 8533,
      "భాషలను": 8534,
      "ప్రాంతీయ": 8535,
      "ప్రాంతాల్లో": 8536,
      "రాజ్యంగా": 8537,
      "పేరు,": 8538,
      "దాయంలో": 8539,
      "వారి": 8540,
      "వర్ష": 8541,
      "వర్తి": 8542,
      "సభను": 8543,
      "క్రీ.పూ.": 8544,
      "పార్టీ,": 8545,
      "జనాభాతో": 8546,
      "రెండవ": 8547,
      "రెండో": 8548,
      "వెల్ల": 8549,
      "ప్రజలు": 8550,
      "ప్రభుత్వాన్ని": 8551,
      "పూర్తిగా": 8552,
      "పోయింది.": 8553,
      "మనదేశం": 8554,
      "మిస్తు": 8555,
      "వుతుంది.": 8556,
      "ముఖ్యంగా": 8557,
      "స్త్రీలు": 8558,
      "సాంకేతిక": 8559,
      "అతిపెద్ద": 8560,
      "జరిగే": 8561,
      "బడింది.": 8562,
      "మహి": 8563,
      "మహాత్మా": 8564,
      "క్రీడా": 8565,
      "క్రీడలలో": 8566,
      "అయినా,": 8567,
      "గోదా": 8568,
      "గోళిక": 8569,
      "గినది.": 8570,
      "జనతా": 8571,
      "జనవరి": 8572,
      "లేదు": 8573,
      "ప్రస్తుతము": 8574,
      "క్కను": 8575,
      "సాధించిన": 8576,
      "కాంగ్రెస్": 8577,
      "కాలంలో,": 8578,
      "ాబ్ది": 8579,
      "ఉపయో": 8580,
      "భూభాగం": 8581,
      "భూటాన్": 8582,
      "మానం:": 8583,
      "యుగ": 8584,
      "రంగంలో": 8585,
      "వలన": 8586,
      "వలస": 8587,
      "ప్రతిపక్ష": 8588,
      "విస్తీర్": 8589,
      "సినిమాలు": 8590,
      "గణతంత్ర": 8591,
      "ఢిల్లీ,": 8592,
      "నెలకొ": 8593,
      "మాత్రమే": 8594,
      "సమాజ": 8595,
      "భారత్,": 8596,
      "సామర్థ్యం": 8597,
      "ఉత్తరాన": 8598,
      "పట్టణాలు,": 8599,
      "బ్రిటీ": 8600,
      "ప్పటికినీ": 8601,
      "సింధూనది": 8602,
      "సరిహద్దుగా": 8603,
      "సౌకర్యాలు": 8604,
      "సౌకర్యాలలో": 8605,
      "ప్రముఖమైన": 8606,
      "2003": 8607,
      "చైనా,": 8608,
      "చైనాను": 8609,
      "తూర్పు": 8610,
      "నగరాలు": 8611,
      "పండుగలు": 8612,
      "రూపాంతర": 8613,
      "సారస్వ": 8614,
      "రైల్వేశాఖ": 8615,
      "పాలనలో": 8616,
      "ఒకటిగా": 8617,
      "ప్రపంచంలోని": 8618,
      "వెబ్": 8619,
      "ప్రజాదర": 8620,
      "సముద్రం,": 8621,
      "సముద్రతీర": 8622,
      "స్వాతంత్ర్యం": 8623,
      "నిర్వహించింది.": 8624,
      "...": 8625,
      "26న": 8626,
      "ఇవిక": 8627,
      "చిరు": 8628,
      "నాయకత్వ": 8629,
      "మలయాళ": 8630,
      "సూచించిన": 8631,
      "హాకీ": 8632,
      "ిస్తారు.": 8633,
      "లోక్‌సభ": 8634,
      "కులాలు,": 8635,
      "కుంటూ": 8636,
      "కుంటారు.": 8637,
      "ాయుత": 8638,
      "మేనని": 8639,
      "రాజ్యాలుగా": 8640,
      "సభ్యు": 8641,
      "సభ్యులు": 8642,
      "పాకిస్థాన్,": 8643,
      "ఆధారపడిన": 8644,
      "బ్రిటిష్": 8645,
      "బ్రిటిషు": 8646,
      "పశ్చిమ": 8647,
      "పశ్చిమాన": 8648,
      "ofil": 8649,
      "ఇంగ్లీషు": 8650,
      "కిందకు": 8651,
      "టైటి": 8652,
      "టర్లకు": 8653,
      "పార్లమె": 8654,
      "భౌగోళిక": 8655,
      "మూల": 8656,
      "మౌర్య": 8657,
      "సహస్ర": 8658,
      "సైనిక": 8659,
      "సార్వత్ర": 8660,
      "హైదరా": 8661,
      "ప్రారంభించ": 8662,
      "ర్షణ": 8663,
      "ర్‌ల": 8664,
      "విద్యుత్": 8665,
      "సంకీర్ణ": 8666,
      "పురుషు": 8667,
      "స్థితి": 8668,
      "కూడుకుని": 8669,
      "కోల్‌కాత": 8670,
      "నేపాల్,": 8671,
      "పాలించారు.": 8672,
      "ఎన్నికల్లో": 8673,
      "రాజ్యాంగం": 8674,
      "బడతారు.": 8675,
      "జనగణన": 8676,
      "ప్రతిపాదనకు": 8677,
      "సమాఖ్య.": 8678,
      "కోర్టులు": 8679,
      "ఏర్పడ్డాయి.": 8680,
      "కార్యక్రమాలు": 8681,
      "ఆఫ్ఘనిస్తాన్": 8682,
      "జరుపుకుంటారు.": 8683,
      "తెలుగు,": 8684,
      "పీఠభూ": 8685,
      "బంగ్లాదేశ్‌": 8686,
      "శెలవుదినాలు": 8687,
      "-లాహో": 8688,
      "59-": 8689,
      "CEE": 8690,
      "CIA": 8691,
      "Count": 8692,
      "Factbo": 8693,
      "Profil": 8694,
      "అంతర్జాతీయ": 8695,
      "అమెరిక": 8696,
      "ఇండో": 8697,
      "ఈశాన్య": 8698,
      "ఈస్ట్": 8699,
      "ఎలక్టోర": 8700,
      "ఏప్రిల్": 8701,
      "ఐరోపా": 8702,
      "ఖనిజాలు": 8703,
      "గెలుచుకోవడ": 8704,
      "చూడండి": 8705,
      "జమ్మూ": 8706,
      "ట్రో": 8707,
      "ఢాకా-ఢిల్లీ": 8708,
      "తర్వాత": 8709,
      "పిక్‌": 8710,
      "పవిత్ర": 8711,
      "పతాక": 8712,
      "పక్కన": 8713,
      "బౌద్ధ": 8714,
      "బంగారు": 8715,
      "రచయిత": 8716,
      "లౌక": 8717,
      "సమరం": 8718,
      "ప్రసిద్ధి": 8719,
      "భారత్‌లో": 8720,
      "నిపుణులు": 8721,
      "నిడివి": 8722,
      "తిరుగుబా": 8723,
      "స్థావరాలు": 8724,
      "సామాజిక,": 8725,
      "కూడుకొని": 8726,
      "కాపాడుకుంటూ": 8727,
      "మాట్లాడే": 8728,
      "ఎన్నుకోబడతారు.": 8729,
      "కిలోమీటర్లకు": 8730,
      "చెప్పుకో": 8731,
      "చెందాయి.": 8732,
      "చెందుతున్న": 8733,
      "పర్యాయాలు": 8734,
      "ఉపయోగి": 8735,
      "ప్రజాదరణ": 8736,
      "సూచించినట్లు": 8737,
      "సహస్రాబ్ది": 8738,
      "సార్వత్రిక": 8739,
      "కోల్‌కాతా": 8740,
      "Country": 8741,
      "Profile": 8742,
      "ఎలక్టోరల్": 8743,
      "గెలుచుకోవడం": 8744,
      "ఢాకా-ఢిల్లీ-లాహో": 8745,
      "తిరుగుబాటు": 8746,
      "\"గ": 8747,
      "\"భారతదేశం": 8748,
      "\"నేరే": 8749,
      "%)": 8750,
      "%).": 8751,
      "(3": 8752,
      "(5": 8753,
      "(8": 8754,
      "(P": 8755,
      "(ఆ": 8756,
      "(ఉ": 8757,
      "(ట": 8758,
      "(య": 8759,
      "(ర": 8760,
      "(భారత": 8761,
      "(సా": 8762,
      "(తా": 8763,
      "(గి": 8764,
      "(బ్ర": 8765,
      "(17": 8766,
      "(ఇదే": 8767,
      "(శక": 8768,
      "(CEE": 8769,
      "):": 8770,
      ",4": 8771,
      ",9": 8772,
      "-7": 8773,
      "-ఆ": 8774,
      "-ఇ": 8775,
      "-దేశ": 8776,
      "-19": 8777,
      "-టె": 8778,
      "-56": 8779,
      "-ఖో": 8780,
      "-దండ": 8781,
      ".8": 8782,
      ".9": 8783,
      ".ఇ": 8784,
      ".ఈ": 8785,
      ".ఏ": 8786,
      ".కి": 8787,
      ".మీ": 8788,
      ".23": 8789,
      "/G": 8790,
      "0-19": 8791,
      "1000": 8792,
      "1,0": 8793,
      "1,9": 8794,
      "2%),": 8795,
      "21-": 8796,
      "32,": 8797,
      "3,4": 8798,
      "4%,": 8799,
      "4లో,": 8800,
      "421-": 8801,
      "52": 8802,
      "546": 8803,
      "6%),": 8804,
      "65,": 8805,
      "740": 8806,
      "75,": 8807,
      "7%.": 8808,
      "81-": 8809,
      "87,": 8810,
      "82,": 8811,
      "8-7": 8812,
      "9,000": 8813,
      "AL": 8814,
      "BS": 8815,
      "B/G": 8816,
      "C,": 8817,
      "C's": 8818,
      "Et": 8819,
      "HZ": 8820,
      "Mac": 8821,
      "PAL": 8822,
      "SI": 8823,
      "Ty": 8824,
      "V;": 8825,
      "Wa": 8826,
      "chi": 8827,
      "hn": 8828,
      "ngu": 8829,
      "olo": 8830,
      "ybac": 8831,
      "ంజ": 8832,
      "ంథ": 8833,
      "ంతి,": 8834,
      "ం\",": 8835,
      "అర": 8836,
      "అల": 8837,
      "అస్": 8838,
      "అది": 8839,
      "అన్న": 8840,
      "అల్": 8841,
      "అరు": 8842,
      "అక్ష": 8843,
      "అంది": 8844,
      "అవర": 8845,
      "అద్ద": 8846,
      "అలం": 8847,
      "అధి": 8848,
      "అంద": 8849,
      "అఖండ": 8850,
      "అమల": 8851,
      "అరే": 8852,
      "అంటే": 8853,
      "అంక": 8854,
      "అధీన": 8855,
      "అశో": 8856,
      "ఆగ": 8857,
      "ఆలో": 8858,
      "ఆదేశ": 8859,
      "ఆవి": 8860,
      "ఆతి": 8861,
      "ఆక్ర": 8862,
      "ఆయా": 8863,
      "ఆనా": 8864,
      "ఆడు": 8865,
      "ఆధ్య": 8866,
      "ఆదాయ": 8867,
      "ఆగ్": 8868,
      "ఆవల": 8869,
      "ఆణి": 8870,
      "ఆచార": 8871,
      "ఆక్షరాస్యత": 8872,
      "ఆటలు": 8873,
      "ఆనం": 8874,
      "ఆలస్య": 8875,
      "ఇ-": 8876,
      "ఇయ": 8877,
      "ఇన్": 8878,
      "ఇను": 8879,
      "ఇము": 8880,
      "ఇతి": 8881,
      "ఇంది": 8882,
      "ఇతరు": 8883,
      "ఇప్పటిక": 8884,
      "ఇందు": 8885,
      "ఇంకా": 8886,
      "ఇతను": 8887,
      "ఇంటి": 8888,
      "ఇచ్చే": 8889,
      "ఉర్": 8890,
      "ఉద్": 8891,
      "ఉపా": 8892,
      "ఉండి": 8893,
      "ఉండు": 8894,
      "ఉష్ణ": 8895,
      "ఉనిక": 8896,
      "ఋతు": 8897,
      "ఎమ": 8898,
      "ఎదు": 8899,
      "ఎగు": 8900,
      "ఎల్ల": 8901,
      "ఎంతో": 8902,
      "ఎగువ": 8903,
      "ఏక": 8904,
      "ఏడ": 8905,
      "ఏడు": 8906,
      "ఏటా": 8907,
      "ఏకత్వ": 8908,
      "ఏళ్ళ": 8909,
      "ఐదు": 8910,
      "ఒక్": 8911,
      "ఒరి": 8912,
      "ఒలిం": 8913,
      "ఒడిస్": 8914,
      "ఓడ": 8915,
      "ఓటర్": 8916,
      "ఔట్‌": 8917,
      "కిం": 8918,
      "కర్": 8919,
      "కని": 8920,
      "కాయ": 8921,
      "కరా": 8922,
      "కంట": 8923,
      "కార్": 8924,
      "కిత": 8925,
      "కష్ట": 8926,
      "కట్ట": 8927,
      "కమైన": 8928,
      "కమీ": 8929,
      "క్యం": 8930,
      "కెలు": 8931,
      "కమల": 8932,
      "కమేన": 8933,
      "కెట్": 8934,
      "కర్‌": 8935,
      "కత్తా": 8936,
      "కానీ": 8937,
      "కవరీ": 8938,
      "ఖిక": 8939,
      "ఖగో": 8940,
      "ఖర్చు": 8941,
      "ఖాతం": 8942,
      "గమ": 8943,
      "గృ": 8944,
      "గె": 8945,
      "గర్": 8946,
      "గతి": 8947,
      "గల్": 8948,
      "గించ": 8949,
      "గులు": 8950,
      "గింది.": 8951,
      "గలి": 8952,
      "గి,": 8953,
      "గలు,": 8954,
      "గమించ": 8955,
      "గర్,": 8956,
      "గౌర": 8957,
      "గనులు,": 8958,
      "ఘన": 8959,
      "ఘు": 8960,
      "ఘట్ట": 8961,
      "ఘోర": 8962,
      "ఘిక,": 8963,
      "ఘర్షణ": 8964,
      "చా": 8965,
      "చూ": 8966,
      "చో": 8967,
      "చ్": 8968,
      "చము": 8969,
      "చిన": 8970,
      "చింది.": 8971,
      "చిత": 8972,
      "చక్ర": 8973,
      "చట్ట": 8974,
      "చులు,": 8975,
      "చీ,": 8976,
      "చీర": 8977,
      "చూప": 8978,
      "చర్,": 8979,
      "చ.కి": 8980,
      "ఛాయుత": 8981,
      "జా": 8982,
      "జె": 8983,
      "జై": 8984,
      "జౌ": 8985,
      "జ్ర": 8986,
      "జాన": 8987,
      "జిన": 8988,
      "జంత": 8989,
      "జైన": 8990,
      "జపా": 8991,
      "జిత": 8992,
      "జ్‌": 8993,
      "జీ,": 8994,
      "జెండ": 8995,
      "జనాలు": 8996,
      "జ్యం": 8997,
      "జిల్ల": 8998,
      "జవహ": 8999,
      "జెట్": 9000,
      "ఞాన": 9001,
      "టన": 9002,
      "టో": 9003,
      "టస్": 9004,
      "ట్య": 9005,
      "టిన": 9006,
      "టాయి": 9007,
      "టంలో": 9008,
      "టం,": 9009,
      "టచే": 9010,
      "ట్రా": 9011,
      "టంతో": 9012,
      "టమూ": 9013,
      "ఠీ;": 9014,
      "డ్ర": 9015,
      "డ్య": 9016,
      "డాల": 9017,
      "డింది.": 9018,
      "డ్చ": 9019,
      "డ్ల": 9020,
      "డాలు,": 9021,
      "డ్‌": 9022,
      "డానికి": 9023,
      "డించింది.": 9024,
      "డబు": 9025,
      "డమ్": 9026,
      "ఢవి": 9027,
      "ణే": 9028,
      "ణిక": 9029,
      "ణాలు": 9030,
      "ణించ": 9031,
      "ణంతో": 9032,
      "ణదారులు,": 9033,
      "ణుల": 9034,
      "త,": 9035,
      "తార": 9036,
      "తాయ": 9037,
      "తాన": 9038,
      "తరా": 9039,
      "తాయి.": 9040,
      "తదు": 9041,
      "తనా": 9042,
      "తీ,": 9043,
      "తక్కు": 9044,
      "తలం": 9045,
      "తగ్": 9046,
      "తమై": 9047,
      "తమ్య": 9048,
      "తాలతో": 9049,
      "తదేశపు": 9050,
      "తవర్ష": 9051,
      "థమ": 9052,
      "థి": 9053,
      "థాత": 9054,
      "థాన": 9055,
      "థార్": 9056,
      "దశ": 9057,
      "దస": 9058,
      "దూ": 9059,
      "దృ": 9060,
      "దాన": 9061,
      "దీయ": 9062,
      "దులు": 9063,
      "దైన": 9064,
      "దారు": 9065,
      "దం,": 9066,
      "దులు,": 9067,
      "దాబ": 9068,
      "దీన": 9069,
      "దగ్": 9070,
      "దీర్": 9071,
      "దగినది.": 9072,
      "దక్కను": 9073,
      "ధర": 9074,
      "ధు": 9075,
      "ధాల": 9076,
      "ధిన": 9077,
      "ధరి": 9078,
      "ధం,": 9079,
      "ధనా": 9080,
      "ధిల్ల": 9081,
      "న,": 9082,
      "నృ": 9083,
      "నై": 9084,
      "నో": 9085,
      "నలు": 9086,
      "న్య": 9087,
      "నాల": 9088,
      "నర్": 9089,
      "నవి": 9090,
      "నంలో": 9091,
      "నసా": 9092,
      "నికి": 9093,
      "నడు": 9094,
      "నీ,": 9095,
      "నలలో": 9096,
      "ననీ": 9097,
      "నాలతో": 9098,
      "నవచ్చు.": 9099,
      "నబడిన": 9100,
      "నప్పటికినీ": 9101,
      "నదులు": 9102,
      "పక": 9103,
      "పబ": 9104,
      "పి": 9105,
      "పది": 9106,
      "పిన": 9107,
      "పంలో": 9108,
      "పూడ": 9109,
      "పిత": 9110,
      "పరాజ": 9111,
      "పచ్చ": 9112,
      "పలి": 9113,
      "పట్": 9114,
      "పత్య": 9115,
      "పించింది.": 9116,
      "పం:": 9117,
      "పకళ": 9118,
      "పటం": 9119,
      "పిస్త": 9120,
      "పస్,": 9121,
      "పిక్": 9122,
      "పస్ర": 9123,
      "పర్ష": 9124,
      "పవనాలు": 9125,
      "పౌర": 9126,
      "పండ్": 9127,
      "పటంలో": 9128,
      "ఫు": 9129,
      "ఫ్ర": 9130,
      "ఫర్": 9131,
      "ఫరా": 9132,
      "ఫ్ట": 9133,
      "ఫలం": 9134,
      "ఫిక్": 9135,
      "బల": 9136,
      "బై": 9137,
      "బొ": 9138,
      "బాల": 9139,
      "బండ": 9140,
      "బంగా": 9141,
      "బడ్": 9142,
      "బిన్న": 9143,
      "బాబ్": 9144,
      "బ్యా": 9145,
      "బద్ధం": 9146,
      "భ్య": 9147,
      "భిం": 9148,
      "భంగ": 9149,
      "భదాయ": 9150,
      "భజిత": 9151,
      "మ.": 9152,
      "మయ": 9153,
      "మో": 9154,
      "మార": 9155,
      "మిం": 9156,
      "మాల": 9157,
      "మాయ": 9158,
      "మరా": 9159,
      "మిన": 9160,
      "మంత": 9161,
      "మంలో": 9162,
      "మలి": 9163,
      "మికి": 9164,
      "మాలు,": 9165,
      "మ్‌": 9166,
      "మి,": 9167,
      "మాల్": 9168,
      "మించిన": 9169,
      "మలు,": 9170,
      "మిత్ర": 9171,
      "మణి": 9172,
      "మస్,": 9173,
      "మంచి": 9174,
      "మసాల": 9175,
      "మద్రా": 9176,
      "మంజ": 9177,
      "యం": 9178,
      "యి": 9179,
      "యస్": 9180,
      "యము": 9181,
      "యిన": 9182,
      "యులు": 9183,
      "యం,": 9184,
      "యం:": 9185,
      "యంతో": 9186,
      "యింది": 9187,
      "యనులు,": 9188,
      "యంలో,": 9189,
      "యథాత": 9190,
      "ర,": 9191,
      "రొ": 9192,
      "ర‌": 9193,
      "రలో": 9194,
      "రద్": 9195,
      "రత్": 9196,
      "రంగా": 9197,
      "రక్ష": 9198,
      "రమైన": 9199,
      "రవే": 9200,
      "రవీ": 9201,
      "రించిన": 9202,
      "రం.": 9203,
      "రీ;": 9204,
      "రక్షరాస్యత": 9205,
      "రాలు.": 9206,
      "రారి": 9207,
      "రకు,": 9208,
      "రాతి": 9209,
      "రతాయ": 9210,
      "రబద్ధం": 9211,
      "ల,": 9212,
      "లిక": 9213,
      "లిన": 9214,
      "లైన": 9215,
      "లకాల": 9216,
      "లీ,": 9217,
      "లబె": 9218,
      "లపై": 9219,
      "లహా": 9220,
      "లమానం:": 9221,
      "లఘు": 9222,
      "లబై": 9223,
      "లభ్య": 9224,
      "ళల": 9225,
      "ళు": 9226,
      "ళులు,": 9227,
      "ళూరు": 9228,
      "ళవిం": 9229,
      "వత": 9230,
      "వ‌": 9231,
      "వులు": 9232,
      "వలి": 9233,
      "వస్తు": 9234,
      "వద్ద": 9235,
      "వలను": 9236,
      "వస్థానంలో": 9237,
      "వూప": 9238,
      "వనాథ": 9239,
      "వజ్ర": 9240,
      "వన్య": 9241,
      "వమి,": 9242,
      "శే": 9243,
      "శాల": 9244,
      "శంలో": 9245,
      "శిల్": 9246,
      "శించే": 9247,
      "శాతం": 9248,
      "శరద్": 9249,
      "షే": 9250,
      "షన్": 9251,
      "షులు": 9252,
      "షం.": 9253,
      "షకాహార": 9254,
      "సొ": 9255,
      "సాలు": 9256,
      "సగా": 9257,
      "సాయ": 9258,
      "సిన": 9259,
      "సల్": 9260,
      "సభా": 9261,
      "సవా": 9262,
      "సీ,": 9263,
      "సత్య": 9264,
      "సమి": 9265,
      "సత్తా": 9266,
      "సాయుత": 9267,
      "సలహా": 9268,
      "హె": 9269,
      "హొ": 9270,
      "హ్": 9271,
      "హిం": 9272,
      "హర్": 9273,
      "హాయ": 9274,
      "హస్త": 9275,
      "హపు": 9276,
      "హాలు,": 9277,
      "హక్కు": 9278,
      "హ్మ": 9279,
      "హ్వ": 9280,
      "ా)": 9281,
      "ాలో": 9282,
      "ాదు": 9283,
      "ాంబ": 9284,
      "ాశ్ర": 9285,
      "ాము.": 9286,
      "ాలోయ": 9287,
      "ానిస్తాన్": 9288,
      "ాదాయంలో": 9289,
      "ాంతి,": 9290,
      "ాడ్‌": 9291,
      "ాధిన": 9292,
      "ాపక": 9293,
      "ి:": 9294,
      "ిని": 9295,
      "ిచె": 9296,
      "ిపె": 9297,
      "ిశ్ర": 9298,
      "ిలే": 9299,
      "ిరంగ": 9300,
      "ిద్ధి": 9301,
      "ిళ్ళ": 9302,
      "ిటన్": 9303,
      "ియనులు,": 9304,
      "ీలో": 9305,
      "ీకృ": 9306,
      "ీకరణ": 9307,
      "ీకులు": 9308,
      "ీ-దండ": 9309,
      "ుని": 9310,
      "ును": 9311,
      "ుల్": 9312,
      "ువు": 9313,
      "ుర్య": 9314,
      "ుపూర్వ": 9315,
      "ుడైన": 9316,
      "ునిక": 9317,
      "ుళూరు": 9318,
      "ూ,": 9319,
      "ూ—": 9320,
      "ూలా": 9321,
      "ూదులు,": 9322,
      "ృతంగా": 9323,
      "ె,": 9324,
      "ెస్": 9325,
      "ెర్": 9326,
      "ెన్న": 9327,
      "ెనే": 9328,
      "ెడ్": 9329,
      "ెల్లో": 9330,
      "ెక్కను": 9331,
      "ేత": 9332,
      "ేది": 9333,
      "ేకా": 9334,
      "ేష్": 9335,
      "ే),": 9336,
      "ే...": 9337,
      "ేకమైన": 9338,
      "ేననీ": 9339,
      "ేయులు": 9340,
      "ైక": 9341,
      "ైస్త": 9342,
      "ైపో": 9343,
      "ైవరు": 9344,
      "ో,": 9345,
      "ోత్": 9346,
      "ోంది.": 9347,
      "Coun": 9348,
      "142": 9349,
      "కోట్లకు": 9350,
      "స్థానంలో,": 9351,
      "32,87,": 9352,
      "చ.కి.మీ": 9353,
      "విస్తీర్ణంతో": 9354,
      "వైశాల": 9355,
      "ఏడవస్థానంలో": 9356,
      "స్వే": 9357,
      "కలిగి,": 9358,
      "పార్లమెంట": 9359,
      "ఒకటిగా,": 9360,
      "అణ్వ": 9361,
      "కలిగిన": 9362,
      "శక్తిగా": 9363,
      "దక్షణాసియా": 9364,
      "సముద్రతీరము": 9365,
      "ఉండి,": 9366,
      "ఉపఖండములో": 9367,
      "భారతదేశం,": 9368,
      "రహదారు": 9369,
      "హిమాలయాలు,": 9370,
      "మహాసముద్రం,": 9371,
      "అరేబి": 9372,
      "తూర్పున": 9373,
      "బంగాళా": 9374,
      "ఎల్లలుగా": 9375,
      "పాకిస్తాన్,": 9376,
      "మయన్": 9377,
      "బంగ్లాదేశ్,": 9378,
      "భూటాన్,": 9379,
      "ఆఫ్ఘానిస్తాన్": 9380,
      "దేశాలతో": 9381,
      "సరిహద్దులను": 9382,
      "పంచుకుంట": 9383,
      "శ్రీలం": 9384,
      "మాల్దీ": 9385,
      "ఇండోనే": 9386,
      "దగ్గర": 9387,
      "ద్వీప-దేశ": 9388,
      "నాగరికతకు": 9389,
      "పుట్టిల్": 9390,
      "హిందూ,": 9391,
      "బౌద్ధ,": 9392,
      "జైన,": 9393,
      "సిక్కు": 9394,
      "మతములకు": 9395,
      "జన్మని": 9396,
      "బహుభాష": 9397,
      "సంఘము.": 9398,
      "వన్యప్రా": 9399,
      "వైవిధ్యం": 9400,
      "జనాభాలో": 9401,
      "2023": 9402,
      "దాటే": 9403,
      "ప్రస్తుత": 9404,
      "సరిహద్దులలో": 9405,
      "కొద్": 9406,
      "మినహాయ": 9407,
      "సరిహద్ద": 9408,
      "దాటిన": 9409,
      "ప్రాంతాలతో": 9410,
      "చక్రవర్తి": 9411,
      "వున్న": 9412,
      "తదుపరి": 9413,
      "విడి": 9414,
      "క్రమంగా": 9415,
      "రాజ్యాలను": 9416,
      "స్వాధీన": 9417,
      "చేసు": 9418,
      "బ్రిటీష్": 9419,
      "నేరు": 9420,
      "యునై": 9421,
      "కింగ్": 9422,
      "పాలనలోకి": 9423,
      "నాయకత్వాన": 9424,
      "కోసం": 9425,
      "అహిం": 9426,
      "పోరా": 9427,
      "ఆవిర్": 9428,
      "మార్కెట్": 9429,
      "ఆధారిత": 9430,
      "సంస్కరణలు": 9431,
      "అనుసరి": 9432,
      "అయింది.": 9433,
      "అయిత": 9434,
      "పేదర": 9435,
      "నిరక్షరాస్యత": 9436,
      "అవినీ": 9437,
      "పోషకాహార": 9438,
      "లోపం": 9439,
      "సవాళ్ల": 9440,
      "ఎదుర్": 9441,
      "పుట్టుపూర్వ": 9442,
      "ఉన్నట్లు": 9443,
      "చెప్పుకోవచ్చు.": 9444,
      "మొదటిది": 9445,
      "ద్వీపం.": 9446,
      "వేదాలలో": 9447,
      "ఇవ్వ": 9448,
      "ఇప్పటికీ": 9449,
      "ప్రార్థ": 9450,
      "ఉపయోగిస్తారు": 9451,
      "(ఉదా": 9452,
      "ద్వీపే": 9453,
      "మేరో": 9454,
      "దక్షిణది": 9455,
      "శ్రీశై": 9456,
      "ప్రదేశే,": 9457,
      "కృష్": 9458,
      "గోదావరీ": 9459,
      "స్థానే...": 9460,
      "\"నేరేడు\"": 9461,
      "\"గిన్న": 9462,
      "కాయ\",": 9463,
      "నేరేడు": 9464,
      "పండ్లు": 9465,
      "ఉంటాయి": 9466,
      "దీనికి": 9467,
      "32,87,26": 9468,
      "వైశాల్య": 9469,
      "స్వేచ్": 9470,
      "పార్లమెంటరీ": 9471,
      "అణ్వస్త్ర": 9472,
      "దక్షణాసియాలో": 9473,
      "రహదారులను": 9474,
      "అరేబియా": 9475,
      "బంగాళాఖాతం": 9476,
      "మయన్మార్": 9477,
      "పంచుకుంటోంది.": 9478,
      "శ్రీలంక,": 9479,
      "మాల్దీవులు,": 9480,
      "ఇండోనేసియా": 9481,
      "దగ్గరలో": 9482,
      "ద్వీప-దేశాలు.": 9483,
      "పుట్టిల్లు.": 9484,
      "జన్మనిచ్చ": 9485,
      "బహుభాషా,": 9486,
      "వన్యప్రాణుల": 9487,
      "దాటేసింది.": 9488,
      "కొద్ది": 9489,
      "మినహాయించి,": 9490,
      "సరిహద్దులు": 9491,
      "వున్నా,": 9492,
      "విడిపోయింది.": 9493,
      "స్వాధీనం": 9494,
      "చేసుకో": 9495,
      "నేరుగా": 9496,
      "యునైటె": 9497,
      "కింగ్డమ్": 9498,
      "అహింసాయుత": 9499,
      "పోరాటం": 9500,
      "ఆవిర్భవ": 9501,
      "అనుసరిస్త": 9502,
      "అయితే,": 9503,
      "పేదరిక": 9504,
      "నిరక్షరాస్యత,": 9505,
      "అవినీతి,": 9506,
      "సవాళ్లను": 9507,
      "ఎదుర్కొ": 9508,
      "పుట్టుపూర్వోత్": 9509,
      "ఇవ్వబడిన": 9510,
      "ప్రార్థనలలో": 9511,
      "(ఉదా:": 9512,
      "ద్వీపే,": 9513,
      "మేరోః": 9514,
      "దక్షిణదిగ్": 9515,
      "శ్రీశైలస్య": 9516,
      "కృష్ణా": 9517,
      "స్థానే...).": 9518,
      "\"గిన్నె": 9519,
      "\"భారతదేశం\"": 9520,
      "\"భరతవర్ష": 9521,
      "నాటి": 9522,
      "వచ్చినది": 9523,
      "\"భరతు": 9524,
      "విశ్వా": 9525,
      "మేనకల": 9526,
      "కుమార్": 9527,
      "శకుంత": 9528,
      "కుమారు": 9529,
      "హిందూదేశం,": 9530,
      "పూర్వపు": 9531,
      "పర్షియనులు,": 9532,
      "గ్రీకులు": 9533,
      "సింధూనదికి": 9534,
      "పేరుతో": 9535,
      "పిలిచ": 9536,
      "రూపాంతరం": 9537,
      "చెంది": 9538,
      "బ్రిటీషు": 9539,
      "(ఆంగ్ల": 9540,
      "ప్రాముఖ్య": 9541,
      "పొందినది.": 9542,
      "గుర్తిం": 9543,
      "ఇండియా,": 9544,
      "హిందూస్తాన్": 9545,
      "అనునది": 9546,
      "రూపాంతరమే.": 9547,
      "ప్రదేశ్‌": 9548,
      "లోని": 9549,
      "భింబె": 9550,
      "లభ్యమైన": 9551,
      "రాతియుగ": 9552,
      "శిలా": 9553,
      "కుడ్య": 9554,
      "మానవు": 9555,
      "ఉనికికి": 9556,
      "ఆధారాలు.": 9557,
      "శాశ్": 9558,
      "నివా": 9559,
      "సంవత్సార": 9560,
      "కిందట": 9561,
      "క్రి.పూ.": 9562,
      "సమయంలో,": 9563,
      "నియో": 9564,
      "మెహర్": 9565,
      "ఉపఖండపు": 9566,
      "కనిపించింది.": 9567,
      "విధంగా": 9568,
      "సింధుాలోయ": 9569,
      "అభివృద్ధ": 9570,
      "ఆసియాలో": 9571,
      "క్రీ.": 9572,
      "శతాబ్దం,": 9573,
      "క్రీ.పూ.20": 9574,
      "వర్ధిల్ల": 9575,
      "సింధులోయ": 9576,
      "నాగరికత.": 9577,
      "క్రీ.పూ.5": 9578,
      "నుండి,": 9579,
      "భారతంలో,": 9580,
      "సామ్రాజ్యం,": 9581,
      "వారసత్వానికి": 9582,
      "విలువైన": 9583,
      "సేవ": 9584,
      "అశోకు": 9585,
      "వంశంలో": 9586,
      "రాజు.": 9587,
      "श्रीलं": 9588,
      "बौद्ध": 9589,
      "मौर्य": 9590,
      "उत्तरी": 9591,
      "दिल्ली": 9592,
      "मिला": 9593,
      "लंबे": 9594,
      "वाली": 9595,
      "पंजाब": 9596,
      "जिन्हें": 9597,
      "बढ़ती": 9598,
      "कश्मी": 9599,
      "लेकर": 9600,
      "परंपरागत": 9601,
      "करते": 9602,
      "किए": 9603,
      "अनेक": 9604,
      "जीवन": 9605,
      "आगमन": 9606,
      "मैदानी": 9607,
      "उनके": 9608,
      "पूरे": 9609,
      "प्रणा": 9610,
      "कृषि": 9611,
      "उनकी": 9612,
      "इसमें": 9613,
      "होना": 9614,
      "इंदि": 9615,
      "सदस्य": 9616,
      "परीक्ष": 9617,
      "ऊँची": 9618,
      "सहायक": 9619,
      "करती": 9620,
      "पाया": 9621,
      "पूरा": 9622,
      "तीन": 9623,
      "रहा।": 9624,
      "शुरुआत": 9625,
      "किसी": 9626,
      "कार्यकाल": 9627,
      "कार्यपालिका": 9628,
      "सदस्यों": 9629,
      "से,": 9630,
      "जिनमें": 9631,
      "मंत्रिम": 9632,
      "इसका": 9633,
      "प्रत्येक": 9634,
      "सोवियत": 9635,
      "संबंधों": 9636,
      "रूस": 9637,
      "सामरिक": 9638,
      "हाल": 9639,
      "प्रदान": 9640,
      "सक्रिय": 9641,
      "अमरीकी": 9642,
      "डालर": 9643,
      "पर्यटन": 9644,
      "उपयोग": 9645,
      "लोकप्र": 9646,
      "हॉकी": 9647,
      "महासा": 9648,
      "सीमा": 9649,
      "सम्पूर्ण": 9650,
      "तब": 9651,
      "चुकी": 9652,
      "जैन": 9653,
      "प्रारम्भिक": 9654,
      "साम्राज्यों": 9655,
      "उनका": 9656,
      "धर्म,": 9657,
      "सेनाओं": 9658,
      "लगात": 9659,
      "अन्ततः": 9660,
      "धीरे-": 9661,
      "हुआ,": 9662,
      "जिसने": 9663,
      "प्रभावशा": 9664,
      "आंदोलन": 9665,
      "विरो": 9666,
      "गया,": 9667,
      "साक्षर": 9668,
      "पुरु": 9669,
      "सूचना": 9670,
      "सेवाओं": 9671,
      "शिक्षा": 9672,
      "निवास": 9673,
[...]
