[UNK]


!
"
#
$
%
&
'
(
)
*
+
,
-
.
/
0
1
2
3
4
5
6
7
8
9
:
;
<
=
>
?
A
B
C
D
E
F
G
H
I
J
K
L
M
N
O
P
Q
R
S
T
U
V
W
X
Y
Z
[
\
]
^
_
`
a
b
c
d
e
f
g
h
i
j
k
l
m
n
o
p
q
r
s
t
u
v
w
x
y
z
{
|
}
~
°
·
Ö
á
â
æ
ç
è
é
í
ñ
ö
ü
ā
ī
İ
Ś
ś
ū
ș
ə
ɦ
ɪ
ɾ
ʊ
ʼ
ˈ
ː
ί
α
δ
θ
ν
π
ς
ό
ँ
ं
ः
अ
आ
इ
ई
उ
ऊ
ऋ
ऍ
ए
ऐ
ऑ
ओ
औ
क
ख
ग
घ
ङ
च
छ
ज
झ
ञ
ट
ठ
ड
ढ
ण
त
थ
द
ध
न
ऩ
प
फ
ब
भ
म
य
र
ल
ळ
व
श
ष
स
ह
ऻ
़
ऽ
ा
ि
ी
ु
ू
ृ
े
ै
ॉ
ॊ
ो
ौ
्
॔
।
०
१
२
३
४
५
६
७
८
९
॰
ం
ః
అ
ఆ
ఇ
ఈ
ఉ
ఋ
ఎ
ఏ
ఐ
ఒ
ఓ
ఔ
క
ఖ
గ
ఘ
చ
ఛ
జ
ఞ
ట
ఠ
డ
ఢ
ణ
త
థ
ద
ధ
న
ప
ఫ
బ
భ
మ
య
ర
ల
ళ
వ
శ
ష
స
హ
ా
ి
ీ
ు
ూ
ృ
ె
ే
ై
ొ
ో
ౌ
్
ṅ
ṇ
Ṛ
ṣ
ṭ
Ἰ
‌
‍
‎
–
—
‘
’
“
”
†
•
′
‹
›
⁡
₹
↑
−
▁
﻿
wi
ki
wiki
ia
dia
or
tt
](
:/
htt
http
pe
://
https
https://
](https://
g/
.or
.org/
pedia
.wiki
.org/wiki
.org/wiki/
.wikipedia
.wikipedia.org/wiki/
▁[
en
te
▁"
")
in
an
on
In
th
](https://en
](https://en.wikipedia.org/wiki/
ti
hi
India
er
ar
20
al
es
ार
](https://hi
](https://hi.wikipedia.org/wiki/
▁क
re
of
▁|
्र
is
the
ci
भार
भारत
tion
and
om
ed
te_
▁-
▁स
▁the
▁of
#ci
#cite_
it
▁(
ou
as
](https://en.wikipedia.org/wiki/India
201
ic
▁म
▁India
्य
le
OT
19
oo
▁in
no
్ర
id
ra
रा
](https://te
](https://te.wikipedia.org/wiki/
▁प
ent
▁s
](https://en.wikipedia.org/wiki/India#cite_
▁and
200
-0
▁p
**
ate
et
ri
ార
ान
ing
-1
am
ें
▁c
र्
us
ation
at
▁C
▁A
ref
▁के
ag
](https://hi.wikipedia.org/wiki/भारत
note
्त
).
▁ह
▁S
ook
ac
\_
▁f
[[
ang
ad
ref-
note-
▁t
78
▁b
ve
li
ur
lo
या
िक
um
ాల
▁m
▁P
ver
ist
IS
ीय
we
▁में
ul
com
he
FO
▁अ
▁1
NOT
OTNOT
FOOTNOT
FOOTNOTE
"),
్య
of_
978
_of_
BN
ISBN
ww
ch
ial
.

▁[↑
fi
ro
ce
st
భార
భారత
దే
ों
▁201
un
ory
దేశ
స్
il
▁w
]](https://en.wikipedia.org/wiki/India#cite_
▁d
वि
enti
ter
our
ना
](https://en.wikipedia.org/wiki/India#cite_ref-
]](https://en.wikipedia.org/wiki/India#cite_note-
21
्ष
▁ప
▁T
▁ज
ol
ons
ाल
▁M
identi
00
lin
fier
identifier
▁R
సా
_क
tic
▁द
identifier)
▁है
िया
न्
ర్
-0)
ेश
web
त्र
](https://hi.wikipedia.org/wiki/भारत#cite_
▁to
chi
▁**
राज
red
న్
em
book
res
▁|

▁B
▁a
),
ment
es/
s.
भा
cial
ni
age
और
25
▁ब
ig
ंग
pg
▁भारत
्व
_(
23
10
ला
▁प्र
▁की
link
=1
ir
ति
IT
▁D
▁न
edit
▁l
▁"S
26
ity
action
angu
ind
▁से
sia
▁India")
ER
.com
24
EF
action=
ITER
action=edit
&red
?action=edit
link=1
ITEREF
&redlink=1
?action=edit&redlink=1
.j
ay
ता
▁और
_स
▁[↑](https://en.wikipedia.org/wiki/India#cite_ref-
లు
ly
.com/
्ट
pecial
▁e
▁का
्रे
రా
▁E
ma
india
ourc
)

199
con
·**
▁**·**
ion
_India
▁•
pecial:
▁*
భారతదేశ
me
28
ld
_S
.శ
.శ.
#C
ct
లో
Uni
cal
▁"भारत
go
").
సా.శ.
#CITEREF
ved
ources/
स्त
978-0
Book
▁h
▁H
outh
up
_in
Sources/
pecial:Book
pecial:BookSources/
ber
oun
rom
▁व
राज्य
▁క
978-0-
▁G
▁N
न्द
क्ष
ित
षा
11
sh
www
▁आ
-3
for
త్ర
op
ాలు
ास
_A
రి
▁200
ry
-4
el
www.
archi
gory
క్
ategory
mp
पु
▁त
ంద
▁on
ategory:
ew
tu
calf
vers
anguage
50
▁20
ని
▁వ
▁re
etcalf
ak
▁th
भाषा
ary
")

ational
ub
ab
](https://en.wikipedia.org/wiki/India#CITEREF
-8
archive
err
स्
ast
22
n_
ge
ish
30
▁19
The
ల్
est
▁[S
देश
.in
▁n
భారతదేశం
od
मा
▁or
ress
▁(identifier)
_(identifier)
▁(identifier)")
था
री
णी
18
ची
]](https://en.wikipedia.org/wiki/India#cite_note-FOOTNOTE
ted
_of_India
29
ంగ
▁F
▁from
▁को
▁ग
archive.org/
--
▁J
rit
▁స
▁---
ain
http://
error
]](https://hi.wikipedia.org/wiki/भारत#cite_
ड़
.[[
gh
▁["
Har
.jpg
Metcalf
▁మ
orld
▁p.
ष्ट
ud
ep
▁उ
▁for
_P
goo
web.
▁ए
ust
ाद
](https://web.
▁by
web/
archive.org/web/
](https://web.archive.org/web/
▁पर
్రా
books
List
im
gle
▁In
_and
▁.
40
AA
versity
▁है।
os
_1
id=
श्रे
27
▁[म
▁"C
ष्ट्र
▁[A
श्रेणी
ha
har
ీయ
▁ar
_के
ount
का
▁g
▁श
▁is
](https://en.wikipedia.org/wiki/S
_म
▁सं
google
with
ort
conom
श्रेणी:
ండ
▁Indian
978-1
▁L
ने
ec
?id=
ले
books.
.com/books
google.com/books
books.google.com/books
ेत्र
▁O
▁वि
books.google.com/books?id=
प्र
▁[ISBN
ens
umb
म्
िल
▁"ISBN
ISBN_(identifier)
_C
_in_India
జ్య
s/
-9
's
15
▁చ
late
](https://hi.wikipedia.org/wiki/भारत#cite_ref-
]](https://hi.wikipedia.org/wiki/भारत#cite_note-
▁Asia
हि
▁./
ap
▁K
▁W
▁[*
*.
13
](https://books.google.com/books?id=
ther
्या
ng
▁[C
▁इ
16
తా
िय
ము
ut
](https://en.wikipedia.org/wiki/C
నా
17
▁([
inal
la
తి
్ట
gov
_के_
arg
सं
University
##
px
p.
do
▁The
सा
ी](https://hi.wikipedia.org/wiki/
▁र
▁"M
ot
uc
mons
ज़
సి
media
errors
త్
Harv
nd
त्त
▁pp.
s,
](S
.gov
ff
▁[↑](https://en.wikipedia.org/wiki/India#cite_ref-FOOTNOTE
per
.in/
14
av
de
▁be
pecial:BookSources/978-0-
-7
र्व
umm
-2
ong
PA
▁[M
fn
aj
राष्ट्र
over
](https://en.wikipedia.org/wiki/M
load
▁(సా.శ.
und
upload
ence
tein
ys
.wikimedia
ance
)[[
br
िस
యా
35
commons
![
ंड
ులు
▁రా
al_
pedia/
.org/wikipedia/
thumb
्षेत्र
upload.wikimedia
upload.wikimedia.org/wikipedia/
](https://upload.wikimedia.org/wikipedia/
▁सा
–సా.శ.
▁भाषा
](https://en.wikipedia.org/wiki/ISBN_(identifier)
▁[ISBN](https://en.wikipedia.org/wiki/ISBN_(identifier)
/thumb
/thumb/
-5
di
cy
▁అ
▁"म
art
](https://upload.wikimedia.org/wikipedia/commons
rie
ి.
▁ल
%2
ी_
▁[B
&pg
&pg=
ans
](https://upload.wikimedia.org/wikipedia/commons/thumb/
px-
47
▁"B
iginal
ow
▁as
▁st
_M
पा
▁ప్ర
चि
जा
.p
36
_D
ిక
▁राज्य
ear
मन
lig
ages
all
▁I
tern
తం
log
38
▁original
श्रेणी:Harv
▁"A
2.
ूची
&pg=PA
▁"P
विश
ht
Category:
▁य
](https://web.archive.org/web/201
rchi
▁भ
ana
▁Ret
ిన
▁हैं
జ్యం
land
▁with
70
गर
rieved
▁Retrieved
ll
1.
ere
esh
_T
జా
2006
temp
](https://en.wikipedia.org/wiki/B
emp
ी")
opul
कार
हा
2018
ంచ
కు
Indian
ore
ss
omm
ensus
ummit
og
-10
](https://te.wikipedia.org/wiki/భారతదేశం
▁[↑](https://hi.wikipedia.org/wiki/भारत#cite_ref-
कि
nic
](https://en.wikipedia.org/wiki/P
क्त
ंग्रे
हिन्द
▁University
ates
ेला
ను
పూ
▁no
2011
ोल
ass
ile
*](https://books.google.com/books?id=
ke
पर
%20
मी
titu
▁"T
ism
ata
భా
▁&
▁[P
▁कर
istory
-6
39
nment
](http://
hin
ani
ric
ప్ర
48
rchived
िर
ire
ank
ద్
ింద
▁क्षेत्र
.jp
oc
ेष
द्
▁was
▁*[
opulation
se
/https://
60
धान
▁ఉ
▁अन
Stein
र्म
▁"E
90
ts
ंध
ం:
](https://hi.wikipedia.org/wiki/म
Hind
से
.jpg)
ard
ाना
ubl
sher
वा
ृत
ord
eral
▁Category:
ue
श्
▁ఆ
्रा
▁ex
ai
to
%2C
.jpg/
स्तान
](https://www.
ries
▁language
ेल
ोत
7.
धार
▁an
arget
language
](https://en.wikipedia.org/wiki/A
▁de
भि
▁ర
_N
"))
▁[अ
▁ने
anguages
ture
CS
ies
](https://en.wikipedia.org/wiki/E
_R
▁१
9.
_b
▁are
మా
▁సా
భారతీయ
45
▁"अ
_B
other
వా
ीय_
").

के
िण
▁r
](https://en.wikipedia.org/wiki/T
46
▁Press
ीप
రు
▁[भारत
▁"D
als
लेख
AJ
43
▁ति
▁एक
ical
BAJ
QBAJ
4.
ont
2010
ingh
ूल
ations
iss
mai
_s
వి
ష్ట
▁it
ian
tem
ార్
పూ.
▁पु
▁Hind
_Asia
विशेष
ंद
ंत्र
ोग
▁"G
▁"List
క్ష
udd
tics
ford
_G
](https://en.wikipedia.org/wiki/D
ib
▁V
](https://mai
▁"स
స్థ
onstitu
क्षिण
రిత్ర
विशेष:
les
ine
aki
ex
▁[978-0-
](https://mai.wikipedia.org/wiki/
iv
थि
AAQBAJ
df
▁[स
/http://
xford
▁[G
htm
▁whi
eng
ern
న్న
▁प्रदेश
ountries
conomic
ers
omp
hm
49
▁"N
a")
List_of_
end
MetcalfMetcalf
tive
▁2011
ess
stan
ction
ral
ik
यु
▁(P
33
6.
_E
pecial:BookSources/978-1
RI
_p
oli
ven
गमन
नी
artic
ult
tim
vi
▁तिथि
▁3
-p
ions
जन
द्य
ी_स
conomy
](https://te.wikipedia.org/wiki/భారతదేశం#cite_
).

धिक
▁ख
▁[2
▁"भारतीय
77
▁[D
na
ँच
ून
గా
▁"R
2009
▁देश
0%
1998
1)
5.
▁[N
▁"क
ark
्री
▁जन
▁भारतीय
](https://en.wikipedia.org/wiki/G
](https://en.wikipedia.org/wiki/R
ంట
కి
▁तिथि:
port
▁तथा
bot
rou
▁which
ढ़
మ్రా
cont
ష్ట్ర
cl
▁[![
ूर्व
▁[1
▁[E
▁"ब
ties
icial
ope
त्
ంత
▁च
](https://en.wikipedia.org/wiki/N
his
lop
▁अभि
250
▁अभिगमन
au
-1)
.pdf
.pdf)
धर्म
DF
albot
fe
दी
्रोत
▁South
new
्ल
india.gov
out
riti
ती
పు
▁हैं।
](https://en.wikipedia.org/wiki/List_of_
मान
वं
हर
▁[क
ame
Asher
बर
▁న
▁[R
▁[T
ach
▁(PDF
▁li
▁India's
द्ध
8.
▁has
▁that
)")
మి
ాన
](https://hi.wikipedia.org/wiki/क
ration
स्तक
पुस्तक
ublic
विशेष:पुस्तक
्रोत/
ta
territ
gen
रकार
िका
▁जा
▁"Special:BookSources/978-0-
पुर
](Special:BookSources/978-0-
राष्ट्रीय
3.
ob
పా
▁ఇ
▁త
▁राज
▁[ब
▁[Archived
భాష
AAQBAJ&pg=PA
80
_and_
▁5
ous
गु
हार
ali
](https://hi.wikipedia.org/wiki/स
United
RICS
ath
ty
िट
rad
स्क
,_
ज्
పాల
లీ
▁स्
▁pro
▁इस
logy
4)
ile:
sland
inist
sv
idge
हास
िश
▁దేశ
▁मेला
ange
స్తా
▁De
▁–
▁"प
▁वर्
56
eg
ya
File:
ure
िव
వర్
ాయ
pend
aste
रालेख
ost
▁"In
hist
3)
ा_
र्थ
▁हु
_की_स
10.
_में
्च
DP
ree
MetcalfMetcalf2006
ध्य
ुख
](https://hi.wikipedia.org/wiki/अ
000
mpire
ंग्रेज़
మ్రాజ్యం
रालेखित
"

▁[K
ritish
iki
ove
2004
85
_भारत
man
द्र
](File:
rap
amil
దేశ్
▁भी
onstitution
37
ah
▁2014
▁pe
elhi
थान
शिया
ुस
ం](https://te.wikipedia.org/wiki/
ated
bridge
चित्र
ru
ite
▁at
▁सम
](https://en.wikipedia.org/wiki/India#cite_ref-FOOTNOTE
-b
-s
..
12
2007
ambridge
फ़
ంబ
టి
](https://hi.wikipedia.org/wiki/ब
त्तर
.nic
hand
ese
outh_Asia
67
पाल
ोक
▁सूची
velop
▁v
▁cent
late_
do-
्ड
ంలో
](https://hi.wikipedia.org/wiki/भारत_में
స్తాన్
"](https://web.archive.org/web/201
s")
▁"K
hel
मिल
ीन
्स
▁7
usic
▁हि
किस्तान
times
](https://en.wikipedia.org/wiki/In
yson
-d
duc
lia
గు
డు
నే
్చ
ack
ountry
▁भाषा")
oh
▁"Indian
gover
ansk
-t
120
▁"The
▁se
qu
world
ते
మూ
▁[978-1
isation
్రీ
▁History
జాత
▁its
521
RC
▁te
▁un
inent
lection
4%
न")
रु
▁U
▁[प
▁सरकार
्वीप
anskrit
E0%
IN
Oxford
dit
रब
ूच
ूर
లా
ase
ulture
ign
▁reg
ంగా
html
2)
ashm
\_S
row
velopment
Dw
▁घ
▁(201
ater
akistan
alay
uring
template
_d
हु
ा:
డ్
ిల్
▁२
▁జ
▁199
alth
dition
emplate
.nic.in/
World
lish
कर
▁4
orth
mer
mund
/https://www.
othermund
_language
census
गण
दक्षिण
ष्
ैद
లి
lion
స్త్ర
▁तक
साँच
roup
led
pu
](https://en.wikipedia.org/wiki/K
ome
urope
▁wh
irst
.jpg)

ave
ूप
any
ulke
श्चि
62
radesh
59
కా
ణా
దక్ష
ధిక
](https://hi.wikipedia.org/wiki/भारतीय_
नाम
▁ప్రా
▁వి
సియా
overnment
జాతీయ
_F
▁languages
05
_प्र
सम
▁[L
"))

▁sub
▁18
odern
AARC
ज्ञ
Singh
ati
ef
▁ad
▁cont
▁mil
ligion
వం
ury
ों_की_स
▁సం
▁చరిత్ర
▁were
ograp
government
.;
ined
ound
Stein2010
-m
65
tical
doi
ओं
ीं
డి
▁[the
](https://hi.wikipedia.org/wiki/प
]](https://hi.wikipedia.org/wiki/भारत#cite_note-FOOTNOTE
2003
ril
###
![](https://upload.wikimedia.org/wikipedia/commons/thumb/
continent
250px-
"](https://www.
-india
ख्या
जी
")*
erv
न्न
▁le
_by
/c
ంధ
▁किया
స్త
_and_S
_के_राज्य
▁రాజ్యం
Stein1998
▁సామ్రాజ్యం
ंदिर
వర్గ
దక్షి
Singh2009
usin
\_and
\_errors
help
.sv
oi
ames
▁विश
जाब
▁Hindu
val
_the
దీ
▁[In
▁"L
ice
न्द्र
ండి
వర్గం:
6)
History
Talbot
▁2
▁errors
2008
▁St
▁2021
▁([help
AsherTalbot
▁errors"))

%E0%
anc
old
age/
.jpg)](File:
omb
2005
▁2007
ght
69
gan
mber
ंजाब
ण्ड
वन
ुल
తర
ది
▁బ
▁नि
चीन
ission
▁खाना
ों_की_सूची
▁8
rate
").[[
7)
▁हो
▁2010
-in
hy
ms
ug
une
ystem
1_
जरा
बसे
ట్
ిత
](https://en.wikipedia.org/wiki/Indian_
ेंद्र
](https://hi.wikipedia.org/wiki/भारत_क
▁गया
▁Asian
▁राज्यों
58
fn_
uary
▁error
▁template
no-t
▁Sfn
\_no-t
▁target
matics
](https://web.archive.org/web/20
fn\_no-t
template_
arget\_errors
\_Sfn\_no-t
_and_Sfn_
\_and\_Sfn\_no-t
▁error:
▁target:
template_errors
arget\_errors

_and_Sfn_template_errors
\_and\_Sfn\_no-target\_errors

चल
ब्
मे
▁[उ
ise
▁Comm
▁[मूल
_c
ail
▁26
on-
_చ
uk
बंध
ोर
ం")
▁"మ
ant
ालय
ctor
ింది.
ुसार
▁सूची")
34
C&pg=PA
[![](https://upload.wikimedia.org/wikipedia/commons/thumb/
_L
▁CITEREF
ace
_m
aw
eneral
](https://en.wikipedia.org/wiki/L
्रिट
▁ch
▁Ap
स्था
data
51
प्त
िन
ैन
▁ఎ
▁[మ
▁"F
ari
▁सबसे
uly
ियों
▁(సా.శ.పూ.
▁पुरालेखित
चित्र:
▁पुरालेखित।
-g
hind
vis
▁25
▁sfn
isher
Edit
Page/
o-
▁प्रा
ternational
inistry
EditPage/
5)
shi
ister
india.gov.in/
68
fter
lass
pr
year
ధ్య
▁గ
▁శ
▁territ
ork
ories
](https://hi.wikipedia.org/wiki/चित्र:
off
ियाँ
ంద్ర
ustry
पाकिस्तान
क्ति
/artic
cies
rib
ashmir
-l
yn
aman
ats
ood
earch
।[[
ైన
▁"उ
](https://en.wikipedia.org/wiki/F
](https://te.wikipedia.org/wiki/మ
▁పే
▁जिस
_सं
स्थान
air
mb
2014
_Indian_
Union
A4%
वरी
▁ri
याल
ाली
aint
▁./श्रेणी:
युक्त
स्कृत
DwAAQBAJ&pg=PA
▁[F
Rothermund
आई
च्च
ట్ట
హింద
▁భారతదేశం
▁मान
](https://hi.wikipedia.org/wiki/भारत#CITEREF
ంగ్
▁है।

▁साथ
ద్ధ
](https://hi.wikipedia.org/wiki/भारत_में_
330
Wiki
uj
uch
ugh
▁An
umber
▁10
_भाषा
्ला
▁धर्म
197
▁अधिक
▁17
▁**[
्वर
▁आधार
ople
▁this
▁संघ
nglish
श्मी
▁१९
Kulke
a_
low
▁New
की
ज्य
म्रा
ించ
▁ఒ
▁ag
▁था
▁భాష
▁[క
▁"श्रेणी:Harv
](https://hi.wikipedia.org/wiki/श्रेणी:Harv
▁सि
▁India,
ley
ాల్
▁"Special:BookSources/978-1
▁./श्रेणी:Harv
▁./Category:
](Special:BookSources/978-1
▁Island
](http://www.
▁([help](https://hi.wikipedia.org/wiki/श्रेणी:Harv
_and_Sfn_template_errors?action=edit&redlink=1
▁./श्रेणी:Harv\_and\_Sfn\_no-target\_errors

▁([help](https://hi.wikipedia.org/wiki/श्रेणी:Harv_and_Sfn_template_errors?action=edit&redlink=1
ed.
▁Pres
ongress
ombined
1,
100
PP
aper
les/
तमिल
दा
तिहास
▁Empire
म्ब
▁World
emplate:
▁विश्व
8/
att
mar
emb
▁Asia")
ower
Hindi
]](https://te.wikipedia.org/wiki/భారతదేశం#cite_
णा
तंत्र
शास
ेव
చ్చ
జీ
ేంద్ర
ority
▁"క
](https://hi.wikipedia.org/wiki/उ
edi
्यट
्रिटिश
म्राज्य
1/
lim
iron
.jpg/250px-
KulkeRothermund
57
रे
▁बाद
िल्ल
▁[भारतीय
gy
ori
arch
▁July
ledge
▁April
national
ंब
गढ़
भी
मुख
वे
ांग
త్య
బ్
మీ
radition
](https://te.wikipedia.org/wiki/ద
్యా
రాష్ట్ర
माण
▁उप
▁./వర్గం:
Hindu
news/
▁हिन्द
-c
Dyson
dom
king
lear
act
▁"South
ummit")
/http://www.
7-1
Combined
ober
ution
▁[W
."

121
du
viron
▁government
entral
uman
hina
vironment
ves
में
ంక
ప్
యు
▁9
▁[J
▁"J
rab
▁cons
line
्वार
क्षेत्र
eptem
▁शास
తంత్ర
▁not
engal
](https://te.wikipedia.org/wiki/భారతదేశం#cite_ref-
దక్షిణ
]](https://te.wikipedia.org/wiki/భారతదేశం#cite_note-
eptember
_at
07
pt
वर्
ाट
ागर
▁us
▁कार
ide
▁Pradesh
ional
▁language")
also
श्चिम
9)
athe
cre
▁year
](https://en.wikipedia.org/wiki/J
cient
▁into
▁system
▁pl
_Press
uclear
uropean
_స
_और
एं
ोर्
తము
వే
ష్
ాన్
▁थ
స్క
▁En
▁have
ड़ा
imes
fficial
▁यह
ిల్లీ
ज्ञान
▁off
▁15
"](https://
0.
2-0)
_re
ocial
ph
▁[सं
")**
now
anges
▁during
s.[[
_summit
गुजरा
_प्रदेश
%E0%A4%
Dyson2018
,000
uis
argest
▁[Archived](https://web.archive.org/web/20
dus
तर
జి
ధాన
బె
▁"विशेष:पुस्तक
inister
](https://hi.wikipedia.org/wiki/ISBN_(identifier)
](https://hi.wikipedia.org/wiki/विशेष:पुस्तक
▁स्रोत/
▁their
▁पा
ారు
▁comp
](https://hi.wikipedia.org/wiki/भारत_के_
ember
लाई
_स्रोत/
▁కా
▁[ISBN](https://hi.wikipedia.org/wiki/ISBN_(identifier)
_के_आ
▁రాజ
▁लि
▁(PDF)
साँचा:
ographi
ांग्ला
](https://hi.wikipedia.org/wiki/विशेष:पुस्तक_स्रोत/
jab
mi
oor
rin
▁[t
")*.
idd
ram
▁Archived
▁first
▁Pro
ill
ayan
map
odi
▁Press").
outledge
%28
%29
44
_K
ote
एस
annic
▁countries
ref-1
note-1
ctober
ritannic
▁October
▁यु
त्प
fl
son
▁24
▁also
▁par
▁16
▁2023
ंप
దు
మ్
శ్
▁राष्ट्रीय
2023
](https://te.wikipedia.org/wiki/క
▁part
్యవ
▁[↑](https://hi.wikipedia.org/wiki/भारत#cite_
▁जु
▁है,
ेश्वर
ంది.
history
liament
ूचना
_చరిత్ర
330px-
/0
31
ive
▁k
▁21
cience
▁Sh
▁dis
brary
usiness
_In
काल
धी
India)
्यव
▁con
▁Th
india/
▁2024
-80
udden
National
_University
ban
ne
ran
ond
hism
/p
_पर
बाद
रक्ष
ली
ाष्ट्र
००
ఢిల్లీ
పంచ
–1
time
▁स्व
▁India:
entre
etwe
ారి
िक्ष
chno
▁world
▁दक्षिण
िया")
_मेला
नेमा
▁रूप
धार_पर
द्योग
हाराष्ट्र
మూస
_के_आधार_पर
etween
_के_आधार_पर_भारत
/A
ology
estern
19-8
racy
▁Ch
▁Aug
▁September
ishing
▁form
▁(PDF).
▁Commission
▁August
-19
ck
rans
एशिया
तेल
न्त
▁नाम
▁class
ural
rop
unjab
1994
pecial:BookSources/978
_H
▁22
▁[I
▁2019
.svg
-26
pib
वाद
వు
▁wi
▁[न
▁"భారతీయ
thno
▁मंदिर
▁पूर्व
adu
urr
▁अप
▁Metcalf
▁Re
ंगा
▁विक
▁[Archived](https://web.archive.org/web/201
ंग्रेज़ी
▁subcontinent
▁पुरालेखित।.
▁जुलाई
_के_आधार_पर_भारत_के_राज्य
2_
3-0)
iver
wing
er,
ool
_University_Press
ron
सद
सी
▁2018
210
▁2006
fr
ual
one
▁Act
oll
CE
a,
pp
चे
జన
టు
టె
ार्
▁कि
omen
raven
amb
नाग
▁न्या
▁చె
నాయ
–సా.శ.పూ.
▁[↑](https://hi.wikipedia.org/wiki/भारत#cite_ref-FOOTNOTE
▁ఆర్
▁देशों
gency
పాలిత
స్త్రం:
▁ప్రాంత
ేంద్రపాలిత
](https://te.wikipedia.org/wiki/దస్త్రం:
-20
_%28
▁6
▁"H
-17
".
-re
4-0)
tal
टे
ोन
▁res
▁[हिन्द
▁"O
▁India"),
▁Ass
▁Se
▁June
ortal
▁been
ी_भाषा
▁अनुसार
्यवस्था
chnology
_I
▁per
eser
▁but
▁[*A
iddle
cri
pl
ंक
खा
मह
ఖ్య
గో
తో
బి
హి
▁[H
ara
ार्ट
▁population
▁Cambridge
▁between
विधान
ंगाल
▁तट
▁एवं
ffair
श्मीर
స్కృ
ritannica
-language
87
countries
oast
andhi
edic
able
.jpg/330px-
▁2014.

.html
_3
fric
hol
lad
ule
va
पति
ल")
ीस
arh
1947
▁more
▁2016
▁गण
Harle
harma
▁प्रदेश")
embly
rish
▁al
▁ac
ped
ident
amp
ument
▁Population
avid
%2F
904
india.gov.in
Template:
_ప
ok
रो
హా
ి.

▁Y
▁all
▁ను
▁జాతీయ
▁"द
ering
▁केंद्र
भाग
संख्या
%20%20
धिकार
్యవస్థ
8)
mu
oon
▁[[
▁[Indian
rade
▁bec
▁music
igh
berg
ligi
logue
▁century
:[
_W
ft
van
जय
लि
श्री
.org/10.
▁"W
▁"इ
int
2024
_क्षेत्र
ड़ी
▁एशिया
depend
-2)
doi.org/10.
are
ures
istan
epublic
umbai
▁state
81
_अ
fic
ibrary
lang
tates
एँ
गो
स्ट
ैक
ोड़
డా
దా
బడ
మే
రణ
▁లో
peration
▁"I
icy
▁मा
▁मु
▁मूल
▁dance
term
▁जो
ाला
▁after
▁बहु
▁सेना
▁కూ
ాలు,
▁2009
-81
म्बर
▁రాష్ట్ర
विश्व
▁भू
rick
ompany
view
కిస్తాన్
clud
▁చరిత్ర")
ujar
्यटन
thnologue
88
par
ttar
▁[3
▁East
ces
imp
ls
ीत
▁over
ia")
▁[इ
▁"हिन्द
र्द
cember
▁ab
230
form
▁1950
▁[Stein
▁For
▁Jan
▁साम्राज्य
▁समय
गुजरात
4–
76
dustry
pur
wart
zberg
▁other
kim
iation
ince
ones
chwart
▁National
fore
olitical
▁Press.
▁years
chwartzberg
2/
75
her
wo
तिक
भू
ील
ेट
▁ఈ
▁భారత
▁28
](https://en.wikipedia.org/wiki/W
▁comm
▁di
नाथ
▁English
త్రి
ాలు](https://te.wikipedia.org/wiki/
▁अन्य
les\_
▁2011.

▁स्थ
▁वर्ष
ovement
▁region
1-0)
500
_O
lam
alley
ade
life
ird
▁2020
▁number
_De
ganisation
%7
.as
por
y")
त्य
लोक
pear
▁[Metcalf
▁"न
▁"सं
](https://en.wikipedia.org/wiki/H
2016
rime
anglad
▁most
▁India")

cture
▁(identifier)"):[
नेपाल
शासित
angladesh
79
▁es
arb
2019
▁Ar
cyc
obb
-to
64
ID
_క
क्स
टक
धु
पी
िन्
తు
పతి
▁ड
▁फ
▁ని
▁27
▁స్థ
▁[द
▁[అ
▁[ప
▁"భారతదేశం
్రి
ourt
ర్వ
న్ని
ose
म्म
apit
राष्ट्रपति
.jpg)](https://hi.wikipedia.org/wiki/चित्र:
वंश
మిళ
▁जाता
हासागर
ैदान
వంశ
तंत्रता
वेब
द्योगिक
_t
▁en
▁[e
▁[v
theast
2001
olicy
▁election
▁[South
ustral
emple
ikshi
▁[2](https://en.wikipedia.org/wiki/India#cite_ref-FOOTNOTE
▁[1](https://en.wikipedia.org/wiki/India#cite_ref-FOOTNOTE
times.com/
ikshit
*,
-f
ges
ze
णि
encies
asia
2000
atus
▁Congress
_of_the
▁Talbot
▁May
▁दे
▁उत्तर
with\_
▁states
र्थिक
89
Fisher
orther
ash
2012
lob
▁13
union
ode
Fisher2018
-le
Ar
CO
IM
_మ
_భాష
cent
lations
पे
मंत्र
रवरी
िज़
।

ఫ్
▁छ
▁స్
▁[బ
▁[స
▁[पु
▁"అ
ics
ama
wealth
विज्ञान
న్నాయ
▁కాల
ాలు")
]](https://hi.wikipedia.org/wiki/भारत#cite_note-1
ड़े
eport
▁Oxford
ी](https://hi.wikipedia.org/wiki/अ
ndaman
ులు](https://te.wikipedia.org/wiki/
.jpg)](https://te.wikipedia.org/wiki/దస్త్రం:
▁రై
द्यान
यालय
హిందూ
▁[↑](https://hi.wikipedia.org/wiki/भारत#cite_ref-1
▁2006](https://en.wikipedia.org/wiki/India#CITEREF
-21
1–
co
oth
ale
ased
▁Census
formatics
auth
120px-
▁territories
ffairs
-25
32
Vi
_territ
min
oci
डी
तु
वै
ृति
reat
्यता
▁spe
▁Constitution
str
▁2012
▁had
▁वा
हिन्दी
censusindia.gov.in/
ed.).
▁official
ographic
langoff
▁January
orthern
.india
4).
73
a/
eh
p?
pa
▁[s
onwealth
eration
ough
adi
ched
emoc
▁Budd
▁BCE
ight
▁[2](https://en.wikipedia.org/wiki/India#cite_ref-
▁[1](https://en.wikipedia.org/wiki/India#cite_ref-
AsherTalbot2008
▁2010](https://en.wikipedia.org/wiki/India#CITEREF
ughal
CN
Uttar
डु
रण
ल्
ेस
ఆసియా
ద్ర
భూ
మె
య్య
ర్య
▁ల
▁23
](https://doi.org/10.
▁[ज
▁"ప
▁"బ
▁"స
ofindia
ाने
▁अग
▁[↑](https://te.wikipedia.org/wiki/భారతదేశం#cite_ref-
files/
ross
नाव
▁द्वार
माज
త్త
▁అధిక
▁ప్రదేశ్
ప్రదేశ్
सेना
▁चु
▁हुई
▁निर्
त्पाद
▁నుండి
55
_4
country
pect
andard
eds.
riod
▁tradition
come
▁1,
▁dec
▁national
▁Hindi
▁December
▁became
-78
1]](https://en.wikipedia.org/wiki/India#cite_note-FOOTNOTE
GDP
TR
_ब
has
▁ऊ
▁up
▁"आ
");
ala
▁sh
▁two
▁me
change
▁2022
▁रह
▁It
olitics
▁विकास
ligious
86
bi
s-
high
ised
▁Pe
▁Plate
▁March
▁Development
nown
,[[
-23
-28
han
ईसा
कल
खाना
नगर
ूर्
ణి
తమిళ
మైన
హార
ోర్
▁[आ
▁"ఇ
▁"భారత
](https://hi.wikipedia.org/wiki/इ
▁सु
](https://te.wikipedia.org/wiki/బ
▁दिया
▁बढ़
-40
abad
▁మొ
harat
నాగ
త్తర
ులు")
्रां
▁हुआ
फ़रवरी
ष्ण
ंबई
▁लिए
శ్మీ
మూస:
र्दू
censusindia.gov.in/2011
.n
7-0
Asia
if
▁we
▁ro
▁[O
](https://en.wikipedia.org/wiki/The
read
omin
▁includ
rah
▁summit")
etail
ing\_
▁caste
ussia
loy
▁war
ters
1997
_in_S
▁2025
rits
▁artic
▁general
▁[*India
▁"Economy
](https://en.wikipedia.org/wiki/Economy
ivil
.indiatimes.com/
-B
_19
cat
f/
योग
िज
▁'
▁ट
ारी
city
inguis
▁*The
▁क्षेत्र")
erala
्रीका
गणना
2).
EO
WEO
_V
_11
c=
cord
ect
get
nam
vol
▁$
▁Union
ann
tionary
rain
▁1.
▁Times
▁Reg
.png
_f
_प
ae
lesh
rganisation
गोल
द्वीप
धि
न](https://hi.wikipedia.org/wiki/
सभ
శా
ైనా
▁j
▁[ఇ
▁[India
▁[doi
teen
▁"జ
](https://en.wikipedia.org/wiki/O
arna
ार्च
ooperation
](https://te.wikipedia.org/wiki/ఇ
](https://te.wikipedia.org/wiki/స
▁पार्ट
atar
िक्
▁अरब
chool
భారత_
▁जून
olk
▁दिस
राजस्थान
▁BRICS
_(India)
_सा
రాజ
లో](https://te.wikipedia.org/wiki/
రిజ
క్కు
▁संविधान
ండ్
त्तरा
.gov.in/
ow/
जाति
धानमंत्र
▁"Doi
](https://en.wikipedia.org/wiki/Doi
▁खाना")
माणु
▁थी
స్కృతి
▁(identifier)"):[10.
म्मू
IMF
leshow/
▁[doi](https://en.wikipedia.org/wiki/Doi
▁दिसम्बर
▁[doi](https://en.wikipedia.org/wiki/Doi_(identifier)
/S
6).
7/
99
▁time
ini
ered
▁incre
▁Fe
.jpg/120px-
▁Commissioner
5–
C).
_न
yan
डिया
िस्तान
ौद्ध
▁30
▁und
tel
्रम
omas
▁India.
1950
▁Sanskrit
adh
ung
पुरी
imalay
▁War
doc
bruary
ublishing
स्कृति
▁period
.aspx
4/
Craven
cms
oy
slam
yayan
▁ref
▁rate
tes
tecture
than
](https://en.wikipedia.org/wiki/I
19-9
▁sup
logo
▁modern
cean
ilg
illion
▁one
▁Press](https://en.wikipedia.org/wiki/
ultan
521-80
atsyayan
ainting
KulkeRothermund2004
Hinduism
_Island
countries_by
904-7
ricket
ujarat
Craven1997
521-80904-7
&s
.htm
124
LA
bn
ned
tro
रेल
वी
ैल
ैंड
ం?action=edit&redlink=1
చే
బా
▁ध
▁फ़रवरी
▁[జ
](https://hi.wikipedia.org/wiki/सं
▁(eds.
▁मार्च
▁पह
र्स
र्जा
](https://hi.wikipedia.org/wiki/भारतीय
▁పా
त्रि
▁बना
▁2008
▁వా
▁group
ండు
▁చూ
▁इतिहास
త్వ
र्वत
ंडिया
पात
ंग्रेस
ప్రధాన
▁తే
mbol
▁हिन्दी
▁शासन
वेबैक
▁द्वारा
inguistic
minist
▁0.
"):
chin
1990
cond
1162
▁than
▁northern
▁[*The
duction
2]](https://en.wikipedia.org/wiki/India#cite_note-FOOTNOTE
Main
ahar
jan
m.nic.in/
ncl
rg
vatsyayan
way
▁am
▁29
▁emp
▁end
arge
astern
राठ
▁such
109
▁later
ताब्
aksh
▁there
ाद्वीप
▁art
](https://en.wikipedia.org/wiki/South_Asia
म्प
.ph
-108
-107-1
CS1
_BRICS
athak
ovember
▁घाट
▁million
-in-
-lord
19-88
▁classical
ehru
nclm.nic.in/
vatsyayan-lord
/auth
98
ee
ealth
site
utt
ar,
▁(*
-14
▁2017
olper
akh
▁1947
ankar
lobal
olpert
2–
6–
En
JP
_సా
back
ंट
खंड
खण्ड
मार
रू
वार
व्यवस्था
शीन
सभा
हीं
ुरु
ुंबई
ोम
ौर
ौद्योगिक
०१
ంప
కో
గణ
దిన
నై
రీ
▁या
▁"చ
arliament
▁संग
ould
ict
▁मैदान
](https://te.wikipedia.org/wiki/జ
ారం
ammu
्ता:
_of_S
▁2013
नाडु
▁जल
▁Modern
▁दर
▁दृ
▁प्रति
▁प्रमुख
स्त्र
upta
▁క్రీ
▁2004
క్‌
నికి
ల్ల
ంగీ
▁సి
osed
▁Language
](https://hi.wikipedia.org/wiki/भारत#cite_ref-FOOTNOTE
నాభా
▁हैं,
జాబి
किम
पर्यटन
Hindust
ikh
▁[![](https://upload.wikimedia.org/wikipedia/commons/thumb/
दीव
achal
▁इसके
पालिका
▁శా
▁భాష")
▁सिनेमा
▁Environment
బెంగ
िक्षा
▁अगस्त
िक्किम
▁February
జాబితా
BC
cul
lor
ner
rar
ras
ua
war
arly
ed/
▁(2018
ouse
▁south
etra
right
atak
urt
▁mathe
▁Per
▁Pakistan
istrar
▁2019.
olle
ake
owland
MetcalfMetcalf2006),
rowth
▁who
limate
▁2018](https://en.wikipedia.org/wiki/India#CITEREF
Harle1994
.IN
IA
UN
len
nal
rist
गा
निक
फल
ोष
rovis
▁2015
▁Min
▁दो
▁British
_Sh
▁K.
hinese
onstituent
pura
▁2021.

धिकारिक
WEO.IN
IMFWEO.IN
Ludden
Qu
_for
tb
tig
▁14
ild
errit
_Centre
do-A
-to-
▁under
3]](https://en.wikipedia.org/wiki/India#cite_note-FOOTNOTE
Dikshit
European
Schwartzberg
_आ
can
dones
lag
rm
ria
ura
west
टी
लिस
वीं
शक
स](https://hi.wikipedia.org/wiki/
ां
ाम
చల్
యన్
షు
ూర్
▁राष्ट्र
▁[m
▁[ओ
▁[చ
▁[భారత
▁[భారతీయ
▁"V
▁"ओ
](https://en.wikipedia.org/wiki/V
arn
esearch
▁industry
rative
](https://te.wikipedia.org/wiki/ప
](https://te.wikipedia.org/wiki/భారతీయ
ార్ట
ingdom
ాలయ
▁many
state
▁long
▁large
▁2003
క్క
▁వ్యవస్థ
ast_Asia
▁ము
osi
ండో
िये
ముంబ
utra
సిన
ినల్
ద్ద
▁ఉన్న
▁ఉన్నాయ
ृत्य
▁rule
ूनिव
పాకిస్తాన్
▁people
ूरो
ంధీ
](https://hi.wikipedia.org/wiki/भारत_की_
](https://hi.wikipedia.org/wiki/भारत_का_
inistry_of_
_संघ
▁ఒక
▁ఒరిజ
▁युद्ध
तेलु
pecial:BookSources/978-81
▁न्यायालय
వంశం
▁[पुरालेखित
](https://en.wikipedia.org/wiki/Economy_of_
धानमंत्री
▁(eds.).
▁తేదీ
▁among
DikshitSchwartzberg
ార్టీ
▁ఒరిజినల్
DikshitSchwartzberg2023
"](https://books.google.com/books?id=
-of
2,
aus
ele
▁[978
▁[United
tions
▁Ac
▁["C
avy
ssam
▁union
▁States
ances
Wikipedia
-प
545
पान
हित
िला
▁out
religion
▁सद
ety
-15
uslim
▁All
▁Bank
.com/news/
118
▁["India
▁original](https://www.
▁ext
%2C_
rown
ervation
▁2021.
▁प्राप्त
/articleshow/
▁कार्य
01
3/
7,
_J
languages
rdu
wal
▁em
pee
▁"India
eral_
alore
2017
rac
rim
▁Arab
▁Afric
achin
angalore
rol
▁economic
ources
_Summit
2905
key
ineering
viol
arket
ynast
▁Islands
▁Act,
_in_South_Asia
1162-2
-107-11162-2
19-882905
erritory
ast_Asia_Summit
19-882905-8
.fr
6/
_ए
_देश
a-
rd
ymbol
ंका
कट
गंगा
देव
भो
र-
लंका
स")
हैद
ीमा
ूह
జ్
వరి
శ్చ
ిన్న
ెల
▁high
tex
▁"భారతదేశ
](https://hi.wikipedia.org/wiki/आ
్రె
राबाद
र्ना
▁अप्र
_का_
resident
254
▁बा
▁नी
24)
1996
ాలు

నిస్తాన్
▁మధ్య
▁[Asher
▁संबंध
हिमा
▁Kashmir
त्तीस
र्वो
▁भाषाओं
▁original](https://
](https://te.wikipedia.org/wiki/భారతదేశంలో
▁करने
िरपे
▁*[The
▁अन्त
वायु
_New
ीपी
స్థాన్
endra
▁मेला")
▁हुए
ुख्य
meric
मेर
▁పేజీ
िल्ली
orities
भीम
మ్మూ
▁[हिन्दी](https://hi.wikipedia.org/wiki/
▁Assembly
महाद्वीप
▁गणराज्य
▁"భారతదేశంలో
▁చూసిన
▁తేదీ:
हैदराबाद
శ్చి
र्नाटक
िरपेक्ष
▁పేజీని
71
84
II
South
economic
ix
▁imp
tition
ictionary
▁some
▁CE
ulti
ments
▁Economic
▁GDP
ingham
"](https://web.archive.org/web/20160
▁territory
.png)
300
6]](https://en.wikipedia.org/wiki/India#cite_note-
Spear
che
cted
d/
detail
election
fgh
iri
jpg
k:
pic
yle
zation
त्व
लयाल
िम
▁ra
▁he
dian
▁[19
▁"Oxford
ines
inance
▁कुल
itary
2015
▁मे
196
▁social
र्ष
ada
▁maj
▁minister
ility
▁बन
23)
26)
ताज
pecial:EditPage/
▁her
▁वार
▁Nadu
-317
ainism
▁...
▁शताब्
प्रा
apan
.gov/
overe
ligence
ohn
/article
ोर्ड
%E0%A4%B
Artic
censusindia.gov.in/2011census
▁article
teenth
telligence
urton
arnatak
Spear1990
fghan
pecial:EditPage/Template:
415
6-0)
7-0)
_n
a.
e/
oa
▁/
▁(1,
ical_
▁since
▁R.
▁Raj
▁land
28)
▁Nations
▁3,
...
.svg/
▁used
0)
119
3),
7_
91
94
eb
i,
ihar
jo
press
ंह
गल
झार
तट
मालय
ल](https://hi.wikipedia.org/wiki/
हन
हरी
िहार
షన్
హ్
ెలు
▁ऑ
▁ओ
▁लेख
▁history
▁term
▁[V
▁[Oxford
▁"ज
](https://hi.wikipedia.org/wiki/ओ
reme
▁they
▁महासागर
▁India*](https://books.google.com/books?id=
](https://te.wikipedia.org/wiki/అ
etary
▁China
▁केन्द्र
▁ही
▁होत
roj
ournal
ियां
▁नद
▁नहीं
▁से](http://www.
రియా
पुरा
स्ला
ains
▁మార్
▁उद्यान
▁है।[[
▁Official
▁Wiki
▁रहा
हाय
ప్రపంచ
विशेष:EditPage/
▁मेला](https://hi.wikipedia.org/wiki/
गणराज्य
श्चिमी
▁సంస్కృతి
దీవ
▁स्रोत/978-0-
▁स्रोत/978-1
](https://hi.wikipedia.org/wiki/विशेष:पुस्तक_स्रोत/978-0-
](https://hi.wikipedia.org/wiki/विशेष:पुस्तक_स्रोत/978-1
_Informatics
▁भूम
_Development
union_territ
▁चुनाव
रेलू
▁[पुरालेखित](https://web.archive.org/web/201
र्वोच्च
विशेष:EditPage/साँचा:
_Informatics_Centre
-India
1-0
UCN
az
ov
owe
olog
work
▁ci
▁oc
orest
▁"United
▁"History
](https://en.wikipedia.org/wiki/History
19-5
1970
▁Cons
agar
▁SAARC
▁found
▁trans
▁both
urban
rote
▁largest
industry
ly,
▁General
verse
▁2026
_Pradesh
](https://en.wikipedia.org/wiki/South
_Temple
riculture
reek
ography
_at_the
▁play
▁world's
▁2006](https://en.wikipedia.org/wiki/India#CITEREFMetcalfMetcalf2006),
▁article:
fghanistan
▁occ
3TR
5-0)
Ag
RL
_उ
_en
ao
अन
फ्रीका
भ्यता
िख
१९
▁1998
")[[
ins
rature
र्ज
▁Al
ISO
india-g
▁आधिकारिक
imf
harm
▁संस्कृति
ffer
ffice
▁जनगणना
करण
ज्ञा
pring
3TRt
127
9).
bank
itt
stitu
ancy
its
▁(20
onsoon
▁India").
243
▁2005
▁north
▁Fr
own
▁status
-india-
▁left
formation
ociety
.aspx?
-विज्ञान
4-108
63
6]](https://en.wikipedia.org/wiki/India#cite_note-FOOTNOTE
Robb
Sharma
_व
_వ
britannica
gram
hang
ili
lack
ning
ris
sur
ंच
ईरा
गान
छत्तीस
टान
पक
भु
लग
सून
िंध
ीच
ం"),
ంత్రి
ఆఫ్
కత
కై
క్య
దాయ
రే
లంక
వీ
శ్రీ
షి
సు
▁ఏ
▁2.
oral
](Category:
▁[च
▁[सा
▁[సి
▁"ल
ess/
▁कई
▁कश्मीर
भारत)
▁सैन
▁(India
](https://te.wikipedia.org/wiki/చ
▁पर्वत
▁Company
▁Summit")
los
▁member
road
states
స్సా
वित
▁పరి
▁పార్టీ
_का
▁दि
న్‌
emale
▁Bengal
25)
▁बीच
▁Delhi
▁से](http://
▁కు
▁Gandhi
न्दिर
क्षा
ryan
▁వచ్చ
▁गा
▁गु
epal
▁उत्पाद
▁"Category:
_मंदिर
▁संसद
लेट
▁इन
ముద్ర
▁began
िस्ट
▁करोड़
ock
▁अनु
▁[अंग्रेज़
केर
uddhism
ibet
engali
▁"National
_Empire
ultural
గాంధీ
▁हैं।

▁राजनी
▁"पंजाब
र्थव्यवस्था
ducation
నేపాల
qual
▁[पंजाब
Oxford_University_Press
Stein2010),
usiness/
▁होता
ब्ब
▁పేరు
▁जिसमें
హిందీ
▁Empire")
074-108
▁कारण
_मेला?action=edit&redlink=1
▁చెయ్య
esert
श्रीलंका
गोआ
▁కూడా
▁2010](https://en.wikipedia.org/wiki/India#CITEREFStein2010),
-78074-108
yanmar
▁Press](https://en.wikipedia.org/wiki/Oxford_University_Press
ultanate
र्सिट
ministrative
rgani
ంగీతం
ముంబై
ूनिवर्सिट
శ్చిమ
Articles\_
▁మార్గ
britannica.com/
gramme
▁[अंग्रेज़ी](https://hi.wikipedia.org/wiki/अ
▁చెయ్యబడ
-78074-108-6
/India
130
54
Pages
_2
ities
ling
tice
hief
itz
lect
▁Science
▁12
ement
▁David
akhand
ubcontinent
epart
▁Valley
olden
-largest
-language\_
Pages\_
epartment
.world
1-1
8-0)
Report
eval
भर
मो
हरा
▁50
aran
▁power
▁C.
▁Con
url
local
▁made
▁Pl
▁2011.
▁total
def
_Delhi
ंग्रेजी
▁depend
▁पुरा
▁वर्ग
edieval
▁"हिन्दी")
▁शताब्दी
-C
.bn
_g
af
be
ho
ie
pres
anor
thnic
eries
arl
aria
aldi
cip
icha
▁prime
ament
lowing
003
▁Be
▁app
253
105
sian
▁relations
▁From
.[[3
ots
otals
undament
ommonwealth
order
_East_Asia_Summit
rough
](https://en.wikipedia.org/wiki/List_of_countries_by
histor
AARC_summit
▁lead
/cb
maputra
flu
rishna
▁York
emocracy
rahmaputra
rovisional
do-Aryan
▁(India)")
rganization
aldives
ichael
110
72
9,
_9
glia
ks
known
ser
इल
पि
मर
शा
ीगढ़
ॉक
ोस
గర
టక
టా
దార
నీ
రో
సభ
ెద్ద
▁[वि
enn
▁"च
▁"సి
](https://hi.wikipedia.org/wiki/च
](https://hi.wikipedia.org/wiki/ल
▁कु
ret
▁स्त
▁सूचना
as,
▁मध्य
](https://te.wikipedia.org/wiki/భారత_
▁sp
ानव
ams
urn
▁अव
▁పు
▁जी
ालदीव
▁Mon
▁दशक
ेशन
ेशिया
emon
▁D.
రాజ్య
▁కేంద్రపాలిత
क्षर
षाण
-30
elang
स्थ
▁మా
काश
▁शक्ति
▁शिक्षा
▁చే
ము")
త్స
ंडीगढ़
▁రాజ్య
▁लोग
▁क्षेत्रीय
▁area
వాతంత్ర
ivis
जनसंख्या
▁जनसंख्या
▁स्था
▁దేశాల
లాదేశ్
ष्ठ
]](https://hi.wikipedia.org/wiki/भारत#cite_note-FOOTNOTEStein1998
]](https://hi.wikipedia.org/wiki/भारत#cite_note-FOOTNOTESingh2009
స్తు
▁సామ్రాజ్యం](https://te.wikipedia.org/wiki/
ంగ్లాదేశ్
▁భాషలు
मुख्य
ారు.
_ప్రా
fication
▁estim
్రిటి
▁అధికార
त्तराखण्ड
etraglia
ూర్పు
▁अप्रैल
हिमाचल
▁लेख:
3TRtDwAAQBAJ&pg=PA
కైవు
318
i-
vid
▁ed.).
▁[c
on,
▁(2006
▁country
▁Sec
▁Publishing
_of_C
▁Tamil
▁Di
▁Ex
▁Himalay
ounci
](https://web.archive.org/web/200
imachal
▁Press,
National_Informatics_Centre
▁2019.

apita
ustralia
document
National_Informatics_Centre2005
*)
-and
129
5%
7]](https://en.wikipedia.org/wiki/India#cite_note-FOOTNOTE
IJ
NGDP
Rowland
Un
_द
_with
aur
garh
kar
lance
rid
गू
तृत
थिल
मु
वास
श्य
ैथिल
▁his
orce
ortheast
▁[p
▁[दक्षिण
▁"[
▁"दक्षिण
▁"तमिल
aries
ared/
20)
भारतीय
icon
▁मुख्य
leg
rig
ing_
-135
▁co
ages/
▁mar
▁movement
▁11
olon
00)
linkim
▁River
-0)

aylor
▁economy
▁Ge
shared/
force
abha
](https://en.wikipedia.org/wiki/India#CITEREFB
asting
▁non-
▁["The
udi
ummer
overty
▁लोक
▁राज्य")
ternal
ोलन
operation
do-P
▁tex
")*,
.svg.png)
hola
-lead
nclm.nic.in/shared/
donesia
india-glance
Rowland1970
linkimages/
nclm.nic.in/shared/linkimages/
india-glance/
-22
/P
53
QAAQBAJ&pg=PA
cess
dr
rof
arath
ominal
educ
asing
vel
urch
▁Republic
▁Linguistic
.html)
education
-S
-n
-with
.ni
/D
1-3
DD
Wolpert
_इ
_राज
ey
eligion
iz
public
rial
uth
y,
को
गत
धा
बा
बी
म")
वल
षय
िनेमा
ृद्ध
८५
ంజా
గి
టీ
టాన్
మంత్రి
లను
వె
వరణ
హదార
ూచ
▁హ
▁భారతదేశ
.org
▁[4
▁[पाकिस्तान
▁"पाकिस्तान
arli
isc
them
omes
▁सक
▁सभा
▁मो
्यों
్రమ
-16
▁P.
▁Public
tical_
▁द्वीप
्वतंत्रता
▁प्रेस
▁प्रौद्योगिक
భారతదేశ_
▁व्य
▁కొ
-3)
▁వ్యా
▁new
▁J.
▁మత
▁మతము
good
▁शु
తావరణ
ियार
నాడు
त्तरी
▁लग
परमाणु
▁ఉంది.
ेली
ूर्वी
▁life
▁जाती
▁ఇతర
▁राजवंश
ज्ज
▁स्थान
ాయి
ణాసియా
▁प्राचीन
ship
▁धर्म")
▁था।
▁उपमहाद्वीप
ांग्लादेश
టెడ్
▁ఆర్కైవు
cript
▁రైలు
భూటాన్
pectancy
▁पहले
_సామ్రాజ్యం
ildlife
▁[हिन्दी](https://hi.wikipedia.org/wiki/हिन्दी
▁चुनावों
pringer
▁सैन्य
వాతంత్ర్య
Wolpert2003
"[[
122
2]](https://en.wikipedia.org/wiki/India#cite_note-
2-4
All
Gua
JIJ
Zva
ez
lurton
mal
rust
s_of_India
t-
ving
ym
▁urban
ency
onom
](https://en.wikipedia.org/wiki/United
erry
arendra
▁them
icob
▁India](https://en.wikipedia.org/wiki/G
▁influ
rat
ravi
▁summit
-00
▁pre
▁painting
ature
▁Affairs
▁S.
lief
lopedia
▁western
▁dire
21)
nium
▁Data
ayback
▁eastern
▁Europe
isha
▁1960
▁["A
uduch
▁Lank
-90
▁Kingdom
▁[↑](https://en.wikipedia.org/wiki/India#cite_ref-FOOTNOTEMetcalfMetcalf2006
avi
_Nadu
ext
ikkim
▁[National
ports
general_
amil_Nadu
▁contrib
_Indian_general_
▁dispu
%7C
%7c
cyclopedia
volution
▁employ
quality
GuaJIJ
ZvaGuaJIJ
uducherry
_Indian_general_election
ZvaGuaJIJgo
-50
-29
/ark
0–
3,
320
9–
CL
Vu
ZVu
_on
_24
bc
f.fr
kZVu
lm
ward
▁ले
:/121
▁[ड
208
ripura
217
▁भारत")
▁आर्थिक
akes
▁gre
anipur
48/cb
▁नेतृत
▁जनवरी
▁२०१
actbook
cyclop
Uttarakhand
▁Minorities
.bnf.fr
/ark:/121
.bnf.fr/ark:/121
.bnf.fr/ark:/12148/cb
-on-
3-8
;

NA
gra
hra
ii
tered
reed
-06
▁culture
▁billion
ource
▁Government
▁Indus
▁Ocean
ogue
MetcalfMetcalf2012
▁2,
8/8
duct
urrent
.html).
cording
omestic
4]](https://en.wikipedia.org/wiki/India#cite_note-
5]](https://en.wikipedia.org/wiki/India#cite_note-FOOTNOTE
Kashmir
Provisional
SAARC_summit
_घ
aut
each
hrist
lood
mrits
oard
ple
y-
yer
yam
ंत
अभि
उप
क्
खन
ग्व
च्
जं
दार
फोर्ड
ब्ल
बेट
यत
रि
लों
ैंक
ॉल
ॉंग्रेस
ौसेना
२००
ంశ
ఆర్
ఉత్తర
ఒడి
కీయ
గలు
చు
జరా
తూర్పు
భు
మన్
యి
లస
ీన
ేక
▁·
▁డ
▁im
▁ईसा
▁జాబితా
iam
ors
▁[ग
▁[ल
▁[భారతదేశ
hib
alam
ally
esti
](https://hi.wikipedia.org/wiki/न
](https://hi.wikipedia.org/wiki/पाकिस्तान
▁साल
▁मौ
ootb
raz
राम
▁Centre
](https://hi.wikipedia.org/wiki/भारत_के
▁far
[[14
ver,
ists
ular
uled
hell
▁women
▁పట్ట
_की_
ర్")
▁**జాతీయ
ema
भाज
ंगाना
▁Gu
▁November
▁Nehru
architecture
నిక
▁1965
ంగ్రె
▁సభ
ड़िया
ड़ियाँ
▁उन
▁forest
काता
ecu
▁विस्त
▁विदेश
▁इंडिया
తాబ్
law
ी](https://hi.wikipedia.org/wiki/द
aves
ंडोन
arty
▁ప్రపంచ
▁ప్రభు
▁राज्यक्षेत्र
oreign
ोलकाता
iley
▁क्षेत्रों
ंध्र
▁ఆసియా
▁"अंग्रेज़ी
केन्द्र
▁[Government
▁देश")
మ్రాజ్య
▁[![A
](https://en.wikipedia.org/wiki/National
](https://en.wikipedia.org/wiki/List_of_SAARC_summit
हरिया
पुरम
िशा
▁मेला"),
ंग्रेज़ी_भाषा
timesofindia
గుజరా
▁second
▁technology
▁regions
ashmiri
समिया
न्नई
▁సామ్రాజ్యం")
▁Hinduism
ancis
बंधन
awahar
▁पुरालेखित।,
▁right
▁मानसून
త్యేక
రాష్ట్రపతి
kingdom
ప్ప
_और_संघ
▁కాశ్మీ
▁రాజవంశం
▁युग
रक्षा
▁स्वतंत्रता
तेलंगाना
_के_आधार_पर_भारत_के_राज्यों_की_सूची
चेन्नई
▁చెంద
▁ఆర్ధిక
eserve
%20%20%20%20
▁बहुत
▁स्थित
क्सफोर्ड
पीठ
▁స్థాన
▁निर्माण
hasha
ूर्ण
తమిళనాడు
-4020
omason
_Islands
त्रिपुरा
▁groups
ప్రధానమంత్రి
_BRICS_summit
గణతంత్ర
▁క్రీడ
▁Persian
▁ఉన్నాయి.
तेलुगू
ymbols
भीमबेट
overeign
झारखंड
▁ओर
ज्ञापक
छत्तीसगढ़
िंधु
ఆఫ్ఘ
శ్రీలంక
షియా
న్‌ఫ
నేపాల్
ब्बत
▁[अंग्रेज़ी](https://hi.wikipedia.org/wiki/अंग्रेज़ी_भाषा
▁कुछ
▁स्थाप
icobar
▁summits")
ZvaGuaJIJgoC&pg=PA
अभिज्ञापक
च्छ
ootball
తాబ్ద
](https://en.wikipedia.org/wiki/List_of_SAARC_summits
timesofindia.indiatimes.com/
awaharl
भीमबेटका
-D
123
7.

Ethnologue
New
a)
ate_
bbc
nc
nominal
que
s

lem
198
entury
\_artic
▁mi
▁Territory
26.
266
▁H.
archive.org/detail
▁2024.
rishn
langoff-1
langoff_1
CS1\_
fferent
Pages\_us
nominal)
archive.org/details/
/files/
125
2)[[
5/
7).
9-0)
AS
Library
_38
_43
_languages
cog
ime
इन
एन
ङ्
पार
फा
्म
▁°
▁Qu
▁[य
▁[ह
en,
▁"य
erg
es,
report
▁मन
▁मह
urity
rov
ाले
▁Rothermund
_(भारत)
103
▁नव
▁human
▁व्या
_Ass
aryana
22-9
▁name
ection
▁[Ministry
▁"British
जापान
hmed
olitical_
feb
▁राजधान
_and_depend
▁produc
▁sector
official
▁साम्राज्य")
धुनिक
▁Plateau
_साम्राज्य
▁Wikidata
.")

.](https://upload.wikimedia.org/wikipedia/commons/thumb/
313
4]](https://en.wikipedia.org/wiki/India#cite_note-FOOTNOTE
577
74
8–
MC
MID
_-
aha
ather
ced
cise
code
casting
hal
ham
hat
had
ij
ker
ncient
pture
yy
▁6.
▁low
▁[U
▁[f
th_BRICS_summit
arlo
araj
aland
alli
anda
outheast
▁po
▁caus
▁Civil
agari
▁tree
loth
▁man
▁Punjab
"),[[
_of_2011
▁2014.
▁This
▁Research
emic
emographic
iger
matic
▁hum
oples
▁report
▁these
](https://en.wikipedia.org/wiki/India#CITEREFM
_Population
_Paper
_1_of_2011
hatt
▁[↑](https://en.wikipedia.org/wiki/India#cite_ref-FOOTNOTEB
ligions
_Totals
ociation
ockey
▁language"),
▁development
_River
▁Press](https://en.wikipedia.org/wiki/C
ibcode
ender
ikhism
▁[Dyson
674
do-European
▁1994
▁when
▁languages")
▁addition
_Lank
o-operation
▁Islands")
gypt
phere
uisine
odiversity
oastal
ighth
vanagari
dependence
struc
arnatic
olkata
JPG
ynasty
roadcasting
Provisional_Population
_Paper_1_of_2011
_Totals_Paper_1_of_2011
Provisional_Population_Totals_Paper_1_of_2011
Provisional_Population_Totals_Paper_1_of_2011_India
-k
219
AG
C-0
EX
\*
_श
_राज्य
_धर्म
_ప్రదేశ్
ds
ues
ँची
अंग्रेज़ी
टना
तम
तन्त
द्वार
धन
भग
मरी
यर
स्व
ी.
ेड
ेद
ोला
ం,
ఉప
కొ
కేంద్రపాలిత
జె
ఢ్
ది.
నాల
లే
ళు
ౌద్ధ
▁औ
▁భా
▁भाग
▁[వి
▁"ग
tis
ars
2025
](https://hi.wikipedia.org/wiki/दक्षिण
](https://hi.wikipedia.org/wiki/तमिल
▁काल
▁कॉंग्रेस
rel
्रय
▁सित
▁समाज
▁सभ्यता
▁(c
▁मई
▁मिल
▁मशीन
्यान
ेंगल
](https://hi.wikipedia.org/wiki/भारत_के_राज्य
ాలీ
▁में,
▁अभ
▁2012.
▁des
▁जब
ర్చ
भाई
भाष
index
_से
28.
ాలు?action=edit&redlink=1
_Act
▁religious
akrishn
▁Fund
▁गई
▁[मध्य
▁शहर
म्भ
]](https://hi.wikipedia.org/wiki/भारत#cite_note-pib
166
_के_अन
संधान
–సా.శ.18
▁అత్య
▁लिये
▁यूनिवर्सिट
▁ఆధ
మాఖ్య
వాణా
▁जनजाति
ంటి
content
▁దేశం
रुणा
డ్డ
▁జనాభా
దక్షిణాసియా
▁గల
▁భారతదేశంలో
ంగ్లీ
యునై
ोर्ट
ష్ణ
_చరిత్ర?action=edit&redlink=1
वादी
▁రాష్ట్రాలు,
_మతము
▁మొద
धिराज्य
adhya
▁(2018),
_देशों_की_सूची
ताजमह
▁చెయ్యబడింది.
क्षरता
▁[पाकिस्तान](https://hi.wikipedia.org/wiki/पाकिस्तान
kZVuDwAAQBAJ&pg=PA
\_articles\_
तन्त्र
ेंगलुरु
akrishnan
_के_अनुसार
▁यूनिवर्सिटी
యునైటెడ్
/hind
66
S.
_2011
day
dust
eth
fob
hut
most
ox
ption
s18
tl
▁z
▁36
▁old
▁[World
▁"19
▁prom
▁Central
▁M.
0000
1017
_St
▁2001
▁only
▁[Singh
▁near
407
27)
160
▁[British
▁def
▁"Government
article
▁[Kulke
overnment_of_India
▁use
▁composed
▁wide
▁along
catal
Hindustan
arliest
-e
-logo
.uk
1-4
2%
5).
Con
F)
IF
IUCN
Taj
_v
_pe
_एशिया
ax
epend
i.
ren
ute
कणी
रस
ेक
–24
▁५
▁ला
▁United
iary
orn
](Template:
▁[प्र
▁[तमिल
▁"ड
▁"ह
anat
him
hild
erman
▁कम
ed,
▁सह
▁(199
asi
ashi
▁India.[[
▁India*.
▁India](https://en.wikipedia.org/wiki/C
raj
rahm
▁colle
र्श
▁Cooperation
\_देश
▁fam
adwe
adras
vey
loc
याधी
▁maint
▁Park
comm
_of_B
ोंकणी
]](https://en.wikipedia.org/wiki/India#cite_note-Combined
▁Man
▁B.;
▁att
ign_
igarh
irth
pecially
▁व्यवस्था
▁Games
▁rema
▁religion
▁through
ability
AAJ
▁growth
eccan
▁"Mughal
त्ति
.gov.in
](https://en.wikipedia.org/wiki/Mugh
▁within
](https://en.wikipedia.org/wiki/British
-107-0
▁"Template:
▁exp
issing
49-2
contain
handigarh
_Force
AsherTalbot20
india.gov.in/india-glance/
ynth
श्मीरी
▁News
▁ago
म्बई
attle
ediff
Dyson2018),
ographical
mitt
ote:
कालीन
न्तर
ortal:
▁especially
णिपुरी
▁देख
▁Buddhist
▁increased
ilgrim
.htm)
akshadwe
](https://en.wikipedia.org/wiki/South_Asian_
culpture
nergy
▁2018](https://en.wikipedia.org/wiki/India#CITEREFDyson2018),
हित्य
achine
violence
लयालम
प्राचीन
arnataka
ological
▁"पाकिस्तान")
▁नेतृत्व
▁Quote:
hattis
याधीश
](https://en.wikipedia.org/wiki/Mughal_
akshadweep
-r
-ex
/).
09
2)

350
52
Alig
CH
PO
Th
_h
_26
lue
mil
vent
▁(b
rest
.jpe
50th
▁Incre
dex
rief
709
emplate_
iance
▁[978-0-521
_population
▁control
on-Alig
bi.n
.php?
.nih
lm.nih
mritsar
ncbi.n
Pages\_using\_
on-Aligned
ncbi.nlm.nih
,NGDP
:EditPage/
;[[
_న
ek
ead
ंतर
अरब
ईल
घर
घालय
चें
तुल
थियार
दि
पद
वेश
वैद
िबंध
ुम्बई
ृष
ृष्ण
ोट
्लेट
ఖండ
గం
టిక
డే
ద్య
మార్
మాలయ
లలో
లకు
ళ్
వ](https://te.wikipedia.org/wiki/
ానికి
ాళు
ీర్
▁,
▁భ
▁యు
▁[गुजरात
▁"వి
alt
ारो
ारम्भ
](https://hi.wikipedia.org/wiki/ज
](https://hi.wikipedia.org/wiki/द
▁किन
्रह
thehind
▁popul
ets
ेंस
र्क
र्ट
र्त
ator
▁Chand
▁Society
\_क
ాలో
▁अमेर
▁अलग
▁अर्थव्यवस्था
స్వ
స్లా
वियत
▁పాల
▁जिन
ालैंड
▁देव
▁दोन
న్")
भाजन
▁बंगाल
▁बड़े
▁प्रस
▁प्रधानमंत्री
267
▁सेवा
▁काम
oung
▁కార
▁కలి
▁आक
_Affairs
రిహ
రికత
క్నాల
ంది.

నిమా
▁సంగీతం
▁परि
▁शा
▁संस्थान
▁చి
](https://hi.wikipedia.org/wiki/भारत#cite_ref-pib
](https://hi.wikipedia.org/wiki/भारत#cite_ref-langoff_1
]](https://hi.wikipedia.org/wiki/भारत#cite_note-langoff-1
ियन
lative
संबर
सां
ी](https://hi.wikipedia.org/wiki/म
▁रक्षा
ndhra
-7mar
ులు"),
▁सागर
–సా.శ.13
▁అయ
▁"मध्य
▁ప్రధాన
हाँ
ंग्रेज
ोली
ప్రదాయ
ప్రత్యేక
ద్వీ
▁ఉప
ंधी
](https://hi.wikipedia.org/wiki/मध्य
aith
▁రె
issile
_GDP
న్నడ
द्यालय
ంటు
Asher2006
AsherAsher2006
गुप्त
▁దేశంలో
ureau
िवस
onstitutional
120]](https://hi.wikipedia.org/wiki/भारत#cite_note-langoff-1
కాశ్మీ
](https://hi.wikipedia.org/wiki/पंजाब
](https://hi.wikipedia.org/wiki/पश्चिम
ంధు
Stein1998),
Singh2009),
వర్గం:Harv
ों_की_सूची?action=edit&redlink=1
▁CITEREFStein1998
▁CITEREFSingh2009
आईएस
](https://hi.wikipedia.org/wiki/भारत#CITEREFStein1998),
](https://hi.wikipedia.org/wiki/भारत#CITEREFSingh2009),
ద్ధం
ద్ధి
ాల్దీవ
చ్చే
KulkeRothermund200
▁शासित
దక్షిణ_
वर्त
▁थे
▁पाकिस्तान
▁కాంగ్రె
धीरे
▁मंदिर")
టెక్నాల
नागालैंड
▁ప్రాంతాలు
హిమాలయ
रोहर
▁2009](https://hi.wikipedia.org/wiki/भारत#CITEREFSingh2009),
▁वर्षों
लोकसभा
View
▁లే
త్తరా
నాగరికత
_from
క్కువ
troduction
▁दृश्य
క్‌సభ
▁శాస్త్ర
▁सिनेमा"),
ांति
ెలుగు
▁होती
▁भूमिका
▁1998](https://hi.wikipedia.org/wiki/भारत#CITEREFStein1998),
bank.org/
▁दिसंबर
▁వచ్చింది.
▁स्तर
_ప్రాంత
ouncil
uthority
भाजपा
ర్చ:
रुणाचल
dustrial
:EditPage/మూస:
चेंज
वैदिक
िबंधीय
ాళుక్య
](https://hi.wikipedia.org/wiki/भारत#cite_ref-langoff_128
-7mar2011
ప్రత్యేక:EditPage/మూస:
_GDP_(
120]](https://hi.wikipedia.org/wiki/भारत#cite_note-langoff-128)
టెక్నాలజీ
*](http://
-an
/b
3).
34)
677
7%
7C
7]](https://en.wikipedia.org/wiki/India#cite_note-
9]](https://en.wikipedia.org/wiki/India#cite_note-
9]](https://en.wikipedia.org/wiki/India#cite_note-FOOTNOTE
Census
Fr
IB
Language
Petraglia
_&
_18
_Union
_2024
ative
baki
dic
ka
khand
rang
subcontinent
tain
vil
wana
▁—
▁ge
▁eng
▁histor
orship
ences
▁"World
ants
](https://en.wikipedia.org/wiki/World
erved
aro
artition
alit
ederal
▁(ed.).
ichell
▁sur
▁political
ately
uss
atna
▁Comp
▁As
ref-10
note-10
ango
angam
▁bu
lite
urry
lock
umar
very
stani
iland
▁work
ourbaki
oln
▁Michael
identifiers
▁Bi
▁By
india.com/
115
_Air
-459
-85
406]](https://en.wikipedia.org/wiki/India#cite_note-
oss
▁"Cambridge
hai
harkhand
▁gen
_Comm
▁[Cambridge
▁[↑](https://en.wikipedia.org/wiki/India#cite_ref-FOOTNOTEStein2010
▁before
arden
▁range
aking
akistani
vention
class
▁lite
ahal
ambridge_University_Press
▁vill
alayalam
erves
aceu
1971
ondon
ollingham
cheduled
▁People
▁including
ritsch
▁Registrar
▁[India](https://en.wikipedia.org/wiki/India
4/4
vatsyayan-lord-4
vatsyayan-lord_43
_of_South_Asia
owever,
harmaceu
Articles\_contain
undamental
olonial
do-Pakistani
Allchin
▁Press](https://en.wikipedia.org/wiki/Cambridge_University_Press
hutan
PetragliaAllchin
406]](https://en.wikipedia.org/wiki/India#cite_note-vatsyayan-lord-4
-शासित
/india
226
418
M50th
NCL
_0
_36
equality
kb
m2
p)
round
ईस्ट
जान
थम
हम
ुक
▁46
▁[राज्य
▁पै
▁पश्चिम
▁pres
▁Chinese
agen
\_(
istor
▁Muslim
न्ध
न्स
10)
▁Dictionary
▁Health
▁आन्द
▁गठ
▁["P
%20A
%2C_India
▁"ब्रिटिश
▁चार
html).
▁(2014).
न्नड़
िल्ली")
त्पत्ति
_न्या
▁घाटी
वार्ता:
▁वार्ता:
Report.pdf)
nclm.nic.in/shared/linkimages/NCL
M50thReport.pdf)
nclm.nic.in/shared/linkimages/NCLM50thReport.pdf)
-se
-world
2),
3–
9/
C)
Pakistan
aul
ece
ns
s:
▁[n
▁"U
of\_
id-
-1").

atab
▁Ad
\_with\_
\_of\_
loped
▁14.
▁Minister
24.
▁house
upreme
bert
opland
▁2007.
▁1962
ody
_Data
▁[New
type
onstitution_of_India
▁contin
▁Programme
▁different
tiger
text
▁estimate
_of_Congress
reedom
hmedabad
"](http://
%3
-R
-w
-the
.పూ.
1]](https://en.wikipedia.org/wiki/India#cite_note-
221
4,
5]](https://en.wikipedia.org/wiki/India#cite_note-
6.

6)

8]](https://en.wikipedia.org/wiki/India#cite_note-FOOTNOTE
=20
Ch
Collingham
S$
Tarlo
_20
_2004
_industry
aos
business
business/
eat
eligious
ject
lar
mill
odia
rune
s_in_India
search
via
yd
yth
इप्र
ईद
ऍथ
ऑक्सफोर्ड
ख़
गध
जपुरी
जिस्ट
ताल
थल
दल
दान
नोल
पीय
फ्रां
बू
बार
मत
मृत
यपुर
रिया
ल्ल
वत
शत
शोक
हें
ीक
ुरा
ूबर
ेघालय
ॉग
ంతం
ఆగ
కళ
ఖండ్
గ్
గిన
గఢ్
జో
ట్ర
తెలుగు
ద్రా
పద
భి
యో
లక్ష
వర
శో
షా
హు
హార్
హాయ
ాష్ట్ర
ీక
ీహార్
ుల
ుల్
ోల్
ోత్స
ౌర్య
–4
▁रा
▁ना
▁kingdom
▁[Y
▁[श
▁[హ
ened
▁"హ
▁"साँच
▁"साँचा:
▁"ఢిల్లీ
ino-
inema
tile
hir
arth
ester
es.[[
](https://hi.wikipedia.org/wiki/ग
](https://hi.wikipedia.org/wiki/हिन्द
](https://hi.wikipedia.org/wiki/साँच
](https://hi.wikipedia.org/wiki/साँचा:
ofker
्रार
omo
▁सूच
▁सीमा
itation
▁(S
▁(क
▁(19
asthan
▁मन्दिर
्यूरो
్రూ
idy
ratic
रात
](https://te.wikipedia.org/wiki/సి
▁पड़
▁प्लेट
entr
▁school
etry
ries/
riya
ानगर
ingap
amy
ating
▁Asher
्तु
▁हाला
▁हथियार
▁Sabha
acmill
\_स
▁four
▁fol
angered
urk
uran
िकी
ాలా
ాలలో
▁main
well
్యం
fir
▁would
▁Temple
▁ज़
ालर
▁Routledge
ర్ణా
ర్మే
▁top
▁B.
s."

▁बार
▁बने
▁बड़ा
igved
igration
23.
तिब्बत
▁नौसेना
▁led
▁"Special:BookSources/978-81
indhi
्टॉक
▁*India
లోక్‌సభ
_in_New
▁वृद्ध
▁Greek
▁N.
▁Nicobar
क्षण
क्षद्वीप
-345
_A7C
tudi
▁వంశ
▁third
22.
थाईल
]](https://hi.wikipedia.org/wiki/भारत#cite_note-10
ghts
▁["G
osphere
▁[महाराष्ट्र
hap
hailand
ountain
ountries/
कांक
_महासागर
ండర్
▁Languages
▁Organization
▁विज्ञान
हिमालय
aph
](https://books.google.com/books?id=3TRtDwAAQBAJ&pg=PA
ngineering
▁[Central
ियान
otal
త్మా
](Special:BookSources/978-81
▁[↑](https://en.wikipedia.org/wiki/India#cite_ref-FOOTNOTEM
ंडमान
▁అతి
▁"महाराष्ट्र
▁लिया
ికి
हाब
ogri
▁now
परेशन
मीरात
▁करना
▁करता
ద్దు
▁"En
](https://hi.wikipedia.org/wiki/महाराष्ट्र
%2C5
▁రహదార
](https://en.wikipedia.org/wiki/En
▁areas
మాచల్
▁సామ్రాజ్య
_Bank
రువా
రుణా
▁Ved
న్నో
33-7
▁[2](https://hi.wikipedia.org/wiki/भारत#cite_ref-FOOTNOTE
▁जनता
▁[![The
▁[1](https://hi.wikipedia.org/wiki/भारत#cite_ref-FOOTNOTE
ameez
▁like
మిజో
राष्ट्रीय_स
▁ఇది
हारजिस्ट
▁वर्षा
egistrar
ा_वार्ता:
_भारतीय_
do-G
▁भाषा")[[
▁Urdu
DwAAQBAJ
▁घरेलू
alaysia
_during
▁జరి
▁విస్త
समूह
▁millen
](https://hi.wikipedia.org/wiki/पूर्व
▁State
▁2007

▁निभाई
rates
ukesh
▁change
▁శతాబ్ద
▁river
ట్టు
▁अधिकार
▁agriculture
▁था,
PPP
दाख
రాష్ట్రాలు
▁Pradesh")
athematics
వేద
▁[संयुक्त
▁[Archived](https://web.archive.org/web/20210
▁రాజకీయ
ंपन
ंपरा
▁[↑](https://hi.wikipedia.org/wiki/भारत#cite_ref-10
▁These
–123
pib.nic.in/
▁अपने
▁subcontinent")
ually
ार्कट
ambodia
హిమాచల్
▁तटीय
హాత్మా
जयपुर
जयनगर
लिंग
int:
_अन
▁Force
भूटान
▁"संस्कृत
णिपुर
िज़ोर
▁species
chedule
emocratic
▁ప్రదేశ్")
హారాష్ట్ర
▁सुरक्षा
्रांति
▁rock
ominion
▁2025.
శాస్త్ర
▁पार्टी
ataraj
రాజస్థాన్
▁వాతావరణ
पातकाल
janta
దినోత్స
▁जलवायु
బెంగాలీ
యన్మార్
▁ముఖ్య
▁[978-81
▁सदस
▁emerg
भोजपुरी
▁majority
Spear199024
स्लाम
हायता
▁occup
Sharma2007
▁राजनीतिक
▁[पंजाब](https://hi.wikipedia.org/wiki/पंजाब
▁Before
▁appro
elangana
_राजवंश
ంజాబ్
▁వ్యాస
▁शुरू
▁लगभग
lurton199
ravidian
▁employed
खनऊ
razil
हरियाणा
గుజరాత్
ఆఫ్ఘనిస్తాన్
న్‌ఫర్మే
फाएं
lothing
IFT
तुल्य
ृषि
వ](https://te.wikipedia.org/wiki/List_of_
▁दोनों
రిహద్దు
చ్చేరి
olnar
_Commission
Tarlo1996
business-
runei
ऍथनोल
▁"साँचा
](https://hi.wikipedia.org/wiki/साँचा_वार्ता:
ingapore
▁Asher,
acmillan
ర్ణాటక
_in_New_Delhi
▁वृद्धि
tudies
▁[महाराष्ट्र](https://hi.wikipedia.org/wiki/महाराष्ट्र
▁"महाराष्ट्र")
రుణాచల్
हारजिस्ट्रार
ार्कटिका
న్‌ఫర్మేషన్
ऍथनोलॉग
-T
.ed
Jha
TO
ault
c/c
eu
tter
](https://id
onk
tification
▁(a)
asht
▁sq
ager
▁Policy
▁Day
▁Asia:
1):
html)
isease
visions
▁km2
▁Short
▁commun
▁2020.
f/f
Wikipedia\_articles\_
...]
itzel
▁Minorities,
▁(b)
▁Increase
.edu
)"),
.co
2nd
:**
EN
Home
Official
dis
ethnologue
g)
gu
here
went
दर्श
िर्
▁ऐ
▁।
▁३
▁web
▁[नेपाल
▁"राष्ट्रीय
▁"नेपाल
infob
भारत)")
▁(भारत)")
राक
▁पहु
-138
▁can
र्भ
\_country
▁fig
78.
▁men
illi
ilbert
▁जय
▁Mar
▁दी
▁Br
▁"St
indic
▁Economy
न्दा
ablish
▁[SAARC
▁ne
म्प्र
राष्ट्रीय_
▁Hindus
_Gandhi
](https://mai.wikipedia.org/wiki/भारत
_proj
_and_union_territ
iteracy
▁घोष
_Fund
▁[उत्तर
ctorate
▁"उत्तर
रेन्द्र
%E0%A4%A
countries_and_depend
▁एशिया")
िन्धु
encies_by
▁उत्तर-प
▁Environmental
.worldbank.org/
aranth
▁dependencies
८५७
cogni
▁व्यापार
▁widely
hattisgarh
ethnologue.com/
infobox
_and_union_territories
countries_and_dependencies_by
*](https://
220
3.

41
5-3
6_
7-8
Countries
ES
Ex
Forest
Wright
cu
cod
ctive
caste
disha
even
men
mall
ocal
page
put
rup
rban
tou
u,
uries
upee
wat
iated
org
orpor
tte
pen
](https://www
▁[History
enous
an,
anchi
ties/
er-
alace
alk:
reen
itar
▁(2007
▁(India)
ick
▁inter
▁independence
raw
raman
-0").

▁prac
▁cre
ation,
▁Agency
▁Sub
acred
▁talk:
lima
lose
umeration
▁Prin
istent
cha
▁[↑](https://en.wikipedia.org/wiki/India#cite_
rove
rowing
rocod
ilk
▁divis
ourism
](https://en.wikipedia.org/wiki/India#cite_ref-vatsyayan-lord_43
▁Tim
▁Trade
ola
igin
igenous
▁Dance
▁Dyson
▁last
▁"Special:EditPage/Template:
2649
269,
ayana
▁[↑](https://en.wikipedia.org/wiki/India#cite_ref-4
lymp
▁east
▁Emer
286
287,
beral
▁Ganges
-349
-4").

▁republic
akers
▁though
▁International
_and_C
_and_N
_and_Development
40px-
osa
_16
▁"Central
▁"Climate
_Cooperation
▁[China
](https://en.wikipedia.org/wiki/China
17.
▁"Ministry
](Special:EditPage/Template:
▁become
ajasthan
](https://en.wikipedia.org/wiki/Ministry_of_
undarb
rchitecture
lled
orea
▁"Template
48)
▁ancient
_Re
_Ram
](https://en.wikipedia.org/wiki/Template_
▁"Delhi
ically
](https://en.wikipedia.org/wiki/Delhi
▁Vedic
▁2011](https://en.wikipedia.org/wiki/India#CITEREF
_Economic
▁"Routledge
](https://en.wikipedia.org/wiki/Routledge
▁[Routledge
▁[Tamil
▁"Special:BookSources/978-0-521
](Special:BookSources/978-0-521
angetic
▁2014](https://en.wikipedia.org/wiki/India#CITEREF
▁centuries
▁sever
▁tea
▁US$
▁(2017).
▁milk
▁military
▁leg
▁2007](https://en.wikipedia.org/wiki/India#CITEREF
▁[Fisher
▁plain
▁[t](https://en.wikipedia.org/wiki/Template_
▁parliament
▁known
ronom
talk:
230-345
▁numbers
▁[e](Special:EditPage/Template:
▁[v](Template:
▁Talbot,
Fisher2018),
▁Buddha
▁upper
▁2025.

▁refor
arliamentary
Hindustani
▁2018](https://en.wikipedia.org/wiki/India#CITEREFFisher2018),
merican
▁(1,269,
▁3,287,
](https://en.wikipedia.org/wiki/History_of_
▁Conservation
rotected
▁Francis
ibetan
ield
present
ennai
forcement
▁India](https://en.wikipedia.org/wiki/Government_of_India
▁direct
▁mi)
▁1994](https://en.wikipedia.org/wiki/India#CITEREF
struction
▁Games")
-107-02649
Front
▁engineering
▁village
first
▁millennium
Wright2010
touch
▁(2007).
limate_
▁Dyson,
▁[China](https://en.wikipedia.org/wiki/China
undarbans
▁"Routledge").
▁[Routledge](https://en.wikipedia.org/wiki/Routledge
▁[t](https://en.wikipedia.org/wiki/Template_talk:
230-34549-2
▁3,287,26
-107-02649-0
"](https://web.archive.org/web/20
*](https://web.archive.org/web/201
-24
-गंगा
/g
/s
1200
3-1
5_
A5%
Bh
B0%
OLA
_त
egh
gar
hdr
ott
sources
tation
voy
zer
ँकि
ंबर
ऊर्जा
ऋतु
ऑपरेशन
ख्य
त्या
थी
दु
नत
मक
ल्त
वली
शील
सत
सैन
ाय
ुट
ुस्तान
ूस
ृष्ठ
ोड
१८५७
४.
४७
५०
ంతి
కాల
కారం
ఖ్
గంగా
టో
డిన
తీ
ధి
ధించ
నల్
మన
మర
ర్యా
లం
లతో
లమె
ీస్
ూప
ూరు
ెనీ
ౌక
▁:
▁ద
▁ఫ
▁దక్షిణ
▁హిందూ
▁గాంధీ
▁[ए
▁[భారతదేశం
▁[ఢిల్లీ
▁"प्र
▁"सा
▁"विशेष:EditPage/साँचा:
")"
arak
](https://hi.wikipedia.org/wiki/य
](https://hi.wikipedia.org/wiki/विशेष:EditPage/साँचा:
▁कर्ज
▁सूर
asp?
▁मील
lease
▁pri
ారస
▁capita
\_identifiers
ume
ాలను
స్](https://te.wikipedia.org/wiki/
विद्यालय
▁పెద్ద
ाल्
00–సా.శ.పూ.
▁Report
ర్లు
राजनी
s.com
▁बनी
▁बड़ी
238
लावा
▁प्रण
▁प्रभा
▁प्रकार
▁प्रारम्भ
▁निय
▁नृत्य
▁"Sanskrit
ता")
_सिनेमा
లు")
▁ele
स्ता
ित्व
▁आय
-45
ంది
▁వే
री")
री](https://hi.wikipedia.org/wiki/
रीक्षण
▁गए
ादरा
▁पर्यटन
▁परमाणु
▁परंपरा
▁संख्या
नेट
▁विवाद
▁विभाग
_के_देश
ी](https://hi.wikipedia.org/wiki/प
ी](https://hi.wikipedia.org/wiki/स
monsoon
ज़ा
త్తం
▁(సా.శ.15
▁(సా.శ.13
▁भाषाएँ
▁అనే
▁ప్రజ
తం")
कारी
ంచి
▁ఆఫ్
भिन्न
▁సాం
▁[भारत](https://hi.wikipedia.org/wiki/भारत
ార్లమె
▁Vol
కిస్థాన్
newsite
▁నే
▁నగర
general
▁जाते
▁इसी
िवेश
ాయి.
ध्यम
▁समूह
-symbols
టిబె
్రీ.పూ.
ండియా
▁ఎక్కువ
▁ఎన్నో
vision
▁जिसके
▁./श्रेणी:CS1\_
▁मानव
▁१९९
▁सिंह
](https://hi.wikipedia.org/wiki/उत्तर
्यटन")
national-symbols
▁./వర్గం:Wikipedia\_articles\_
वर्ष
_సం
गुजराती
ారు.

▁[t](https://hi.wikipedia.org/wiki/साँचा_वार्ता:
▁disc
▁अपनी
టుంబ
श्रीनगर
▁భారత్
▁डॉल
राष्ट्रपति")
▁[e](https://hi.wikipedia.org/wiki/विशेष:EditPage/साँचा:
▁[v](https://hi.wikipedia.org/wiki/साँचा:
2001),
▁वायु
మెరి
माजिक
▁ऊर्जा
▁रहे
ईसाई
▁మొత్తం
▁हुआ।
బాద్
](https://hi.wikipedia.org/wiki/संस्कृत
राठी
ంపెనీ
▁दृष्ट
▁प्रतिशत
▁2004](https://hi.wikipedia.org/wiki/भारत#CITEREF
ूरोपीय
_का_खाना
హ్మ
▁उद्यान")
_उत्पाद
.aspx?rel
▁ఏర్
-language\_sources
retary
▁शक्तिपीठ
్రిటిషు
-22)
▁राजवंश")
▁विदेशी
ंडोनेशिया
_और_संघ_क्षेत्र
_Lanka
AGE
_राज्यक्षेत्र
▁सितंबर
▁जबकि
▁అత్యధిక
_के_अनुसार_देशों_की_सूची
tlas
▁सहयोग
ీర్ణ
▁किन्तु
र्तग
దక్షిణ_ఆసియా
▁गठबंधन
pib.nic.in/newsite
हायता:
ल्तनत
सैनिक
lease.aspx?rel
▁डॉलर
-language\_sources\_(
-asia
/e
2.

338
4-3
First
Mumbai
States
_45
gion
wa
▁Z
▁40
▁ob
istered
▁(2011
2013
ices
19)
19.
▁poll
▁census
atch
▁based
vert
ily
▁Book
▁Gujarat
116
-39
opal
tud
2221
establish
▁nation
▁John
.[[23
270
▁On
▁West
_Times
489
▁expectancy
▁"International
857
times.indiatimes.com/
orthographic
▁[Ludden
▁adop
prof
/articles/
unjabi
▁[*An
place
▁2022.

cms).
KulkeRothermund2004),
▁(2018).
resident_of_India
economictimes.indiatimes.com/
d/d
ksai
▁(2006).
Library_of_Congress
▁zone
onkani
indicator
_projection
orthographic_projection
&ss
-O
-th
-27
1.

2-0
3-7
8+
9-6
David
Empire
MAAJ
SN
South_Asia
_50
_World
evanagari
fun
ji
mand
mas
more
oz
rian
ten
top
xim
ंस
इव
इटे
नत्व
पया
पदी
मूल
ुवै
ैली
ोण
ौपदी
▁`
▁ve
▁9.
▁education
en:
ene
enjo
inan
anada
](https://en.wikipedia.org/wiki/U
till
India_
eri
arrow
alla
es.
reater
ising
isted
cid
▁सम्प
▁often
ico
▁India"](https://web.archive.org/web/201
lex
leavy
▁inte
rak
▁su
▁set
▁served
▁pur
ानक
र्ग
uscript
▁Cather
▁After
\_or
▁festi
ad-
adakh
▁trade
▁middle
▁market
comp
hek
fied
style
una
unleavy
]](https://en.wikipedia.org/wiki/India#cite_note-1
▁dist
ourts
नाइटे
21.
00–
emen
▁ब्रिटिश
107
1016
लाओ
▁India").[[
ayashi
_सागर
▁even
▁early
maint:
ldlife
_in_the
bercu
▁वे
▁Nuclear
▁आधुनिक
_Agency
-405
508
▁religions
ational_P
abel
स्लि
astronom
▁[St
AAMAAJ
▁"Chin
haw
▁Indians
▁Law
ensive
s/p
lated
▁Wiley
▁[Craven
14.
-2").
dira
▁ass
_Modi
alls
_Tamil_Nadu
हात्
ommaraj
2011religion
kee
▁"Tamil
▁[Pakistan
र्मू
्राष्ट्र
▁deve
▁rise
▁rural
▁rupee
issions
ians
▁"Ge
▁V.
▁[Delhi
neworld
मान्य
▁[ब्रिटिश
▁"Indus
द्रौपदी
amily
rupee
▁central
](https://en.wikipedia.org/wiki/Indus
-daro
ohan
ohenjo
_dance
_dynasty
▁1997
▁where
▁whose
atis
-in-india
जराय
मेन
2014-p
तिहासिक
.jpg/250px-S
KulkeRothermund2016
raditional
▁[संस्कृत
oorkee
son2014-p
▁Shankar
ropped
▁See
▁century,
_War
cott
▁speakers
▁include
▁2008](https://en.wikipedia.org/wiki/India#CITEREF
athakali
sites/
Environment
▁mathematics
Ludden2014
riage
-of-india-
Wikipedia:
▁Africa
▁major
union_territory
▁cities
lackb
losis
anorama
arlung
rigonom
hristian
ecutive
awaharlal
▁caused
▁oldest
▁maint:
](https://en.wikipedia.org/wiki/Mughal_Empire
Census2011religion
▁[India](https://en.wikipedia.org/wiki/India)
harmaceutical
entral_
Tarlo1996-26
Home_Affairs
▁[↑](https://en.wikipedia.org/wiki/India#cite_ref-1
](https://en.wikipedia.org/wiki/India#cite_ref-vatsyayan-lord_432
beralisation
Davidson2014-p
ुवैत
inancial
▁Catherine
नाइटेड
berculosis
स्लिम
हात्मा
ohenjo-daro
";

3_1
534
AQAAQBAJ&pg=PA
St
_per
_history
aci
ogo
▁<
▁7.
an-
International
ed\_
▁(1):
-05
etwork
ustice
▁Century
chol
▁domestic
▁Movement
108
Univers
▁Ne
▁1980
▁[*M
aving
▁centre
alaya
ukh
orities/
▁consid
/08/
-level
a/a
AsherTalbot2008),
cms)
/authorities/
▁Monetary
.t
/we
1)

2%29
3-3
425
428
:IN
BRICS
E﻿
KI
Pe
Raj
_st
_28
_30
_39
_यु
_map
_జాబితా
aver
a-b
bu
bhasha
gration
music
po
uin
ंजन
एम
घाट
चार
जल
तमान
धर्
यपालिका
र्य
ल्ड
शक्ति
हू
िरा
िंह
ीकरण
ूनाइटेड
ेय
ोत्तर
२६
ఆంధ
కీ
కాలు
క్రమ
గర్
డో
థి
నె
నాలు
పించ
బడ్డ
భర
మహ
మై
యన
రంగ
లయా
వార
శీ
షనల్
స్య
ృద్ధి
ెంగ
ేర
–17
–120
▁९
▁ता
▁దా
▁local
▁धीरे
▁నాగరికత
▁టెక్నాలజీ
▁establish
win
tten
](https://catal
▁[ख
▁[राष्ट्रीय
▁[राजस्थान
▁"श
▁"वि
▁"पु
▁"का
▁"विश्व
▁"गुजरात
▁"राजस्थान
")1
tives
](https://hi.wikipedia.org/wiki/वि
](https://hi.wikipedia.org/wiki/प्र
](https://hi.wikipedia.org/wiki/गुजरात
](https://hi.wikipedia.org/wiki/राजस्थान
▁कह
▁सश
▁समा
▁समान
▁सल्तनत
▁मंत्र
्यु
्यपालिका
let
్రై
్రప్రదేశ్
rame
](https://te.wikipedia.org/wiki/ఢిల్లీ
▁पहा
▁sim
20085
▁policy
ritten
ानून
](https://hi.wikipedia.org/wiki/भारत_स
▁हिल
▁Summit
िकेट
▁अभी
FOOTNOTENational_Informatics_Centre2005
stre
unknown
దేశం
దేశాల
దేశాలు
ilar
▁do
्षिक
▁Te
▁जै
▁जिन्
olia
▁Modi
▁Machine
▁Ram
_केंद्र
ర్‌
ेशिया")
▁air
s.jpg
▁बल
▁बौद्ध
▁बैंक
ंगड
ंगल
ंगीत
▁नगर
▁से](https://
_सु
_स्
లు?action=edit&redlink=1
రాఠ
1991
▁*A
▁Home
▁కి
▁కో
▁आंद
elated
క్టో
▁ती
▁तो
▁तुल
▁तीस
నియా
▁వర్
▁వారస
abin
स्चेंज
geoh
ల్వే
1857
▁गति
▁సరిహద్దు
ड़िशा
▁మన
▁మూ
▁उस
▁उद्योग
_and_T
▁around
▁शांति
▁संस्कृत
ండమా
▁చిన్న
]](https://hi.wikipedia.org/wiki/भारत#cite_note-Combined
्याचल
తాన
ियर
ముఖ
170
ी](https://hi.wikipedia.org/wiki/न
uccess
త్వం
त्ता
▁being
▁(సా.శ.14
)[[3
ंडल
ులు,
–సా.శ.15
–సా.శ.17
▁भाषाएं
dire
▁"मुंबई
_Mon
पांड
▁ప్రతి
▁ప్రస్తు
▁ప్రకారం
▁ప్రముఖ
कार्यपालिका
ంచిన
కుడు
▁[↑](https://hi.wikipedia.org/wiki/भारत#cite_ref-Combined
నుమ
irectorate
ింది.

द्वित
वाँ
्राम
▁any
▁deb
▁రో
▁రంగ
▁రవాణా
▁సాధించ
ష్టు
▁पुलिस
ंदर
ंत्रिक
▁[GDP
▁प्रदेश](https://hi.wikipedia.org/wiki/मध्य
त्न
ంతో
▁తరువా
,_కేంద్రపాలిత
పాలన
▁वर्ण
▁वर्तमान
िवास
ం](https://te.wikipedia.org/wiki/భారతీయ
फ़िल
](https://hi.wikipedia.org/wiki/ब्रिटिश
▁हिमालय
గుర్
నేషనల్
▁uni
▁regional
गणतंत्र
▁ప్రాంతం
వందే
न्नड
▁किया।
▁రాజ్యం](https://te.wikipedia.org/wiki/
▁[International
AsherTalbot20085
anced
▁బా
▁బహు
▁బెంగ
▁गया।[[
▁[उर्दू
▁CITEREFKulkeRothermund2004
स्थाप
data.worldbank.org/
684
▁"उर्दू
आई.
▁१९८
ాల్లో
](https://hi.wikipedia.org/wiki/उर्दू
िल्ली](https://hi.wikipedia.org/wiki/द
क्षेत्रफल
▁notation
वर्ल्ड
శ్వా
ूचना-विज्ञान
▁Thomas
ారిటీ
▁पूर्वी
▁अपना
ार्क
▁न्यायाधीश
▁[↑](https://hi.wikipedia.org/wiki/भारत#cite_ref-FOOTNOTEStein1998
-report
▁"Official
గోళ
▁2016.

▁across
▁"दिल्ली")
ड़ीसा
బడిన
▁माध्यम
▁बहुमत
▁"संयुक्त
▁Art
తున్న
న్నిక
▁స్వాతంత్ర్య
▁కాలంలో
ministered
कल_घ
▁सुधार
ष्णकट
.net
cat.org/
_पार्ट
▁थी।
▁धरोहर
▁इतिहास")
ంపి
▁संगीत
బెంగాల్
lag_of_India
▁According
_एवं
ెలవు
▁नीति
](https://te.wikipedia.org/wiki/భారతదేశంలో_
ीपी)
▁वार्षिक
▁ऑफ
हायक
रेलू_उत्पाद
-India.pdf)
▁अनुसंधान
britannica.com/place
▁सूचना-विज्ञान
▁అధికారిక
▁लेकर
MetcalfMetcalf2012-26
ఆర్ధిక
▁मौसम
▁పట్టణ
▁विस्तृत
▁కాశ్మీరు
▁अभियान
_सेना
ంగ్లీషు
▁लाख
rajbhasha
thehindu
\_कड़ियाँ
▁अमेरिका
▁అయిన
▁రెండు
ాల్దీవులు
ట్రో
ుల్తాన
▁हालाँकि
రాష్ట్రాలు,_కేంద్రపాలిత
దినోత్సవం
▁వ్యాసం:
▁पहुँच
िन्धु-गंगा
_and_union_territories_of_India
▁[भारत](https://hi.wikipedia.org/wiki/भारत)
ార్లమెంట
▁./వర్గం:Wikipedia\_articles\_with\_
▁2004](https://hi.wikipedia.org/wiki/भारत#CITEREFKulkeRothermund2004),
▁ఏర్ప
-language\_sources\_(en
मूल्य
_map_en
ఆంధ్రప్రదేశ్
లయాళ
▁[राजस्थान](https://hi.wikipedia.org/wiki/राजस्थान
▁"राजस्थान")
▁similar
▁हिल्स
▁तुलना
geohack
▁प्रदेश](https://hi.wikipedia.org/wiki/मध्य_प्रदेश
▁[उर्दू](https://hi.wikipedia.org/wiki/उर्दू
data.worldbank.org/indicator
िल्ली](https://hi.wikipedia.org/wiki/दिल्ली
कल_घरेलू_उत्पाद
ष्णकटिबंधीय
రాష్ట్రాలు,_కేంద్రపాలిత_ప్రాంత
*](https://www.
*](https://web.archive.org/web/200
,_India
-II
.0
/)
/M
/news/
0-0)
223
4_
4-0
8%
8]](https://en.wikipedia.org/wiki/India#cite_note-
AL
BI
Constituent
K:
Navy
OV
PT
Zor
_ci
_21
_india
_con
_2008
aury
audi
bird
cutt
dministrative
digenous
ealand
ful
jha
jayan
lé
mon
pi
pub
sc
s](https://en.wikipedia.org/wiki/
sol
spect
water
ypr
–11
–Pakistan
▁X
▁35
▁times
ora
oram
orary
orne
.wikidata
.org/wiki/Q
▁[Harle
teri
ina
ining
in-O
anch
though
hili
ers,
ergy
ardian
alakrishnan
alcutt
isa
ison
istic
isak
tion,
anding
ito
itor
itchi
▁(in
▁(union
▁(nominal)
ought
asar
ases
asian
▁India](https://en.wikipedia.org/wiki/P
1967
▁ins
▁so
▁sultanate
▁small
▁plate
▁prin
etnam
ing,
▁char
▁cap
aten
▁Cynth
▁Am
agara
▁Singh
▁Schwartzberg
▁Schedule
▁trib
urg
urasia
urasian
▁mark
heet
_of_N
ially
cely
▁2016.
ilt
olice
emi
emor
▁Bharat
mentin-O
nific
ignific
_(union_territory
▁Desert
▁"Special:BookSources/978
24_A7C
▁[↑](https://en.wikipedia.org/wiki/India#cite_ref-3
▁[↑](https://en.wikipedia.org/wiki/India#cite_ref-Combined
▁eaten
▁E.
1999
_in_T
forest
_Ag
elug
aks
▁three
abour
](https://en.wikipedia.org/wiki/India#CITEREFCraven1997
▁198
▁1970
▁1971
▁[Sri
29)
▁Journal
ained
▁["M
epali
▁Informatics
40.
27.
▁"Ch
conomist
▁L.
▁London
ected
▁Organisation
▁Olymp
ension
-9").

-981
16]](https://en.wikipedia.org/wiki/India#cite_note-
](https://en.wikipedia.org/wiki/Ch
](https://en.wikipedia.org/wiki/Climate_
laci
dog
Harvard
](Special:BookSources/
](Special:BookSources/978
.gov.
▁[↑](https://en.wikipedia.org/wiki/India#cite_ref-FOOTNOTECraven1997
-2").

-2](Special:BookSources/978-1
▁[Mughal
ysis
-5196
artial
_Mahal
alled
▁original](http://www.
2006),
temporary
▁*[B
sey
▁"East
▁"Economic
_Nations
_National_P
](https://en.wikipedia.org/wiki/Economic
_Games
ible
▁[978-0-19-9
▁[978-0-521-80904-7
ultures
▁31
▁"Russia
](https://en.wikipedia.org/wiki/Russia
▁[Russia
▁"Special:BookSources/978-0-19-9
](Special:BookSources/978-0-19-9
egional
](https://en.wikipedia.org/wiki/International
▁(2016).
▁subject
ervice
58)
_Indian_subcontinent
▁rights
▁./Category:Articles\_contain
_relations
▁2023.
▁2023](https://en.wikipedia.org/wiki/India#CITEREF
ppines
ortality
crimin
oastrian
ample
▁music")
ujarati
▁about
▁common
▁diversity
ID-19
▁election"),
_of_the_
Vijayan
Vietnam
▁traditional
▁well
aharasht
▁mathematic
Harle1994),
IAF
_Shankar
rmy
▁longer
▁highest
.svg/40px-
▁player
Robb2011
hanghai
ilies
lectri
olden_Temple
-language\_text
default
anoram
otsp
▁Publishing").
aurya
.svg.png)](File:
izoram
▁Europe*](https://books.google.com/books?id=
▁contribu
▁colleges
▁popular
67733-7
ichell2000
_Air_Force
kbar
▁kingdoms
▁following
do-Gangetic
ataraja
▁emerged
▁approxim
IFTY
](https://www.wikidata
▁divisions
▁legis
▁1994](https://en.wikipedia.org/wiki/India#CITEREFHarle1994),
touchability
wait
Library_of_Congress2004
8+5
▁festival
▁"China")
▁developed
▁1997](https://en.wikipedia.org/wiki/India#CITEREFCraven1997
hristianity
OVID-19
Zoroastrian
lémentin-O
yprus
hilippines
alcutta
itchison
▁Cynthia
_(union_territory)
_National_Park
Vijayanagara
aharashtra
](https://www.wikidata.org/wiki/Q
▁1997](https://en.wikipedia.org/wiki/India#CITEREFCraven1997),
lémentin-Ojha
"](http://www.
#P
-H
-j
-for
-24)
/india/
1%20
520
528
613
96
CCN
DR
RA
Sanskrit
Web
_he
_10
_ex
_term
bd
culture
gi
p.org/
post
y=
}}
क")
द्रा
पूर्ण
ब्रिटिश
विक
सर
२.
▁७
orse
g/250px-
▁[28
▁[लोक
▁"ची
arv
2020
्रु
ispu
▁(J
ica
▁महा
▁मिला
▁India

▁India"](https://
ानी
ations/
▁Chin
\_template
urmu
▁Portal
▁अधिराज्य
▁12.
roduct
▁Mana
▁Mani
▁Britannica
▁Barb
▁Bengali
ला")
▁प्रशास
240
▁Gana
113
▁2002
पुत्र
▁संयुक्त
▁Ludden
135
laim
मन्त
मी2
धानमन्त
ordin
%2C_A
%2C_M
▁१५
▁"पूर्वी
▁हिस्
▁History*](https://books.google.com/books?id=
IND
roupadi
puri
/countries/
34238
68–
▁मान्यता
्वरूप
▁Present
▁28.
तुर्क
aedia
ause
11934238
भरत
arathi
▁dispute
▁२०११
cyclopaedia
न्तर्राष्ट्र
eghalaya
s.com/
▁दृष्टि
▁Ludden,
%,
-hind
2-10
3-
310
32)
623
6-9
CA
Flag_of_India
G20
Republic
b/b
ize
lc
rance
vanced
–29
▁ter
▁70
people
onal
thme
Indian_
▁India](https://en.wikipedia.org/wiki/D
▁inequality
▁sec
▁size
ation)
▁Council
▁Ag
▁Age
▁Ste
▁Sikh
▁ful
▁band
ficient
▁2015.
▁India")*.
▁2000
▁2009.
_President_of_India
▁[Ar
▁Library
ummary
)[[13
▁[BRICS
▁"BRICS
_Mar
▁II
7080
▁"Th
39)
▁"New
333
▁provid
iterature
"](https://web.archive.org/web/20140
▁(2019).
efence
data.bnf.fr/ark:/12148/cb
atter
edicine
▁above
ustralian
.php
Ludden200
.com/news/world
▁Himalayas
ogue.bnf.fr/ark:/12148/cb
istorical
atabase
▁continu
](https://id.
.edu/
▁adopted
profile
thmetic
#S
-Y
-v
-ve
.1.
.JPG
0/0
0&s
3%
478
5.pdf)
728
7)[[
72.
748
Curry
Copland
DS
Ge
Gum
Garg
HQ
Kumar
L.
SE
Special:
Search
Template
Tritsch
US
YS
Yum
Young
[https
_Z
_te
_वि
_sh
_di
_art
_se
_వి
_2009
_2007
_val
_కాశ్మీ
_monsoon
aze
aidy
cia
dhy
d=20
fos
ggle
gions
hak
io
iosphere
jol
k-e
lla
mc
mt
nus
nins
oin
oal
ochi
oint
ride
tripura
uff
vara
yr
zard
ædia
ंज़
ंमार
अतुल्य
इतिहास
उद्यान
ऋग्व
ओआई
कु
क्रम
कृष्ण
घा
जवा
टन
टा
ठा
ठार
णे
तः
थाली
थुरा
दून
दयपुर
धता
धोला
नि
नै
नजं
निवेश
पीप
पृष्ठ
मोर
यण
रत
ल-
लेशिया
वर
व")
वरा
वरण
शहरा
सित
़तर
ाई
ाग
िप
ेख
ेज
ेहरा
ैम्ब
ोढ़
ोसी
ोटे
ोडिया
ोवियत
ोबार
्मार
२०१
४०
ంస్కృ
ఉత్తరా
ఖో
ఘాలయ
చ్
టై
టర్
డమ్
డఖ్
ణే
ణంగా
తే
తెల
దరంగ
నో
నంద
బర్
బార్
యె
రె
లడఖ్
ళా
ళి
శు
హించ
ుకు
ెన్న
ెట్రో
ేతి
ేఘాలయ
ైనిక
ొగలు
ోళ
‌కా
‌మహ
▁x
▁y
▁ढ
▁६
▁८
▁ఐ
▁ఖ
▁er
▁enti
▁go
▁op
▁rit
▁–సా.శ.
▁భారతీయ
▁भाजपा
▁very
▁ईस्ट
kid=20
orbe
ttac
▁[ना
▁[का
▁[धर्म
▁[चीन
▁[రాష్ట్ర
▁[జన
▁[గో
▁[विश्व
▁[...]
enced
▁"Y
▁"ख
▁"పా
▁"జన
▁"గో
▁"మూస:
▁"Hinduism
▁"हैदराबाद
▁"ISO
anal
Infos
thang
thura
th_East_Asia_Summit
til
hic
hip
hiv
erce
arc
arayan
algh
ारा
](https://hi.wikipedia.org/wiki/श
](https://hi.wikipedia.org/wiki/सा
](https://hi.wikipedia.org/wiki/चीन
](https://hi.wikipedia.org/wiki/विश्व
](https://hi.wikipedia.org/wiki/राष्ट्रीय_स
▁क्रम
▁कंपन
▁क्रांति
्रिज
भारत

भारत_के_राज्य
andoor
andemic
oms
omic
edary
▁सर्वोच्च
▁सहायक
ital
▁(2010
▁(2003
▁(अभिज्ञापक
asu
▁माना
▁महारजिस्ट्रार
▁India](https://en.wikipedia.org/wiki/E
▁India".
19-1
ooking
▁institu
nold
रान
रामा
](https://te.wikipedia.org/wiki/భారతదేశ
](https://te.wikipedia.org/wiki/గో
](https://te.wikipedia.org/wiki/మూస:
▁पी
▁पू
▁पत्र
▁पब्ल
▁परीक्षण
▁shar
▁science
▁series
▁signific
▁pred
▁poli
atel
ateway
ారస్వ
ानपान
ing)
ingle
am/
amaj
▁constitution
▁coast
▁cricket
▁coral
▁cultural
ush
usion
atpura
▁Cup
▁Caves
▁Amb
ago
agle
agran
agogue
agwat
agola
▁हव
▁Some
▁SCO
▁Studies
acter
▁fl
▁flow
▁feat
angra
angla
angrove
ads
adav
78)
▁bas
▁bread
▁border
▁birth
urther
urned
urvey
यास
िकेश
िकास
िकोबार
ాలె
▁met
▁may
▁Puran
istence
▁में).
▁अब
▁अमीरात
▁अलावा
_of_P
chae
roti
roban
ों_और
uns
unbird
స్ట
స్")
స్వాతంత్ర్య
▁won
▁dances
▁dynast
]](https://en.wikipedia.org/wiki/India#cite_note-Dyson2018
213
▁పర
▁పండు
▁जाना
▁जहाँ
▁Mughal
lines
linkid=20
tices
▁दर्
▁today
rested
▁Bangladesh
ni_M
▁बह
▁बि
▁ब्यूरो
ंगोल
_(अभिज्ञापक
▁प्रत्य
▁प्रयास
▁की।
iris
तिरु
▁Des
▁निर
▁"Sri
indoor
independ
ताम
▁[↑](https://en.wikipedia.org/wiki/India#cite_ref-35
లు](https://te.wikipedia.org/wiki/
▁epic
▁earliest
రాన్
రాస్య
▁Emi
_SCO
_School
_Sindoor
स्तिक
▁however,
_in_M
romedary
▁वीं
▁वाला
▁కే
▁కోర్
▁आप
▁आया
▁आयुक्त
▁आदि
త్రిక
ास्
_Arab
rynus
-4](Special:BookSources/978-0-
ell
elta
ellion
క్స్
క్కి
▁तीन
▁వె
▁వంట
akar
ables
abhad
-8").

स्‍
ishes
est_B
▁nuclear
oder
oday
माख्या
ంగో
▁Food
▁సముద్ర
▁సూచ
▁సౌక
.[[4
.[[28
▁उन्
▁उच्च
_Per
_Publishing
▁पर्यटन")
్రామ
im_C
▁Intelligence
AAAAMAAJ
os/
_1.1.
▁[मराठ
▁"Chola
▁[Andaman
_केन्द्र
▁growing
](https://en.wikipedia.org/wiki/Sri
](https://en.wikipedia.org/wiki/Sanskrit
ండా
ండీ
ండ్య
▁विषय
▁विभाजन
▁विभिन्न
म्न
िलों
_Cons
_Co-operation
-9](Special:BookSources/978-0-
15)
api
aproban
▁Kum
](https://books.google.com/books?id=ZvaGuaJIJgoC&pg=PA
](https://books.google.com/books?id=kZVuDwAAQBAJ&pg=PA
्यांमार
▁[Ch
తాజ్
ियम
నాథ
ot:
uck
త్వా
▁[↑](https://en.wikipedia.org/wiki/India#cite_ref-FOOTNOTEDikshitSchwartzberg2023
-2](Special:BookSources/978-0-
ajya
▁(సా.శ.16
▁(సా.శ.17
ysHQ
िसी
ులు?action=edit&redlink=1
▁साक्षरता
-526
▁అభి
▁[Bangladesh
पावा
पाषाण
▁ప్రజా
earning
मनिरपेक्ष
allalli
తం?action=edit&redlink=1
384
▁"Andaman
▁"Pakistan
anathan
lands
1.asp?
हाई
हाजन
oreign_
▁[↑](https://hi.wikipedia.org/wiki/भारत#cite_ref-5
](https://en.wikipedia.org/wiki/Pakistan
పూర్
मीन
▁करते
anies
ప్రిల్
irelease.aspx?rel
ociated
द्दाख
▁ఉంట
▁ఉత్తర
▁"Ethnic
%2C_S
▁anim
](https://en.wikipedia.org/wiki/Andaman
▁defe
](https://en.wikipedia.org/wiki/Ethnic
▁१३
▁సామా
వాద
▁rul
విధ
ార్ఖండ్
▁Hindust
ंदिरा
క్షరాస్య
_Goa
▁"सिक्किम
](https://mai.wikipedia.org/wiki/म
▁[सिक्किम
enguin
MetcalfMetcalf201
stan")
नीताल
जनगणना
द्यनाथ
▁खास
▁[Dikshit
nathura
ports/
▁[En
▁[East
▁[European
▁"बांग्ला
त्स
▁चल
तीस
పుర
▁నడి
▁[Robb
acher
▁ఇండియా
▁[बांग्ला
_and_Kashmir
](https://hi.wikipedia.org/wiki/सिक्किम
athura
▁इसकी
िवार
र्थन
▁[Kerala
▁peoples
▁penins
ruggle
▁समर्थन
फ़्रीका
](https://hi.wikipedia.org/wiki/बांग्ला
मिलन
](https://en.wikipedia.org/wiki/Indonesia
గుప్
డుకు
నేషియా
▁[पश्चिम
ంగాణ
हुमूल्य
▁२००
▁జన
లియా
roups
avelock
▁ప్రాచ
▁విభ
▁వివిధ
▁సంఘ
ounding
Stein201011
Stein2010118
जीवन
▁किया।[[
_the_
▁[Indus
▁[Indonesia
ండిచ్చేరి
AsherTalbot2006),
%E0%A5%
.jpg)](File:C
वनेश्वर
वनवर्ल्ड
hyan
](https://hi.wikipedia.org/wiki/भारत_का
मेव
_music
ynagogue
_Indian_Navy
च्चे
▁मानचित्र
▁संघर्ष
▁१९६
▁१९७
दाबाद
జీరియా
arch_2004
national-language
▁[West
ంకేతి
▁Pradesh")

వేలీ
▁Prospect
otel
otechnology
flic
▁parties
ंपनी
ंपाने
रक्षित
ropical
▁[Iran
▁[Islam
▁win
urrency
▁[Archived](https://web.archive.org/web/20190
ार्श
–సా.శ.పూ.3
▁[↑](https://hi.wikipedia.org/wiki/भारत#cite_ref-FOOTNOTESingh2009
▁ప్రాంతాలు")
-17feb
▁Association
▁Sea
బియా
frica
1947)
vanabel
लिपुरम
ैकमिलन
డామన్
▁రాష్ట్రపతి
▁भूगोल
▁[3](https://en.wikipedia.org/wiki/India#cite_ref-
▁[3](https://en.wikipedia.org/wiki/India#cite_ref-FOOTNOTE
भूम
త్రిపుర
_Organisation
त्यमेव
शासित_प्रदेश
_కాల
पी.
▁[दिल्ली](https://hi.wikipedia.org/wiki/दिल्ली
राष्ट्रपति](https://hi.wikipedia.org/wiki/भारत_के_
.jpg)](https://hi.wikipedia.org/wiki/चित्र:S
▁election](https://en.wikipedia.org/wiki/
▁देखा
▁రైల్వే
▁2006](https://en.wikipedia.org/wiki/India#CITEREFAsherTalbot2006),
डीओआई
वैद्यनाथ
strument
▁2012](https://en.wikipedia.org/wiki/India#CITEREF
adiverse
ल्प
ल्पा
య్యూ
త్తీస్
▁ప్రదేశ్](https://te.wikipedia.org/wiki/
నాగాలా
_1960
nami
rganisation_for
गोलशा
▁"జమ్మూ
ungabhad
▁support
ilgiris
वीरा
](https://hi.wikipedia.org/wiki/संयुक्त
▁పాకిస్తాన్
▁endangered
_BRICS_Games
nclm.nic.in/index
uttaph
ंटर
ंटार्कटिका
ोमाल
ौर्य
కోవ
కోబార్
](https://te.wikipedia.org/wiki/జమ్మూ
ammu_and_Kashmir
▁जलोढ़
ల్లవ
ollege
ामित्व
तेलुगु
DikshitSchwartzberg2023),
/articleshow/5
भोपाल
र-पावा
▁import
inghamYoung
▁बनाने
▁heredit
Spear1990243
119–120
▁"जम्मू
▁होते
roject
▁नदियाँ
▁स्रोत/978-0-521-80904-7
](https://hi.wikipedia.org/wiki/विशेष:पुस्तक_स्रोत/978-0-521-80904-7
▁भूमि
Robb201
_विकास
lackwell
surance
ंचनजं
भुवनेश्वर
రేబియా
▁गुफाएं
केरल
▁राजनीति
▁"पंजाबी
.worldcat.org/
aranasi
url=
_groups
hoti
](https://en.wikipedia.org/wiki/List_of_countries_by_GDP_(
▁York:
టాక్
▁spread
amsar
▁जीवन
▁మాత్ర
్రిటిష్
vidence
▁(2006),
▁Security
▁Exchange
ridget
ridangam
वासी
▁texts
धाकृष्ण
వెను
ూచి
.org*.
iscover
▁द्वीपसमूह
భారతదేశ_రాష్ట్రాలు,_కేంద్రపాలిత_ప్రాంత
▁व्यक्ति
liefs
cyclopædia
▁राज्यक्षेत्र")
केन्द्रीय
ప్పటిక
▁स्थापना
्मपुत्र
▁Civilisation
emographics
▁humans
Provisional_Population_Totals_Paper_1_of_2011_India16
धनता
मरीका
లేషియా
▁औसत
्यान्मार
भाषी
_Act,_
▁మొదల
ताजमहल
तन्त्रता
/hindirelease.aspx?rel
▁2001](https://en.wikipedia.org/wiki/India#CITEREF
ConinghamYoung
Taj_Mahal
utesv
▁families
adrasah
AsherTalbot20221
miling
वेशद्वार
ద్యు
▁[गुजरात](https://hi.wikipedia.org/wiki/गुजरात
altwater
्रह्मपुत्र
▁जिनमें
▁చిత్ర
सांख्य
ద్వీప్
▁ఉపఖండ
▁దేశంలోని
आईएसएस
▁కాంగ్రెసు
▁built
▁literacy
406]](https://en.wikipedia.org/wiki/India#cite_note-vatsyayan-lord-432
हमदाबाद
_न्यायालय
Chennai
_industry_in_India
business/business-
ఆగష్టు
లక్షద్వీప్
హాయం:
ీకరణ
ోల్‌కా
▁नागर
ino-Indian
▁पड़ोसी
igveda
थाईलैंड
हाबलिपुरम
మిజోరా
_during_O
](https://hi.wikipedia.org/wiki/पूर्वी_
िज़ोरम
िर्धनता
राक़
राष्ट्रीय_उद्यान
countries_and_dependencies_by_population
orporation
anchi2
ramaniam
rocodile
▁Emergency
_Economic_Co-operation
▁2014](https://en.wikipedia.org/wiki/India#CITEREFLudden2014
FrontView
_तथा
दुच्चे
ర్యానా
▁[ఢిల్లీ](https://te.wikipedia.org/wiki/ఢిల్లీ
▁प्रभाव
టిబెట్
](https://hi.wikipedia.org/wiki/उत्तर_प्रदेश
మెరికా
pib.nic.in/newsite/hindirelease.aspx?rel
-thomason
ोणार्क
▁veget
ad-agar
s/paper
ommaraju
▁[Pakistan](https://en.wikipedia.org/wiki/Pakistan
sites/default
entral_In
एमआई
धर्मनिरपेक्ष
బడ్డీ
ేరళ
▁"गुजरात")
▁समाप्त
్రైస్త
](https://hi.wikipedia.org/wiki/भारत_सरकार
ंगलोर
ండమాన్
द्वितीय
_पार्टी
ెలవుదిన
▁Organisation")
▁[978-0-521-80904-7](https://hi.wikipedia.org/wiki/विशेष:पुस्तक_स्रोत/978-0-521-80904-7
▁[Russia](https://en.wikipedia.org/wiki/Russia
▁2023](https://en.wikipedia.org/wiki/India#CITEREFDikshitSchwartzberg2023),
▁Europe*](https://books.google.com/books?id=ZvaGuaJIJgoC&pg=PA
▁approximately
Gumpa
Special:Search
Yumthang
_value
_monsoon_
azette
aidyanathan
jolad-agar
k-eagle
ऋग्वेद
जवाड़े
धोलावीरा
पीपीपी)
वरात्रि
ेहरादून
ैम्ब्रिज
తెలంగాణ
ెన్నై
‌మహల్
▁entire
orbett
ttacus
InfosysHQ
alghat
▁(2010).
▁(2003).
▁(अभिज्ञापक)")
रामायण
adavoor
▁dynasty")
ni_Missile
_(अभिज्ञापक)
तिरुवन
_SCO_summit
_in_March_2004
est_Bengal
aprobanis
తాజ్‌మహల్
1.asp?linkid=20
हाजनपद
క్షరాస్యత
nathurai
▁[बांग्ला](https://hi.wikipedia.org/wiki/बांग्ला
▁[Indonesia](https://en.wikipedia.org/wiki/Indonesia
ंपानेर-पावा
-17feb14
vanabelagola
నాగాలాండ్
rganisation_for_Economic_Co-operation
गोलशास्त्र
ungabhadra
nclm.nic.in/index1.asp?linkid=20
uttaphrynus
](https://te.wikipedia.org/wiki/జమ్మూ_కాశ్మీ
ंचनजंघा
ConinghamYoung2015
Taj_Mahal_in_March_2004
business/business-news/
ోల్‌కాతా
▁2014](https://en.wikipedia.org/wiki/India#CITEREFLudden2014),
sites/default/files/
Special:Search/India
InfosysHQFrontView
ंपानेर-पावागढ़
rganisation_for_Economic_Co-operation_and_Development
)[
*[
/19
41)
6-
68.
97
9-1
9-5
Am
English
LD
LO
NG
NI
_U
_ad
`:
dd
hl
med.
rise
y;
{{
–13
▁vers
▁4.
▁5.
▁8.
](https://pub
▁[5
arsh
reement
is.
cite
▁Americ
▁Social
\_par
[[18
[[15
library
urd
▁makes
▁11.
standard
▁data
links
▁Dec
former
308
18.
▁First
▁Fisher
▁["H
udget
eph
13)
16.
Harv\_and\_Sfn\_no-target\_errors

-59
47)
39.
▁"Edit
CS1_
▁[978-0-19-882905-8
▁[Edit
ameters
▁[978-1-107-11162-2
2003),
_capita
1975
▁Religion
parliament
▁1947,
_Shri
_News
_number
ivision
▁°C
▁°F)
▁Wikidata")
▁Wikidata](https://www.wikidata.org/wiki/Q
Pages\_using\_infobox
ncbi.nlm.nih.gov/
▁Day*](https://books.google.com/books?id=
\_country\_with\_
}}`:
med.ncbi.nlm.nih.gov/
{{cite
](https://pubmed.ncbi.nlm.nih.gov/
\_parameters
▁Fisher,
\_parameters#
,6
-i
-res
/an
/10
/C-0
1).
1st
1-9
2-7
2-India.pdf)
324
421
878
9857
Co
Col
DNA
HDR
LS
MDD
OL
Political_
W00
XLS
_ध
_य
_22
_46
_files/
dna
edia
gad
jana
s)
tats
दी_
पिय
फगान
बन
मस
रिया")
लिया
सार
०,
′′
▁43
▁own
ortion
▁[6
2022
▁क्र
isi
isni
▁(2004
▁(2005
lement
▁init
amang
use
\_c
\_n
\_Wiki
▁tril
▁bord
istrib
▁जीत
00%20A
▁दिल्ली
▁दिवस
▁Bureau
106
247
_स्व
▁*2011
▁having
11)
114
▁आज
▁आर
-49857
▁reach
▁those
ably
ables/
▁[States
18)
▁["World
▁Institu
_14
_15
▁iss
_मु
▁Le
utri
ndl
perCol
-2_Data
िसमस
▁साम
▁साहित्य
47.
▁Id
ternet
ana-m
ana-49857
_Tables/
ी"))
2018-lead
हिन्द_महासागर
%202-India.pdf)
.jp/auth
opulation_en
▁अनुस
7.208
▁१२
▁१८
ोगरी
_power
-prov
news18
▁living
▁500
-sign
2007),
▁77.208
efficient
ervices
▁2010.
[![](https://upload.wikimedia.org/wikipedia/commons/thumb/7/
-gana-m
▁25.
_संविधान
दाय
म्बन्ध
1/DD
national-an
map_of_India
flict
▁21.
india/report
india/national-an
/pdf
/population_en
/A-2_Data
▁Metcalf,
_%282%29
▁[हिन्दू
play
embly_of_India
_क्षेत्र?action=edit&redlink=1
▁मुस्लिम
_top
▁निर्भर
censusindia.gov.in/2011-prov
▁संविधान")
िस्तान")
.htm).
UNHDR
.com/news/india/national-an
▁कार्यालय
2542
%E0%A4%BE
censusindia.gov.in/2011census/P
censusindia.gov.in/2011census/C-0
censusindia.gov.in/2011census/population_en
etary_Fund
them-of-india-
-on-jana
y-First
5/5
_Assembly_of_India
▁राजधानी
C-01%20
▁desc
166-2
S.XLS
▁nearly
india.gov.in/india-glance/profile
rief-on-jana
india.com/india/report
wenty-First
▁figures
cogniz
▁(1,269,219
▁3,287,263
voyage
-asia-india
▁`|
\_or\_
▁Century*](https://books.google.com/books?id=
a-brief-on-jana
▁Technology
_Monetary_Fund
data.worldbank.org/indicator/S
61389
11934238p)
CA/A-2_Data
-result
MDDS.XLS
Political_map_of_India
W00C-01%20
dnaindia.com/india/report
▁(2004).
▁trillion
00%20A%202-India.pdf)
perCollin
ana-498576.
_Tables/00%20A%202-India.pdf)
news18.com/news/india/national-an
▁77.20833
-gana-mana-498576.
1/DDW00C-01%20
censusindia.gov.in/2011-prov-result
censusindia.gov.in/2011census/PCA/A-2_Data
censusindia.gov.in/2011census/C-01/DDW00C-01%20
censusindia.gov.in/2011census/population_enumeration
them-of-india-a-brief-on-jana
news18.com/news/india/national-anthem-of-india-a-brief-on-jana
censusindia.gov.in/2011census/PCA/A-2_Data_Tables/00%20A%202-India.pdf)
censusindia.gov.in/2011census/C-01/DDW00C-01%20MDDS.XLS
news18.com/news/india/national-anthem-of-india-a-brief-on-jana-gana-mana-498576.
*),
,_1
-h
-li
-year
/F
/m
1)[[
2-25
3]](https://en.wikipedia.org/wiki/India#cite_note-
685
756
82
960
958
Ali
Aitchison
BT
Bangalore
Battle
Clémentin-Ojha
EAS
Kha
Ministry_of_
Nehru
Po
Portal:
See
Ud
VII
Women
_6
_li
_40
_2014
_01
atic
after
ahib
auna
bul
cet
count
dance
ea
eel
fq
from
hats
ife
iodiversity
lom
lus
lofker
nia
oist
pB
pos
pper
pts
pace
ppear
posed
q9
rong
ses
sra
ster
tle
vin
vad
wan
wAAQBAJ&pg=PA
xchange
yl
yles
–19
–15
▁lo
▁List
▁ens
▁ric
▁qu
▁architecture
▁astronom
dian_
oria
](Portal:
](https://data.bnf.fr/ark:/12148/cb
▁[g
▁[world
▁[Hinduism
enter
anion
anata
anking
onia
th.
](https://en.wikipedia.org/wiki/Hinduism
tici
tist
ticip
hie
hilos
erence
erated
arment
20).
algra
rees
andy
andbook
oman
omain
eded
edkar
oud
ouli
](https://en.wikipedia.org/wiki/Indian
▁India](https://en.wikipedia.org/wiki/S
▁India](https://en.wikipedia.org/wiki/R
190
19-25
▁inf
id=1
raq
raval
▁sc
▁ste
▁same
▁surr
▁six
▁paper
▁pilgrim
etric
river
ritical
am")
amese
▁c.
▁court
▁cuisine
▁called
▁cultures
usical
atma
▁Carnatic
▁A.
▁At
▁Sons
▁further
789
lie
lif
ural_
▁min
▁mon
▁mid
▁much
▁medieval
▁Publ
ula
▁1200
cept
▁2013.
unachal
illia
ilitary
▁domin
▁democracy
▁T.
olid
▁Middle
resid
▁BJP
▁Bangalore
▁appear
nimal
1050
ir_S
▁During
▁law
▁linguistic
▁"SAARC
▁each
▁European
matical
1992
▁*www.
_Sun
_Sec
_States
ctu
▁hand
_in_A
shok
-38
-316
forge
ophy
_Army
-4)
-4").
-438
-465
elp
5059
▁record
ubs
uborne
abit
gether
ishers
▁1949
ests
▁net
odel
▁ord
180
]](https://en.wikipedia.org/wiki/India#cite_note-FOOTNOTEAsherTalbot2008
▁Football
▁Jain
.[[10
.[[35
▁["In
Harmand
uda
_Pakistan
List_of_India
2755
▁"Caste
hard
▁arts
ountains
▁grad
▁global
](https://en.wikipedia.org/wiki/SAARC
▁Li
eck
_Ch
-9534
appa
▁Western
▁[*P
utin
utonom
latt
nder
▁[↑](https://en.wikipedia.org/wiki/India#cite_ref-FOOTNOTER
avin
ajor
overn
-53
-556
-5320
▁[Bengal
▁[Buddhism
&pg=PT
▁"Bengal
▁"Bangladesh
▁Its
▁Islam
382
▁"Portal:
_Trade
](https://en.wikipedia.org/wiki/BRICS
](https://en.wikipedia.org/wiki/Bangladesh
ensus_Commission
ism")
-6").
398
▁*[A
ords
aipur
▁language,
▁ann
_November
_Raj
_beach
_Broadcasting
_Golden_Temple
▁[978-0-19-5
iving
▁[Ge
▁[Ganges
engal_
49-53
RIC
_pilgrim
](https://en.wikipedia.org/wiki/Ge
▁"Special:BookSources/978-0-19-5
_and_Forest
▁prob
ahatma
ructure
67–
▁vict
▁79.
▁sett
quent
▁regard
_des
▁1999
](https://en.wikipedia.org/wiki/Kerala
▁what
_Fr
▁administrative
-market
1_to
▁Commonwealth
_countries
antra
▁"Foreign
lassical
_Indian_Th
▁again
▁President
raditional_
▁governments
vestig
▁consum
_at_S
▁[Archived](https://web.archive.org/web/20250
mith
ramouli
▁Prote
%29.jpg)](File:
_Kingdom
▁also:
▁partly
▁Revolution
oolforge
ronze
▁result
ampion
▁dance")
formance
_Organization
▁Arm
apital
ify
▁jur
▁just
▁supp
▁empire
▁later,
ikh_pilgrim
lora
▁southern
▁2015.

IMFWEO.IN_24
▁2003](https://en.wikipedia.org/wiki/India#CITEREF
▁Allchin
254-7
▁held
teenth_East_Asia_Summit
telligence_Agency
rotection
▁2026.

_at_the_2024
_at_the_Golden_Temple
▁Although
▁2005](https://en.wikipedia.org/wiki/India#CITEREF
risis
surgency
▁members
Articles\_with\_
▁Concise
▁Plain
▁dependent
arlic
▁leading
imachal_Pradesh
documents/
-and-
Untouchability
-135-459
▁River"),
rofile
▁Publications
▁influences
-00254-7
▁Data*.
%7C%7C
%7c%7c
▁grew
MetcalfMetcalf2012),
-4020-556
▁producer
▁lower
▁historical
4/41/
egistrar_G
olnar2015
*](https://archive.org/details/
▁Princet
chaemen
-349-9534
_1649-53
_Ramayana
▁2011](https://en.wikipedia.org/wiki/India#CITEREFRobb2011
▁parliamentary
▁directly
South_Asian_
topic
rakash
▁2008](https://en.wikipedia.org/wiki/India#CITEREFAsherTalbot2008),
Environment_and_Forest
lackbuck
rigonometry
Home_Affairs_1960
.toolforge
](https://catalogue.bnf.fr/ark:/12148/cb
abinet
uccessful
auryan
heetah
▁1970](https://en.wikipedia.org/wiki/India#CITEREF
16]](https://en.wikipedia.org/wiki/India#cite_note-IMFWEO.IN
▁"Russia")
▁./Category:Articles\_containing\_
▁significant
independence
](https://en.wikipedia.org/wiki/Ethnic_groups
▁peninsular
flicts
▁2012](https://en.wikipedia.org/wiki/India#CITEREFMetcalfMetcalf2012),
entral_Intelligence_Agency
rganisation_for_Economic_Co-operation_and_Development_2007
AliAitchison
Battle_at
Clémentin-Ojha2014
Udaipur
srael
▁[world's
▁[Hinduism](https://en.wikipedia.org/wiki/Hinduism
ticide
hilosophy
algrave
ravalli
illiam
ir_Sahib
Harmandir_Sahib
-53203-7
ensus_Commissioner
_Indian_Thali
vestigation
ikh_pilgrim_at_the_Golden_Temple
_at_the_2024_BRICS_Games
-135-45932
-4020-5562
-349-95342-4
▁2011](https://en.wikipedia.org/wiki/India#CITEREFRobb2011),
Environment_and_Forests
.toolforge.org/
](https://en.wikipedia.org/wiki/Ethnic_groups_in_South_Asia
AliAitchison2005
-ag
-चीन
/00
/28
1]](https://hi.wikipedia.org/wiki/भारत#cite_note-
1-7
2-1)
430
5,000
95
:

:भारत
=hi
?us
Atlas
Eb
FH
GQ
Valley
_అ
_ఎ
_ర
_to
_యు
_द्वीप
_రాజ
_శాస్త్ర
cs
ground
hagwat
jI
jp
mage
m=1
mjI
nised
sci
s).
ंश
ंची
ंपर
आर्
क्र
क्ट
चित
जट
जना
जेंस
झील
ठवीं
डिशा
ण्
तक
तीय
तपु
तियां
दों
न्या
निस्ट
पट
परा
प्रे
पक्ष
पमान
पनिवेश
मय
माल
मता
ये
यिका
रल
लाल
लब्
व्य
वणी