{
  "version": "1.0",
  "truncation": null,
  "padding": null,
  "added_tokens": [],
  "normalizer": {
    "type": "NFKC"
  },
  "pre_tokenizer": {
    "type": "Metaspace",
    "replacement": "▁",
    "prepend_scheme": "never",
    "split": true
  },
  "post_processor": null,
  "decoder": {
    "type": "Metaspace",
    "replacement": "▁",
    "prepend_scheme": "never",
    "split": true
  },
  "model": {
    "type": "BPE",
    "dropout": null,
    "unk_token": "[UNK]",
    "continuing_subword_prefix": null,
    "end_of_word_suffix": null,
    "fuse_unk": false,
    "byte_fallback": false,
    "ignore_merges": false,
    "vocab": {
      "[UNK]": 0,
      "\n": 1,
      "\n\n": 2,
      "\n\n\n": 3,
      "\n\n##": 4,
      "\n\n###": 5,
      "\n\n-": 6,
      "\n\nM": 7,
      "\n\nMain": 8,
      "\n\n[": 9,
      "\n\n[![](https://upload.wikimedia.org/wikipedia/commons/thumb/": 10,
      "\n\nमुख्य": 11,
      "\n\nభారతదేశం": 12,
      "\n-": 13,
      "\nCategory:": 14,
      "!": 15,
      "![": 16,
      "![](https://upload.wikimedia.org/wikipedia/commons/thumb/": 17,
      "\"": 18,
      "\"\n": 19,
      "\")": 20,
      "\")\n": 21,
      "\")\n\n": 22,
      "\")\n-": 23,
      "\")\"": 24,
      "\"))": 25,
      "\"))\n": 26,
      "\")*": 27,
      "\")**": 28,
      "\")*,": 29,
      "\")*.": 30,
      "\"),": 31,
      "\"),[[": 32,
      "\").": 33,
      "\").\n": 34,
      "\").\n-": 35,
      "\").\n4": 36,
      "\").[[": 37,
      "\"):": 38,
      "\");": 39,
      "\")[[": 40,
      "\".": 41,
      "\"](http://": 42,
      "\"](https://": 43,
      "\"](https://books.google.com/books?id=": 44,
      "\"](https://web.archive.org/web/": 45,
      "\"](https://web.archive.org/web/201": 46,
      "\"](https://web.archive.org/web/20160": 47,
      "\"](https://www.": 48,
      "#": 49,
      "##": 50,
      "$": 51,
      "%": 52,
      "%,": 53,
      "%2": 54,
      "%20": 55,
      "%20%20": 56,
      "%20%20%20%20": 57,
      "%20%20%20%20%20%20%20%20": 58,
      "%28": 59,
      "%29": 60,
      "%29.jpg)](File:": 61,
      "%2C": 62,
      "%2C5": 63,
      "%2C_": 64,
      "%2C_India.jp": 65,
      "%2F": 66,
      "%3": 67,
      "%7": 68,
      "%7C": 69,
      "%7C%7C": 70,
      "%7c": 71,
      "%7c%7c": 72,
      "%A": 73,
      "%B": 74,
      "%E0%A": 75,
      "%E0%A4": 76,
      "%E0%A4%": 77,
      "%E0%A4%A": 78,
      "%E0%A4%B": 79,
      "%E0%A5%": 80,
      "%E0%B": 81,
      "%E0%B0": 82,
      "&": 83,
      "&pg=": 84,
      "&pg=PA": 85,
      "&pg=PT": 86,
      "&s": 87,
      "'": 88,
      "'s": 89,
      "(": 90,
      ")": 91,
      ")\n": 92,
      ")\n\n": 93,
      ")\n\n-": 94,
      ")\n\nIndia": 95,
      ")\n\nThe": 96,
      ")\n-": 97,
      ")\"": 98,
      ")\")": 99,
      ")\"),": 100,
      "),": 101,
      ").": 102,
      ").\n": 103,
      ").\n4": 104,
      ")[[": 105,
      "*": 106,
      "*)": 107,
      "**": 108,
      "*,": 109,
      "*.": 110,
      "*](http://": 111,
      "*](https://": 112,
      "*](https://archive.org/details/": 113,
      "*](https://books.google.com/books?id=": 114,
      "*](https://web.archive.org/web/": 115,
      "*](https://web.archive.org/web/201": 116,
      "*](https://www.": 117,
      "+": 118,
      ",": 119,
      ",000": 120,
      ",4": 121,
      ",NGDP": 122,
      ",[[": 123,
      ",_": 124,
      "-": 125,
      "-0": 126,
      "-0\").\n-": 127,
      "-0)": 128,
      "-0)\n": 129,
      "-0-": 130,
      "-0-19": 131,
      "-0-19-882905-8": 132,
      "-0-3": 133,
      "-0-4": 134,
      "-0-415": 135,
      "-0-5": 136,
      "-0-521": 137,
      "-0-521-80904-7": 138,
      "-00": 139,
      "-06": 140,
      "-07": 141,
      "-1": 142,
      "-1\").\n-": 143,
      "-1)": 144,
      "-10": 145,
      "-100": 146,
      "-107": 147,
      "-107-11162-2": 148,
      "-11": 149,
      "-111": 150,
      "-11162-2": 151,
      "-135": 152,
      "-138": 153,
      "-14": 154,
      "-16": 155,
      "-17": 156,
      "-19": 157,
      "-2": 158,
      "-2\").": 159,
      "-2)": 160,
      "-20": 161,
      "-21": 162,
      "-22": 163,
      "-23": 164,
      "-24": 165,
      "-25": 166,
      "-26": 167,
      "-27": 168,
      "-28": 169,
      "-29": 170,
      "-2](Special:BookSources/978-1": 171,
      "-3": 172,
      "-3)": 173,
      "-30": 174,
      "-316": 175,
      "-317": 176,
      "-349": 177,
      "-38": 178,
      "-39": 179,
      "-4": 180,
      "-4\").": 181,
      "-40": 182,
      "-4020": 183,
      "-438": 184,
      "-45": 185,
      "-459": 186,
      "-5": 187,
      "-50": 188,
      "-53": 189,
      "-6": 190,
      "-6\").": 191,
      "-7": 192,
      "-78": 193,
      "-78074-108-6": 194,
      "-7mar2011": 195,
      "-8": 196,
      "-80": 197,
      "-80904-7": 198,
      "-81": 199,
      "-85": 200,
      "-88": 201,
      "-882905-8": 202,
      "-9": 203,
      "-9\").": 204,
      "-9\").\n-": 205,
      "-90": 206,
      "-967733-7": 207,
      "-98": 208,
      "-981": 209,
      "-B": 210,
      "-C": 211,
      "-D": 212,
      "-H": 213,
      "-India": 214,
      "-R": 215,
      "-S": 216,
      "-T": 217,
      "-W": 218,
      "-Y": 219,
      "-an": 220,
      "-and": 221,
      "-and-": 222,
      "-ar": 223,
      "-asia": 224,
      "-b": 225,
      "-c": 226,
      "-d": 227,
      "-dra": 228,
      "-ex": 229,
      "-f": 230,
      "-g": 231,
      "-gen": 232,
      "-h": 233,
      "-in": 234,
      "-in-": 235,
      "-india": 236,
      "-india-": 237,
      "-k": 238,
      "-l": 239,
      "-language": 240,
      "-language\\_": 241,
      "-largest": 242,
      "-le": 243,
      "-lead": 244,
      "-li": 245,
      "-logo.sv": 246,
      "-m": 247,
      "-ma": 248,
      "-mar": 249,
      "-market": 250,
      "-n": 251,
      "-national-language": 252,
      "-of": 253,
      "-on-": 254,
      "-p": 255,
      "-r": 256,
      "-re": 257,
      "-report": 258,
      "-s": 259,
      "-st": 260,
      "-t": 261,
      "-to-": 262,
      "-ve": 263,
      "-w": 264,
      "-with": 265,
      "-world": 266,
      "-प": 267,
      "-विज्ञान": 268,
      ".": 269,
      ".\n": 270,
      ".\n\n": 271,
      ".\n-": 272,
      ".\n1": 273,
      ".\n11": 274,
      ".\n14": 275,
      ".\n17": 276,
      ".\n23": 277,
      ".\n3": 278,
      ".\n36": 279,
      ".\n8": 280,
      ".\"": 281,
      ".\"\n": 282,
      ".\")\n\n": 283,
      "..": 284,
      "...": 285,
      "...]": 286,
      ".0": 287,
      ".;": 288,
      ".[[": 289,
      ".[[1": 290,
      ".[[10": 291,
      ".[[23": 292,
      ".[[28": 293,
      ".[[3": 294,
      ".[[30": 295,
      ".[[34": 296,
      ".[[4": 297,
      ".[[406]](https://en.wikipedia.org/wiki/India#cite_note-vatsyayan-lord-432": 298,
      ".](https://upload.wikimedia.org/wikipedia/commons/thumb/": 299,
      ".asp": 300,
      ".aspx?": 301,
      ".bn": 302,
      ".com": 303,
      ".com/": 304,
      ".com/news/": 305,
      ".com/news/world": 306,
      ".ed": 307,
      ".edu/": 308,
      ".f": 309,
      ".fr": 310,
      ".gov": 311,
      ".gov.in/": 312,
      ".gov/": 313,
      ".htm": 314,
      ".in": 315,
      ".in/": 316,
      ".jp": 317,
      ".jpg": 318,
      ".jpg)": 319,
      ".jpg)\n\n": 320,
      ".jpg)\n-": 321,
      ".jpg)](File:": 322,
      ".jpg)](File:C": 323,
      ".jpg)](https://hi.wikipedia.org/wiki/चित्र:": 324,
      ".jpg)](https://te.wikipedia.org/wiki/దస్త్రం:": 325,
      ".jpg/": 326,
      ".jpg/120px-": 327,
      ".jpg/250px-": 328,
      ".jpg/330px-": 329,
      ".nic.in/": 330,
      ".org/": 331,
      ".org/wiki/": 332,
      ".pdf)": 333,
      ".php": 334,
      ".sv": 335,
      ".worldbank.org/": 336,
      ".worldbank.org/indicator": 337,
      ".శ.": 338,
      "/": 339,
      "/0": 340,
      "/08/": 341,
      "/A": 342,
      "/E": 343,
      "/India": 344,
      "/L": 345,
      "/M": 346,
      "/P": 347,
      "/S": 348,
      "/artic": 349,
      "/articl": 350,
      "/article": 351,
      "/articles/": 352,
      "/articleshow/": 353,
      "/articleshow/5": 354,
      "/auth": 355,
      "/c": 356,
      "/d": 357,
      "/f": 358,
      "/files/": 359,
      "/g": 360,
      "/http://": 361,
      "/http://www.": 362,
      "/https://": 363,
      "/https://www.": 364,
      "/india": 365,
      "/news/": 366,
      "/p": 367,
      "/s": 368,
      "0": 369,
      "0-0)": 370,
      "0.": 371,
      "00": 372,
      "00)": 373,
      "000": 374,
      "0000": 375,
      "003": 376,
      "00–సా.శ.పూ.": 377,
      "05": 378,
      "07": 379,
      "074-108-6": 380,
      "1": 381,
      "1)": 382,
      "1).": 383,
      "1):": 384,
      "1,": 385,
      "1-0": 386,
      "1-0)": 387,
      "1-1": 388,
      "1-3": 389,
      "1-4": 390,
      "1.": 391,
      "1.\n": 392,
      "1/": 393,
      "10": 394,
      "10-3": 395,
      "10.": 396,
      "100": 397,
      "1017": 398,
      "109": 399,
      "11": 400,
      "113": 401,
      "114": 402,
      "115": 403,
      "118": 404,
      "12": 405,
      "120": 406,
      "1200": 407,
      "120px-": 408,
      "121": 409,
      "123": 410,
      "126": 411,
      "13": 412,
      "130": 413,
      "1300": 414,
      "14": 415,
      "15": 416,
      "16": 417,
      "160": 418,
      "166": 419,
      "168": 420,
      "16]](https://en.wikipedia.org/wiki/India#cite_note-": 421,
      "16]](https://en.wikipedia.org/wiki/India#cite_note-IMFWEO.IN-24": 422,
      "17": 423,
      "18": 424,
      "18)": 425,
      "19": 426,
      "1947": 427,
      "1947)": 428,
      "1950": 429,
      "1967": 430,
      "197": 431,
      "1970": 432,
      "1971": 433,
      "1977": 434,
      "198": 435,
      "199": 436,
      "1990": 437,
      "1991": 438,
      "1992": 439,
      "1993": 440,
      "1994": 441,
      "1996": 442,
      "1997": 443,
      "1998": 444,
      "1999": 445,
      "19–120": 446,
      "1]](https://en.wikipedia.org/wiki/India#cite_note-": 447,
      "1]](https://en.wikipedia.org/wiki/India#cite_note-FOOTNOTE": 448,
      "1_": 449,
      "1st": 450,
      "1–": 451,
      "2": 452,
      "2%": 453,
      "2)": 454,
      "2).": 455,
      "2)[[": 456,
      "2,": 457,
      "2-0": 458,
      "2-0)": 459,
      "2-10": 460,
      "2-25": 461,
      "2.": 462,
      "2.\n": 463,
      "2/": 464,
      "20": 465,
      "20)": 466,
      "20).": 467,
      "20.": 468,
      "200": 469,
      "2000": 470,
      "2001": 471,
      "2001),": 472,
      "2002": 473,
      "2003": 474,
      "2003),": 475,
      "2004": 476,
      "2005": 477,
      "2006": 478,
      "2006),": 479,
      "2007": 480,
      "2008": 481,
      "2009": 482,
      "201": 483,
      "2010": 484,
      "2011": 485,
      "2012": 486,
      "2013": 487,
      "2014": 488,
      "2015": 489,
      "2016": 490,
      "2017": 491,
      "2018": 492,
      "2019": 493,
      "2023": 494,
      "2024": 495,
      "2025": 496,
      "208": 497,
      "21": 498,
      "21)": 499,
      "21.": 500,
      "210": 501,
      "217": 502,
      "219": 503,
      "22": 504,
      "22-9": 505,
      "221": 506,
      "223": 507,
      "226": 508,
      "227": 509,
      "22–123": 510,
      "23": 511,
      "23)": 512,
      "23.": 513,
      "230": 514,
      "24": 515,
      "24)": 516,
      "24.": 517,
      "240": 518,
      "24_A7C": 519,
      "25": 520,
      "25)": 521,
      "250": 522,
      "250px-": 523,
      "253": 524,
      "254": 525,
      "26": 526,
      "26)": 527,
      "26.": 528,
      "260": 529,
      "261": 530,
      "27": 531,
      "270": 532,
      "2755": 533,
      "28": 534,
      "28)": 535,
      "28.": 536,
      "286": 537,
      "29": 538,
      "29.": 539,
      "2905": 540,
      "2905-8": 541,
      "2](https://en.wikipedia.org/wiki/India#CITEREF": 542,
      "2]](https://en.wikipedia.org/wiki/India#cite_note-": 543,
      "2]](https://en.wikipedia.org/wiki/India#cite_note-FOOTNOTE": 544,
      "2]](https://te.wikipedia.org/wiki/భారతదేశం#cite_note-india.gov.in": 545,
      "2_": 546,
      "2nd": 547,
      "2–": 548,
      "3": 549,
      "3%": 550,
      "3)": 551,
      "3),": 552,
      "3).": 553,
      "3-0)": 554,
      "3-1": 555,
      "3-3": 556,
      "3-8": 557,
      "3.": 558,
      "3.\n": 559,
      "3/": 560,
      "30": 561,
      "300": 562,
      "31": 563,
      "317": 564,
      "318": 565,
      "32": 566,
      "324": 567,
      "33": 568,
      "33-7": 569,
      "330": 570,
      "330px-": 571,
      "337": 572,
      "338": 573,
      "34": 574,
      "34)": 575,
      "35": 576,
      "350": 577,
      "36": 578,
      "37": 579,
      "38": 580,
      "39": 581,
      "39)": 582,
      "39-4": 583,
      "397": 584,
      "3TRt": 585,
      "3](https://en.wikipedia.org/wiki/India#CITEREF": 586,
      "3]](https://en.wikipedia.org/wiki/India#cite_note-": 587,
      "3]](https://en.wikipedia.org/wiki/India#cite_note-FOOTNOTE": 588,
      "3_": 589,
      "3–": 590,
      "4": 591,
      "4)": 592,
      "4).": 593,
      "4-0": 594,
      "4-0)": 595,
      "4-3": 596,
      "4-7": 597,
      "4.": 598,
      "4/": 599,
      "4/4": 600,
      "40": 601,
      "406]](https://en.wikipedia.org/wiki/India#cite_note-vatsyayan-lord-432": 602,
      "407": 603,
      "41": 604,
      "410": 605,
      "428": 606,
      "43": 607,
      "44": 608,
      "45": 609,
      "46": 610,
      "47": 611,
      "48": 612,
      "48)": 613,
      "489": 614,
      "49": 615,
      "4](https://en.wikipedia.org/wiki/India#CITEREF": 616,
      "4]](https://en.wikipedia.org/wiki/India#cite_note-": 617,
      "4]](https://en.wikipedia.org/wiki/India#cite_note-FOOTNOTE": 618,
      "4–": 619,
      "5": 620,
      "5%": 621,
      "5)": 622,
      "5).": 623,
      "5-0)": 624,
      "5-3": 625,
      "5-4": 626,
      "5.": 627,
      "5.pdf)": 628,
      "5/": 629,
      "50": 630,
      "50)": 631,
      "500": 632,
      "51": 633,
      "51-9": 634,
      "52": 635,
      "53": 636,
      "54": 637,
      "55": 638,
      "56": 639,
      "566": 640,
      "57": 641,
      "577": 642,
      "58": 643,
      "59": 644,
      "5](https://en.wikipedia.org/wiki/India#CITEREF": 645,
      "5]](https://en.wikipedia.org/wiki/India#cite_note-": 646,
      "5]](https://en.wikipedia.org/wiki/India#cite_note-FOOTNOTE": 647,
      "5_": 648,
      "5–": 649,
      "6": 650,
      "6)": 651,
      "6).": 652,
      "6,": 653,
      "6-0)": 654,
      "6-1": 655,
      "6.": 656,
      "6.\n": 657,
      "6/": 658,
      "60": 659,
      "61": 660,
      "62": 661,
      "62-2": 662,
      "63": 663,
      "64": 664,
      "65": 665,
      "67": 666,
      "674": 667,
      "677": 668,
      "67733-7": 669,
      "68": 670,
      "684": 671,
      "69": 672,
      "6](https://en.wikipedia.org/wiki/India#CITEREF": 673,
      "6]](https://en.wikipedia.org/wiki/India#cite_note-": 674,
      "6]](https://en.wikipedia.org/wiki/India#cite_note-FOOTNOTE": 675,
      "6]](https://en.wikipedia.org/wiki/India#cite_note-vatsyayan-lord-432": 676,
      "6_": 677,
      "6–": 678,
      "7": 679,
      "7)": 680,
      "7).": 681,
      "7,": 682,
      "7-0)": 683,
      "7-1": 684,
      "7.": 685,
      "7.\n": 686,
      "7/": 687,
      "70": 688,
      "728": 689,
      "73": 690,
      "74": 691,
      "74-10": 692,
      "74-108-6": 693,
      "75": 694,
      "76": 695,
      "77": 696,
      "78": 697,
      "78)": 698,
      "79": 699,
      "7C": 700,
      "7](https://en.wikipedia.org/wiki/India#CITEREF": 701,
      "7]](https://en.wikipedia.org/wiki/India#cite_note-": 702,
      "7]](https://en.wikipedia.org/wiki/India#cite_note-FOOTNOTE": 703,
      "7_": 704,
      "8": 705,
      "8)": 706,
      "8-0)": 707,
      "8-6": 708,
      "8.": 709,
      "8/": 710,
      "80": 711,
      "81": 712,
      "82": 713,
      "84": 714,
      "85": 715,
      "86": 716,
      "87": 717,
      "88": 718,
      "8]](https://en.wikipedia.org/wiki/India#cite_note-": 719,
      "8]](https://en.wikipedia.org/wiki/India#cite_note-FOOTNOTE": 720,
      "9": 721,
      "9)": 722,
      "9).": 723,
      "9,": 724,
      "9-0)": 725,
      "9-5": 726,
      "9.": 727,
      "9/": 728,
      "90": 729,
      "904-7": 730,
      "91": 731,
      "94": 732,
      "958": 733,
      "978": 734,
      "98": 735,
      "99": 736,
      "9]](https://en.wikipedia.org/wiki/India#cite_note-": 737,
      "9]](https://en.wikipedia.org/wiki/India#cite_note-FOOTNOTE": 738,
      ":": 739,
      ":**": 740,
      ":/": 741,
      "://": 742,
      ";": 743,
      ";\n": 744,
      ";[[": 745,
      "<": 746,
      "=": 747,
      "=1": 748,
      "=20": 749,
      ">": 750,
      "?": 751,
      "?action=": 752,
      "?action=edit&redlink=1": 753,
      "?id": 754,
      "?id=": 755,
      "A": 756,
      "AA": 757,
      "AAAAMAAJ": 758,
      "AAJ": 759,
      "AAMAAJ": 760,
      "AAQBAJ": 761,
      "AAQBAJ&pg=PA": 762,
      "AARC": 763,
      "AARC_summit": 764,
      "AG": 765,
      "AGE": 766,
      "AS": 767,
      "AliAitchison2005": 768,
      "All": 769,
      "An": 770,
      "Ar": 771,
      "Artic": 772,
      "Aryan": 773,
      "Asher": 774,
      "AsherAsher": 775,
      "AsherAsher2006": 776,
      "AsherTalbot": 777,
      "AsherTalbot20": 778,
      "AsherTalbot2008": 779,
      "AsherTalbot20221": 780,
      "Asia": 781,
      "At": 782,
      "B": 783,
      "BA": 784,
      "BC": 785,
      "BRICS": 786,
      "Bh": 787,
      "Bharat": 788,
      "Blurton1993": 789,
      "Book": 790,
      "British": 791,
      "Business": 792,
      "C": 793,
      "C&pg=PA": 794,
      "C).": 795,
      "C-0": 796,
      "CE": 797,
      "CN": 798,
      "CO": 799,
      "CS1": 800,
      "Category:": 801,
      "Census2011religion": 802,
      "Chennai": 803,
      "Clémentin-Ojha2014": 804,
      "Collingham": 805,
      "Combined": 806,
      "Countries": 807,
      "Court": 808,
      "Craven1997": 809,
      "D": 810,
      "DA": 811,
      "DD": 812,
      "DF": 813,
      "DP": 814,
      "Davidson2014-p": 815,
      "DikshitSchwartzberg2023": 816,
      "Dw": 817,
      "DwAAQBAJ": 818,
      "DwAAQBAJ&pg=PA": 819,
      "Dyson": 820,
      "Dyson2018": 821,
      "E": 822,
      "E0": 823,
      "E0%A": 824,
      "E0%B": 825,
      "EAS": 826,
      "EB": 827,
      "ES": 828,
      "Empire": 829,
      "Environment": 830,
      "Environment_and_Forests": 831,
      "Ethnologue": 832,
      "European": 833,
      "Ex": 834,
      "F": 835,
      "FO": 836,
      "FOOTNOTE": 837,
      "FOOTNOTENational_Informatics_Centre2005": 838,
      "FOOTNOTES": 839,
      "FOOTNOTESingh2009": 840,
      "FOOTNOTEStein19981": 841,
      "FOOTNOTEStein2010": 842,
      "File:": 843,
      "Fisher2018": 844,
      "For": 845,
      "G": 846,
      "G20": 847,
      "G8": 848,
      "Gangetic": 849,
      "Ge": 850,
      "H": 851,
      "HA": 852,
      "Har": 853,
      "Harle": 854,
      "Harle1994": 855,
      "Harv": 856,
      "Harvard": 857,
      "Hindi": 858,
      "Hindu": 859,
      "Hindustan": 860,
      "Home": 861,
      "I": 862,
      "IA": 863,
      "IB": 864,
      "IBR": 865,
      "IBSYS": 866,
      "IC": 867,
      "ID": 868,
      "IF": 869,
      "IFT": 870,
      "IFTY": 871,
      "II": 872,
      "IJ": 873,
      "IMF": 874,
      "IMFWEO.IN": 875,
      "IMFWEO.IN-24": 876,
      "IMFWEO.IN_24": 877,
      "IN": 878,
      "IS": 879,
      "ISB": 880,
      "ISBN": 881,
      "ISO": 882,
      "IT": 883,
      "ITE": 884,
      "ITERE": 885,
      "ITEREF": 886,
      "IUCN": 887,
      "In": 888,
      "Ind": 889,
      "India": 890,
      "India)": 891,
      "India.": 892,
      "India.jp": 893,
      "India_Goa": 894,
      "Indian": 895,
      "Indo-": 896,
      "Indones": 897,
      "Indonesia": 898,
      "Indus": 899,
      "Informatics": 900,
      "Intern": 901,
      "International": 902,
      "International_": 903,
      "J": 904,
      "JP": 905,
      "JPG": 906,
      "Jha": 907,
      "K": 908,
      "K:": 909,
      "Kashmir": 910,
      "KulkeRothermund": 911,
      "KulkeRothermund2004": 912,
      "KulkeRothermund2016": 913,
      "Kumar": 914,
      "L": 915,
      "L.": 916,
      "LA": 917,
      "Library": 918,
      "List": 919,
      "List_of_": 920,
      "List_of_India": 921,
      "Ludden": 922,
      "Ludden2014": 923,
      "M": 924,
      "MAAJ": 925,
      "MC": 926,
      "MF": 927,
      "MID": 928,
      "Ma": 929,
      "Metcalf": 930,
      "MetcalfMetcalf": 931,
      "MetcalfMetcalf2006": 932,
      "MetcalfMetcalf201": 933,
      "MetcalfMetcalf2012": 934,
      "Mon": 935,
      "N": 936,
      "NA": 937,
      "NG": 938,
      "NGDP": 939,
      "National": 940,
      "National_": 941,
      "National_Informatics": 942,
      "National_Informatics_Centre2005": 943,
      "Nehru": 944,
      "New": 945,
      "O": 946,
      "OL": 947,
      "OLA": 948,
      "OT": 949,
      "OTN": 950,
      "OTNOT": 951,
      "OTNOTE": 952,
      "OV": 953,
      "OVID": 954,
      "OVID-19": 955,
      "Oxford": 956,
      "P": 957,
      "PA": 958,
      "PG": 959,
      "PP": 960,
      "PPP": 961,
      "PPP)": 962,
      "PT": 963,
      "Pakistan": 964,
      "Pakistani": 965,
      "Provision": 966,
      "Provisional_Population_Totals_Paper_1_of_2011_India": 967,
      "Provisional_Population_Totals_Paper_1_of_2011_India16": 968,
      "Q": 969,
      "QAAQBAJ&pg=PA": 970,
      "QBA": 971,
      "QBAJ": 972,
      "Qu": 973,
      "R": 974,
      "RC": 975,
      "RE": 976,
      "RIC": 977,
      "RICS": 978,
      "RL": 979,
      "Raj": 980,
      "Re": 981,
      "Report": 982,
      "S": 983,
      "S.": 984,
      "S1": 985,
      "SE": 986,
      "SN": 987,
      "SYS": 988,
      "Sanskrit": 989,
      "Se": 990,
      "See": 991,
      "Sharma": 992,
      "Sharma2007": 993,
      "Sou": 994,
      "South": 995,
      "South_Asia": 996,
      "South_Asian_": 997,
      "Southeast": 998,
      "Spe": 999,
      "Spear": 1000,
      "Spear1990": 1001,
      "Spear199024": 1002,
      "Special": 1003,
      "Special:": 1004,
      "Special:Book": 1005,
      "Special:BookSou": 1006,
      "Special:BookSources/": 1007,
      "Special:BookSources/978": 1008,
      "Special:E": 1009,
      "Special:EditPage/Template:": 1010,
      "Special:S": 1011,
      "Special:Search/India": 1012,
      "St": 1013,
      "States": 1014,
      "Stein2010": 1015,
      "T": 1016,
      "TO": 1017,
      "TR": 1018,
      "TRt": 1019,
      "Taj": 1020,
      "Taj_Mahal_in_March_2004": 1021,
      "Talbot": 1022,
      "Tarlo1996": 1023,
      "Tarlo1996-26": 1024,
      "Template": 1025,
      "Template:": 1026,
      "The": 1027,
      "Tritsch": 1028,
      "U": 1029,
      "UCN": 1030,
      "UN": 1031,
      "US": 1032,
      "Un": 1033,
      "Union": 1034,
      "United": 1035,
      "University": 1036,
      "University_Press": 1037,
      "Untouchability": 1038,
      "Uttar": 1039,
      "Uttarakhand": 1040,
      "V": 1041,
      "View": 1042,
      "W": 1043,
      "WE": 1044,
      "WEO": 1045,
      "WEO.": 1046,
      "WEO.IN": 1047,
      "Wiki": 1048,
      "Wolpert": 1049,
      "Women": 1050,
      "World": 1051,
      "Wright2010": 1052,
      "X": 1053,
      "Y": 1054,
      "YS": 1055,
      "Z": 1056,
      "Ze": 1057,
      "Zealand": 1058,
      "Zoroastrian": 1059,
      "ZvaGuaJIJgo": 1060,
      "[": 1061,
      "[[": 1062,
      "[[1": 1063,
      "[[10": 1064,
      "[[120": 1065,
      "[[120]](https://hi.wikipedia.org/wiki/भारत#cite_note-langoff-128)": 1066,
      "[[14": 1067,
      "[[18": 1068,
      "[[18]](https://te.wikipedia.org/wiki/భారతదేశం#cite_note-imf2-22)": 1069,
      "[https": 1070,
      "\\": 1071,
      "\\*": 1072,
      "\\_": 1073,
      "\\_errors": 1074,
      "\\_identifiers": 1075,
      "\\_in": 1076,
      "\\_n": 1077,
      "\\_of": 1078,
      "\\_of\\_": 1079,
      "\\_p": 1080,
      "\\_parameters#": 1081,
      "\\_with\\_": 1082,
      "\\_क": 1083,
      "\\_कड़ियाँ": 1084,
      "\\_देश": 1085,
      "\\_प": 1086,
      "\\_पृष्ठसभ": 1087,
      "\\_मापदण्ड": 1088,
      "\\_सहितक\\_पृष्ठसभ#": 1089,
      "]": 1090,
      "](": 1091,
      "](Category:": 1092,
      "](File:": 1093,
      "](P": 1094,
      "](Portal:": 1095,
      "](Special:BookSources/978": 1096,
      "](Special:BookSources/978-0-": 1097,
      "](Special:BookSources/978-0-19": 1098,
      "](Special:BookSources/978-0-521": 1099,
      "](Special:BookSources/978-1": 1100,
      "](Special:BookSources/978-81": 1101,
      "](Template:": 1102,
      "](http://": 1103,
      "](http://www.": 1104,
      "](https://": 1105,
      "](https://books.google.com/books?id=": 1106,
      "](https://books.google.com/books?id=3TRt": 1107,
      "](https://books.google.com/books?id=3TRtDwAAQBAJ&pg=PA": 1108,
      "](https://books.google.com/books?id=ZvaGuaJIJgo": 1109,
      "](https://books.google.com/books?id=ZvaGuaJIJgoC&pg=PA": 1110,
      "](https://books.google.com/books?id=kZVuDwAAQBAJ&pg=PA": 1111,
      "](https://d": 1112,
      "](https://data": 1113,
      "](https://doi.org/10.": 1114,
      "](https://en.": 1115,
      "](https://en.wikipedia.org/wiki/": 1116,
      "](https://en.wikipedia.org/wiki/A": 1117,
      "](https://en.wikipedia.org/wiki/An": 1118,
      "](https://en.wikipedia.org/wiki/B": 1119,
      "](https://en.wikipedia.org/wiki/BRICS": 1120,
      "](https://en.wikipedia.org/wiki/Bangladesh": 1121,
      "](https://en.wikipedia.org/wiki/British": 1122,
      "](https://en.wikipedia.org/wiki/C": 1123,
      "](https://en.wikipedia.org/wiki/Ch": 1124,
      "](https://en.wikipedia.org/wiki/Chola": 1125,
      "](https://en.wikipedia.org/wiki/Climate_": 1126,
      "](https://en.wikipedia.org/wiki/D": 1127,
      "](https://en.wikipedia.org/wiki/Delhi": 1128,
      "](https://en.wikipedia.org/wiki/E": 1129,
      "](https://en.wikipedia.org/wiki/Economic_": 1130,
      "](https://en.wikipedia.org/wiki/Economy": 1131,
      "](https://en.wikipedia.org/wiki/Economy_of_": 1132,
      "](https://en.wikipedia.org/wiki/Ethnic_groups_in_South_Asia": 1133,
      "](https://en.wikipedia.org/wiki/F": 1134,
      "](https://en.wikipedia.org/wiki/G": 1135,
      "](https://en.wikipedia.org/wiki/H": 1136,
      "](https://en.wikipedia.org/wiki/History": 1137,
      "](https://en.wikipedia.org/wiki/History_of_": 1138,
      "](https://en.wikipedia.org/wiki/I": 1139,
      "](https://en.wikipedia.org/wiki/In": 1140,
      "](https://en.wikipedia.org/wiki/India": 1141,
      "](https://en.wikipedia.org/wiki/India#": 1142,
      "](https://en.wikipedia.org/wiki/India#C": 1143,
      "](https://en.wikipedia.org/wiki/India#CITERE": 1144,
      "](https://en.wikipedia.org/wiki/India#CITEREF": 1145,
      "](https://en.wikipedia.org/wiki/India#CITEREFR": 1146,
      "](https://en.wikipedia.org/wiki/India#cite_": 1147,
      "](https://en.wikipedia.org/wiki/India#cite_note-": 1148,
      "](https://en.wikipedia.org/wiki/India#cite_ref-": 1149,
      "](https://en.wikipedia.org/wiki/India#cite_ref-FOOTNOTE": 1150,
      "](https://en.wikipedia.org/wiki/India#cite_ref-vatsyayan-lord_432": 1151,
      "](https://en.wikipedia.org/wiki/Indian": 1152,
      "](https://en.wikipedia.org/wiki/Indian_": 1153,
      "](https://en.wikipedia.org/wiki/Indian_c": 1154,
      "](https://en.wikipedia.org/wiki/Indo-": 1155,
      "](https://en.wikipedia.org/wiki/Indus": 1156,
      "](https://en.wikipedia.org/wiki/International_": 1157,
      "](https://en.wikipedia.org/wiki/J": 1158,
      "](https://en.wikipedia.org/wiki/K": 1159,
      "](https://en.wikipedia.org/wiki/L": 1160,
      "](https://en.wikipedia.org/wiki/List_of_": 1161,
      "](https://en.wikipedia.org/wiki/List_of_S": 1162,
      "](https://en.wikipedia.org/wiki/List_of_SAARC_summit": 1163,
      "](https://en.wikipedia.org/wiki/List_of_SAARC_summits": 1164,
      "](https://en.wikipedia.org/wiki/List_of_countries": 1165,
      "](https://en.wikipedia.org/wiki/List_of_countries_by": 1166,
      "](https://en.wikipedia.org/wiki/List_of_countries_by_GDP_(": 1167,
      "](https://en.wikipedia.org/wiki/M": 1168,
      "](https://en.wikipedia.org/wiki/Ministry_of_": 1169,
      "](https://en.wikipedia.org/wiki/Mughal_": 1170,
      "](https://en.wikipedia.org/wiki/Mughal_Empire": 1171,
      "](https://en.wikipedia.org/wiki/N": 1172,
      "](https://en.wikipedia.org/wiki/National_": 1173,
      "](https://en.wikipedia.org/wiki/O": 1174,
      "](https://en.wikipedia.org/wiki/P": 1175,
      "](https://en.wikipedia.org/wiki/Pal": 1176,
      "](https://en.wikipedia.org/wiki/R": 1177,
      "](https://en.wikipedia.org/wiki/Re": 1178,
      "](https://en.wikipedia.org/wiki/Russia": 1179,
      "](https://en.wikipedia.org/wiki/S": 1180,
      "](https://en.wikipedia.org/wiki/SAARC": 1181,
      "](https://en.wikipedia.org/wiki/South": 1182,
      "](https://en.wikipedia.org/wiki/South_Asia": 1183,
      "](https://en.wikipedia.org/wiki/South_Asian_": 1184,
      "](https://en.wikipedia.org/wiki/Sri_Lank": 1185,
      "](https://en.wikipedia.org/wiki/T": 1186,
      "](https://en.wikipedia.org/wiki/The": 1187,
      "](https://en.wikipedia.org/wiki/U": 1188,
      "](https://en.wikipedia.org/wiki/United": 1189,
      "](https://en.wikipedia.org/wiki/V": 1190,
      "](https://en.wikipedia.org/wiki/W": 1191,
      "](https://en.wikipedia.org/wiki/World": 1192,
      "](https://hi.": 1193,
      "](https://hi.wikipedia.org/wiki/": 1194,
      "](https://hi.wikipedia.org/wiki/अ": 1195,
      "](https://hi.wikipedia.org/wiki/आ": 1196,
      "](https://hi.wikipedia.org/wiki/इ": 1197,
      "](https://hi.wikipedia.org/wiki/उ": 1198,
      "](https://hi.wikipedia.org/wiki/उत्तर": 1199,
      "](https://hi.wikipedia.org/wiki/ओ": 1200,
      "](https://hi.wikipedia.org/wiki/क": 1201,
      "](https://hi.wikipedia.org/wiki/कु": 1202,
      "](https://hi.wikipedia.org/wiki/ग": 1203,
      "](https://hi.wikipedia.org/wiki/गुजरात": 1204,
      "](https://hi.wikipedia.org/wiki/च": 1205,
      "](https://hi.wikipedia.org/wiki/चित्र:": 1206,
      "](https://hi.wikipedia.org/wiki/ज": 1207,
      "](https://hi.wikipedia.org/wiki/तमिल": 1208,
      "](https://hi.wikipedia.org/wiki/द": 1209,
      "](https://hi.wikipedia.org/wiki/दक्षिण": 1210,
      "](https://hi.wikipedia.org/wiki/न": 1211,
      "](https://hi.wikipedia.org/wiki/प": 1212,
      "](https://hi.wikipedia.org/wiki/पंजाब": 1213,
      "](https://hi.wikipedia.org/wiki/पश्चिम": 1214,
      "](https://hi.wikipedia.org/wiki/पाकिस्तान": 1215,
      "](https://hi.wikipedia.org/wiki/पूर्व": 1216,
      "](https://hi.wikipedia.org/wiki/प्र": 1217,
      "](https://hi.wikipedia.org/wiki/ब": 1218,
      "](https://hi.wikipedia.org/wiki/ब्रिटिश": 1219,
      "](https://hi.wikipedia.org/wiki/भारत": 1220,
      "](https://hi.wikipedia.org/wiki/भारत#": 1221,
      "](https://hi.wikipedia.org/wiki/भारत#C": 1222,
      "](https://hi.wikipedia.org/wiki/भारत#CITEREF": 1223,
      "](https://hi.wikipedia.org/wiki/भारत#CITEREFS": 1224,
      "](https://hi.wikipedia.org/wiki/भारत#cite_": 1225,
      "](https://hi.wikipedia.org/wiki/भारत#cite_note-": 1226,
      "](https://hi.wikipedia.org/wiki/भारत#cite_ref-": 1227,
      "](https://hi.wikipedia.org/wiki/भारत#cite_ref-langoff_128": 1228,
      "](https://hi.wikipedia.org/wiki/भारत_क": 1229,
      "](https://hi.wikipedia.org/wiki/भारत_का_": 1230,
      "](https://hi.wikipedia.org/wiki/भारत_की_": 1231,
      "](https://hi.wikipedia.org/wiki/भारत_के": 1232,
      "](https://hi.wikipedia.org/wiki/भारत_के_": 1233,
      "](https://hi.wikipedia.org/wiki/भारत_के_राज्य": 1234,
      "](https://hi.wikipedia.org/wiki/भारत_में": 1235,
      "](https://hi.wikipedia.org/wiki/भारत_में_": 1236,
      "](https://hi.wikipedia.org/wiki/भारत_स": 1237,
      "](https://hi.wikipedia.org/wiki/भारतीय": 1238,
      "](https://hi.wikipedia.org/wiki/भारतीय_": 1239,
      "](https://hi.wikipedia.org/wiki/म": 1240,
      "](https://hi.wikipedia.org/wiki/मध्य": 1241,
      "](https://hi.wikipedia.org/wiki/य": 1242,
      "](https://hi.wikipedia.org/wiki/ल": 1243,
      "](https://hi.wikipedia.org/wiki/व": 1244,
      "](https://hi.wikipedia.org/wiki/वि": 1245,
      "](https://hi.wikipedia.org/wiki/विशेष:पुस्तक_स्रोत/978": 1246,
      "](https://hi.wikipedia.org/wiki/विशेष:पुस्तक_स्रोत/978-1": 1247,
      "](https://hi.wikipedia.org/wiki/स": 1248,
      "](https://hi.wikipedia.org/wiki/सं": 1249,
      "](https://hi.wikipedia.org/wiki/संस्कृत": 1250,
      "](https://hi.wikipedia.org/wiki/साँचा:": 1251,
      "](https://hi.wikipedia.org/wiki/साँचा_वार्ता:": 1252,
      "](https://hi.wikipedia.org/wiki/हिन्द": 1253,
      "](https://mai.": 1254,
      "](https://mai.wikipedia.org/wiki/": 1255,
      "](https://mai.wikipedia.org/wiki/अ": 1256,
      "](https://mai.wikipedia.org/wiki/इ": 1257,
      "](https://mai.wikipedia.org/wiki/क": 1258,
      "](https://mai.wikipedia.org/wiki/फ": 1259,
      "](https://mai.wikipedia.org/wiki/ब": 1260,
      "](https://mai.wikipedia.org/wiki/भारत": 1261,
      "](https://mai.wikipedia.org/wiki/भारत#": 1262,
      "](https://mai.wikipedia.org/wiki/भारत#cite_": 1263,
      "](https://mai.wikipedia.org/wiki/भारतक": 1264,
      "](https://mai.wikipedia.org/wiki/भारतीय": 1265,
      "](https://mai.wikipedia.org/wiki/भारतीय_": 1266,
      "](https://mai.wikipedia.org/wiki/म": 1267,
      "](https://mai.wikipedia.org/wiki/स": 1268,
      "](https://mai.wikipedia.org/wiki/सं": 1269,
      "](https://te.wikipedia.org/wiki/": 1270,
      "](https://te.wikipedia.org/wiki/B": 1271,
      "](https://te.wikipedia.org/wiki/C": 1272,
      "](https://te.wikipedia.org/wiki/D": 1273,
      "](https://te.wikipedia.org/wiki/G": 1274,
      "](https://te.wikipedia.org/wiki/List_of_": 1275,
      "](https://te.wikipedia.org/wiki/List_of_countries": 1276,
      "](https://te.wikipedia.org/wiki/S": 1277,
      "](https://te.wikipedia.org/wiki/అ": 1278,
      "](https://te.wikipedia.org/wiki/ఆ": 1279,
      "](https://te.wikipedia.org/wiki/ఇ": 1280,
      "](https://te.wikipedia.org/wiki/ఇండో": 1281,
      "](https://te.wikipedia.org/wiki/ఉ": 1282,
      "](https://te.wikipedia.org/wiki/ఉత్తర": 1283,
      "](https://te.wikipedia.org/wiki/క": 1284,
      "](https://te.wikipedia.org/wiki/గో": 1285,
      "](https://te.wikipedia.org/wiki/చ": 1286,
      "](https://te.wikipedia.org/wiki/చైనా": 1287,
      "](https://te.wikipedia.org/wiki/జ": 1288,
      "](https://te.wikipedia.org/wiki/జన": 1289,
      "](https://te.wikipedia.org/wiki/జమ్మూ_కాశ్మీ": 1290,
      "](https://te.wikipedia.org/wiki/జమ్మూ_కాశ్మీరు": 1291,
      "](https://te.wikipedia.org/wiki/ఢిల్లీ": 1292,
      "](https://te.wikipedia.org/wiki/తమిళనాడు": 1293,
      "](https://te.wikipedia.org/wiki/ద": 1294,
      "](https://te.wikipedia.org/wiki/దస్త్రం:": 1295,
      "](https://te.wikipedia.org/wiki/ప": 1296,
      "](https://te.wikipedia.org/wiki/పా": 1297,
      "](https://te.wikipedia.org/wiki/పాకిస్తాన్": 1298,
      "](https://te.wikipedia.org/wiki/బ": 1299,
      "](https://te.wikipedia.org/wiki/బంగ్లాదేశ్": 1300,
      "](https://te.wikipedia.org/wiki/భారత_": 1301,
      "](https://te.wikipedia.org/wiki/భారత_జాతీయ": 1302,
      "](https://te.wikipedia.org/wiki/భారతదేశ": 1303,
      "](https://te.wikipedia.org/wiki/భారతదేశ_": 1304,
      "](https://te.wikipedia.org/wiki/భారతదేశం": 1305,
      "](https://te.wikipedia.org/wiki/భారతదేశం#": 1306,
      "](https://te.wikipedia.org/wiki/భారతదేశం#C": 1307,
      "](https://te.wikipedia.org/wiki/భారతదేశం#CITEREF": 1308,
      "](https://te.wikipedia.org/wiki/భారతదేశం#cite_": 1309,
      "](https://te.wikipedia.org/wiki/భారతదేశం#cite_note-": 1310,
      "](https://te.wikipedia.org/wiki/భారతదేశం#cite_ref-": 1311,
      "](https://te.wikipedia.org/wiki/భారతదేశంలో": 1312,
      "](https://te.wikipedia.org/wiki/భారతదేశంలో_": 1313,
      "](https://te.wikipedia.org/wiki/భారతీయ": 1314,
      "](https://te.wikipedia.org/wiki/మ": 1315,
      "](https://te.wikipedia.org/wiki/మధ్య": 1316,
      "](https://te.wikipedia.org/wiki/మూస:": 1317,
      "](https://te.wikipedia.org/wiki/స": 1318,
      "](https://te.wikipedia.org/wiki/సి": 1319,
      "](https://te.wikipedia.org/wiki/హ": 1320,
      "](https://upload.wikimedia.org/wikipedia/commons/": 1321,
      "](https://upload.wikimedia.org/wikipedia/commons/thumb/": 1322,
      "](https://upload.wikimedia.org/wikipedia/commons/thumb/8/": 1323,
      "](https://web.": 1324,
      "](https://web.archive.org/web/": 1325,
      "](https://web.archive.org/web/201": 1326,
      "](https://www.": 1327,
      "]](https://en.wikipedia.org/wiki/India#cite_note-": 1328,
      "]](https://en.wikipedia.org/wiki/India#cite_note-35": 1329,
      "]](https://en.wikipedia.org/wiki/India#cite_note-4": 1330,
      "]](https://en.wikipedia.org/wiki/India#cite_note-Combined": 1331,
      "]](https://en.wikipedia.org/wiki/India#cite_note-Dyson2018": 1332,
      "]](https://en.wikipedia.org/wiki/India#cite_note-FOOTNOTE": 1333,
      "]](https://en.wikipedia.org/wiki/India#cite_note-FOOTNOTEAsherTalbot2008": 1334,
      "]](https://en.wikipedia.org/wiki/India#cite_note-FOOTNOTEMetcalfMetcalf2006": 1335,
      "]](https://en.wikipedia.org/wiki/India#cite_note-FOOTNOTEStein2010": 1336,
      "]](https://hi.wikipedia.org/wiki/भारत#cite_note-": 1337,
      "]](https://hi.wikipedia.org/wiki/भारत#cite_note-1": 1338,
      "]](https://hi.wikipedia.org/wiki/भारत#cite_note-10": 1339,
      "]](https://hi.wikipedia.org/wiki/भारत#cite_note-Combined": 1340,
      "]](https://hi.wikipedia.org/wiki/भारत#cite_note-FOOTNOTE": 1341,
      "]](https://hi.wikipedia.org/wiki/भारत#cite_note-FOOTNOTES": 1342,
      "]](https://hi.wikipedia.org/wiki/भारत#cite_note-FOOTNOTESingh2009": 1343,
      "]](https://hi.wikipedia.org/wiki/भारत#cite_note-FOOTNOTEStein19981": 1344,
      "]](https://hi.wikipedia.org/wiki/भारत#cite_note-langoff-128)": 1345,
      "]](https://hi.wikipedia.org/wiki/भारत#cite_note-pib": 1346,
      "]](https://te.wikipedia.org/wiki/భారతదేశం#cite_note-": 1347,
      "]](https://te.wikipedia.org/wiki/భారతదేశం#cite_note-imf2-22)": 1348,
      "]](https://te.wikipedia.org/wiki/భారతదేశం#cite_note-india.gov.in": 1349,
      "^": 1350,
      "_": 1351,
      "_%28": 1352,
      "_&": 1353,
      "_(": 1354,
      "_(India)": 1355,
      "_(identifier)": 1356,
      "_(union_territory)": 1357,
      "_(भारत)": 1358,
      "_-": 1359,
      "_0": 1360,
      "_1": 1361,
      "_11": 1362,
      "_14": 1363,
      "_15": 1364,
      "_17": 1365,
      "_18": 1366,
      "_19": 1367,
      "_2": 1368,
      "_2004": 1369,
      "_2007": 1370,
      "_2008": 1371,
      "_2011": 1372,
      "_2024": 1373,
      "_21": 1374,
      "_24": 1375,
      "_26": 1376,
      "_28": 1377,
      "_3": 1378,
      "_34": 1379,
      "_36": 1380,
      "_38": 1381,
      "_39": 1382,
      "_4": 1383,
      "_9": 1384,
      "_A": 1385,
      "_A7C": 1386,
      "_Act": 1387,
      "_Act,_": 1388,
      "_Affairs": 1389,
      "_Agency": 1390,
      "_Air": 1391,
      "_Arab": 1392,
      "_Asia": 1393,
      "_Ass": 1394,
      "_B": 1395,
      "_BRICS": 1396,
      "_BRICS_Games": 1397,
      "_BRICS_summit": 1398,
      "_Bank": 1399,
      "_C": 1400,
      "_Census": 1401,
      "_Census_Commissioner": 1402,
      "_Centre2005": 1403,
      "_Ch": 1404,
      "_Comm": 1405,
      "_Commission": 1406,
      "_Commissioner": 1407,
      "_Cons": 1408,
      "_D": 1409,
      "_Delhi": 1410,
      "_Development": 1411,
      "_E": 1412,
      "_East_Asia_Summit": 1413,
      "_Economic": 1414,
      "_Empire": 1415,
      "_F": 1416,
      "_Fund": 1417,
      "_G": 1418,
      "_GDP": 1419,
      "_GDP_(": 1420,
      "_Games": 1421,
      "_Gandhi": 1422,
      "_Goa": 1423,
      "_H": 1424,
      "_I": 1425,
      "_In": 1426,
      "_India": 1427,
      "_Indian_": 1428,
      "_Indian_general_election": 1429,
      "_Indian_subcontinent": 1430,
      "_Island": 1431,
      "_Islands": 1432,
      "_J": 1433,
      "_K": 1434,
      "_Kingdom": 1435,
      "_L": 1436,
      "_Lank": 1437,
      "_M": 1438,
      "_Mar": 1439,
      "_N": 1440,
      "_National_Park": 1441,
      "_New": 1442,
      "_November": 1443,
      "_O": 1444,
      "_Organisation": 1445,
      "_Organization": 1446,
      "_P": 1447,
      "_Per": 1448,
      "_Pradesh": 1449,
      "_Press": 1450,
      "_Pro": 1451,
      "_Publishing": 1452,
      "_R": 1453,
      "_Raj": 1454,
      "_Re": 1455,
      "_River": 1456,
      "_S": 1457,
      "_SCO": 1458,
      "_SCO_summit": 1459,
      "_School": 1460,
      "_Sh": 1461,
      "_Shankar": 1462,
      "_States": 1463,
      "_T": 1464,
      "_Times": 1465,
      "_Union": 1466,
      "_University_Press": 1467,
      "_V": 1468,
      "_W": 1469,
      "_War": 1470,
      "_World": 1471,
      "_and": 1472,
      "_and_": 1473,
      "_and_B": 1474,
      "_and_D": 1475,
      "_and_Development": 1476,
      "_and_For": 1477,
      "_and_Forests": 1478,
      "_and_N": 1479,
      "_and_S": 1480,
      "_and_d": 1481,
      "_and_union_territories": 1482,
      "_and_union_territories_of_India": 1483,
      "_at": 1484,
      "_at_the": 1485,
      "_at_the_2024": 1486,
      "_at_the_2024_BRICS_Games": 1487,
      "_b": 1488,
      "_by": 1489,
      "_by_p": 1490,
      "_by_population": 1491,
      "_c": 1492,
      "_ci": 1493,
      "_con": 1494,
      "_countries": 1495,
      "_d": 1496,
      "_dance": 1497,
      "_desc": 1498,
      "_f": 1499,
      "_for": 1500,
      "_from": 1501,
      "_g": 1502,
      "_groups": 1503,
      "_h": 1504,
      "_in": 1505,
      "_in_": 1506,
      "_in_India": 1507,
      "_in_South_Asia": 1508,
      "_in_T": 1509,
      "_in_the": 1510,
      "_ind": 1511,
      "_industry": 1512,
      "_industry_in_India": 1513,
      "_language": 1514,
      "_languages": 1515,
      "_m": 1516,
      "_map_en.sv": 1517,
      "_mil": 1518,
      "_music": 1519,
      "_n": 1520,
      "_of_": 1521,
      "_of_C": 1522,
      "_of_Congress": 1523,
      "_of_India": 1524,
      "_of_N": 1525,
      "_of_P": 1526,
      "_of_South_Asia": 1527,
      "_of_the": 1528,
      "_on": 1529,
      "_p": 1530,
      "_pe": 1531,
      "_per": 1532,
      "_pro": 1533,
      "_re": 1534,
      "_relations": 1535,
      "_s": 1536,
      "_summit": 1537,
      "_t": 1538,
      "_te": 1539,
      "_ter": 1540,
      "_territ": 1541,
      "_the": 1542,
      "_the_": 1543,
      "_to": 1544,
      "_v": 1545,
      "_value": 1546,
      "_with": 1547,
      "_अ": 1548,
      "_अन": 1549,
      "_आ": 1550,
      "_इ": 1551,
      "_उ": 1552,
      "_उत्पाद": 1553,
      "_ए": 1554,
      "_एवं": 1555,
      "_एशिया": 1556,
      "_और": 1557,
      "_और_संघ": 1558,
      "_और_संघ_क्षेत्र": 1559,
      "_क": 1560,
      "_का": 1561,
      "_का_": 1562,
      "_का_खाना": 1563,
      "_की_": 1564,
      "_की_स": 1565,
      "_के": 1566,
      "_के_": 1567,
      "_के_अनुसार": 1568,
      "_के_अनुसार_देशों_की_सूची": 1569,
      "_के_आ": 1570,
      "_के_आधार_पर_भारत": 1571,
      "_के_आधार_पर_भारत_के_राज्य": 1572,
      "_के_आधार_पर_भारत_के_राज्यों_की_सूची": 1573,
      "_के_देश": 1574,
      "_के_राज्य": 1575,
      "_केंद्र": 1576,
      "_केन्द्र": 1577,
      "_क्षेत्र": 1578,
      "_घ": 1579,
      "_त": 1580,
      "_द": 1581,
      "_देश": 1582,
      "_देशों_की_सूची": 1583,
      "_धर्म": 1584,
      "_न": 1585,
      "_न्या": 1586,
      "_प": 1587,
      "_प्र": 1588,
      "_प्रदेश": 1589,
      "_ब": 1590,
      "_भारत": 1591,
      "_भारतीय_": 1592,
      "_भाषा": 1593,
      "_भाषा?action=edit&redlink=1": 1594,
      "_म": 1595,
      "_मंदिर": 1596,
      "_महासागर": 1597,
      "_में": 1598,
      "_मेला": 1599,
      "_मेला?action=edit&redlink=1": 1600,
      "_यु": 1601,
      "_राज": 1602,
      "_राजवंश": 1603,
      "_राज्य": 1604,
      "_राज्यक्षेत्र": 1605,
      "_व": 1606,
      "_श": 1607,
      "_स": 1608,
      "_सं": 1609,
      "_संघ": 1610,
      "_सा": 1611,
      "_सागर": 1612,
      "_साम्राज्य": 1613,
      "_सिनेमा": 1614,
      "_सु": 1615,
      "_सूची": 1616,
      "_से": 1617,
      "_सेना": 1618,
      "_स्": 1619,
      "_అ": 1620,
      "_ఇ": 1621,
      "_ఎ": 1622,
      "_క": 1623,
      "_కాల": 1624,
      "_క్రీడ": 1625,
      "_గాంధీ": 1626,
      "_చ": 1627,
      "_చరిత్ర": 1628,
      "_చరిత్ర?action=edit&redlink=1": 1629,
      "_జాబితా": 1630,
      "_న": 1631,
      "_నది": 1632,
      "_ప": 1633,
      "_ప్రదేశ్": 1634,
      "_ప్రా": 1635,
      "_ఫ": 1636,
      "_భాష": 1637,
      "_భాషలు": 1638,
      "_మ": 1639,
      "_మతం": 1640,
      "_మతము": 1641,
      "_యుద్ధం": 1642,
      "_ర": 1643,
      "_రహదార": 1644,
      "_రాజ": 1645,
      "_రాజవంశం": 1646,
      "_వ": 1647,
      "_వంశం": 1648,
      "_వి": 1649,
      "_వ్యవస్థ": 1650,
      "_శ": 1651,
      "_శాస్త్ర": 1652,
      "_స": 1653,
      "_సం": 1654,
      "_సంగీతం": 1655,
      "_సా": 1656,
      "_సామ్రాజ్యం": 1657,
      "_స్": 1658,
      "`": 1659,
      "a": 1660,
      "a\")": 1661,
      "a)": 1662,
      "a,": 1663,
      "a-": 1664,
      "a.": 1665,
      "a/": 1666,
      "a_": 1667,
      "a_1": 1668,
      "a_Empire": 1669,
      "a_M": 1670,
      "ab": 1671,
      "abad": 1672,
      "abha": 1673,
      "ability": 1674,
      "abin": 1675,
      "abinet": 1676,
      "abit": 1677,
      "able": 1678,
      "ables": 1679,
      "ablish": 1680,
      "ac": 1681,
      "ace": 1682,
      "ach": 1683,
      "acher": 1684,
      "achin": 1685,
      "achine": 1686,
      "aci": 1687,
      "ack": 1688,
      "acmillan": 1689,
      "acred": 1690,
      "act": 1691,
      "actbook": 1692,
      "acter": 1693,
      "action=": 1694,
      "ad": 1695,
      "ad.": 1696,
      "ada": 1697,
      "adakh": 1698,
      "adas": 1699,
      "adavoor": 1700,
      "adh": 1701,
      "adhya": 1702,
      "adi": 1703,
      "adiverse": 1704,
      "adras": 1705,
      "adrasah": 1706,
      "ads": 1707,
      "adu": 1708,
      "af": 1709,
      "after": 1710,
      "ag": 1711,
      "agar": 1712,
      "age": 1713,
      "age/": 1714,
      "ages": 1715,
      "ago": 1716,
      "ah": 1717,
      "aha": 1718,
      "ahar": 1719,
      "aharashtra": 1720,
      "ahatma": 1721,
      "ai": 1722,
      "aid": 1723,
      "aidyanathan": 1724,
      "ail": 1725,
      "ain": 1726,
      "ainism": 1727,
      "aint": 1728,
      "ainting": 1729,
      "air": 1730,
      "ait": 1731,
      "aj": 1732,
      "aj_M": 1733,
      "aj_Mah": 1734,
      "aj_Mahal_in_March_2004": 1735,
      "ajasthan": 1736,
      "ajor": 1737,
      "ajp": 1738,
      "ajya": 1739,
      "ak": 1740,
      "akar": 1741,
      "ake": 1742,
      "akh": 1743,
      "akhand": 1744,
      "aki": 1745,
      "aking": 1746,
      "akistan": 1747,
      "akistani": 1748,
      "akrishn": 1749,
      "akrishnan": 1750,
      "aks": 1751,
      "aksh": 1752,
      "akshad": 1753,
      "akshadweep": 1754,
      "al": 1755,
      "al_": 1756,
      "al_P": 1757,
      "al_Population_Totals_Paper_1_of_2011_India": 1758,
      "al_Pradesh": 1759,
      "al_in": 1760,
      "al_in_M": 1761,
      "al_in_March_2004": 1762,
      "ala": 1763,
      "alace": 1764,
      "aland": 1765,
      "alay": 1766,
      "alayal": 1767,
      "alaysia": 1768,
      "albot": 1769,
      "alc": 1770,
      "alcutta": 1771,
      "ald": 1772,
      "aldives": 1773,
      "ale": 1774,
      "ali": 1775,
      "alit": 1776,
      "all": 1777,
      "allalli": 1778,
      "alled": 1779,
      "alley": 1780,
      "alli": 1781,
      "alls": 1782,
      "ally": 1783,
      "als": 1784,
      "also": 1785,
      "alt": 1786,
      "alth": 1787,
      "altwater": 1788,
      "alwar": 1789,
      "alysis": 1790,
      "am": 1791,
      "am\")": 1792,
      "am,": 1793,
      "ama": 1794,
      "amaj": 1795,
      "aman": 1796,
      "amb": 1797,
      "ambodia": 1798,
      "ambridge": 1799,
      "ame": 1800,
      "ameez": 1801,
      "ames": 1802,
      "ami": 1803,
      "amic": 1804,
      "amil": 1805,
      "amil_N": 1806,
      "amil_Nadu": 1807,
      "amilies": 1808,
      "amily": 1809,
      "amine": 1810,
      "ammu": 1811,
      "ammu_and_": 1812,
      "ammu_and_Kashmir": 1813,
      "amn": 1814,
      "amnami": 1815,
      "amp": 1816,
      "ampion": 1817,
      "ams": 1818,
      "amsar": 1819,
      "an": 1820,
      "an,": 1821,
      "ana": 1822,
      "anada": 1823,
      "anagari": 1824,
      "anal": 1825,
      "anata": 1826,
      "anc": 1827,
      "ance": 1828,
      "ances": 1829,
      "anch": 1830,
      "ancy": 1831,
      "and": 1832,
      "and_": 1833,
      "anda": 1834,
      "andard": 1835,
      "andbook": 1836,
      "andemic": 1837,
      "andhi": 1838,
      "anding": 1839,
      "andoor": 1840,
      "andy": 1841,
      "ang": 1842,
      "angal": 1843,
      "angalore": 1844,
      "angam": 1845,
      "ange": 1846,
      "anged": 1847,
      "angered": 1848,
      "anges": 1849,
      "angetic": 1850,
      "angladesh": 1851,
      "ango": 1852,
      "angra": 1853,
      "angrove": 1854,
      "angua": 1855,
      "anguage": 1856,
      "anguages": 1857,
      "ani": 1858,
      "anies": 1859,
      "anion": 1860,
      "anipur": 1861,
      "ank": 1862,
      "ankar": 1863,
      "ann": 1864,
      "anor": 1865,
      "anorama": 1866,
      "ans": 1867,
      "ansk": 1868,
      "anskrit": 1869,
      "anskrit](https://en.wikipedia.org/wiki/S": 1870,
      "anskrit](https://en.wikipedia.org/wiki/Sanskrit": 1871,
      "ant": 1872,
      "ants": 1873,
      "anu": 1874,
      "anuary": 1875,
      "any": 1876,
      "ao": 1877,
      "aos": 1878,
      "ap": 1879,
      "apan": 1880,
      "aper": 1881,
      "api": 1882,
      "apit": 1883,
      "aprobanis": 1884,
      "ar": 1885,
      "arak": 1886,
      "arame": 1887,
      "arameters#": 1888,
      "aran": 1889,
      "aranasi": 1890,
      "aranth": 1891,
      "aras": 1892,
      "arb": 1893,
      "arch": 1894,
      "arch_2004": 1895,
      "archi": 1896,
      "architecture": 1897,
      "archive": 1898,
      "archive.org/": 1899,
      "archive.org/details/": 1900,
      "archive.org/web/": 1901,
      "ard": 1902,
      "arden": 1903,
      "ardian": 1904,
      "are": 1905,
      "arendra": 1906,
      "arg": 1907,
      "arge": 1908,
      "argest": 1909,
      "arget": 1910,
      "arh": 1911,
      "ari": 1912,
      "aria": 1913,
      "aries": 1914,
      "ark": 1915,
      "arl": 1916,
      "arliament": 1917,
      "arliamentary": 1918,
      "arlic": 1919,
      "arlo": 1920,
      "arlo1996": 1921,
      "arlung": 1922,
      "arly": 1923,
      "arna": 1924,
      "arnatak": 1925,
      "arnataka": 1926,
      "arnatic": 1927,
      "aro": 1928,
      "arrow": 1929,
      "ars": 1930,
      "art": 1931,
      "arth": 1932,
      "arti": 1933,
      "artic": 1934,
      "articip": 1935,
      "article": 1936,
      "artition": 1937,
      "arty": 1938,
      "ary": 1939,
      "aryana": 1940,
      "as": 1941,
      "as,": 1942,
      "ase": 1943,
      "ash": 1944,
      "ashi": 1945,
      "ashm": 1946,
      "ashmir": 1947,
      "ashmiri": 1948,
      "ashtra": 1949,
      "asi": 1950,
      "asia": 1951,
      "asp": 1952,
      "asp?": 1953,
      "ass": 1954,
      "ast": 1955,
      "ast_Asia": 1956,
      "ast_Asia_S": 1957,
      "ast_Asia_Summit": 1958,
      "aste": 1959,
      "aste-": 1960,
      "astern": 1961,
      "asthan": 1962,
      "asting": 1963,
      "astronom": 1964,
      "asu": 1965,
      "at": 1966,
      "ata": 1967,
      "ata_": 1968,
      "atab": 1969,
      "atak": 1970,
      "atal": 1971,
      "atar": 1972,
      "ataraj": 1973,
      "ataraja": 1974,
      "ate": 1975,
      "ate_": 1976,
      "ated": 1977,
      "ategory:": 1978,
      "ater": 1979,
      "ates": 1980,
      "ateway": 1981,
      "ath": 1982,
      "athak": 1983,
      "athakali": 1984,
      "athi": 1985,
      "athura": 1986,
      "ati": 1987,
      "atic": 1988,
      "ating": 1989,
      "ation": 1990,
      "ation)": 1991,
      "ation,": 1992,
      "ational": 1993,
      "ational_": 1994,
      "ational_P": 1995,
      "ational_Park": 1996,
      "ations": 1997,
      "atis": 1998,
      "ative": 1999,
      "atma": 2000,
      "atna": 2001,
      "ator": 2002,
      "atpura": 2003,
      "ats": 2004,
      "atsyayan": 2005,
      "att": 2006,
      "attle": 2007,
      "ature": 2008,
      "aty": 2009,
      "atyam": 2010,
      "au": 2011,
      "audi": 2012,
      "aul": 2013,
      "aur": 2014,
      "aus": 2015,
      "aut": 2016,
      "auth": 2017,
      "av": 2018,
      "ave": 2019,
      "avelock": 2020,
      "aves": 2021,
      "avi": 2022,
      "avid": 2023,
      "avidson2014-p": 2024,
      "avin": 2025,
      "aving": 2026,
      "avoor": 2027,
      "aw": 2028,
      "awahar": 2029,
      "awaharl": 2030,
      "awaharlal": 2031,
      "ax": 2032,
      "ay": 2033,
      "ayan": 2034,
      "ayashi": 2035,
      "ayback": 2036,
      "aylor": 2037,
      "az": 2038,
      "b": 2039,
      "b)": 2040,
      "b/": 2041,
      "b/b": 2042,
      "back": 2043,
      "bad": 2044,
      "baki": 2045,
      "bal": 2046,
      "ball": 2047,
      "ban": 2048,
      "band": 2049,
      "bank": 2050,
      "bar": 2051,
      "bb": 2052,
      "be": 2053,
      "ber": 2054,
      "beral": 2055,
      "beralisation": 2056,
      "berculosis": 2057,
      "berg": 2058,
      "bert": 2059,
      "bi": 2060,
      "bird": 2061,
      "bn": 2062,
      "book": 2063,
      "books": 2064,
      "books.": 2065,
      "books.google.com/books": 2066,
      "books.google.com/books?id=": 2067,
      "bot": 2068,
      "bour": 2069,
      "bra": 2070,
      "britannica.com/": 2071,
      "c": 2072,
      "c.": 2073,
      "c/c": 2074,
      "c=": 2075,
      "cal": 2076,
      "calf": 2077,
      "can": 2078,
      "caste": 2079,
      "cat": 2080,
      "ce": 2081,
      "cean": 2082,
      "ced": 2083,
      "cely": 2084,
      "cember": 2085,
      "census": 2086,
      "censusindia.gov.in/": 2087,
      "censusindia.gov.in/2011": 2088,
      "censusindia.gov.in/2011census": 2089,
      "cent": 2090,
      "ces": 2091,
      "cess": 2092,
      "ch": 2093,
      "ch_2004": 2094,
      "cha": 2095,
      "chaemen": 2096,
      "change": 2097,
      "ched": 2098,
      "chedule": 2099,
      "cheduled": 2100,
      "chi": 2101,
      "chin": 2102,
      "chno": 2103,
      "chnology": 2104,
      "chool": 2105,
      "chwartzberg": 2106,
      "ci": 2107,
      "cial": 2108,
      "cid": 2109,
      "cience": 2110,
      "cient": 2111,
      "cies": 2112,
      "ciety": 2113,
      "cip": 2114,
      "cis": 2115,
      "cise": 2116,
      "cite_": 2117,
      "city": 2118,
      "ck": 2119,
      "clo": 2120,
      "clus": 2121,
      "cms": 2122,
      "com": 2123,
      "com/": 2124,
      "come": 2125,
      "comm": 2126,
      "comp": 2127,
      "con": 2128,
      "cond": 2129,
      "conom": 2130,
      "conomic": 2131,
      "conomic_": 2132,
      "conomist": 2133,
      "conomy": 2134,
      "content": 2135,
      "continent": 2136,
      "cord": 2137,
      "cording": 2138,
      "countries": 2139,
      "country": 2140,
      "cri": 2141,
      "crimin": 2142,
      "cript": 2143,
      "cro": 2144,
      "ct": 2145,
      "ction": 2146,
      "ctor": 2147,
      "cul": 2148,
      "culosis": 2149,
      "culpture": 2150,
      "cy": 2151,
      "cyclo": 2152,
      "d": 2153,
      "d/": 2154,
      "dance": 2155,
      "data": 2156,
      "day": 2157,
      "de": 2158,
      "def": 2159,
      "der": 2160,
      "detail": 2161,
      "details/": 2162,
      "di": 2163,
      "dia": 2164,
      "dia.": 2165,
      "dia.org/": 2166,
      "dian": 2167,
      "dian_": 2168,
      "dic": 2169,
      "dis": 2170,
      "dish": 2171,
      "disha": 2172,
      "dit": 2173,
      "ditP": 2174,
      "ditPage/": 2175,
      "ditPage/Template:": 2176,
      "dition": 2177,
      "dministrative": 2178,
      "dom": 2179,
      "dr": 2180,
      "ds": 2181,
      "duc": 2182,
      "ducation": 2183,
      "duct": 2184,
      "duction": 2185,
      "dynasty": 2186,
      "e": 2187,
      "e,": 2188,
      "e/": 2189,
      "ea": 2190,
      "ealth": 2191,
      "ear": 2192,
      "earch": 2193,
      "earch/India": 2194,
      "eat": 2195,
      "eb": 2196,
      "ebruary": 2197,
      "ec": 2198,
      "eccan": 2199,
      "ece": 2200,
      "eck": 2201,
      "economic": 2202,
      "economy": 2203,
      "ecret": 2204,
      "ect": 2205,
      "ector": 2206,
      "ecu": 2207,
      "ecular": 2208,
      "ecurity": 2209,
      "ecutive": 2210,
      "ed": 2211,
      "ed,": 2212,
      "ed.": 2213,
      "ed.).": 2214,
      "ed/": 2215,
      "eded": 2216,
      "ederal": 2217,
      "edia": 2218,
      "edic": 2219,
      "edicine": 2220,
      "edieval": 2221,
      "ediff": 2222,
      "edit": 2223,
      "edit&redlink=1": 2224,
      "edkar": 2225,
      "eds.": 2226,
      "education": 2227,
      "ee": 2228,
      "eel": 2229,
      "eers": 2230,
      "ees": 2231,
      "ef": 2232,
      "eg": 2233,
      "egh": 2234,
      "eghalay": 2235,
      "egistrar": 2236,
      "egistrar_G": 2237,
      "egistrar_General_": 2238,
      "eh": 2239,
      "ehru": 2240,
      "ek": 2241,
      "el": 2242,
      "elang": 2243,
      "elangana": 2244,
      "ele": 2245,
      "election": 2246,
      "elf": 2247,
      "elhi": 2248,
      "ell": 2249,
      "ellion": 2250,
      "elt": 2251,
      "elug": 2252,
      "em": 2253,
      "ema": 2254,
      "emale": 2255,
      "emb": 2256,
      "ember": 2257,
      "embly": 2258,
      "emen": 2259,
      "emi": 2260,
      "emic": 2261,
      "emoc": 2262,
      "emocracy": 2263,
      "emocratic": 2264,
      "emographic": 2265,
      "emographics": 2266,
      "emon": 2267,
      "emp": 2268,
      "emplate": 2269,
      "emplate:": 2270,
      "emple": 2271,
      "en": 2272,
      "en,": 2273,
      "en.": 2274,
      "en/": 2275,
      "ence": 2276,
      "ency": 2277,
      "end": 2278,
      "ender": 2279,
      "endra": 2280,
      "ene": 2281,
      "ened": 2282,
      "eneral": 2283,
      "eneral_": 2284,
      "eng": 2285,
      "engal": 2286,
      "engal_": 2287,
      "engali": 2288,
      "enguin": 2289,
      "enins": 2290,
      "enj": 2291,
      "ens": 2292,
      "ension": 2293,
      "ensive": 2294,
      "ensus": 2295,
      "ensus2011": 2296,
      "ensus2011religion": 2297,
      "ent": 2298,
      "enter": 2299,
      "enti": 2300,
      "ently": 2301,
      "entr": 2302,
      "entral": 2303,
      "entral_": 2304,
      "entral_In": 2305,
      "entral_Intelligence_Agency": 2306,
      "entre": 2307,
      "entre2005": 2308,
      "entury": 2309,
      "eology": 2310,
      "ep": 2311,
      "epal": 2312,
      "epali": 2313,
      "epart": 2314,
      "epartment": 2315,
      "epend": 2316,
      "ependen": 2317,
      "ependence": 2318,
      "ependencies": 2319,
      "ependent": 2320,
      "eport": 2321,
      "eptember": 2322,
      "epublic": 2323,
      "equality": 2324,
      "er": 2325,
      "er)": 2326,
      "er,": 2327,
      "er-": 2328,
      "eral": 2329,
      "eral_": 2330,
      "erala": 2331,
      "erala\")": 2332,
      "erated": 2333,
      "eration": 2334,
      "erce": 2335,
      "ere": 2336,
      "ered": 2337,
      "eri": 2338,
      "eries": 2339,
      "ering": 2340,
      "erman": 2341,
      "ern": 2342,
      "erritory": 2343,
      "error": 2344,
      "errors": 2345,
      "ers": 2346,
      "ers,": 2347,
      "erv": 2348,
      "ervation": 2349,
      "erved": 2350,
      "erves": 2351,
      "ervice": 2352,
      "es": 2353,
      "es,": 2354,
      "es/": 2355,
      "esc": 2356,
      "ese": 2357,
      "esearch": 2358,
      "eser": 2359,
      "esert": 2360,
      "eserve": 2361,
      "esh": 2362,
      "eshow/": 2363,
      "esp": 2364,
      "ess": 2365,
      "est": 2366,
      "est_B": 2367,
      "est_Bengal": 2368,
      "establish": 2369,
      "ester": 2370,
      "estern": 2371,
      "esti": 2372,
      "estima": 2373,
      "estival": 2374,
      "ests": 2375,
      "et": 2376,
      "etail": 2377,
      "etary": 2378,
      "etcalf": 2379,
      "eth": 2380,
      "ethnologue.com/": 2381,
      "etra": 2382,
      "etraglia": 2383,
      "etric": 2384,
      "etry": 2385,
      "ets": 2386,
      "etween": 2387,
      "ety": 2388,
      "euborne": 2389,
      "ev": 2390,
      "evelopment": 2391,
      "ew": 2392,
      "ex": 2393,
      "ext": 2394,
      "ey": 2395,
      "ez": 2396,
      "f": 2397,
      "fe": 2398,
      "feb": 2399,
      "fer": 2400,
      "ff": 2401,
      "ffair": 2402,
      "ffairs": 2403,
      "ffec": 2404,
      "ffice": 2405,
      "fficial": 2406,
      "fghan": 2407,
      "fghanistan": 2408,
      "fi": 2409,
      "fic": 2410,
      "fication": 2411,
      "ficial": 2412,
      "fied": 2413,
      "fir": 2414,
      "first": 2415,
      "fl": 2416,
      "flic": 2417,
      "flicts": 2418,
      "flu": 2419,
      "fn": 2420,
      "for": 2421,
      "force": 2422,
      "forcement": 2423,
      "ford": 2424,
      "fore": 2425,
      "forest": 2426,
      "form": 2427,
      "forma": 2428,
      "formance": 2429,
      "formatics": 2430,
      "formation": 2431,
      "fric": 2432,
      "frica": 2433,
      "from": 2434,
      "ft": 2435,
      "fter": 2436,
      "ful": 2437,
      "g": 2438,
      "g)": 2439,
      "g)\n\n": 2440,
      "g)[": 2441,
      "g)](File:": 2442,
      "g)](https://hi.wikipedia.org/wiki/चित्र:": 2443,
      "g.": 2444,
      "g.pn": 2445,
      "g.png)](File:": 2446,
      "g/": 2447,
      "g/120px-": 2448,
      "g/250px-": 2449,
      "g/40": 2450,
      "g/40px-": 2451,
      "gAAQBAJ": 2452,
      "gAAQBAJ&pg=PA": 2453,
      "gan": 2454,
      "ganisation": 2455,
      "gar": 2456,
      "garh": 2457,
      "gari": 2458,
      "gation": 2459,
      "ge": 2460,
      "ged": 2461,
      "gen": 2462,
      "gencies": 2463,
      "gency": 2464,
      "general_": 2465,
      "general_election": 2466,
      "ger": 2467,
      "ges": 2468,
      "get": 2469,
      "gether": 2470,
      "gh": 2471,
      "ghan": 2472,
      "ghat": 2473,
      "ght": 2474,
      "ghts": 2475,
      "gin": 2476,
      "gion": 2477,
      "gional": 2478,
      "gions": 2479,
      "gl": 2480,
      "gle": 2481,
      "glia": 2482,
      "gni": 2483,
      "go": 2484,
      "goo": 2485,
      "good": 2486,
      "google": 2487,
      "google.com/": 2488,
      "google.com/books": 2489,
      "gory:": 2490,
      "gov": 2491,
      "gov.in": 2492,
      "government": 2493,
      "gra": 2494,
      "gramme": 2495,
      "gration": 2496,
      "grave": 2497,
      "gu": 2498,
      "gue": 2499,
      "gy": 2500,
      "gypt": 2501,
      "h": 2502,
      "ha": 2503,
      "had": 2504,
      "hai": 2505,
      "hailand": 2506,
      "hak": 2507,
      "ham": 2508,
      "han": 2509,
      "hand": 2510,
      "handigarh": 2511,
      "hang": 2512,
      "hanghai": 2513,
      "har": 2514,
      "harat": 2515,
      "hard": 2516,
      "harkhand": 2517,
      "harma": 2518,
      "harmace": 2519,
      "harmaceutical": 2520,
      "has": 2521,
      "hasha": 2522,
      "hat": 2523,
      "hatt": 2524,
      "haw": 2525,
      "he": 2526,
      "heet": 2527,
      "hek": 2528,
      "hel": 2529,
      "hell": 2530,
      "hen": 2531,
      "hennai": 2532,
      "her": 2533,
      "here": 2534,
      "hi": 2535,
      "hi.": 2536,
      "hib": 2537,
      "hic": 2538,
      "hie": 2539,
      "hief": 2540,
      "high": 2541,
      "hild": 2542,
      "hili": 2543,
      "hilippines": 2544,
      "him": 2545,
      "hin": 2546,
      "hina": 2547,
      "hind": 2548,
      "hinese": 2549,
      "hinnathurai": 2550,
      "hip": 2551,
      "hird": 2552,
      "his": 2553,
      "hism": 2554,
      "hist": 2555,
      "history": 2556,
      "hmed": 2557,
      "hmedabad": 2558,
      "ho": 2559,
      "hol": 2560,
      "hola": 2561,
      "hoti": 2562,
      "hra": 2563,
      "hry": 2564,
      "ht": 2565,
      "htm": 2566,
      "html": 2567,
      "html)": 2568,
      "html).": 2569,
      "htt": 2570,
      "http://": 2571,
      "https": 2572,
      "https://": 2573,
      "hutan": 2574,
      "hy": 2575,
      "hyan": 2576,
      "i": 2577,
      "i,": 2578,
      "i-": 2579,
      "i.": 2580,
      "i.org/": 2581,
      "ia": 2582,
      "ia\")": 2583,
      "ial": 2584,
      "ially": 2585,
      "iam": 2586,
      "iament": 2587,
      "ian": 2588,
      "iance": 2589,
      "ians": 2590,
      "iary": 2591,
      "iated": 2592,
      "iation": 2593,
      "ib": 2594,
      "ibc": 2595,
      "ibcode": 2596,
      "ibet": 2597,
      "ibetan": 2598,
      "ible": 2599,
      "iblio": 2600,
      "ibrary": 2601,
      "ic": 2602,
      "ica": 2603,
      "ical": 2604,
      "ical_": 2605,
      "ice": 2606,
      "ices": 2607,
      "icha": 2608,
      "ichael": 2609,
      "ichell": 2610,
      "ichell2000": 2611,
      "icial": 2612,
      "ico": 2613,
      "icobar": 2614,
      "icon": 2615,
      "ics": 2616,
      "ict": 2617,
      "ictionary": 2618,
      "id": 2619,
      "id-": 2620,
      "idd": 2621,
      "iddle": 2622,
      "ide": 2623,
      "ided": 2624,
      "ident": 2625,
      "identi": 2626,
      "identifi": 2627,
      "identifier)": 2628,
      "identifiers": 2629,
      "ie": 2630,
      "ield": 2631,
      "ies": 2632,
      "iet": 2633,
      "ietnam": 2634,
      "ieval": 2635,
      "iew": 2636,
      "if": 2637,
      "ife": 2638,
      "iff": 2639,
      "iffer": 2640,
      "ifferent": 2641,
      "iffus": 2642,
      "ific": 2643,
      "ify": 2644,
      "ig": 2645,
      "igarh": 2646,
      "igen": 2647,
      "igenous": 2648,
      "iger": 2649,
      "igh": 2650,
      "ight": 2651,
      "ighth": 2652,
      "ights": 2653,
      "ign": 2654,
      "ign_": 2655,
      "igration": 2656,
      "igved": 2657,
      "ihar": 2658,
      "ii": 2659,
      "ij": 2660,
      "ijay": 2661,
      "ijayana": 2662,
      "ijayanagar": 2663,
      "ik": 2664,
      "ikh": 2665,
      "ikhism": 2666,
      "iki": 2667,
      "ikkim": 2668,
      "ikshit": 2669,
      "ikshitS": 2670,
      "ikshitSchwartzberg": 2671,
      "ikshitSchwartzberg2023": 2672,
      "il": 2673,
      "iland": 2674,
      "ilbert": 2675,
      "ild": 2676,
      "ildlife": 2677,
      "ile": 2678,
      "ile:": 2679,
      "iles/": 2680,
      "iley": 2681,
      "ilg": 2682,
      "ilgiris": 2683,
      "ilgrim": 2684,
      "ility": 2685,
      "ilk": 2686,
      "ill": 2687,
      "illa": 2688,
      "illi": 2689,
      "illiam": 2690,
      "illion": 2691,
      "ilt": 2692,
      "ily": 2693,
      "im": 2694,
      "im_C": 2695,
      "ima": 2696,
      "imach": 2697,
      "imachal": 2698,
      "imachal_Pradesh": 2699,
      "imal": 2700,
      "ime": 2701,
      "imes": 2702,
      "imf": 2703,
      "imf2": 2704,
      "imf2-": 2705,
      "imf2-22": 2706,
      "imf2-22)": 2707,
      "imf2_": 2708,
      "imf2_22": 2709,
      "imp": 2710,
      "imple": 2711,
      "in": 2712,
      "in-": 2713,
      "ina": 2714,
      "inal": 2715,
      "inan": 2716,
      "inance": 2717,
      "inancial": 2718,
      "inated": 2719,
      "ince": 2720,
      "ind": 2721,
      "index": 2722,
      "indhi": 2723,
      "indi": 2724,
      "india": 2725,
      "india.": 2726,
      "india.gov": 2727,
      "india.gov.in": 2728,
      "india.gov.in/": 2729,
      "india.gov.in/india": 2730,
      "india.gov.in/india-g": 2731,
      "india.gov.in/india-glance/": 2732,
      "india/": 2733,
      "indiatimes.com/": 2734,
      "indic": 2735,
      "indicator": 2736,
      "indu": 2737,
      "induism": 2738,
      "indust": 2739,
      "industan": 2740,
      "industani": 2741,
      "ine": 2742,
      "ined": 2743,
      "ineering": 2744,
      "inema": 2745,
      "ines": 2746,
      "inf": 2747,
      "infobox\\_": 2748,
      "ing": 2749,
      "ing)": 2750,
      "ing,": 2751,
      "ing\\_": 2752,
      "ingap": 2753,
      "ingapore": 2754,
      "ingdom": 2755,
      "inger": 2756,
      "ingh": 2757,
      "ingh2009": 2758,
      "ingle": 2759,
      "inguistic": 2760,
      "ini": 2761,
      "inion": 2762,
      "inist": 2763,
      "inister": 2764,
      "inistry": 2765,
      "inistry_of_": 2766,
      "ino-": 2767,
      "ino-Indian": 2768,
      "ins": 2769,
      "io": 2770,
      "iodiversity": 2771,
      "ion": 2772,
      "iosphere": 2773,
      "ique": 2774,
      "ir": 2775,
      "ira": 2776,
      "ird": 2777,
      "ire": 2778,
      "irect": 2779,
      "irector": 2780,
      "irectorate": 2781,
      "iri": 2782,
      "iris": 2783,
      "iron": 2784,
      "irst": 2785,
      "irth": 2786,
      "is": 2787,
      "isa": 2788,
      "isak": 2789,
      "isation": 2790,
      "isc": 2791,
      "iscover": 2792,
      "ise": 2793,
      "isease": 2794,
      "ised": 2795,
      "ish": 2796,
      "isher": 2797,
      "isher2018": 2798,
      "ishers": 2799,
      "ishes": 2800,
      "ishing": 2801,
      "ising": 2802,
      "ision": 2803,
      "ism": 2804,
      "ism\")": 2805,
      "ispu": 2806,
      "iss": 2807,
      "issile": 2808,
      "issing": 2809,
      "ission": 2810,
      "ist": 2811,
      "istan": 2812,
      "isted": 2813,
      "ister": 2814,
      "istic": 2815,
      "istorical": 2816,
      "istory": 2817,
      "istrar": 2818,
      "ists": 2819,
      "it": 2820,
      "it&": 2821,
      "it&redlink=1": 2822,
      "ital": 2823,
      "itar": 2824,
      "itary": 2825,
      "itation": 2826,
      "itchi": 2827,
      "itchison": 2828,
      "ite": 2829,
      "ited": 2830,
      "iteracy": 2831,
      "iterature": 2832,
      "ites": 2833,
      "ities": 2834,
      "ition": 2835,
      "ito": 2836,
      "itor": 2837,
      "its": 2838,
      "itt": 2839,
      "ity": 2840,
      "itz": 2841,
      "iv": 2842,
      "ive": 2843,
      "iver": 2844,
      "ivers": 2845,
      "iverse": 2846,
      "iversities": 2847,
      "iversity": 2848,
      "ives": 2849,
      "ivil": 2850,
      "iving": 2851,
      "ivision": 2852,
      "ix": 2853,
      "iz": 2854,
      "izor": 2855,
      "izoram": 2856,
      "j": 2857,
      "jab": 2858,
      "jan": 2859,
      "janta": 2860,
      "jec": 2861,
      "ject": 2862,
      "jection": 2863,
      "ji": 2864,
      "jolad-agar": 2865,
      "jp": 2866,
      "jpg": 2867,
      "jpg)": 2868,
      "k": 2869,
      "k-": 2870,
      "k-ea": 2871,
      "k-eagle": 2872,
      "k:": 2873,
      "kZ": 2874,
      "kZV": 2875,
      "kZVu": 2876,
      "kZVuDwAAQBAJ&pg=PA": 2877,
      "ka": 2878,
      "kar": 2879,
      "kbar": 2880,
      "ke": 2881,
      "ker": 2882,
      "kes": 2883,
      "ket": 2884,
      "key": 2885,
      "kh": 2886,
      "khand": 2887,
      "ki": 2888,
      "kim": 2889,
      "king": 2890,
      "kingdom": 2891,
      "known": 2892,
      "ks": 2893,
      "l": 2894,
      "la": 2895,
      "la,": 2896,
      "laci": 2897,
      "lack": 2898,
      "lackb": 2899,
      "lackbuck": 2900,
      "lackwell": 2901,
      "lad": 2902,
      "ladesh": 2903,
      "lag": 2904,
      "lago": 2905,
      "lain": 2906,
      "lam": 2907,
      "lan": 2908,
      "lance": 2909,
      "lance/": 2910,
      "land": 2911,
      "lang": 2912,
      "langoff": 2913,
      "langoff-1": 2914,
      "langoff-128": 2915,
      "langoff-128)": 2916,
      "langoff_1": 2917,
      "langoff_128": 2918,
      "language": 2919,
      "languages": 2920,
      "lant": 2921,
      "lar": 2922,
      "las": 2923,
      "lass": 2924,
      "lassical_": 2925,
      "late": 2926,
      "late_": 2927,
      "lated": 2928,
      "lation": 2929,
      "lations": 2930,
      "lative": 2931,
      "latt": 2932,
      "lav": 2933,
      "law": 2934,
      "lay": 2935,
      "laya": 2936,
      "lc": 2937,
      "ld": 2938,
      "ldlife": 2939,
      "le": 2940,
      "le,": 2941,
      "le:": 2942,
      "lear": 2943,
      "lease": 2944,
      "lease.aspx?": 2945,
      "lease.aspx?relid": 2946,
      "leav": 2947,
      "lec": 2948,
      "lect": 2949,
      "lection": 2950,
      "lectri": 2951,
      "lectricity": 2952,
      "led": 2953,
      "ledge": 2954,
      "leg": 2955,
      "lem": 2956,
      "len": 2957,
      "lennium": 2958,
      "les": 2959,
      "les\\_": 2960,
      "les\\_con": 2961,
      "les\\_containing\\_": 2962,
      "les\\_with\\_": 2963,
      "lex": 2964,
      "ley": 2965,
      "li": 2966,
      "liA": 2967,
      "liAitchison": 2968,
      "liAitchison2005": 2969,
      "lib": 2970,
      "lic": 2971,
      "lie": 2972,
      "lief": 2973,
      "lies": 2974,
      "lif": 2975,
      "life": 2976,
      "lig": 2977,
      "ligi": 2978,
      "ligion": 2979,
      "ligious": 2980,
      "lima": 2981,
      "limate": 2982,
      "limate_": 2983,
      "lin": 2984,
      "line": 2985,
      "ling": 2986,
      "link": 2987,
      "linki": 2988,
      "lio": 2989,
      "lion": 2990,
      "lish": 2991,
      "lite": 2992,
      "ll": 2993,
      "lla": 2994,
      "lled": 2995,
      "lm": 2996,
      "lo": 2997,
      "lobal": 2998,
      "loc": 2999,
      "local": 3000,
      "lof": 3001,
      "lofker": 3002,
      "log": 3003,
      "logo": 3004,
      "logo.sv": 3005,
      "logy": 3006,
      "lood": 3007,
      "lor": 3008,
      "los": 3009,
      "lose": 3010,
      "losop": 3011,
      "loth": 3012,
      "lothing": 3013,
      "low": 3014,
      "lowing": 3015,
      "loy": 3016,
      "ls": 3017,
      "lud": 3018,
      "lue": 3019,
      "lurton": 3020,
      "lurton1993": 3021,
      "lus": 3022,
      "ly": 3023,
      "ly,": 3024,
      "lymp": 3025,
      "lémentin-Ojha": 3026,
      "lémentin-Ojha2014": 3027,
      "m": 3028,
      "ma": 3029,
      "mai.": 3030,
      "mal": 3031,
      "mall": 3032,
      "man": 3033,
      "map": 3034,
      "map_": 3035,
      "map_en.": 3036,
      "map_en.sv": 3037,
      "mar": 3038,
      "mar2011": 3039,
      "mary": 3040,
      "mas": 3041,
      "mason": 3042,
      "mb": 3043,
      "mber": 3044,
      "mbol": 3045,
      "mc": 3046,
      "me": 3047,
      "med": 3048,
      "media": 3049,
      "men": 3050,
      "ment": 3051,
      "ments": 3052,
      "mer": 3053,
      "meric": 3054,
      "merican": 3055,
      "mes": 3056,
      "mi": 3057,
      "mil": 3058,
      "miling": 3059,
      "millan": 3060,
      "min": 3061,
      "minist": 3062,
      "ministrative": 3063,
      "mission": 3064,
      "mith": 3065,
      "mitt": 3066,
      "mme": 3067,
      "mon": 3068,
      "mons": 3069,
      "monsoon": 3070,
      "more": 3071,
      "most": 3072,
      "mp": 3073,
      "mpire": 3074,
      "mploy": 3075,
      "mritsar": 3076,
      "ms": 3077,
      "mu": 3078,
      "music": 3079,
      "n": 3080,
      "n_": 3081,
      "na": 3082,
      "nai": 3083,
      "nam": 3084,
      "natak": 3085,
      "nathurai": 3086,
      "national": 3087,
      "national-language": 3088,
      "nc": 3089,
      "ncb": 3090,
      "ncbi.": 3091,
      "ncbi.n": 3092,
      "ncbi.nlm": 3093,
      "ncbi.nlm.": 3094,
      "ncbi.nlm.nih": 3095,
      "nclm": 3096,
      "nclm.nic.in/": 3097,
      "nclm.nic.in/shared/linkimages/": 3098,
      "ncyclo": 3099,
      "ncyclopedia": 3100,
      "ncyclopædia": 3101,
      "nd": 3102,
      "ndaman": 3103,
      "ndhra": 3104,
      "ne": 3105,
      "ned": 3106,
      "ner": 3107,
      "nergy": 3108,
      "new": 3109,
      "news/": 3110,
      "nforcement": 3111,
      "ng": 3112,
      "ngineering": 3113,
      "nglish": 3114,
      "ni": 3115,
      "nia": 3116,
      "nic": 3117,
      "nic.in": 3118,
      "nic.in)\n-": 3119,
      "nic.in/": 3120,
      "nih": 3121,
      "ning": 3122,
      "nium": 3123,
      "no": 3124,
      "nold": 3125,
      "nominal)": 3126,
      "not": 3127,
      "note-": 3128,
      "now": 3129,
      "nown": 3130,
      "ns": 3131,
      "nvironment": 3132,
      "o": 3133,
      "o-": 3134,
      "o-d": 3135,
      "o-operation": 3136,
      "o.": 3137,
      "oa": 3138,
      "oal": 3139,
      "oard": 3140,
      "oast": 3141,
      "oastal": 3142,
      "ob": 3143,
      "obar": 3144,
      "obb": 3145,
      "obb201": 3146,
      "obb2011": 3147,
      "ober": 3148,
      "obo": 3149,
      "obox\\_": 3150,
      "oc": 3151,
      "ocal": 3152,
      "ocial": 3153,
      "ociated": 3154,
      "ociation": 3155,
      "ock": 3156,
      "ockey": 3157,
      "ocument": 3158,
      "od": 3159,
      "oday": 3160,
      "ode": 3161,
      "odel": 3162,
      "oder": 3163,
      "odern": 3164,
      "odi": 3165,
      "odia": 3166,
      "odiversity": 3167,
      "ods": 3168,
      "ody": 3169,
      "oef": 3170,
      "oeffi": 3171,
      "oefficient": 3172,
      "of": 3173,
      "of_": 3174,
      "off": 3175,
      "ofindia.": 3176,
      "og": 3177,
      "ogam": 3178,
      "ogamy": 3179,
      "ogn": 3180,
      "ogra": 3181,
      "ographi": 3182,
      "ographic": 3183,
      "ographical": 3184,
      "ography": 3185,
      "ogri": 3186,
      "oh": 3187,
      "ohenj": 3188,
      "ohenjo-d": 3189,
      "ohenjo-daro": 3190,
      "ohn": 3191,
      "oi": 3192,
      "oi.org/": 3193,
      "oi.org/10.": 3194,
      "oin": 3195,
      "oinage": 3196,
      "oint": 3197,
      "ok": 3198,
      "ol": 3199,
      "olad": 3200,
      "olad-": 3201,
      "olad-agar": 3202,
      "olas": 3203,
      "old": 3204,
      "olden": 3205,
      "oli": 3206,
      "olic": 3207,
      "olice": 3208,
      "olicy": 3209,
      "olid": 3210,
      "olit": 3211,
      "olitic": 3212,
      "olitical": 3213,
      "olitical_": 3214,
      "olitics": 3215,
      "olk": 3216,
      "olkata": 3217,
      "oll": 3218,
      "olle": 3219,
      "ollege": 3220,
      "ollingh": 3221,
      "ollingham": 3222,
      "oln": 3223,
      "olnar": 3224,
      "olnar2015": 3225,
      "olog": 3226,
      "ological": 3227,
      "ology": 3228,
      "olon": 3229,
      "olonial": 3230,
      "olpert": 3231,
      "om": 3232,
      "oma": 3233,
      "oman": 3234,
      "omb": 3235,
      "ombined": 3236,
      "ome": 3237,
      "omen": 3238,
      "omes": 3239,
      "omestic": 3240,
      "omic": 3241,
      "omin": 3242,
      "ominal": 3243,
      "ominal)": 3244,
      "ominion": 3245,
      "omm": 3246,
      "omma": 3247,
      "ommaraj": 3248,
      "ommaraju": 3249,
      "ommonwealth": 3250,
      "omo": 3251,
      "omp": 3252,
      "ompany": 3253,
      "oms": 3254,
      "on": 3255,
      "on,": 3256,
      "on-": 3257,
      "on-A": 3258,
      "on-Alig": 3259,
      "on-Aligned": 3260,
      "ond": 3261,
      "ondon": 3262,
      "one": 3263,
      "ones": 3264,
      "ong": 3265,
      "ongol": 3266,
      "ongress": 3267,
      "oningh": 3268,
      "oningham": 3269,
      "onk": 3270,
      "onkani": 3271,
      "onom": 3272,
      "ons": 3273,
      "onsoon": 3274,
      "onstitu": 3275,
      "onstituent": 3276,
      "onstitution": 3277,
      "onstitution_of_India": 3278,
      "ont": 3279,
      "onwealth": 3280,
      "oo": 3281,
      "ood": 3282,
      "ook": 3283,
      "ooking": 3284,
      "ool": 3285,
      "oon": 3286,
      "ooperation": 3287,
      "oor": 3288,
      "oorke": 3289,
      "oorkee": 3290,
      "oot": 3291,
      "ootball": 3292,
      "op": 3293,
      "opal": 3294,
      "ope": 3295,
      "operation": 3296,
      "opland": 3297,
      "ople": 3298,
      "oples": 3299,
      "opulation": 3300,
      "opulation_T": 3301,
      "opulation_Totals_Paper_1_of_2011_India": 3302,
      "or": 3303,
      "ora": 3304,
      "oral": 3305,
      "orbe": 3306,
      "orbett": 3307,
      "orce": 3308,
      "ord": 3309,
      "order": 3310,
      "ords": 3311,
      "ore": 3312,
      "orea": 3313,
      "oreign": 3314,
      "oreign_": 3315,
      "orest": 3316,
      "org": 3317,
      "org/": 3318,
      "ori": 3319,
      "orian": 3320,
      "orical": 3321,
      "ories": 3322,
      "orities": 3323,
      "ority": 3324,
      "ork": 3325,
      "orld": 3326,
      "orn": 3327,
      "orne": 3328,
      "oroast": 3329,
      "oroastrian": 3330,
      "orpor": 3331,
      "orporation": 3332,
      "ors": 3333,
      "orse": 3334,
      "orship": 3335,
      "ort": 3336,
      "ortal": 3337,
      "ortal:": 3338,
      "ortality": 3339,
      "orth": 3340,
      "ortheast": 3341,
      "orthographic": 3342,
      "orthographic_pro": 3343,
      "orthographic_projection": 3344,
      "ory": 3345,
      "ory:": 3346,
      "os": 3347,
      "osa": 3348,
      "ose": 3349,
      "osed": 3350,
      "osi": 3351,
      "osition": 3352,
      "osphere": 3353,
      "oss": 3354,
      "ost": 3355,
      "ot": 3356,
      "otal": 3357,
      "otals": 3358,
      "otals_P": 3359,
      "otals_Paper": 3360,
      "otals_Paper_1": 3361,
      "otals_Paper_1_of_": 3362,
      "otals_Paper_1_of_2011": 3363,
      "otals_Paper_1_of_2011_India": 3364,
      "ote": 3365,
      "otechnology": 3366,
      "otel": 3367,
      "other": 3368,
      "otherm": 3369,
      "othermund": 3370,
      "ots": 3371,
      "otsp": 3372,
      "ott": 3373,
      "ou": 3374,
      "ough": 3375,
      "ought": 3376,
      "ould": 3377,
      "oun": 3378,
      "ounci": 3379,
      "ouncil": 3380,
      "ound": 3381,
      "ounding": 3382,
      "oung": 3383,
      "ount": 3384,
      "ountain": 3385,
      "ountries": 3386,
      "ountries/": 3387,
      "ountry": 3388,
      "our": 3389,
      "ourbaki": 3390,
      "ourc": 3391,
      "ource": 3392,
      "ourced": 3393,
      "ources": 3394,
      "ourism": 3395,
      "ourn": 3396,
      "ournal": 3397,
      "ourt": 3398,
      "ourts": 3399,
      "ous": 3400,
      "ouse": 3401,
      "out": 3402,
      "outh": 3403,
      "outledge": 3404,
      "ov": 3405,
      "ove": 3406,
      "ovember": 3407,
      "ovement": 3408,
      "over": 3409,
      "overe": 3410,
      "overeign": 3411,
      "overn": 3412,
      "overnment": 3413,
      "overnment_of_India": 3414,
      "overty": 3415,
      "ow": 3416,
      "ow/": 3417,
      "owe": 3418,
      "ower": 3419,
      "owever,": 3420,
      "owland": 3421,
      "owland1970": 3422,
      "own": 3423,
      "oy": 3424,
      "oz": 3425,
      "p": 3426,
      "p.": 3427,
      "p://": 3428,
      "pB": 3429,
      "pa": 3430,
      "pace": 3431,
      "page": 3432,
      "par": 3433,
      "pati": 3434,
      "pd": 3435,
      "pdf": 3436,
      "pdf)": 3437,
      "pe": 3438,
      "pec": 3439,
      "pecial": 3440,
      "pect": 3441,
      "pectancy": 3442,
      "ped": 3443,
      "pedia": 3444,
      "pedia:": 3445,
      "pee": 3446,
      "pen": 3447,
      "people": 3448,
      "per": 3449,
      "peration": 3450,
      "pert": 3451,
      "pg": 3452,
      "pg=": 3453,
      "ph": 3454,
      "phere": 3455,
      "phi": 3456,
      "php": 3457,
      "phy": 3458,
      "pi": 3459,
      "pib": 3460,
      "pib.nic.in/": 3461,
      "pib.nic.in/new": 3462,
      "pib.nic.in/newsite/": 3463,
      "pic": 3464,
      "pical": 3465,
      "ple": 3466,
      "pn": 3467,
      "por": 3468,
      "port": 3469,
      "ports": 3470,
      "ports/": 3471,
      "posed": 3472,
      "post": 3473,
      "pp": 3474,
      "ppe": 3475,
      "ppines": 3476,
      "pr": 3477,
      "pres": 3478,
      "present": 3479,
      "press": 3480,
      "pringer": 3481,
      "ps": 3482,
      "pt": 3483,
      "ption": 3484,
      "pts": 3485,
      "pture": 3486,
      "pu": 3487,
      "pur": 3488,
      "pura": 3489,
      "px-": 3490,
      "pædia": 3491,
      "q": 3492,
      "q9": 3493,
      "qu": 3494,
      "qual": 3495,
      "quality": 3496,
      "que": 3497,
      "r": 3498,
      "ra": 3499,
      "rab": 3500,
      "rac": 3501,
      "racy": 3502,
      "rad": 3503,
      "rade": 3504,
      "radesh": 3505,
      "radition": 3506,
      "raditional": 3507,
      "rael": 3508,
      "rah": 3509,
      "rahma": 3510,
      "rahmap": 3511,
      "rahmaputra": 3512,
      "rain": 3513,
      "raj": 3514,
      "rak": 3515,
      "rakash": 3516,
      "ral": 3517,
      "ram": 3518,
      "raman": 3519,
      "ramaniam": 3520,
      "rame": 3521,
      "ramou": 3522,
      "ramouli": 3523,
      "ran": 3524,
      "rance": 3525,
      "rancis": 3526,
      "rans": 3527,
      "raq": 3528,
      "rar": 3529,
      "rary": 3530,
      "ras": 3531,
      "rat": 3532,
      "rate": 3533,
      "ratic": 3534,
      "ration": 3535,
      "rative": 3536,
      "rature": 3537,
      "ravalli": 3538,
      "raven": 3539,
      "raven1997": 3540,
      "ravi": 3541,
      "ravidian": 3542,
      "raz": 3543,
      "razil": 3544,
      "rban": 3545,
      "rc": 3546,
      "rcent": 3547,
      "rces/": 3548,
      "rchi": 3549,
      "rchitecture": 3550,
      "rchived": 3551,
      "rd": 3552,
      "rdu": 3553,
      "re": 3554,
      "read": 3555,
      "reas": 3556,
      "reat": 3557,
      "reater": 3558,
      "red": 3559,
      "redlink": 3560,
      "redlink=1": 3561,
      "ree": 3562,
      "reed": 3563,
      "reedom": 3564,
      "reek": 3565,
      "reen": 3566,
      "rees": 3567,
      "reet": 3568,
      "ref": 3569,
      "ref-": 3570,
      "rel": 3571,
      "relid": 3572,
      "religion": 3573,
      "reme": 3574,
      "ren": 3575,
      "res": 3576,
      "resent": 3577,
      "resid": 3578,
      "resident": 3579,
      "ress": 3580,
      "rest": 3581,
      "rested": 3582,
      "results": 3583,
      "ret": 3584,
      "rg": 3585,
      "rgani": 3586,
      "rganisation": 3587,
      "rganisation_for": 3588,
      "rganisation_for_Economic": 3589,
      "rganisation_for_Economic_C": 3590,
      "rganisation_for_Economic_Co-operation": 3591,
      "rganisation_for_Economic_Co-operation_and_Development": 3592,
      "rganisation_for_Economic_Co-operation_and_Development_2007": 3593,
      "rganization": 3594,
      "ri": 3595,
      "ri_Lank": 3596,
      "ria": 3597,
      "riage": 3598,
      "rial": 3599,
      "rian": 3600,
      "rib": 3601,
      "ric": 3602,
      "ricket": 3603,
      "riculture": 3604,
      "rid": 3605,
      "ridangam": 3606,
      "ridge": 3607,
      "rie": 3608,
      "rief": 3609,
      "ries": 3610,
      "ries/": 3611,
      "rig": 3612,
      "right": 3613,
      "right2010": 3614,
      "rigonom": 3615,
      "rigonometry": 3616,
      "ril": 3617,
      "rim": 3618,
      "rime": 3619,
      "rin": 3620,
      "riod": 3621,
      "ripura": 3622,
      "ris": 3623,
      "rish": 3624,
      "rishn": 3625,
      "rishna": 3626,
      "risis": 3627,
      "rist": 3628,
      "ristian": 3629,
      "ristianity": 3630,
      "rit": 3631,
      "ritan": 3632,
      "ritannic": 3633,
      "ritannica": 3634,
      "ritannica.com/": 3635,
      "riti": 3636,
      "ritical": 3637,
      "ritish": 3638,
      "ritory": 3639,
      "rits": 3640,
      "ritsar": 3641,
      "ritsch": 3642,
      "ritten": 3643,
      "rity": 3644,
      "river": 3645,
      "riya": 3646,
      "rm": 3647,
      "ro": 3648,
      "road": 3649,
      "roadc": 3650,
      "roadcasting": 3651,
      "roban": 3652,
      "robanis": 3653,
      "roc": 3654,
      "rocod": 3655,
      "rocodile": 3656,
      "rof": 3657,
      "rom": 3658,
      "romed": 3659,
      "romedary": 3660,
      "ron": 3661,
      "ronom": 3662,
      "ront": 3663,
      "ronze": 3664,
      "rop": 3665,
      "ropped": 3666,
      "ror": 3667,
      "ross": 3668,
      "rotected": 3669,
      "roti": 3670,
      "rou": 3671,
      "rough": 3672,
      "round": 3673,
      "roup": 3674,
      "roups": 3675,
      "rov": 3676,
      "rove": 3677,
      "rovision": 3678,
      "row": 3679,
      "rowing": 3680,
      "rown": 3681,
      "rowth": 3682,
      "rr": 3683,
      "ru": 3684,
      "ruary": 3685,
      "rum": 3686,
      "run": 3687,
      "runei": 3688,
      "rupee": 3689,
      "rust": 3690,
      "ry": 3691,
      "ryan": 3692,
      "s": 3693,
      "s\")": 3694,
      "s\").": 3695,
      "s)": 3696,
      "s,": 3697,
      "s-": 3698,
      "s.": 3699,
      "s.\"\n": 3700,
      "s.[[": 3701,
      "s.[[4": 3702,
      "s.com/": 3703,
      "s/": 3704,
      "s18": 3705,
      "s:": 3706,
      "s](https://en.wikipedia.org/wiki/": 3707,
      "s](https://en.wikipedia.org/wiki/A": 3708,
      "s](https://en.wikipedia.org/wiki/C": 3709,
      "s](https://en.wikipedia.org/wiki/L": 3710,
      "s](https://en.wikipedia.org/wiki/List_of_": 3711,
      "s](https://en.wikipedia.org/wiki/M": 3712,
      "s](https://en.wikipedia.org/wiki/P": 3713,
      "s](https://en.wikipedia.org/wiki/S": 3714,
      "s](https://en.wikipedia.org/wiki/United": 3715,
      "s_in_India": 3716,
      "s_of_India": 3717,
      "se": 3718,
      "ser": 3719,
      "sey": 3720,
      "sh": 3721,
      "shar": 3722,
      "shared": 3723,
      "shared/": 3724,
      "shared/linki": 3725,
      "shared/linkima": 3726,
      "shared/linkimag": 3727,
      "shared/linkimages/": 3728,
      "sher": 3729,
      "shi": 3730,
      "ship": 3731,
      "shit": 3732,
      "shok": 3733,
      "sia": 3734,
      "sian": 3735,
      "site": 3736,
      "site/": 3737,
      "sl": 3738,
      "slam": 3739,
      "slamic": 3740,
      "sland": 3741,
      "sol": 3742,
      "son": 3743,
      "son2014": 3744,
      "son2014-p": 3745,
      "ss": 3746,
      "ssam": 3747,
      "st": 3748,
      "stan": 3749,
      "stan\")": 3750,
      "stani": 3751,
      "state": 3752,
      "states": 3753,
      "ster": 3754,
      "stitu": 3755,
      "stitution": 3756,
      "str": 3757,
      "struc": 3758,
      "struction": 3759,
      "sub": 3760,
      "subcontinent": 3761,
      "sur": 3762,
      "surance": 3763,
      "surgency": 3764,
      "sv": 3765,
      "system": 3766,
      "t": 3767,
      "t:": 3768,
      "ta": 3769,
      "tain": 3770,
      "taining\\_": 3771,
      "tal": 3772,
      "tandard": 3773,
      "tar": 3774,
      "tate": 3775,
      "tates": 3776,
      "te": 3777,
      "te-": 3778,
      "te.": 3779,
      "te.wikipedia.org/wiki/": 3780,
      "te\\_": 3781,
      "te_": 3782,
      "tec": 3783,
      "tected": 3784,
      "tection": 3785,
      "tecture": 3786,
      "ted": 3787,
      "teen": 3788,
      "teenth": 3789,
      "teenth_East_Asia_Summit": 3790,
      "tein": 3791,
      "tein1998": 3792,
      "tein19981": 3793,
      "tein2010": 3794,
      "tel": 3795,
      "tellig": 3796,
      "telligence": 3797,
      "telligence_Agency": 3798,
      "tely": 3799,
      "tem": 3800,
      "tember": 3801,
      "temp": 3802,
      "templa": 3803,
      "templates": 3804,
      "tempor": 3805,
      "temporary": 3806,
      "tent": 3807,
      "ter": 3808,
      "tered": 3809,
      "teri": 3810,
      "tern": 3811,
      "ternal": 3812,
      "ternational": 3813,
      "territ": 3814,
      "ters": 3815,
      "ters#": 3816,
      "tes": 3817,
      "tex": 3818,
      "text": 3819,
      "th": 3820,
      "th_BRICS_summit": 3821,
      "th_East_Asia_Summit": 3822,
      "than": 3823,
      "the": 3824,
      "theast": 3825,
      "theh": 3826,
      "thehindu": 3827,
      "them": 3828,
      "thema": 3829,
      "thematics": 3830,
      "ther": 3831,
      "thern": 3832,
      "thew": 3833,
      "thi": 3834,
      "thme": 3835,
      "thmetic": 3836,
      "thnic": 3837,
      "thnic_groups": 3838,
      "thnic_groups_in_South_Asia": 3839,
      "thno": 3840,
      "thnolog": 3841,
      "thnologue": 3842,
      "thnologue.com/": 3843,
      "thoma": 3844,
      "thomason": 3845,
      "though": 3846,
      "thumb/": 3847,
      "thurai": 3848,
      "ti": 3849,
      "tial": 3850,
      "tic": 3851,
      "tical": 3852,
      "tice": 3853,
      "tices": 3854,
      "tici": 3855,
      "ticide": 3856,
      "tics": 3857,
      "ties": 3858,
      "tification": 3859,
      "tiger": 3860,
      "til": 3861,
      "tile": 3862,
      "till": 3863,
      "time": 3864,
      "times": 3865,
      "times.com/": 3866,
      "timesofindia.": 3867,
      "timesofindia.indiatimes.com/": 3868,
      "timesofindia.indiatimes.com/india/": 3869,
      "tin": 3870,
      "tinent": 3871,
      "ting": 3872,
      "tion": 3873,
      "tion=": 3874,
      "tionary": 3875,
      "tions": 3876,
      "tis": 3877,
      "tist": 3878,
      "titu": 3879,
      "tive": 3880,
      "tives": 3881,
      "to": 3882,
      "ton": 3883,
      "top": 3884,
      "topic": 3885,
      "tou": 3886,
      "touch": 3887,
      "touchability": 3888,
      "tra": 3889,
      "tro": 3890,
      "troduction": 3891,
      "trol": 3892,
      "ts": 3893,
      "tt": 3894,
      "ttac": 3895,
      "ttacus": 3896,
      "ttar": 3897,
      "tten": 3898,
      "tter": 3899,
      "tu": 3900,
      "tual": 3901,
      "tud": 3902,
      "tudies": 3903,
      "ture": 3904,
      "ty": 3905,
      "ty,": 3906,
      "u": 3907,
      "u\")": 3908,
      "u,": 3909,
      "u/": 3910,
      "ua": 3911,
      "ual": 3912,
      "ually": 3913,
      "ub": 3914,
      "ubl": 3915,
      "ublic": 3916,
      "ublication": 3917,
      "ublications/": 3918,
      "ublishing": 3919,
      "uborne": 3920,
      "ubs": 3921,
      "uc": 3922,
      "ucation": 3923,
      "uccess": 3924,
      "uccessful": 3925,
      "uch": 3926,
      "uck": 3927,
      "uclear": 3928,
      "ucture": 3929,
      "ud": 3930,
      "uda": 3931,
      "udd": 3932,
      "udden": 3933,
      "uddhism": 3934,
      "udi": 3935,
      "uduch": 3936,
      "uducher": 3937,
      "uducherry": 3938,
      "ue": 3939,
      "ues": 3940,
      "uff": 3941,
      "ug": 3942,
      "ugh": 3943,
      "ughal": 3944,
      "ughal_": 3945,
      "uin": 3946,
      "uis": 3947,
      "uisine": 3948,
      "uistic": 3949,
      "uj": 3950,
      "ujar": 3951,
      "ujarat": 3952,
      "ujarati": 3953,
      "uk": 3954,
      "ukesh": 3955,
      "ul": 3956,
      "ula": 3957,
      "ular": 3958,
      "ulation": 3959,
      "ule": 3960,
      "uled": 3961,
      "ulke": 3962,
      "ulkeR": 3963,
      "ulkeRothermund": 3964,
      "ulos": 3965,
      "ulosis": 3966,
      "ult": 3967,
      "ultan": 3968,
      "ultanate": 3969,
      "ulti": 3970,
      "ults": 3971,
      "ultural": 3972,
      "ulture": 3973,
      "ultures": 3974,
      "uly": 3975,
      "um": 3976,
      "uman": 3977,
      "umar": 3978,
      "umb": 3979,
      "umb/": 3980,
      "umbai": 3981,
      "umber": 3982,
      "ument": 3983,
      "umm": 3984,
      "ummary": 3985,
      "ummer": 3986,
      "ummit": 3987,
      "ummit\")": 3988,
      "un": 3989,
      "una": 3990,
      "unbird": 3991,
      "unction": 3992,
      "und": 3993,
      "undam": 3994,
      "undament": 3995,
      "undamental": 3996,
      "undarb": 3997,
      "undarbans": 3998,
      "une": 3999,
      "unei": 4000,
      "ung": 4001,
      "ungab": 4002,
      "ungabhad": 4003,
      "ungabhadra": 4004,
      "union": 4005,
      "union_territ": 4006,
      "union_territories": 4007,
      "union_territory": 4008,
      "union_territory)": 4009,
      "unjab": 4010,
      "unjabi": 4011,
      "unleav": 4012,
      "unleavy": 4013,
      "up": 4014,
      "uplo": 4015,
      "upload.": 4016,
      "upload.wikimedia.org/wikipedia/commons/": 4017,
      "upreme": 4018,
      "upt": 4019,
      "upta": 4020,
      "ur": 4021,
      "ura": 4022,
      "urai": 4023,
      "ural": 4024,
      "ural_": 4025,
      "uran": 4026,
      "uras": 4027,
      "urasia": 4028,
      "urasian": 4029,
      "urban": 4030,
      "urch": 4031,
      "urchas": 4032,
      "ure": 4033,
      "ureau": 4034,
      "ures": 4035,
      "urg": 4036,
      "uring": 4037,
      "urk": 4038,
      "url": 4039,
      "urn": 4040,
      "urope": 4041,
      "uropean": 4042,
      "urple": 4043,
      "urr": 4044,
      "urrency": 4045,
      "urrent": 4046,
      "urry": 4047,
      "urther": 4048,
      "urton": 4049,
      "urvey": 4050,
      "ury": 4051,
      "uryan": 4052,
      "us": 4053,
      "ush": 4054,
      "usic": 4055,
      "usical": 4056,
      "usin": 4057,
      "usines": 4058,
      "usiness": 4059,
      "usiness/": 4060,
      "usli": 4061,
      "uslim": 4062,
      "uss": 4063,
      "ussia": 4064,
      "ust": 4065,
      "ustice": 4066,
      "ustral": 4067,
      "ustralia": 4068,
      "ustrial": 4069,
      "ustry": 4070,
      "ut": 4071,
      "utan": 4072,
      "uted": 4073,
      "utes": 4074,
      "uth": 4075,
      "uthority": 4076,
      "utical": 4077,
      "uting": 4078,
      "ution": 4079,
      "utonom": 4080,
      "utra": 4081,
      "utt": 4082,
      "utta": 4083,
      "uttap": 4084,
      "uttaphry": 4085,
      "uttaphryn": 4086,
      "uttaphrynus": 4087,
      "v": 4088,
      "va": 4089,
      "vaG": 4090,
      "vaGua": 4091,
      "vaGuaJ": 4092,
      "vaGuaJIJ": 4093,
      "vaGuaJIJgo": 4094,
      "val": 4095,
      "valli": 4096,
      "value": 4097,
      "van": 4098,
      "vanab": 4099,
      "vanabe": 4100,
      "vanabelago": 4101,
      "vanabelagola": 4102,
      "var": 4103,
      "vara": 4104,
      "vara_": 4105,
      "vard": 4106,
      "vatsyayan": 4107,
      "vatsyayan-l": 4108,
      "vatsyayan-lord": 4109,
      "vatsyayan-lord-4": 4110,
      "vatsyayan-lord-432": 4111,
      "vatsyayan-lord_4": 4112,
      "vatsyayan-lord_432": 4113,
      "ve": 4114,
      "ved": 4115,
      "vel": 4116,
      "velo": 4117,
      "velock": 4118,
      "velop": 4119,
      "velopment": 4120,
      "ven": 4121,
      "vent": 4122,
      "vention": 4123,
      "ver": 4124,
      "ver,": 4125,
      "verage": 4126,
      "vers": 4127,
      "verse": 4128,
      "versity": 4129,
      "very": 4130,
      "ves": 4131,
      "vest": 4132,
      "vesti": 4133,
      "vestigation": 4134,
      "vey": 4135,
      "vi": 4136,
      "vid": 4137,
      "vidence": 4138,
      "view": 4139,
      "vil": 4140,
      "ving": 4141,
      "viol": 4142,
      "violence": 4143,
      "viron": 4144,
      "vironment": 4145,
      "vision": 4146,
      "vol": 4147,
      "volution": 4148,
      "voy": 4149,
      "w": 4150,
      "wAAQBAJ&pg=PA": 4151,
      "wait": 4152,
      "wal": 4153,
      "wan": 4154,
      "wana": 4155,
      "war": 4156,
      "ward": 4157,
      "wart": 4158,
      "wartzberg": 4159,
      "water": 4160,
      "way": 4161,
      "we": 4162,
      "wealth": 4163,
      "web": 4164,
      "web.": 4165,
      "web/": 4166,
      "ween": 4167,
      "weep": 4168,
      "well": 4169,
      "west": 4170,
      "wi": 4171,
      "wiki": 4172,
      "wiki/": 4173,
      "wikidata": 4174,
      "wikime": 4175,
      "wikimedia.org/": 4176,
      "wikimedia.org/wikipedia/commons/": 4177,
      "wikipe": 4178,
      "wikipedia": 4179,
      "wikipedia.org/": 4180,
      "wikipedia.org/wiki/": 4181,
      "wikipedia/": 4182,
      "wikipedia/com": 4183,
      "wikipedia/commons": 4184,
      "wikipedia/commons/": 4185,
      "wing": 4186,
      "with": 4187,
      "with\\_": 4188,
      "work": 4189,
      "world": 4190,
      "worldbank": 4191,
      "worldbank.org/": 4192,
      "ww": 4193,
      "www": 4194,
      "www.": 4195,
      "x": 4196,
      "x-": 4197,
      "x?": 4198,
      "x\\_": 4199,
      "xford": 4200,
      "y": 4201,
      "y\")": 4202,
      "y,": 4203,
      "ya": 4204,
      "yan": 4205,
      "yana": 4206,
      "yanathan": 4207,
      "yanmar": 4208,
      "yayan": 4209,
      "yd": 4210,
      "year": 4211,
      "yer": 4212,
      "yle": 4213,
      "ym": 4214,
      "ymbol": 4215,
      "yn": 4216,
      "yna": 4217,
      "ynago": 4218,
      "ynagogue": 4219,
      "ynast": 4220,
      "ynasty": 4221,
      "ypr": 4222,
      "yprus": 4223,
      "yr": 4224,
      "ys": 4225,
      "ysis": 4226,
      "yson": 4227,
      "ystem": 4228,
      "yth": 4229,
      "yy": 4230,
      "z": 4231,
      "zard": 4232,
      "zation": 4233,
      "zberg": 4234,
      "ze": 4235,
      "zer": 4236,
      "{": 4237,
      "|": 4238,
      "}": 4239,
      "~": 4240,
      "°": 4241,
      "·": 4242,
      "Ö": 4243,
      "á": 4244,
      "â": 4245,
      "æ": 4246,
      "ædia": 4247,
      "ç": 4248,
      "è": 4249,
      "é": 4250,
      "ément": 4251,
      "émentin-": 4252,
      "émentin-O": 4253,
      "émentin-Oj": 4254,
      "émentin-Ojha": 4255,
      "í": 4256,
      "ñ": 4257,
      "ö": 4258,
      "ü": 4259,
      "ā": 4260,
      "ī": 4261,
      "İ": 4262,
      "Ś": 4263,
      "ś": 4264,
      "ū": 4265,
      "ș": 4266,
      "ə": 4267,
      "ɦ": 4268,
      "ɪ": 4269,
      "ɾ": 4270,
      "ʊ": 4271,
      "ʼ": 4272,
      "ˈ": 4273,
      "ː": 4274,
      "ί": 4275,
      "α": 4276,
      "δ": 4277,
      "θ": 4278,
      "ν": 4279,
      "π": 4280,
      "ς": 4281,
      "ό": 4282,
      "ँ": 4283,
      "ँकि": 4284,
      "ँच": 4285,
      "ँची": 4286,
      "ं": 4287,
      "ंक": 4288,
      "ंग": 4289,
      "ंगड": 4290,
      "ंगल": 4291,
      "ंगा": 4292,
      "ंगाल": 4293,
      "ंगीत": 4294,
      "ंग्रे": 4295,
      "ंग्रेज": 4296,
      "ंग्रेज़": 4297,
      "ंग्रेज़ी": 4298,
      "ंग्रेजी": 4299,
      "ंग्रेस": 4300,
      "ंच": 4301,
      "ंजन": 4302,
      "ंजाब": 4303,
      "ंट": 4304,
      "ंड": 4305,
      "ंडमान": 4306,
      "ंडल": 4307,
      "ंडिया": 4308,
      "ंडीगढ़": 4309,
      "ंडोन": 4310,
      "ंडोनेशिया": 4311,
      "ंत": 4312,
      "ंतर": 4313,
      "ंति": 4314,
      "ंत्र": 4315,
      "ंद": 4316,
      "ंदर": 4317,
      "ंदिर": 4318,
      "ंध": 4319,
      "ंध्र": 4320,
      "ंप": 4321,
      "ंपन": 4322,
      "ंपरा": 4323,
      "ंब": 4324,
      "ंबई": 4325,
      "ंबर": 4326,
      "ंश": 4327,
      "ंस": 4328,
      "ंह": 4329,
      "ः": 4330,
      "अ": 4331,
      "अंग्रेज़ी": 4332,
      "अन": 4333,
      "अनुसार": 4334,
      "अभिज्ञापक": 4335,
      "अभिज्ञापक)": 4336,
      "अरब": 4337,
      "आ": 4338,
      "आई": 4339,
      "आई.": 4340,
      "आईएस": 4341,
      "इ": 4342,
      "इन": 4343,
      "इप्रस": 4344,
      "ई": 4345,
      "ईद": 4346,
      "ईरा": 4347,
      "ईसा": 4348,
      "ईसाई": 4349,
      "उ": 4350,
      "उप": 4351,
      "ऊ": 4352,
      "ऊर्जा": 4353,
      "ऋ": 4354,
      "ऋतु": 4355,
      "ऍ": 4356,
      "ऍथनोलॉग": 4357,
      "ए": 4358,
      "एँ": 4359,
      "एं": 4360,
      "एन": 4361,
      "एम": 4362,
      "एशिया": 4363,
      "एस": 4364,
      "एसिया": 4365,
      "एसियाक": 4366,
      "ऐ": 4367,
      "ऑ": 4368,
      "ऑक्सफोर्ड": 4369,
      "ऑपरेशन": 4370,
      "ओ": 4371,
      "ओं": 4372,
      "औ": 4373,
      "और": 4374,
      "क": 4375,
      "क_": 4376,
      "कट": 4377,
      "कर": 4378,
      "करण": 4379,
      "कल": 4380,
      "कल_घ": 4381,
      "कल_घरेलू_उत्पाद": 4382,
      "का": 4383,
      "कांक": 4384,
      "कार": 4385,
      "कार्यपालिका": 4386,
      "काल": 4387,
      "कालीन": 4388,
      "काश": 4389,
      "कि": 4390,
      "किस्तान": 4391,
      "की": 4392,
      "कृति": 4393,
      "के": 4394,
      "केन्द्र": 4395,
      "केर": 4396,
      "को": 4397,
      "क्": 4398,
      "क्त": 4399,
      "क्ति": 4400,
      "क्ष": 4401,
      "क्षण": 4402,
      "क्षद्वीप": 4403,
      "क्षर": 4404,
      "क्षरता": 4405,
      "क्षा": 4406,
      "क्षिण": 4407,
      "क्षेत्र": 4408,
      "क्स": 4409,
      "क्सफोर्ड": 4410,
      "ख": 4411,
      "खंड": 4412,
      "खण्ड": 4413,
      "खन": 4414,
      "खनऊ": 4415,
      "ख़": 4416,
      "खा": 4417,
      "खाना": 4418,
      "ख्य": 4419,
      "ख्या": 4420,
      "ग": 4421,
      "गढ़": 4422,
      "गण": 4423,
      "गणतंत्र": 4424,
      "गणतन्त्र": 4425,
      "गणना": 4426,
      "गणराज्य": 4427,
      "गत": 4428,
      "गध": 4429,
      "गमन": 4430,
      "गर": 4431,
      "गल": 4432,
      "गान": 4433,
      "गु": 4434,
      "गुज": 4435,
      "गुजरात": 4436,
      "गुप्त": 4437,
      "गू": 4438,
      "गो": 4439,
      "गोआ": 4440,
      "गोल": 4441,
      "ग्वे": 4442,
      "घ": 4443,
      "घर": 4444,
      "ङ": 4445,
      "ङ्": 4446,
      "ङ्ग": 4447,
      "ङ्घ": 4448,
      "च": 4449,
      "चल": 4450,
      "चार": 4451,
      "चि": 4452,
      "चित्र": 4453,
      "चित्र:": 4454,
      "ची": 4455,
      "चीन": 4456,
      "चे": 4457,
      "चेंज": 4458,
      "चेन्नई": 4459,
      "च्च": 4460,
      "च्छ": 4461,
      "छ": 4462,
      "छत्तीस": 4463,
      "छत्तीसगढ़": 4464,
      "ज": 4465,
      "जं": 4466,
      "जन": 4467,
      "जनसंख्या": 4468,
      "जपा": 4469,
      "जय": 4470,
      "जयनगर": 4471,
      "जयपुर": 4472,
      "जल": 4473,
      "ज़": 4474,
      "ज़ा": 4475,
      "जा": 4476,
      "जाति": 4477,
      "जान": 4478,
      "जापान": 4479,
      "जाब": 4480,
      "जी": 4481,
      "ज्": 4482,
      "ज्ज": 4483,
      "ज्ञ": 4484,
      "ज्ञान": 4485,
      "ज्य": 4486,
      "झ": 4487,
      "झार": 4488,
      "झारखंड": 4489,
      "ञ": 4490,
      "ञ्": 4491,
      "ट": 4492,
      "टक": 4493,
      "टना": 4494,
      "टी": 4495,
      "टे": 4496,
      "ठ": 4497,
      "ड": 4498,
      "ड़": 4499,
      "ड़ा": 4500,
      "ड़िया": 4501,
      "ड़ियाँ": 4502,
      "ड़िशा": 4503,
      "ड़ी": 4504,
      "ड़ीसा": 4505,
      "ड़े": 4506,
      "डिया": 4507,
      "डी": 4508,
      "डु": 4509,
      "ढ": 4510,
      "ढ़": 4511,
      "ण": 4512,
      "णा": 4513,
      "णि": 4514,
      "णिपुर": 4515,
      "णिपुरी": 4516,
      "णी": 4517,
      "ण्ड": 4518,
      "त": 4519,
      "तंत्र": 4520,
      "तंत्रता": 4521,
      "तट": 4522,
      "तन्त्र": 4523,
      "तन्त्रता": 4524,
      "तम": 4525,
      "तमिल": 4526,
      "तर": 4527,
      "ता": 4528,
      "ताज": 4529,
      "ताजमह": 4530,
      "ताब्": 4531,
      "ताल": 4532,
      "ति": 4533,
      "तिक": 4534,
      "तिब्बत": 4535,
      "तिरुवन": 4536,
      "तिहास": 4537,
      "तिहासिक": 4538,
      "ती": 4539,
      "तीस": 4540,
      "तु": 4541,
      "तुल": 4542,
      "तुल्य": 4543,
      "तृत": 4544,
      "ते": 4545,
      "तेल": 4546,
      "तेलंग": 4547,
      "तेलंगाना": 4548,
      "तेलु": 4549,
      "तेलुगु": 4550,
      "तेलुगू": 4551,
      "त्": 4552,
      "त्त": 4553,
      "त्तर": 4554,
      "त्तरा": 4555,
      "त्तराखण्ड": 4556,
      "त्तरी": 4557,
      "त्ता": 4558,
      "त्ति": 4559,
      "त्तीस": 4560,
      "त्न": 4561,
      "त्प": 4562,
      "त्पत्ति": 4563,
      "त्पाद": 4564,
      "त्य": 4565,
      "त्यमेव": 4566,
      "त्या": 4567,
      "त्र": 4568,
      "त्रि": 4569,
      "त्रिपुरा": 4570,
      "त्रुट": 4571,
      "त्व": 4572,
      "त्स": 4573,
      "थ": 4574,
      "थनोलॉग": 4575,
      "थम": 4576,
      "थल": 4577,
      "था": 4578,
      "थाई": 4579,
      "थाईलैंड": 4580,
      "थान": 4581,
      "थियार": 4582,
      "थी": 4583,
      "थुरा": 4584,
      "द": 4585,
      "दक्षिण": 4586,
      "दय": 4587,
      "दयपुर": 4588,
      "दल": 4589,
      "दा": 4590,
      "दाख": 4591,
      "दान": 4592,
      "दार": 4593,
      "दारी": 4594,
      "दी": 4595,
      "दीव": 4596,
      "दु": 4597,
      "दुच्च": 4598,
      "दुच्चे": 4599,
      "दू": 4600,
      "देव": 4601,
      "देश": 4602,
      "द्": 4603,
      "द्दाख": 4604,
      "द्ध": 4605,
      "द्य": 4606,
      "द्यान": 4607,
      "द्यालय": 4608,
      "द्योग": 4609,
      "द्योगिक": 4610,
      "द्र": 4611,
      "द्रा": 4612,
      "द्रौपदी": 4613,
      "द्वार": 4614,
      "द्वित": 4615,
      "द्वितीय": 4616,
      "द्वीप": 4617,
      "ध": 4618,
      "धता": 4619,
      "धन": 4620,
      "धर्म": 4621,
      "धाकृष्ण": 4622,
      "धान": 4623,
      "धानमंत्र": 4624,
      "धानमंत्री": 4625,
      "धार": 4626,
      "धार_": 4627,
      "धार_पर_भारत": 4628,
      "धि": 4629,
      "धिक": 4630,
      "धिकार": 4631,
      "धिकारिक": 4632,
      "धिराज्य": 4633,
      "धी": 4634,
      "धीरे": 4635,
      "धु": 4636,
      "धु-": 4637,
      "धु-ग": 4638,
      "धु-गंगा": 4639,
      "धुनिक": 4640,
      "ध्य": 4641,
      "ध्यम": 4642,
      "न": 4643,
      "न\")": 4644,
      "न](https://hi.wikipedia.org/wiki/": 4645,
      "न](https://mai.wikipedia.org/wiki/": 4646,
      "नगर": 4647,
      "नजं": 4648,
      "नजंघ": 4649,
      "नजंघा": 4650,
      "नत्व": 4651,
      "ना": 4652,
      "नाग": 4653,
      "नागालैंड": 4654,
      "नाडु": 4655,
      "नाथ": 4656,
      "नाम": 4657,
      "नाव": 4658,
      "नि": 4659,
      "निक": 4660,
      "निरपेक्ष": 4661,
      "निर्धनता": 4662,
      "निर्भर": 4663,
      "निवेश": 4664,
      "नी": 4665,
      "ने": 4666,
      "नेट": 4667,
      "नेपाल": 4668,
      "नेमा": 4669,
      "नोलॉग": 4670,
      "न्": 4671,
      "न्ड": 4672,
      "न्डिया": 4673,
      "न्त": 4674,
      "न्तर": 4675,
      "न्तु": 4676,
      "न्त्र": 4677,
      "न्द": 4678,
      "न्दा": 4679,
      "न्दिर": 4680,
      "न्द्र": 4681,
      "न्ध": 4682,
      "न्न": 4683,
      "न्नई": 4684,
      "न्नड": 4685,
      "न्नड़": 4686,
      "न्स": 4687,
      "ऩ": 4688,
      "प": 4689,
      "पति": 4690,
      "पया": 4691,
      "पर": 4692,
      "पर_भारत": 4693,
      "परमाणु": 4694,
      "परेशन": 4695,
      "पर्यटन": 4696,
      "पा": 4697,
      "पांड": 4698,
      "पाकिस्तान": 4699,
      "पात": 4700,
      "पातकाल": 4701,
      "पान": 4702,
      "पार": 4703,
      "पाल": 4704,
      "पालिका": 4705,
      "पाषाण": 4706,
      "पि": 4707,
      "पी": 4708,
      "पीठ": 4709,
      "पीपीपी)": 4710,
      "पु": 4711,
      "पुर": 4712,
      "पुरम": 4713,
      "पुरा": 4714,
      "पुरी": 4715,
      "पूर्ण": 4716,
      "पे": 4717,
      "प्त": 4718,
      "प्र": 4719,
      "प्रस": 4720,
      "प्रा": 4721,
      "प्राचीन": 4722,
      "फ": 4723,
      "फल": 4724,
      "फ़": 4725,
      "फ़रवरी": 4726,
      "फ़्रीका": 4727,
      "फाएं": 4728,
      "फोर्ड": 4729,
      "फ्रां": 4730,
      "फ्रीका": 4731,
      "ब": 4732,
      "बंध": 4733,
      "बंधन": 4734,
      "बर": 4735,
      "बसे": 4736,
      "बा": 4737,
      "बाद": 4738,
      "बी": 4739,
      "बू": 4740,
      "ब्": 4741,
      "ब्ब": 4742,
      "ब्बत": 4743,
      "ब्ल": 4744,
      "भ": 4745,
      "भग": 4746,
      "भरत": 4747,
      "भा": 4748,
      "भाग": 4749,
      "भाजन": 4750,
      "भार": 4751,
      "भारत": 4752,
      "भारत\nCategory:": 4753,
      "भारत)": 4754,
      "भारत_के_राज्य": 4755,
      "भारतीय": 4756,
      "भाष": 4757,
      "भाषा": 4758,
      "भि": 4759,
      "भिज्ञ": 4760,
      "भिज्ञापक": 4761,
      "भिन्न": 4762,
      "भी": 4763,
      "भीम": 4764,
      "भीमब": 4765,
      "भीमबेटका": 4766,
      "भु": 4767,
      "भुटान": 4768,
      "भुवनेश्वर": 4769,
      "भू": 4770,
      "भूट": 4771,
      "भूटान": 4772,
      "भूम": 4773,
      "भो": 4774,
      "भोज": 4775,
      "भोजपुरी": 4776,
      "भोपाल": 4777,
      "म": 4778,
      "म\")": 4779,
      "म](https://hi.wikipedia.org/wiki/": 4780,
      "मंत्र": 4781,
      "मक": 4782,
      "मत": 4783,
      "मन": 4784,
      "मन्त": 4785,
      "मर": 4786,
      "मरी": 4787,
      "मरीका": 4788,
      "मह": 4789,
      "महाद्वीप": 4790,
      "मा": 4791,
      "माख्या": 4792,
      "माज": 4793,
      "माजिक": 4794,
      "माण": 4795,
      "माणु": 4796,
      "मान": 4797,
      "मान्य": 4798,
      "माप": 4799,
      "मापद": 4800,
      "मापदण्ड": 4801,
      "मार": 4802,
      "मालय": 4803,
      "मिल": 4804,
      "मी": 4805,
      "मी2": 4806,
      "मीन": 4807,
      "मीरात": 4808,
      "मु": 4809,
      "मुख": 4810,
      "मुख्य": 4811,
      "मूल्य": 4812,
      "मृत": 4813,
      "मे": 4814,
      "मे\\_": 4815,
      "में": 4816,
      "मेर": 4817,
      "मेव": 4818,
      "मोर": 4819,
      "म्": 4820,
      "म्न": 4821,
      "म्प": 4822,
      "म्प्र": 4823,
      "म्ब": 4824,
      "म्बर": 4825,
      "म्भ": 4826,
      "म्म": 4827,
      "म्मू": 4828,
      "म्रा": 4829,
      "म्राज्य": 4830,
      "य": 4831,
      "यत": 4832,
      "यपालिका": 4833,
      "यर": 4834,
      "या": 4835,
      "याधी": 4836,
      "याधीश": 4837,
      "याल": 4838,
      "यालय": 4839,
      "यु": 4840,
      "युक्त": 4841,
      "योग": 4842,
      "र": 4843,
      "र-": 4844,
      "रकार": 4845,
      "रक्ष": 4846,
      "रक्षक": 4847,
      "रक्षा": 4848,
      "रक्षित": 4849,
      "रण": 4850,
      "रत": 4851,
      "रब": 4852,
      "रवरी": 4853,
      "रस": 4854,
      "रा": 4855,
      "राइ": 4856,
      "राक": 4857,
      "राक़": 4858,
      "राज": 4859,
      "राजनी": 4860,
      "राजस्थान": 4861,
      "राज्य": 4862,
      "राठ": 4863,
      "रात": 4864,
      "राती": 4865,
      "राम": 4866,
      "रामा": 4867,
      "रामाय": 4868,
      "रामायण": 4869,
      "राय": 4870,
      "रालेख": 4871,
      "रालेखित": 4872,
      "राष्ट्र": 4873,
      "राष्ट्रपति": 4874,
      "राष्ट्रपति\")": 4875,
      "राष्ट्रपति](https://hi.wikipedia.org/wiki/भारत_के_": 4876,
      "राष्ट्रीय": 4877,
      "राष्ट्रीय_": 4878,
      "राष्ट्रीय_उ": 4879,
      "राष्ट्रीय_उद्यान": 4880,
      "राष्ट्रीय_स": 4881,
      "राष्ट्रीय_सूचना-विज्ञान": 4882,
      "रि": 4883,
      "री": 4884,
      "री\")": 4885,
      "री](https://hi.wikipedia.org/wiki/": 4886,
      "रीक्षण": 4887,
      "रु": 4888,
      "रुणा": 4889,
      "रुणाचल": 4890,
      "रुवन": 4891,
      "रू": 4892,
      "रे": 4893,
      "रेन्द्र": 4894,
      "रेल": 4895,
      "रेलू": 4896,
      "रेलू_उत्पाद": 4897,
      "रो": 4898,
      "रोहर": 4899,
      "र्": 4900,
      "र्क": 4901,
      "र्ग": 4902,
      "र्ज": 4903,
      "र्जा": 4904,
      "र्ट": 4905,
      "र्त": 4906,
      "र्तग": 4907,
      "र्थ": 4908,
      "र्थव्यवस्था": 4909,
      "र्थिक": 4910,
      "र्दू": 4911,
      "र्धन": 4912,
      "र्धनता": 4913,
      "र्ना": 4914,
      "र्नाटक": 4915,
      "र्भ": 4916,
      "र्भर": 4917,
      "र्म": 4918,
      "र्मन": 4919,
      "र्मनिरपेक्ष": 4920,
      "र्मू": 4921,
      "र्य": 4922,
      "र्व": 4923,
      "र्वत": 4924,
      "र्वो": 4925,
      "र्वोच्च": 4926,
      "र्ष": 4927,
      "र्स": 4928,
      "ल": 4929,
      "ल\")": 4930,
      "ल-": 4931,
      "ल](https://hi.wikipedia.org/wiki/": 4932,
      "लं": 4933,
      "लंका": 4934,
      "लग": 4935,
      "लयाल": 4936,
      "लयालम": 4937,
      "ला": 4938,
      "लाई": 4939,
      "लाओ": 4940,
      "लाका": 4941,
      "लादेश": 4942,
      "लावा": 4943,
      "लि": 4944,
      "लिंग": 4945,
      "लिस": 4946,
      "ली": 4947,
      "ले": 4948,
      "लेख": 4949,
      "लेट": 4950,
      "लेशिया": 4951,
      "लैंड": 4952,
      "लों": 4953,
      "लोक": 4954,
      "लोकसभा": 4955,
      "ल्": 4956,
      "ल्तनत": 4957,
      "ल्प": 4958,
      "ल्पा": 4959,
      "ल्ल": 4960,
      "ळ": 4961,
      "व": 4962,
      "व\")": 4963,
      "वं": 4964,
      "वंश": 4965,
      "वत": 4966,
      "वन": 4967,
      "वनवर्ल्ड": 4968,
      "वनेश्वर": 4969,
      "वर": 4970,
      "वरण": 4971,
      "वरा": 4972,
      "वरात्रि": 4973,
      "वरी": 4974,
      "वर्": 4975,
      "वर्त": 4976,
      "वर्ल": 4977,
      "वर्ल्ड": 4978,
      "वर्ष": 4979,
      "वल": 4980,
      "वली": 4981,
      "वा": 4982,
      "वाँ": 4983,
      "वाड़े": 4984,
      "वाद": 4985,
      "वादी": 4986,
      "वायु": 4987,
      "वास": 4988,
      "वि": 4989,
      "विज्ञान": 4990,
      "वित": 4991,
      "विद्यालय": 4992,
      "विधान": 4993,
      "वियत": 4994,
      "विश": 4995,
      "विशेष": 4996,
      "विशेष:": 4997,
      "विशेष:E": 4998,
      "विशेष:EditPage/": 4999,
      "विशेष:EditPage/साँचा:": 5000,
      "विशेष:पु": 5001,
      "विशेष:पुस्तक": 5002,
      "विशेष:पुस्तक_स": 5003,
      "विशेष:पुस्तक_स्रोत/978": 5004,
      "विश्व": 5005,
      "वी": 5006,
      "वीं": 5007,
      "वे": 5008,
      "वेब": 5009,
      "वेबैक": 5010,
      "वेश": 5011,
      "वेशद्वार": 5012,
      "वै": 5013,
      "वैत": 5014,
      "वैद्य": 5015,
      "वैद्यनाथ": 5016,
      "व्यवस्था": 5017,
      "श": 5018,
      "शक": 5019,
      "शक्ति": 5020,
      "शत": 5021,
      "शन": 5022,
      "शवं": 5023,
      "शवंत": 5024,
      "शहरा": 5025,
      "शा": 5026,
      "शास": 5027,
      "शासित": 5028,
      "शासित_प्रदेश": 5029,
      "शास्त्र": 5030,
      "शिया": 5031,
      "शीन": 5032,
      "शील": 5033,
      "शोक": 5034,
      "श्": 5035,
      "श्चि": 5036,
      "श्चिम": 5037,
      "श्चिमी": 5038,
      "श्मी": 5039,
      "श्मीर": 5040,
      "श्मीरी": 5041,
      "श्य": 5042,
      "श्री": 5043,
      "श्रीनगर": 5044,
      "श्रील": 5045,
      "श्रीलंका": 5046,
      "श्रीलङ्": 5047,
      "श्रीलङ्का": 5048,
      "श्रेणी": 5049,
      "श्रेणी:": 5050,
      "श्रेणी:CS1": 5051,
      "श्रेणी:Har": 5052,
      "श्रेणी:Harv": 5053,
      "ष": 5054,
      "षय": 5055,
      "षा": 5056,
      "षाण": 5057,
      "ष्": 5058,
      "ष्ट": 5059,
      "ष्ट्र": 5060,
      "ष्ठ": 5061,
      "ष्ण": 5062,
      "ष्णकट": 5063,
      "ष्णकटिबंधीय": 5064,
      "स": 5065,
      "स\")": 5066,
      "स](https://hi.wikipedia.org/wiki/": 5067,
      "सँ": 5068,
      "सं": 5069,
      "संख्या": 5070,
      "संधान": 5071,
      "सङ्": 5072,
      "सङ्ख्या": 5073,
      "सत": 5074,
      "सद": 5075,
      "सभ": 5076,
      "सभक": 5077,
      "सभक_सूची": 5078,
      "सभक_सूची?action=edit&redlink=1": 5079,
      "सभा": 5080,
      "सम": 5081,
      "समिया": 5082,
      "समूह": 5083,
      "सर": 5084,
      "सहितक\\_पृष्ठसभ#": 5085,
      "सा": 5086,
      "साँच": 5087,
      "साँचा:": 5088,
      "साँचा_वार्ता:": 5089,
      "सां": 5090,
      "सांख्य": 5091,
      "सास": 5092,
      "सासनिक": 5093,
      "सित": 5094,
      "सिया": 5095,
      "सी": 5096,
      "सून": 5097,
      "से": 5098,
      "सेट": 5099,
      "सेना": 5100,
      "सैनिक": 5101,
      "स्": 5102,
      "स्क": 5103,
      "स्कृत": 5104,
      "स्कृति": 5105,
      "स्चेंज": 5106,
      "स्ट": 5107,
      "स्त": 5108,
      "स्तक": 5109,
      "स्ता": 5110,
      "स्तान": 5111,
      "स्तिकता": 5112,
      "स्त्र": 5113,
      "स्थ": 5114,
      "स्था": 5115,
      "स्थान": 5116,
      "स्थाप": 5117,
      "स्ला": 5118,
      "स्लाम": 5119,
      "स्लि": 5120,
      "स्लिम": 5121,
      "स्व": 5122,
      "ह": 5123,
      "हन": 5124,
      "हम": 5125,
      "हमदा": 5126,
      "हमदाबाद": 5127,
      "हर": 5128,
      "हरा": 5129,
      "हरिया": 5130,
      "हरियाणा": 5131,
      "हरी": 5132,
      "हा": 5133,
      "हाँ": 5134,
      "हाई": 5135,
      "हाजन": 5136,
      "हाजनप": 5137,
      "हाजनपद": 5138,
      "हात्": 5139,
      "हात्मा": 5140,
      "हाद्वीप": 5141,
      "हाब": 5142,
      "हाबलि": 5143,
      "हाबलिपुरम": 5144,
      "हाय": 5145,
      "हायता": 5146,
      "हायता:": 5147,
      "हायता:उ": 5148,
      "हायता:उद्": 5149,
      "हायता:उद्द": 5150,
      "हायता:उद्दरण": 5151,
      "हार": 5152,
      "हारज": 5153,
      "हारजिस्ट्रार": 5154,
      "हाराष्ट्र": 5155,
      "हास": 5156,
      "हासागर": 5157,
      "हि": 5158,
      "हित": 5159,
      "हितक": 5160,
      "हितक\\_पृष्ठसभ": 5161,
      "हितक\\_पृष्ठसभ#": 5162,
      "हित्य": 5163,
      "हिन्द": 5164,
      "हिन्दी": 5165,
      "हिमा": 5166,
      "हिमाचल": 5167,
      "हिमालय": 5168,
      "हीं": 5169,
      "हु": 5170,
      "हुमूल्य": 5171,
      "हू": 5172,
      "हें": 5173,
      "हैदराबाद": 5174,
      "ऻ": 5175,
      "़": 5176,
      "़तर": 5177,
      "ऽ": 5178,
      "ा": 5179,
      "ा:": 5180,
      "ा_": 5181,
      "ा_व": 5182,
      "ा_वार्ता:": 5183,
      "ाँ": 5184,
      "ांग": 5185,
      "ांग्ला": 5186,
      "ांग्लादेश": 5187,
      "ांध": 5188,
      "ांधी": 5189,
      "ाइ": 5190,
      "ाइल": 5191,
      "ाइल:": 5192,
      "ाई": 5193,
      "ाएं": 5194,
      "ाक": 5195,
      "ाकृष्ण": 5196,
      "ाग": 5197,
      "ागर": 5198,
      "ाङ्": 5199,
      "ाङ्लादेश": 5200,
      "ाट": 5201,
      "ात": 5202,
      "ाद": 5203,
      "ादरा": 5204,
      "ाद्वीप": 5205,
      "ान": 5206,
      "ानक": 5207,
      "ानगर": 5208,
      "ानपान": 5209,
      "ानव": 5210,
      "ाना": 5211,
      "ानी": 5212,
      "ानून": 5213,
      "ाने": 5214,
      "ानेर-": 5215,
      "ानेर-पा": 5216,
      "ानेर-पावा": 5217,
      "ानेर-पावागढ़": 5218,
      "ाप": 5219,
      "ापक": 5220,
      "ाम": 5221,
      "ामित्व": 5222,
      "ाय": 5223,
      "ार": 5224,
      "ारम्भ": 5225,
      "ारा": 5226,
      "ारी": 5227,
      "ारो": 5228,
      "ार्": 5229,
      "ार्क": 5230,
      "ार्कट": 5231,
      "ार्कटिका": 5232,
      "ार्ट": 5233,
      "ार्ता:": 5234,
      "ार्वभौम": 5235,
      "ार्श": 5236,
      "ाल": 5237,
      "ालदीव": 5238,
      "ालय": 5239,
      "ालर": 5240,
      "ाला": 5241,
      "ाली": 5242,
      "ाली\")": 5243,
      "ाले": 5244,
      "ालैंड": 5245,
      "ाल्दिभ्स": 5246,
      "ाष्ट्र": 5247,
      "ास": 5248,
      "ास्": 5249,
      "ा।": 5250,
      "ि": 5251,
      "िंध": 5252,
      "िंधु": 5253,
      "िंह": 5254,
      "िक": 5255,
      "िकता": 5256,
      "िका": 5257,
      "िकास": 5258,
      "िकिस्तान": 5259,
      "िकी": 5260,
      "िकेट": 5261,
      "िकेश": 5262,
      "िकोबार": 5263,
      "िक्": 5264,
      "िक्कि": 5265,
      "िक्किम": 5266,
      "िक्ष": 5267,
      "िक्षा": 5268,
      "िख": 5269,
      "िङ्ग": 5270,
      "िङ्गा": 5271,
      "िङ्गापुर": 5272,
      "िज": 5273,
      "िजस्तान": 5274,
      "िज़": 5275,
      "िज़ोर": 5276,
      "िज़ोरम": 5277,
      "िट": 5278,
      "िड़": 5279,
      "िड़ला": 5280,
      "िण": 5281,
      "ित": 5282,
      "ित्व": 5283,
      "िन": 5284,
      "िनेमा": 5285,
      "िन्": 5286,
      "िन्धु": 5287,
      "िन्धु-गंगा": 5288,
      "िन्स": 5289,
      "िप": 5290,
      "िप्ट": 5291,
      "िबंध": 5292,
      "िबंधीय": 5293,
      "िम": 5294,
      "िमोर": 5295,
      "िय": 5296,
      "ियत": 5297,
      "ियतनाम": 5298,
      "ियन": 5299,
      "ियम": 5300,
      "िया": 5301,
      "िया\")": 5302,
      "िया](https://mai.wikipedia.org/wiki/": 5303,
      "िया](https://mai.wikipedia.org/wiki/अ": 5304,
      "ियाँ": 5305,
      "ियां": 5306,
      "ियान": 5307,
      "ियार": 5308,
      "िये": 5309,
      "ियों": 5310,
      "िर": 5311,
      "िरपे": 5312,
      "िरपेक्ष": 5313,
      "िरा": 5314,
      "िरेट्स": 5315,
      "िल": 5316,
      "िला": 5317,
      "िलि": 5318,
      "िलिङ": 5319,
      "िलिङ)": 5320,
      "िलिप": 5321,
      "िलिपिन्स": 5322,
      "िलों": 5323,
      "िल्ल": 5324,
      "िल्ली": 5325,
      "िल्ली\")": 5326,
      "िव": 5327,
      "िवस": 5328,
      "िवार": 5329,
      "िवास": 5330,
      "िवेश": 5331,
      "िश": 5332,
      "िशा": 5333,
      "िस": 5334,
      "िसी": 5335,
      "िस्ट": 5336,
      "िस्ट्रार": 5337,
      "िस्तान": 5338,
      "िहार": 5339,
      "ी": 5340,
      "ी\")": 5341,
      "ी\")\n-": 5342,
      "ी\"))": 5343,
      "ी.": 5344,
      "ी.पी": 5345,
      "ी?action=edit&redlink=1": 5346,
      "ी](https://hi.wikipedia.org/wiki/": 5347,
      "ी](https://hi.wikipedia.org/wiki/अ": 5348,
      "ी](https://hi.wikipedia.org/wiki/द": 5349,
      "ी](https://hi.wikipedia.org/wiki/दिल्ली": 5350,
      "ी](https://hi.wikipedia.org/wiki/न": 5351,
      "ी](https://hi.wikipedia.org/wiki/प": 5352,
      "ी](https://hi.wikipedia.org/wiki/म": 5353,
      "ी](https://hi.wikipedia.org/wiki/स": 5354,
      "ी](https://mai.wikipedia.org/wiki/": 5355,
      "ी_": 5356,
      "ी_भाषा": 5357,
      "ी_स": 5358,
      "ीं": 5359,
      "ीक": 5360,
      "ीकरण": 5361,
      "ीगढ़": 5362,
      "ीत": 5363,
      "ीन": 5364,
      "ीप": 5365,
      "ीपी": 5366,
      "ीपी)": 5367,
      "ीपीपी)": 5368,
      "ीम": 5369,
      "ीमा": 5370,
      "ीमित": 5371,
      "ीय": 5372,
      "ीय_": 5373,
      "ील": 5374,
      "ीस": 5375,
      "ु": 5376,
      "ुंबई": 5377,
      "ुक": 5378,
      "ुख": 5379,
      "ुट": 5380,
      "ुटान": 5381,
      "ुम्ब": 5382,
      "ुम्बई": 5383,
      "ुरा": 5384,
      "ुरु": 5385,
      "ुल": 5386,
      "ुस": 5387,
      "ुसार": 5388,
      "ुस्तान": 5389,
      "ू": 5390,
      "ूच": 5391,
      "ूचना": 5392,
      "ूचना-विज्ञान": 5393,
      "ूची": 5394,
      "ूड़": 5395,
      "ून": 5396,
      "ूना": 5397,
      "ूनाइ": 5398,
      "ूनाइटे": 5399,
      "ूनाइटेड": 5400,
      "ूनिव": 5401,
      "ूनिवर्स": 5402,
      "ूनिवर्सिट": 5403,
      "ूप": 5404,
      "ूबर": 5405,
      "ूर": 5406,
      "ूरो": 5407,
      "ूरोप": 5408,
      "ूरोपीय": 5409,
      "ूर्": 5410,
      "ूर्ण": 5411,
      "ूर्व": 5412,
      "ूर्वी": 5413,
      "ूल": 5414,
      "ूल्य": 5415,
      "ूस": 5416,
      "ूह": 5417,
      "ृ": 5418,
      "ृत": 5419,
      "ृति": 5420,
      "ृत्य": 5421,
      "ृद्ध": 5422,
      "ृष": 5423,
      "ृषि": 5424,
      "ृष्": 5425,
      "ृष्ठ": 5426,
      "ृष्ठसभ": 5427,
      "ृष्ण": 5428,
      "े": 5429,
      "ें": 5430,
      "ेंगल": 5431,
      "ेंगलुरु": 5432,
      "ेंज": 5433,
      "ेंद्र": 5434,
      "ेंस": 5435,
      "ेक": 5436,
      "ेकिस्तान": 5437,
      "ेकेल": 5438,
      "ेख": 5439,
      "ेघ": 5440,
      "ेघालय": 5441,
      "ेज": 5442,
      "ेट": 5443,
      "ेटका": 5444,
      "ेट्स": 5445,
      "ेड": 5446,
      "ेत्र": 5447,
      "ेन": 5448,
      "ेय": 5449,
      "ेल": 5450,
      "ेला": 5451,
      "ेली": 5452,
      "ेव": 5453,
      "ेश": 5454,
      "ेशन": 5455,
      "ेशिया": 5456,
      "ेशिया\")": 5457,
      "ेश्वर": 5458,
      "ेष": 5459,
      "ेस": 5460,
      "ेस्ट": 5461,
      "ेहरा": 5462,
      "ेहराद": 5463,
      "ेहरादून": 5464,
      "ै": 5465,
      "ैंड": 5466,
      "ैक": 5467,
      "ैकमिल": 5468,
      "ैकमिलन": 5469,
      "ैजान": 5470,
      "ैथ": 5471,
      "ैथिल": 5472,
      "ैद": 5473,
      "ैदरा": 5474,
      "ैदराबाद": 5475,
      "ैदान": 5476,
      "ैदिक": 5477,
      "ैन": 5478,
      "ैनिक": 5479,
      "ैनी": 5480,
      "ैनीताल": 5481,
      "ैम्ब": 5482,
      "ैम्ब्रिज": 5483,
      "ैल": 5484,
      "ॉ": 5485,
      "ॉक": 5486,
      "ॉल": 5487,
      "ॊ": 5488,
      "ो": 5489,
      "ों": 5490,
      "ों_और": 5491,
      "ों_की_स": 5492,
      "ों_की_सूची": 5493,
      "ों_की_सूची?action=edit&redlink=1": 5494,
      "ोंक": 5495,
      "ोंकणी": 5496,
      "ोक": 5497,
      "ोकोस": 5498,
      "ोग": 5499,
      "ोगरी": 5500,
      "ोट": 5501,
      "ोटे": 5502,
      "ोड": 5503,
      "ोड़": 5504,
      "ोड़ा": 5505,
      "ोडो": 5506,
      "ोण": 5507,
      "ोणार्क": 5508,
      "ोत": 5509,
      "ोत्तर": 5510,
      "ोन": 5511,
      "ोने": 5512,
      "ोनेसिया": 5513,
      "ोब": 5514,
      "ोबार": 5515,
      "ोम": 5516,
      "ोमाल": 5517,
      "ोर": 5518,
      "ोर्": 5519,
      "ोर्ट": 5520,
      "ोर्ड": 5521,
      "ोर्न": 5522,
      "ोर्नो": 5523,
      "ोर्नो-": 5524,
      "ोर्नो-कार": 5525,
      "ोर्नो-कारा": 5526,
      "ोर्नो-काराबा": 5527,
      "ोर्नो-काराबाख": 5528,
      "ोल": 5529,
      "ोलका": 5530,
      "ोलकाता": 5531,
      "ोलन": 5532,
      "ोला": 5533,
      "ोलावी": 5534,
      "ोलावीरा": 5535,
      "ोली": 5536,
      "ोलॉ": 5537,
      "ोलॉग": 5538,
      "ोवियत": 5539,
      "ोष": 5540,
      "ोस": 5541,
      "ोहन": 5542,
      "ौ": 5543,
      "ौद्ध": 5544,
      "ौद्योगिक": 5545,
      "ौप": 5546,
      "ौपदी": 5547,
      "ौर": 5548,
      "ौर्य": 5549,
      "ौसेना": 5550,
      "्": 5551,
      "्ग": 5552,
      "्च": 5553,
      "्छ": 5554,
      "्ट": 5555,
      "्ड": 5556,
      "्त": 5557,
      "्तन": 5558,
      "्तनत": 5559,
      "्ता:": 5560,
      "्द": 5561,
      "्दि": 5562,
      "्दिभ": 5563,
      "्दिभ्स": 5564,
      "्म": 5565,
      "्य": 5566,
      "्यट": 5567,
      "्यटन": 5568,
      "्यटन\")": 5569,
      "्यता": 5570,
      "्यपालिका": 5571,
      "्यव": 5572,
      "्यवस्था": 5573,
      "्या": 5574,
      "्यां": 5575,
      "्यांमार": 5576,
      "्याचल": 5577,
      "्याण्ड": 5578,
      "्यान": 5579,
      "्यानम": 5580,
      "्यानमार": 5581,
      "्यान्म": 5582,
      "्यान्मार": 5583,
      "्याल": 5584,
      "्यालेस्ट": 5585,
      "्यालेस्टाइ": 5586,
      "्यु": 5587,
      "्यूरो": 5588,
      "्यों": 5589,
      "्र": 5590,
      "्रम": 5591,
      "्रय": 5592,
      "्रह": 5593,
      "्रह्म": 5594,
      "्रह्मपु": 5595,
      "्रह्मपुत्र": 5596,
      "्रा": 5597,
      "्रां": 5598,
      "्रांति": 5599,
      "्रार": 5600,
      "्राष्ट्र": 5601,
      "्राष्ट्रिय": 5602,
      "्रिज": 5603,
      "्रिट": 5604,
      "्रिटिश": 5605,
      "्रिटिस": 5606,
      "्रिस": 5607,
      "्रिसम": 5608,
      "्रिसमस": 5609,
      "्री": 5610,
      "्रीका": 5611,
      "्रु": 5612,
      "्रुने": 5613,
      "्रुनेई": 5614,
      "्रे": 5615,
      "्रेणी": 5616,
      "्रो": 5617,
      "्रोत": 5618,
      "्रोत/": 5619,
      "्रोत/978": 5620,
      "्रोति": 5621,
      "्रोतिरी": 5622,
      "्ल": 5623,
      "्ला": 5624,
      "्लेट": 5625,
      "्व": 5626,
      "्वतंत्रता": 5627,
      "्वभ": 5628,
      "्वभौ": 5629,
      "्वभौम": 5630,
      "्वर": 5631,
      "्वरूप": 5632,
      "्वार": 5633,
      "्वीप": 5634,
      "्वे": 5635,
      "्ष": 5636,
      "्षेत्र": 5637,
      "्स": 5638,
      "्स्तान": 5639,
      "॔": 5640,
      "।": 5641,
      "।\n\n": 5642,
      "।[[": 5643,
      "०": 5644,
      "००": 5645,
      "०१": 5646,
      "१": 5647,
      "१८५७": 5648,
      "१९": 5649,
      "२": 5650,
      "२,": 5651,
      "२००": 5652,
      "२०१": 5653,
      "२६": 5654,
      "३": 5655,
      "४": 5656,
      "४.": 5657,
      "४०": 5658,
      "४२": 5659,
      "४७": 5660,
      "५": 5661,
      "५०": 5662,
      "६": 5663,
      "७": 5664,
      "८": 5665,
      "८५": 5666,
      "८५७": 5667,
      "९": 5668,
      "॰": 5669,
      "ం": 5670,
      "ం\")": 5671,
      "ం\"),": 5672,
      "ం,": 5673,
      "ం.": 5674,
      "ం:": 5675,
      "ం?action=edit&redlink=1": 5676,
      "ం](https://te.wikipedia.org/wiki/": 5677,
      "ం](https://te.wikipedia.org/wiki/అ": 5678,
      "ం](https://te.wikipedia.org/wiki/క": 5679,
      "ం](https://te.wikipedia.org/wiki/భారతీయ": 5680,
      "ంక": 5681,
      "ంకణి": 5682,
      "ంకేతి": 5683,
      "ంకేతిక": 5684,
      "ంగ": 5685,
      "ంగా": 5686,
      "ంగీ": 5687,
      "ంగీతం": 5688,
      "ంగో": 5689,
      "ంగ్": 5690,
      "ంగ్రె": 5691,
      "ంగ్లాదేశ్": 5692,
      "ంగ్లీ": 5693,
      "ంగ్లీషు": 5694,
      "ంగ్లీష్": 5695,
      "ంచ": 5696,
      "ంచి": 5697,
      "ంజా": 5698,
      "ంజాబ": 5699,
      "ంజాబ్": 5700,
      "ంట": 5701,
      "ంటర్నేషనల్": 5702,
      "ంటారు.": 5703,
      "ంటి": 5704,
      "ంటు": 5705,
      "ంటుంది.": 5706,
      "ంటో": 5707,
      "ండ": 5708,
      "ండమా": 5709,
      "ండమాన్": 5710,
      "ండర్": 5711,
      "ండా": 5712,
      "ండి": 5713,
      "ండిచ్చేరి": 5714,
      "ండియా": 5715,
      "ండీ": 5716,
      "ండీగఢ": 5717,
      "ండు": 5718,
      "ండో": 5719,
      "ండ్": 5720,
      "ండ్య": 5721,
      "ంత": 5722,
      "ంతం": 5723,
      "ంతాల": 5724,
      "ంతి": 5725,
      "ంతో": 5726,
      "ంద": 5727,
      "ంది": 5728,
      "ంది.": 5729,
      "ందిన": 5730,
      "ంద్ర": 5731,
      "ంధ": 5732,
      "ంధీ": 5733,
      "ంధు": 5734,
      "ంధ్రప్రదేశ్": 5735,
      "ంప": 5736,
      "ంపెనీ": 5737,
      "ంబ": 5738,
      "ంబంధ": 5739,
      "ంబే": 5740,
      "ంలో": 5741,
      "ంశ": 5742,
      "ంస్కృ": 5743,
      "ంస్కృతం": 5744,
      "ః": 5745,
      "అ": 5746,
      "ఆ": 5747,
      "ఆఫ్": 5748,
      "ఆఫ్ఘ": 5749,
      "ఆఫ్ఘనిస్తాన్": 5750,
      "ఆసియా": 5751,
      "ఆసియా\")": 5752,
      "ఇ": 5753,
      "ఈ": 5754,
      "ఉ": 5755,
      "ఋ": 5756,
      "ఎ": 5757,
      "ఎలక్టోరల్": 5758,
      "ఏ": 5759,
      "ఏప్రిల్": 5760,
      "ఐ": 5761,
      "ఒ": 5762,
      "ఒడి": 5763,
      "ఒలింప": 5764,
      "ఒలింపిక్": 5765,
      "ఓ": 5766,
      "ఔ": 5767,
      "క": 5768,
      "కత": 5769,
      "కళ": 5770,
      "కా": 5771,
      "కారం": 5772,
      "కాల": 5773,
      "కాశ్మీ": 5774,
      "కాహార": 5775,
      "కి": 5776,
      "కిస్తాన్": 5777,
      "కిస్థాన్": 5778,
      "కీ": 5779,
      "కీయ": 5780,
      "కు": 5781,
      "కుడు": 5782,
      "కూ": 5783,
      "కై": 5784,
      "కైవు": 5785,
      "కొ": 5786,
      "కో": 5787,
      "కోబార్": 5788,
      "కోవ": 5789,
      "క్": 5790,
      "క్క": 5791,
      "క్కి": 5792,
      "క్కు": 5793,
      "క్కువ": 5794,
      "క్ట": 5795,
      "క్తి": 5796,
      "క్య": 5797,
      "క్ర": 5798,
      "క్రమ": 5799,
      "క్ష": 5800,
      "క్షరాస్యత": 5801,
      "క్స్": 5802,
      "క్‌": 5803,
      "క్‌సభ": 5804,
      "ఖ": 5805,
      "ఖండ": 5806,
      "ఖో": 5807,
      "ఖ్య": 5808,
      "గ": 5809,
      "గం": 5810,
      "గంగా": 5811,
      "గఢ": 5812,
      "గణ": 5813,
      "గణతంత్ర": 5814,
      "గణతంత్ర_": 5815,
      "గణమన": 5816,
      "గర": 5817,
      "గర్": 5818,
      "గలు": 5819,
      "గష్టు": 5820,
      "గా": 5821,
      "గా,": 5822,
      "గాంధీ": 5823,
      "గి": 5824,
      "గిన": 5825,
      "గు": 5826,
      "గుజరా": 5827,
      "గుజరాత్": 5828,
      "గుప్": 5829,
      "గుప్త": 5830,
      "గుర్": 5831,
      "గువ": 5832,
      "గో": 5833,
      "గోళ": 5834,
      "గ్": 5835,
      "ఘ": 5836,
      "చ": 5837,
      "చల్": 5838,
      "చు": 5839,
      "చే": 5840,
      "చ్": 5841,
      "చ్చ": 5842,
      "చ్చు": 5843,
      "చ్చే": 5844,
      "చ్చేరి": 5845,
      "ఛ": 5846,
      "జ": 5847,
      "జన": 5848,
      "జనపద": 5849,
      "జరా": 5850,
      "జా": 5851,
      "జాత": 5852,
      "జాతీయ": 5853,
      "జాబితా": 5854,
      "జి": 5855,
      "జిల్": 5856,
      "జీ": 5857,
      "జీరియా": 5858,
      "జు": 5859,
      "జె": 5860,
      "జ్": 5861,
      "జ్ఞాన": 5862,
      "జ్య": 5863,
      "జ్యం": 5864,
      "ఞ": 5865,
      "ఞాన": 5866,
      "ట": 5867,
      "టక": 5868,
      "టన్": 5869,
      "టర్": 5870,
      "టా": 5871,
      "టాక్": 5872,
      "టి": 5873,
      "టిక": 5874,
      "టిబె": 5875,
      "టిబెట్": 5876,
      "టిలో": 5877,
      "టీ": 5878,
      "టు": 5879,
      "టుంబ": 5880,
      "టె": 5881,
      "టెక్": 5882,
      "టెక్నాలజీ": 5883,
      "టెడ్": 5884,
      "ట్": 5885,
      "ట్ట": 5886,
      "ట్టు": 5887,
      "ట్టుపూర్వోత్తర": 5888,
      "ట్రో": 5889,
      "ట్లాడే": 5890,
      "ట్లు": 5891,
      "ఠ": 5892,
      "డ": 5893,
      "డమ": 5894,
      "డా": 5895,
      "డామన్": 5896,
      "డి": 5897,
      "డిన": 5898,
      "డిప": 5899,
      "డియా": 5900,
      "డు": 5901,
      "డుకు": 5902,
      "డే": 5903,
      "డో": 5904,
      "డ్": 5905,
      "డ్డ": 5906,
      "ఢ": 5907,
      "ఢాకా": 5908,
      "ఢిల్లీ": 5909,
      "ణ": 5910,
      "ణంగా": 5911,
      "ణా": 5912,
      "ణాసియా": 5913,
      "ణి": 5914,
      "ణిపూర్": 5915,
      "ణే": 5916,
      "త": 5917,
      "తం": 5918,
      "తం\")": 5919,
      "తం?action=edit&redlink=1": 5920,
      "తంత్ర": 5921,
      "తక": 5922,
      "తమిళ": 5923,
      "తమిళనాడు": 5924,
      "తము": 5925,
      "తము\")": 5926,
      "తర": 5927,
      "తా": 5928,
      "తాక": 5929,
      "తాజ్": 5930,
      "తాజ్‌మహల్": 5931,
      "తాబ్ద": 5932,
      "తావరణ": 5933,
      "తి": 5934,
      "తి\")": 5935,
      "తి](https://te.wikipedia.org/wiki/": 5936,
      "తిశీ": 5937,
      "తీ": 5938,
      "తు": 5939,
      "తున్న": 5940,
      "తూర్పు": 5941,
      "తెలంగాణ": 5942,
      "తెలుగు": 5943,
      "తే": 5944,
      "తై": 5945,
      "తో": 5946,
      "త్": 5947,
      "త్త": 5948,
      "త్తర": 5949,
      "త్తరా": 5950,
      "త్తీస్": 5951,
      "త్య": 5952,
      "త్యేక": 5953,
      "త్ర": 5954,
      "త్రి": 5955,
      "త్రిక": 5956,
      "త్రిపుర": 5957,
      "త్వ": 5958,
      "త్వా": 5959,
      "త్స": 5960,
      "థ": 5961,
      "థారిటీ": 5962,
      "ద": 5963,
      "దక్ష": 5964,
      "దక్షి": 5965,
      "దక్షిణ": 5966,
      "దక్షిణ_": 5967,
      "దక్షిణ_ఆసియా": 5968,
      "దక్షిణాసియా": 5969,
      "దరంగ": 5970,
      "దా": 5971,
      "దాద్రా": 5972,
      "దాయ": 5973,
      "దావరి": 5974,
      "ది": 5975,
      "ది.": 5976,
      "దిన": 5977,
      "దినోత్స": 5978,
      "దీ": 5979,
      "దీవ": 5980,
      "దు": 5981,
      "దే": 5982,
      "దేశ": 5983,
      "దేశం": 5984,
      "దేశాల": 5985,
      "దేశాలు": 5986,
      "దేశ్": 5987,
      "ద్": 5988,
      "ద్ద": 5989,
      "ద్ధ": 5990,
      "ద్ధం": 5991,
      "ద్ధి": 5992,
      "ద్య": 5993,
      "ద్యు": 5994,
      "ద్యుత్": 5995,
      "ద్ర": 5996,
      "ద్రా": 5997,
      "ద్వీ": 5998,
      "ధ": 5999,
      "ధాన": 6000,
      "ధి": 6001,
      "ధిక": 6002,
      "ధ్య": 6003,
      "న": 6004,
      "నంద": 6005,
      "నల్": 6006,
      "నా": 6007,
      "నాగ": 6008,
      "నాగరికత": 6009,
      "నాగాలాండ": 6010,
      "నాట": 6011,
      "నాట్య": 6012,
      "నాడు": 6013,
      "నాథ": 6014,
      "నాభా": 6015,
      "నాయ": 6016,
      "నాయక": 6017,
      "నాల": 6018,
      "నాలజీ": 6019,
      "నాలు": 6020,
      "ని": 6021,
      "నిక": 6022,
      "నికి": 6023,
      "నిడ్": 6024,
      "నిమా": 6025,
      "నియన్": 6026,
      "నియా": 6027,
      "నిస్తాన్": 6028,
      "నీ": 6029,
      "ను": 6030,
      "నుమ": 6031,
      "నే": 6032,
      "నేపాల": 6033,
      "నేపాల్": 6034,
      "నేషనల్": 6035,
      "నేషియా": 6036,
      "నై": 6037,
      "నో": 6038,
      "న్": 6039,
      "న్\")": 6040,
      "న్](https://te.wikipedia.org/wiki/": 6041,
      "న్క": 6042,
      "న్న": 6043,
      "న్నడ": 6044,
      "న్నాయ": 6045,
      "న్నాయి.": 6046,
      "న్ని": 6047,
      "న్నిక": 6048,
      "న్నో": 6049,
      "న్‌": 6050,
      "న్‌ఫ": 6051,
      "న్‌ఫర్మేషన్": 6052,
      "ప": 6053,
      "పంచ": 6054,
      "పతి": 6055,
      "పద": 6056,
      "పా": 6057,
      "పాకిస్తాన్": 6058,
      "పాల": 6059,
      "పాలన": 6060,
      "పాలిటన్": 6061,
      "పు": 6062,
      "పుర": 6063,
      "పూ": 6064,
      "పూ.": 6065,
      "పూర్": 6066,
      "పూర్వోత్తర": 6067,
      "పై": 6068,
      "ప్": 6069,
      "ప్ప": 6070,
      "ప్పటిక": 6071,
      "ప్ర": 6072,
      "ప్రత్యేక": 6073,
      "ప్రత్యేక:": 6074,
      "ప్రత్యేక:E": 6075,
      "ప్రత్యేక:Edit": 6076,
      "ప్రత్యేక:EditP": 6077,
      "ప్రత్యేక:EditPage": 6078,
      "ప్రత్యేక:EditPage/": 6079,
      "ప్రత్యేక:EditPage/మూస:": 6080,
      "ప్రదాయ": 6081,
      "ప్రదాయాలు": 6082,
      "ప్రదేశ్": 6083,
      "ప్రధాన": 6084,
      "ప్రధానమంత్రి": 6085,
      "ప్రధానమంత్రి](https://te.wikipedia.org/wiki/": 6086,
      "ప్రధానమంత్రి](https://te.wikipedia.org/wiki/ప్రధానమంత్రి": 6087,
      "ప్రపంచ": 6088,
      "ప్రపంచము": 6089,
      "ప్రిల్": 6090,
      "ఫ": 6091,
      "ఫ్": 6092,
      "బ": 6093,
      "బడ": 6094,
      "బడింది.": 6095,
      "బడిన": 6096,
      "బడ్డ": 6097,
      "బడ్డీ": 6098,
      "బర్": 6099,
      "బా": 6100,
      "బాదు": 6101,
      "బాద్": 6102,
      "బార్": 6103,
      "బి": 6104,
      "బితా": 6105,
      "బె": 6106,
      "బెంగ": 6107,
      "బెంగాల": 6108,
      "బెంగాలీ": 6109,
      "బెంగాల్": 6110,
      "బై": 6111,
      "బ్": 6112,
      "బ్ద": 6113,
      "భ": 6114,
      "భర": 6115,
      "భరత": 6116,
      "భా": 6117,
      "భార": 6118,
      "భారత": 6119,
      "భారత_": 6120,
      "భారతదేశ": 6121,
      "భారతదేశ_": 6122,
      "భారతదేశ_రాష్ట్రాలు,_కేంద్రపాలిత_ప్రాంత": 6123,
      "భారతదేశ_రాష్ట్రాలు,_కేంద్రపాలిత_ప్రాంతాలు": 6124,
      "భారతదేశం": 6125,
      "భారతదేశం\nCategory:": 6126,
      "భారతీయ": 6127,
      "భాష": 6128,
      "భి": 6129,
      "భిన్న": 6130,
      "భూ": 6131,
      "భూట": 6132,
      "భూటాన్": 6133,
      "మ": 6134,
      "మం": 6135,
      "మంత్రి": 6136,
      "మన": 6137,
      "మన్": 6138,
      "మర": 6139,
      "మల": 6140,
      "మహ": 6141,
      "మా": 6142,
      "మాఖ్య": 6143,
      "మాతర": 6144,
      "మాతరం": 6145,
      "మాన": 6146,
      "మార్": 6147,
      "మి": 6148,
      "మించ": 6149,
      "మిజ": 6150,
      "మిజో": 6151,
      "మిజోరా": 6152,
      "మిళ": 6153,
      "మీ": 6154,
      "ము": 6155,
      "ము\")": 6156,
      "ముంబ": 6157,
      "ముంబై": 6158,
      "ముఖ్య": 6159,
      "ముద్ర": 6160,
      "మూస:": 6161,
      "మె": 6162,
      "మెరి": 6163,
      "మెరికా": 6164,
      "మే": 6165,
      "మై": 6166,
      "మైన": 6167,
      "మైనది.": 6168,
      "మ్": 6169,
      "మ్మ": 6170,
      "మ్మూ": 6171,
      "మ్మూ_": 6172,
      "మ్మూ_కాశ్మీ": 6173,
      "మ్య": 6174,
      "మ్రా": 6175,
      "మ్రాజ్య": 6176,
      "మ్రాజ్యం": 6177,
      "య": 6178,
      "యం": 6179,
      "యన": 6180,
      "యన్": 6181,
      "యన్మార్": 6182,
      "యా": 6183,
      "యాలో": 6184,
      "యి": 6185,
      "యి.": 6186,
      "యు": 6187,
      "యుగ": 6188,
      "యుద్ధం": 6189,
      "యునై": 6190,
      "యునైటెడ్": 6191,
      "యూ": 6192,
      "యె": 6193,
      "యో": 6194,
      "య్య": 6195,
      "య్యూ": 6196,
      "ర": 6197,
      "రంగ": 6198,
      "రణ": 6199,
      "రా": 6200,
      "రాజ": 6201,
      "రాజస్థాన్": 6202,
      "రాజ్య": 6203,
      "రాజ్యం": 6204,
      "రాఠ": 6205,
      "రాన్": 6206,
      "రాష్ట్ర": 6207,
      "రాష్ట్రపతి": 6208,
      "రాష్ట్రాలు,": 6209,
      "రాష్ట్రాలు,_క": 6210,
      "రాష్ట్రాలు,_కేంద్రపాలిత_ప్రాంత": 6211,
      "రాస్యత": 6212,
      "రి": 6213,
      "రించ": 6214,
      "రికత": 6215,
      "రిజ": 6216,
      "రిత్ర": 6217,
      "రియా": 6218,
      "రిహ": 6219,
      "రిహద్": 6220,
      "రిహద్దు": 6221,
      "రీ": 6222,
      "రీక్ష": 6223,
      "రు": 6224,
      "రుగు": 6225,
      "రుగుబా": 6226,
      "రుగుబాటు": 6227,
      "రుణా": 6228,
      "రుణాచల్": 6229,
      "రుపు": 6230,
      "రువా": 6231,
      "రె": 6232,
      "రే": 6233,
      "రేడు": 6234,
      "రేబి": 6235,
      "రేబియా": 6236,
      "రో": 6237,
      "రోపా": 6238,
      "ర్": 6239,
      "ర్\")": 6240,
      "ర్కొ": 6241,
      "ర్చ": 6242,
      "ర్చ:": 6243,
      "ర్జె": 6244,
      "ర్ణా": 6245,
      "ర్ణాటక": 6246,
      "ర్ద": 6247,
      "ర్దూ": 6248,
      "ర్ధిక": 6249,
      "ర్నేషనల్": 6250,
      "ర్మే": 6251,
      "ర్మేషన్": 6252,
      "ర్య": 6253,
      "ర్యా": 6254,
      "ర్యానా": 6255,
      "ర్లు": 6256,
      "ర్వ": 6257,
      "ర్వోత్తర": 6258,
      "ర్ష": 6259,
      "ర్‌": 6260,
      "ల": 6261,
      "లం": 6262,
      "లంక": 6263,
      "లకు": 6264,
      "లక్ట": 6265,
      "లక్టోరల్": 6266,
      "లక్ష": 6267,
      "లక్షద్వీ": 6268,
      "లక్షద్వీప్": 6269,
      "లడ": 6270,
      "లడఖ": 6271,
      "లతో": 6272,
      "లను": 6273,
      "లయా": 6274,
      "లయాళ": 6275,
      "లలో": 6276,
      "లస": 6277,
      "లా": 6278,
      "లాడే": 6279,
      "లాదేశ్": 6280,
      "లాహోర్": 6281,
      "లి": 6282,
      "లింప": 6283,
      "లియా": 6284,
      "లీ": 6285,
      "లు": 6286,
      "లు\")": 6287,
      "లు?action=edit&redlink=1": 6288,
      "లు](https://te.wikipedia.org/wiki/": 6289,
      "లుపు": 6290,
      "లె": 6291,
      "లే": 6292,
      "లేషియా": 6293,
      "లో": 6294,
      "లో](https://te.wikipedia.org/wiki/": 6295,
      "లోక్‌సభ": 6296,
      "లోన్": 6297,
      "లోమీ": 6298,
      "లోయ": 6299,
      "ల్": 6300,
      "ల్ప": 6301,
      "ల్ల": 6302,
      "ల్లవ": 6303,
      "ల్లో": 6304,
      "ల్వే": 6305,
      "ళ": 6306,
      "ళా": 6307,
      "ళి": 6308,
      "ళు": 6309,
      "ళ్": 6310,
      "ళ్ళ": 6311,
      "వ": 6312,
      "వ](https://te.wikipedia.org/wiki/List_of_countries": 6313,
      "వ](https://te.wikipedia.org/wiki/List_of_countries_and_d": 6314,
      "వ](https://te.wikipedia.org/wiki/List_of_countries_and_dependencies": 6315,
      "వ](https://te.wikipedia.org/wiki/List_of_countries_and_dependencies_by": 6316,
      "వ](https://te.wikipedia.org/wiki/List_of_countries_by": 6317,
      "వ](https://te.wikipedia.org/wiki/List_of_countries_by_G": 6318,
      "వ](https://te.wikipedia.org/wiki/List_of_countries_by_GDP": 6319,
      "వ](https://te.wikipedia.org/wiki/List_of_countries_by_GDP_(": 6320,
      "వం": 6321,
      "వందే": 6322,
      "వంశ": 6323,
      "వంశం": 6324,
      "వత్రిక": 6325,
      "వర": 6326,
      "వరణ": 6327,
      "వరి": 6328,
      "వర్": 6329,
      "వర్గ": 6330,
      "వర్గం:": 6331,
      "వర్గం:Harv": 6332,
      "వర్ష": 6333,
      "వా": 6334,
      "వాణా": 6335,
      "వాతంత్ర": 6336,
      "వాతంత్ర్య": 6337,
      "వాతావరణ": 6338,
      "వాద": 6339,
      "వార": 6340,
      "వార్": 6341,
      "వాహన": 6342,
      "వి": 6343,
      "వి.": 6344,
      "విజ": 6345,
      "వీ": 6346,
      "వు": 6347,
      "వె": 6348,
      "వెను": 6349,
      "వే": 6350,
      "వేద": 6351,
      "వేలీ": 6352,
      "వై": 6353,
      "వో": 6354,
      "శ": 6355,
      "శ.": 6356,
      "శా": 6357,
      "శాఖ": 6358,
      "శాస్త్ర": 6359,
      "శీ": 6360,
      "శు": 6361,
      "శో": 6362,
      "శోకుడు": 6363,
      "శ్చి": 6364,
      "శ్చిమ": 6365,
      "శ్మీ": 6366,
      "శ్రమ": 6367,
      "శ్రీ": 6368,
      "శ్రీలంక": 6369,
      "శ్వ": 6370,
      "శ్వా": 6371,
      "శ్వాస": 6372,
      "ష": 6373,
      "షనల్": 6374,
      "షన్": 6375,
      "షా": 6376,
      "షి": 6377,
      "షియా": 6378,
      "షు": 6379,
      "ష్": 6380,
      "ష్ట": 6381,
      "ష్టు": 6382,
      "ష్ట్ర": 6383,
      "ష్ణ": 6384,
      "స": 6385,
      "సభ": 6386,
      "సా": 6387,
      "సా.శ.": 6388,
      "సార్": 6389,
      "సి": 6390,
      "సింగ్": 6391,
      "సింది.": 6392,
      "సిన": 6393,
      "సియా": 6394,
      "సు": 6395,
      "స్": 6396,
      "స్\")": 6397,
      "స్?action=edit&redlink=1": 6398,
      "స్](https://te.wikipedia.org/wiki/": 6399,
      "స్క": 6400,
      "స్కరణ": 6401,
      "స్కృ": 6402,
      "స్కృతి": 6403,
      "స్ట": 6404,
      "స్ట్": 6405,
      "స్త": 6406,
      "స్తా": 6407,
      "స్తాన్": 6408,
      "స్తారు": 6409,
      "స్తు": 6410,
      "స్త్ర": 6411,
      "స్త్రం:": 6412,
      "స్థ": 6413,
      "స్థాన్": 6414,
      "స్య": 6415,
      "స్యత": 6416,
      "స్రా": 6417,
      "స్లా": 6418,
      "స్లాం": 6419,
      "స్లామా": 6420,
      "స్లామాబాద్": 6421,
      "స్వ": 6422,
      "స్వతంత్ర": 6423,
      "స్వా": 6424,
      "స్వాతంత్ర్య": 6425,
      "స్వామ్య": 6426,
      "స్స": 6427,
      "స్సా": 6428,
      "హ": 6429,
      "హక": 6430,
      "హకార": 6431,
      "హద": 6432,
      "హదార": 6433,
      "హన": 6434,
      "హా": 6435,
      "హాకీ": 6436,
      "హాత్": 6437,
      "హాత్మా": 6438,
      "హాయ": 6439,
      "హాయం:": 6440,
      "హార": 6441,
      "హారాష్ట్ర": 6442,
      "హాస": 6443,
      "హాసముద్ర": 6444,
      "హి": 6445,
      "హింద": 6446,
      "హిందీ": 6447,
      "హిందూ": 6448,
      "హిత": 6449,
      "హిమ": 6450,
      "హిమా": 6451,
      "హిమాచల్": 6452,
      "హిమాలయ": 6453,
      "హిమాలయాలు": 6454,
      "హు": 6455,
      "హోర్": 6456,
      "హ్": 6457,
      "హ్మ": 6458,
      "ా": 6459,
      "ాంగ": 6460,
      "ాకా": 6461,
      "ాన": 6462,
      "ానికి": 6463,
      "ాన్": 6464,
      "ాయ": 6465,
      "ాయి": 6466,
      "ాయి.": 6467,
      "ార": 6468,
      "ారం": 6469,
      "ారస": 6470,
      "ారస్వ": 6471,
      "ారి": 6472,
      "ారిగా": 6473,
      "ారిటీ": 6474,
      "ారు": 6475,
      "ారు.": 6476,
      "ారు.\n\n": 6477,
      "ార్": 6478,
      "ార్ఖండ": 6479,
      "ార్టీ": 6480,
      "ార్థ": 6481,
      "ార్ల": 6482,
      "ార్లమె": 6483,
      "ార్లమెంట": 6484,
      "ాల": 6485,
      "ాలను": 6486,
      "ాలయ": 6487,
      "ాలలో": 6488,
      "ాలా": 6489,
      "ాలాండ": 6490,
      "ాలు": 6491,
      "ాలు\n\n": 6492,
      "ాలు\n\n-": 6493,
      "ాలు\n\nప్రధాన": 6494,
      "ాలు\")": 6495,
      "ాలు\")\n-": 6496,
      "ాలు,": 6497,
      "ాలు?action=edit&redlink=1": 6498,
      "ాలు](https://te.wikipedia.org/wiki/": 6499,
      "ాలుగా": 6500,
      "ాలె": 6501,
      "ాలో": 6502,
      "ాల్": 6503,
      "ాల్దీవ": 6504,
      "ాల్దీవులు": 6505,
      "ాల్లో": 6506,
      "ాళు": 6507,
      "ాళుక్య": 6508,
      "ాష్ట్ర": 6509,
      "ి": 6510,
      "ి.": 6511,
      "ించ": 6512,
      "ించింది.": 6513,
      "ించిన": 6514,
      "ింద": 6515,
      "ింది.": 6516,
      "ిక": 6517,
      "ిక,": 6518,
      "ికలు": 6519,
      "ికి": 6520,
      "ిక్": 6521,
      "ిటన్": 6522,
      "ిత": 6523,
      "ిన": 6524,
      "ిలి": 6525,
      "ిలీ": 6526,
      "ిల్": 6527,
      "ిల్లీ": 6528,
      "ీ": 6529,
      "ీ;": 6530,
      "ీ](https://te.wikipedia.org/wiki/": 6531,
      "ీక": 6532,
      "ీకరణ": 6533,
      "ీఠ": 6534,
      "ీన": 6535,
      "ీయ": 6536,
      "ీర": 6537,
      "ీర్": 6538,
      "ీర్ణ": 6539,
      "ీలు": 6540,
      "ీస్": 6541,
      "ీహ": 6542,
      "ీహార్": 6543,
      "ు": 6544,
      "ుకు": 6545,
      "ుప్ర": 6546,
      "ుప్రీ": 6547,
      "ుప్రీం": 6548,
      "ుమ": 6549,
      "ుల": 6550,
      "ులు": 6551,
      "ులు\")": 6552,
      "ులు\"),": 6553,
      "ులు,": 6554,
      "ులు?action=edit&redlink=1": 6555,
      "ులు](https://te.wikipedia.org/wiki/": 6556,
      "ుల్": 6557,
      "ుల్తా": 6558,
      "ుల్తాన": 6559,
      "ువు": 6560,
      "ూ": 6561,
      "ూచ": 6562,
      "ూచి": 6563,
      "ూప": 6564,
      "ూపా": 6565,
      "ూరు": 6566,
      "ూర్": 6567,
      "ూర్పు": 6568,
      "ూస": 6569,
      "ూస:": 6570,
      "ృ": 6571,
      "ృత్య": 6572,
      "ృద్ధి": 6573,
      "ృష్": 6574,
      "ృష్ణా": 6575,
      "ె": 6576,
      "ెగ": 6577,
      "ెట్": 6578,
      "ెట్రో": 6579,
      "ెద్ద": 6580,
      "ెన": 6581,
      "ెనీ": 6582,
      "ెన్న": 6583,
      "ెన్నై": 6584,
      "ెర్": 6585,
      "ెల": 6586,
      "ెలంగా": 6587,
      "ెలంగాణ": 6588,
      "ెలవు": 6589,
      "ెలవుదిన": 6590,
      "ెలు": 6591,
      "ెలుగు": 6592,
      "ెహ": 6593,
      "ే": 6594,
      "ే,": 6595,
      "ేంద్ర": 6596,
      "ేంద్రపాల": 6597,
      "ేంద్రపాలిత": 6598,
      "ేంద్రపాలిత_ప్రా": 6599,
      "ేంద్రపాలిత_ప్రాంత": 6600,
      "ేక": 6601,
      "ేఘ": 6602,
      "ేఘాలయ": 6603,
      "ేజి": 6604,
      "ేతి": 6605,
      "ేన": 6606,
      "ేర": 6607,
      "ేరళ": 6608,
      "ై": 6609,
      "ైద": 6610,
      "ైదరా": 6611,
      "ైన": 6612,
      "ైనా": 6613,
      "ైనిక": 6614,
      "ొ": 6615,
      "ొగలు": 6616,
      "ొయ": 6617,
      "ో": 6618,
      "ోత్తర": 6619,
      "ోత్స": 6620,
      "ోర": 6621,
      "ోరల్": 6622,
      "ోర్": 6623,
      "ోర్చు": 6624,
      "ోర్చుగ": 6625,
      "ోల్": 6626,
      "ోల్‌కాతా": 6627,
      "ోళ": 6628,
      "ౌ": 6629,
      "ౌక": 6630,
      "ౌద్ధ": 6631,
      "ౌర": 6632,
      "ౌర్య": 6633,
      "్": 6634,
      "్\")": 6635,
      "్](https://te.wikipedia.org/wiki/": 6636,
      "్చ": 6637,
      "్చి": 6638,
      "్ట": 6639,
      "్టీ": 6640,
      "్మ": 6641,
      "్మీ": 6642,
      "్య": 6643,
      "్యం": 6644,
      "్యవ": 6645,
      "్యవస్థ": 6646,
      "్యా": 6647,
      "్యాయ": 6648,
      "్యాలె": 6649,
      "్ర": 6650,
      "్రప్రదేశ్": 6651,
      "్రమ": 6652,
      "్రా": 6653,
      "్రాన్": 6654,
      "్రామ": 6655,
      "్రి": 6656,
      "్రిటి": 6657,
      "్రిటిషు": 6658,
      "్రిటిష్": 6659,
      "్రీ": 6660,
      "్రీ.": 6661,
      "్రీ.పూ.": 6662,
      "్రీడ": 6663,
      "్రూ": 6664,
      "్రె": 6665,
      "్రే": 6666,
      "్రై": 6667,
      "్రైస్త": 6668,
      "్రైస్తవ": 6669,
      "్రో": 6670,
      "్వ": 6671,
      "్వా": 6672,
      "్వాల్": 6673,
      "ṅ": 6674,
      "ṇ": 6675,
      "Ṛ": 6676,
      "ṣ": 6677,
      "ṭ": 6678,
      "Ἰ": 6679,
      "‌": 6680,
      "‌కా": 6681,
      "‌కాతా": 6682,
      "‌మహ": 6683,
      "‌మహల్": 6684,
      "‌స": 6685,
      "‍": 6686,
      "‎": 6687,
      "–": 6688,
      "–1": 6689,
      "–10": 6690,
      "–11": 6691,
      "–119": 6692,
      "–120": 6693,
      "–123": 6694,
      "–17": 6695,
      "–18": 6696,
      "–19": 6697,
      "–24": 6698,
      "–4": 6699,
      "–70": 6700,
      "–Pakistan": 6701,
      "–సా.శ.": 6702,
      "–సా.శ.1": 6703,
      "–సా.శ.13": 6704,
      "–సా.శ.14": 6705,
      "–సా.శ.159": 6706,
      "–సా.శ.18": 6707,
      "–సా.శ.19": 6708,
      "–సా.శ.1947)": 6709,
      "–సా.శ.6": 6710,
      "–సా.శ.పూ.": 6711,
      "–సా.శ.పూ.3": 6712,
      "—": 6713,
      "‘": 6714,
      "’": 6715,
      "“": 6716,
      "”": 6717,
      "†": 6718,
      "•": 6719,
      "′": 6720,
      "‹": 6721,
      "›": 6722,
      "⁡": 6723,
      "₹": 6724,
      "↑": 6725,
      "−": 6726,
      "▁": 6727,
      "▁\"": 6728,
      "▁\"A": 6729,
      "▁\"An": 6730,
      "▁\"Andaman": 6731,
      "▁\"Austral": 6732,
      "▁\"B": 6733,
      "▁\"BRICS": 6734,
      "▁\"Bangladesh": 6735,
      "▁\"Bengal": 6736,
      "▁\"British": 6737,
      "▁\"C": 6738,
      "▁\"Cambridge": 6739,
      "▁\"Category:": 6740,
      "▁\"Central": 6741,
      "▁\"Ch": 6742,
      "▁\"Chin": 6743,
      "▁\"China\")": 6744,
      "▁\"Chola": 6745,
      "▁\"Climate": 6746,
      "▁\"D": 6747,
      "▁\"Delhi": 6748,
      "▁\"Doi": 6749,
      "▁\"E": 6750,
      "▁\"East": 6751,
      "▁\"Economic": 6752,
      "▁\"Economy": 6753,
      "▁\"Ethnic": 6754,
      "▁\"F": 6755,
      "▁\"Foreign": 6756,
      "▁\"G": 6757,
      "▁\"Ge": 6758,
      "▁\"Government": 6759,
      "▁\"H": 6760,
      "▁\"Hinduism": 6761,
      "▁\"History": 6762,
      "▁\"I": 6763,
      "▁\"ISBN": 6764,
      "▁\"In": 6765,
      "▁\"Ind": 6766,
      "▁\"India": 6767,
      "▁\"Indian": 6768,
      "▁\"Indo-": 6769,
      "▁\"Indus": 6770,
      "▁\"International": 6771,
      "▁\"J": 6772,
      "▁\"K": 6773,
      "▁\"L": 6774,
      "▁\"List": 6775,
      "▁\"M": 6776,
      "▁\"Ministry": 6777,
      "▁\"Mughal": 6778,
      "▁\"N": 6779,
      "▁\"National": 6780,
      "▁\"New": 6781,
      "▁\"O": 6782,
      "▁\"Official": 6783,
      "▁\"Oxford": 6784,
      "▁\"P": 6785,
      "▁\"Pakistan": 6786,
      "▁\"Pal": 6787,
      "▁\"Portal:": 6788,
      "▁\"R": 6789,
      "▁\"Re": 6790,
      "▁\"Routledge": 6791,
      "▁\"Routledge\").": 6792,
      "▁\"Russia": 6793,
      "▁\"Russia\")": 6794,
      "▁\"S": 6795,
      "▁\"SAARC": 6796,
      "▁\"Sanskrit": 6797,
      "▁\"South": 6798,
      "▁\"Special:BookSources/978": 6799,
      "▁\"Special:BookSources/978-0-": 6800,
      "▁\"Special:BookSources/978-0-19": 6801,
      "▁\"Special:BookSources/978-0-521": 6802,
      "▁\"Special:BookSources/978-1": 6803,
      "▁\"Special:BookSources/978-81": 6804,
      "▁\"Special:EditPage/Template:": 6805,
      "▁\"Sri": 6806,
      "▁\"T": 6807,
      "▁\"Tamil": 6808,
      "▁\"Template": 6809,
      "▁\"Template:": 6810,
      "▁\"The": 6811,
      "▁\"U": 6812,
      "▁\"United": 6813,
      "▁\"V": 6814,
      "▁\"W": 6815,
      "▁\"World": 6816,
      "▁\"Y": 6817,
      "▁\"[": 6818,
      "▁\"अ": 6819,
      "▁\"अंग्रेज़ी": 6820,
      "▁\"आ": 6821,
      "▁\"इ": 6822,
      "▁\"उ": 6823,
      "▁\"उत्तर": 6824,
      "▁\"उर्दू": 6825,
      "▁\"ओ": 6826,
      "▁\"क": 6827,
      "▁\"का": 6828,
      "▁\"कु": 6829,
      "▁\"ख": 6830,
      "▁\"ग": 6831,
      "▁\"गुजरात": 6832,
      "▁\"गुजरात\")": 6833,
      "▁\"च": 6834,
      "▁\"ची": 6835,
      "▁\"ज": 6836,
      "▁\"जम्मू": 6837,
      "▁\"ड": 6838,
      "▁\"तमिल": 6839,
      "▁\"द": 6840,
      "▁\"दक्षिण": 6841,
      "▁\"दिल्ली\")": 6842,
      "▁\"न": 6843,
      "▁\"नेपाल": 6844,
      "▁\"प": 6845,
      "▁\"पंजाब": 6846,
      "▁\"पंजाबी": 6847,
      "▁\"पाकिस्तान": 6848,
      "▁\"पाकिस्तान\")": 6849,
      "▁\"पु": 6850,
      "▁\"पूर्वी": 6851,
      "▁\"प्र": 6852,
      "▁\"ब": 6853,
      "▁\"बांग्ला": 6854,
      "▁\"ब्रिटिश": 6855,
      "▁\"भारत": 6856,
      "▁\"भारतक": 6857,
      "▁\"भारतीय": 6858,
      "▁\"म": 6859,
      "▁\"मध्य": 6860,
      "▁\"मराठ": 6861,
      "▁\"महाराष्ट्र": 6862,
      "▁\"महाराष्ट्र\")": 6863,
      "▁\"मुंबई": 6864,
      "▁\"य": 6865,
      "▁\"राजस्थान": 6866,
      "▁\"राजस्थान\")": 6867,
      "▁\"राष्ट्रीय": 6868,
      "▁\"ल": 6869,
      "▁\"व": 6870,
      "▁\"वि": 6871,
      "▁\"विशेष:EditPage/साँचा:": 6872,
      "▁\"विशेष:पुस्तक": 6873,
      "▁\"विश्व": 6874,
      "▁\"श": 6875,
      "▁\"श्रेणी:Harv": 6876,
      "▁\"स": 6877,
      "▁\"सं": 6878,
      "▁\"संयुक्त": 6879,
      "▁\"संस्कृत": 6880,
      "▁\"सा": 6881,
      "▁\"साँच": 6882,
      "▁\"साँचा": 6883,
      "▁\"साँचा:": 6884,
      "▁\"सिक्किम": 6885,
      "▁\"ह": 6886,
      "▁\"हिन्द": 6887,
      "▁\"हिन्दी\")": 6888,
      "▁\"हैदराबाद": 6889,
      "▁\"అ": 6890,
      "▁\"ఆ": 6891,
      "▁\"ఇ": 6892,
      "▁\"ఇండో": 6893,
      "▁\"ఇరా": 6894,
      "▁\"ఉ": 6895,
      "▁\"ఉత్తర": 6896,
      "▁\"ఒడి": 6897,
      "▁\"క": 6898,
      "▁\"కు": 6899,
      "▁\"గ": 6900,
      "▁\"గణతంత్ర": 6901,
      "▁\"గో": 6902,
      "▁\"చ": 6903,
      "▁\"చైనా": 6904,
      "▁\"జ": 6905,
      "▁\"జన": 6906,
      "▁\"జమ్మూ": 6907,
      "▁\"ఢిల్లీ": 6908,
      "▁\"ఢిల్లీ\")": 6909,
      "▁\"తమిళనాడు": 6910,
      "▁\"తూర్పు": 6911,
      "▁\"దక్షిణ": 6912,
      "▁\"ప": 6913,
      "▁\"పశ్చిమ": 6914,
      "▁\"పా": 6915,
      "▁\"పాకిస్తాన్": 6916,
      "▁\"ప్రత్యేక:EditPage/మూస:": 6917,
      "▁\"ప్రధానమంత్రి": 6918,
      "▁\"ప్రధానమంత్రి\")": 6919,
      "▁\"ప్రపంచ": 6920,
      "▁\"బ": 6921,
      "▁\"బంగ్లాదేశ్": 6922,
      "▁\"భారత": 6923,
      "▁\"భారతదేశ": 6924,
      "▁\"భారతదేశం": 6925,
      "▁\"భారతదేశంలో": 6926,
      "▁\"భారతీయ": 6927,
      "▁\"భూటాన్": 6928,
      "▁\"మ": 6929,
      "▁\"మధ్య": 6930,
      "▁\"ముంబై": 6931,
      "▁\"ముంబై\")": 6932,
      "▁\"మూస": 6933,
      "▁\"మూస:": 6934,
      "▁\"యునైటెడ్": 6935,
      "▁\"రాష్ట్ర": 6936,
      "▁\"వ": 6937,
      "▁\"వర్గం:Harv": 6938,
      "▁\"వి": 6939,
      "▁\"శ": 6940,
      "▁\"శ్రీలంక": 6941,
      "▁\"స": 6942,
      "▁\"సి": 6943,
      "▁\"హ": 6944,
      "▁\"హిందీ": 6945,
      "▁\"హిందూ": 6946,
      "▁$": 6947,
      "▁&": 6948,
      "▁'": 6949,
      "▁(": 6950,
      "▁(*": 6951,
      "▁(1):": 6952,
      "▁(1,": 6953,
      "▁(19": 6954,
      "▁(199": 6955,
      "▁(20": 6956,
      "▁(2003": 6957,
      "▁(2003).": 6958,
      "▁(2006": 6959,
      "▁(2006),": 6960,
      "▁(2006).": 6961,
      "▁(2007": 6962,
      "▁(2007).": 6963,
      "▁(201": 6964,
      "▁(2010": 6965,
      "▁(2010).": 6966,
      "▁(2014": 6967,
      "▁(2014).": 6968,
      "▁(2016).": 6969,
      "▁(2017).": 6970,
      "▁(2018": 6971,
      "▁(2018),": 6972,
      "▁(2018).": 6973,
      "▁(2019).": 6974,
      "▁(India)": 6975,
      "▁(India)\")": 6976,
      "▁(P": 6977,
      "▁(PDF": 6978,
      "▁(PDF)": 6979,
      "▁(PDF).": 6980,
      "▁(S": 6981,
      "▁([": 6982,
      "▁([he": 6983,
      "▁([hel": 6984,
      "▁([help": 6985,
      "▁([help](https://hi.wikipedia.org/wiki/": 6986,
      "▁([help](https://hi.wikipedia.org/wiki/श्रेणी:Harv": 6987,
      "▁([help](https://hi.wikipedia.org/wiki/श्रेणी:Harv_and": 6988,
      "▁([help](https://hi.wikipedia.org/wiki/श्रेणी:Harv_and_S": 6989,
      "▁([help](https://hi.wikipedia.org/wiki/श्रेणी:Harv_and_Sfn": 6990,
      "▁([help](https://hi.wikipedia.org/wiki/श्रेणी:Harv_and_Sfn_": 6991,
      "▁([help](https://hi.wikipedia.org/wiki/श्रेणी:Harv_and_Sfn_templa": 6992,
      "▁([help](https://hi.wikipedia.org/wiki/श्रेणी:Harv_and_Sfn_template_": 6993,
      "▁([help](https://hi.wikipedia.org/wiki/श्रेणी:Harv_and_Sfn_template_errors": 6994,
      "▁([help](https://hi.wikipedia.org/wiki/श्रेणी:Harv_and_Sfn_template_errors?action=edit&redlink=1": 6995,
      "▁([help](https://te.wikipedia.org/wiki/": 6996,
      "▁([help](https://te.wikipedia.org/wiki/వర్గం:Harv": 6997,
      "▁([help](https://te.wikipedia.org/wiki/వర్గం:Harv_and_S": 6998,
      "▁([help](https://te.wikipedia.org/wiki/వర్గం:Harv_and_Sfn": 6999,
      "▁([help](https://te.wikipedia.org/wiki/వర్గం:Harv_and_Sfn_": 7000,
      "▁([help](https://te.wikipedia.org/wiki/వర్గం:Harv_and_Sfn_templa": 7001,
      "▁([help](https://te.wikipedia.org/wiki/వర్గం:Harv_and_Sfn_template_": 7002,
      "▁([help](https://te.wikipedia.org/wiki/వర్గం:Harv_and_Sfn_template_errors": 7003,
      "▁(a)": 7004,
      "▁(b)": 7005,
      "▁(ed.).": 7006,
      "▁(eds.": 7007,
      "▁(eds.).": 7008,
      "▁(identifier)": 7009,
      "▁(identifier)\")": 7010,
      "▁(identifier)\"):": 7011,
      "▁(identifier)\"):[": 7012,
      "▁(identifier)\"):[10.": 7013,
      "▁(union": 7014,
      "▁(क": 7015,
      "▁(भारत": 7016,
      "▁(भारत)\")": 7017,
      "▁(సా.శ.": 7018,
      "▁(సా.శ.1": 7019,
      "▁(సా.శ.10": 7020,
      "▁(సా.శ.13": 7021,
      "▁(సా.శ.14": 7022,
      "▁(సా.శ.15": 7023,
      "▁(సా.శ.16": 7024,
      "▁(సా.శ.17": 7025,
      "▁(సా.శ.6": 7026,
      "▁(సా.శ.పూ.": 7027,
      "▁(సా.శ.పూ.1200": 7028,
      "▁(సా.శ.పూ.1200–సా.శ.పూ.": 7029,
      "▁(సా.శ.పూ.300": 7030,
      "▁*": 7031,
      "▁**": 7032,
      "▁**[": 7033,
      "▁**·": 7034,
      "▁**·**": 7035,
      "▁**జాతీయ": 7036,
      "▁*A": 7037,
      "▁*India": 7038,
      "▁*The": 7039,
      "▁*[": 7040,
      "▁*[A": 7041,
      "▁*[E": 7042,
      "▁*[The": 7043,
      "▁,": 7044,
      "▁-": 7045,
      "▁--": 7046,
      "▁---": 7047,
      "▁-15": 7048,
      "▁.": 7049,
      "▁...": 7050,
      "▁./": 7051,
      "▁./Category:": 7052,
      "▁./Category:Artic": 7053,
      "▁./Category:Articles\\_containing\\_": 7054,
      "▁./Category:P": 7055,
      "▁./Category:Pages": 7056,
      "▁./श्रेणी:": 7057,
      "▁./श्रेणी:CS1": 7058,
      "▁./श्रेणी:CS1\\_": 7059,
      "▁./श्रेणी:Harv": 7060,
      "▁./श्रेणी:Harv\\_": 7061,
      "▁./श्रेणी:Harv\\_and": 7062,
      "▁./श्रेणी:Harv\\_and\\_": 7063,
      "▁./श्रेणी:Harv\\_and\\_S": 7064,
      "▁./श्रेणी:Harv\\_and\\_Sfn": 7065,
      "▁./श्रेणी:Harv\\_and\\_Sfn\\_": 7066,
      "▁./श्रेणी:Harv\\_and\\_Sfn\\_no": 7067,
      "▁./श्रेणी:Harv\\_and\\_Sfn\\_no-t": 7068,
      "▁./श्रेणी:Harv\\_and\\_Sfn\\_no-target": 7069,
      "▁./श्रेणी:Harv\\_and\\_Sfn\\_no-target\\_errors": 7070,
      "▁./श्रेणी:Harv\\_and\\_Sfn\\_no-target\\_errors\n": 7071,
      "▁./श्रेणी:Harv\\_and\\_Sfn\\_no-target\\_errors\n6": 7072,
      "▁./श्रेणी:Harv\\_and\\_Sfn\\_no-target\\_errors\n7": 7073,
      "▁./श्रेणी:Harv\\_and\\_Sfn\\_no-target\\_errors\n8": 7074,
      "▁./श्रेणी:जान": 7075,
      "▁./श्रेणी:जानकार": 7076,
      "▁./श्रेणी:जानकारी": 7077,
      "▁./श्रेणी:जानकारीब": 7078,
      "▁./श्रेणी:जानकारीबौ": 7079,
      "▁./श्रेणी:जानकारीबौक": 7080,
      "▁./श्रेणी:जानकारीबौक्स": 7081,
      "▁./श्रेणी:जानकारीबौक्स\\_देश": 7082,
      "▁./श्रेणी:जानकारीबौक्स\\_देशमे\\_": 7083,
      "▁./श्रेणी:जानकारीबौक्स\\_देशमे\\_अ": 7084,
      "▁./श्रेणी:जानकारीबौक्स\\_देशमे\\_अज्ञ": 7085,
      "▁./श्रेणी:जानकारीबौक्स\\_देशमे\\_अज्ञात": 7086,
      "▁./श्रेणी:जानकारीबौक्स\\_देशमे\\_अज्ञात\\_मापदण्ड": 7087,
      "▁./श्रेणी:जानकारीबौक्स\\_देशमे\\_अज्ञात\\_मापदण्डसभ": 7088,
      "▁./श्रेणी:जानकारीबौक्स\\_देशमे\\_अज्ञात\\_मापदण्डसभ\\_सहितक\\_पृष्ठसभ#": 7089,
      "▁./श्रेणी:जानकारीबौक्स\\_देशमे\\_अज्ञात\\_मापदण्डसभ\\_सहितक\\_पृष्ठसभ#l": 7090,
      "▁./श्रेणी:जानकारीबौक्स\\_देशमे\\_अज्ञात\\_मापदण्डसभ\\_सहितक\\_पृष्ठसभ#la": 7091,
      "▁./श्रेणी:जानकारीबौक्स\\_देशमे\\_अज्ञात\\_मापदण्डसभ\\_सहितक\\_पृष्ठसभ#lat": 7092,
      "▁./श्रेणी:जानकारीबौक्स\\_देशमे\\_अज्ञात\\_मापदण्डसभ\\_सहितक\\_पृष्ठसभ#long": 7093,
      "▁./వర్గం:": 7094,
      "▁./వర్గం:Ar": 7095,
      "▁./వర్గం:Artic": 7096,
      "▁./వర్గం:Harv": 7097,
      "▁./వర్గం:Harv\\_": 7098,
      "▁./వర్గం:Harv\\_and": 7099,
      "▁./వర్గం:Harv\\_and\\_": 7100,
      "▁./వర్గం:Harv\\_and\\_S": 7101,
      "▁./వర్గం:Harv\\_and\\_Sfn": 7102,
      "▁./వర్గం:Harv\\_and\\_Sfn\\_": 7103,
      "▁./వర్గం:Harv\\_and\\_Sfn\\_no": 7104,
      "▁./వర్గం:Harv\\_and\\_Sfn\\_no-t": 7105,
      "▁./వర్గం:Harv\\_and\\_Sfn\\_no-target": 7106,
      "▁./వర్గం:Harv\\_and\\_Sfn\\_no-target\\_errors": 7107,
      "▁./వర్గం:Harv\\_and\\_Sfn\\_no-target\\_errors\n": 7108,
      "▁./వర్గం:P": 7109,
      "▁./వర్గం:Pages": 7110,
      "▁./వర్గం:Pages\\_": 7111,
      "▁./వర్గం:Pages\\_us": 7112,
      "▁./వర్గం:Pages\\_using\\_": 7113,
      "▁./వర్గం:Pages\\_using\\_infobox\\_": 7114,
      "▁./వర్గం:Pages\\_using\\_infobox\\_country": 7115,
      "▁./వర్గం:Wiki": 7116,
      "▁./వర్గం:Wikipedia": 7117,
      "▁./వర్గం:Wikipedia\\_": 7118,
      "▁./వర్గం:Wikipedia\\_artic": 7119,
      "▁./వర్గం:Wikipedia\\_articles\\_with\\_": 7120,
      "▁/": 7121,
      "▁0.": 7122,
      "▁1": 7123,
      "▁1,": 7124,
      "▁1.": 7125,
      "▁10": 7126,
      "▁11": 7127,
      "▁12": 7128,
      "▁1200": 7129,
      "▁13": 7130,
      "▁14": 7131,
      "▁14.": 7132,
      "▁15": 7133,
      "▁16": 7134,
      "▁17": 7135,
      "▁18": 7136,
      "▁19": 7137,
      "▁1947": 7138,
      "▁1949": 7139,
      "▁1950": 7140,
      "▁1960": 7141,
      "▁1962": 7142,
      "▁1965": 7143,
      "▁197": 7144,
      "▁1970": 7145,
      "▁1980": 7146,
      "▁199": 7147,
      "▁1994](https://en.wikipedia.org/wiki/India#CITEREF": 7148,
      "▁1994](https://en.wikipedia.org/wiki/India#CITEREFHarle1994": 7149,
      "▁1994](https://en.wikipedia.org/wiki/India#CITEREFHarle1994),": 7150,
      "▁1997](https://en.wikipedia.org/wiki/India#CITEREF": 7151,
      "▁1997](https://en.wikipedia.org/wiki/India#CITEREFCraven1997": 7152,
      "▁1997](https://en.wikipedia.org/wiki/India#CITEREFCraven1997),": 7153,
      "▁1998": 7154,
      "▁1998](https://hi.wikipedia.org/wiki/भारत#CITEREFS": 7155,
      "▁1998](https://hi.wikipedia.org/wiki/भारत#CITEREFStein1998": 7156,
      "▁1998](https://hi.wikipedia.org/wiki/भारत#CITEREFStein1998),": 7157,
      "▁2": 7158,
      "▁2,": 7159,
      "▁2.": 7160,
      "▁20": 7161,
      "▁200": 7162,
      "▁2000": 7163,
      "▁2001": 7164,
      "▁2001](https://en.wikipedia.org/wiki/India#CITEREF": 7165,
      "▁2003": 7166,
      "▁2003](https://en.wikipedia.org/wiki/India#CITEREF": 7167,
      "▁2004": 7168,
      "▁2004](https://hi.wikipedia.org/wiki/भारत#CITEREF": 7169,
      "▁2004](https://hi.wikipedia.org/wiki/भारत#CITEREFKulkeRothermund2004": 7170,
      "▁2004](https://hi.wikipedia.org/wiki/भारत#CITEREFKulkeRothermund2004),": 7171,
      "▁2005": 7172,
      "▁2005](https://en.wikipedia.org/wiki/India#CITEREF": 7173,
      "▁2006](https://en.wikipedia.org/wiki/India#CITEREF": 7174,
      "▁2006](https://en.wikipedia.org/wiki/India#CITEREFAsherTalbot": 7175,
      "▁2006](https://en.wikipedia.org/wiki/India#CITEREFAsherTalbot2006),": 7176,
      "▁2006](https://en.wikipedia.org/wiki/India#CITEREFMetcalfMetcalf2006": 7177,
      "▁2006](https://en.wikipedia.org/wiki/India#CITEREFMetcalfMetcalf2006),": 7178,
      "▁2007": 7179,
      "▁2007\n": 7180,
      "▁2007.": 7181,
      "▁2007](https://en.wikipedia.org/wiki/India#CITEREF": 7182,
      "▁2008": 7183,
      "▁2008](https://en.wikipedia.org/wiki/India#CITEREF": 7184,
      "▁2008](https://en.wikipedia.org/wiki/India#CITEREFAsherTalbot2008": 7185,
      "▁2008](https://en.wikipedia.org/wiki/India#CITEREFAsherTalbot2008),": 7186,
      "▁2009": 7187,
      "▁2009.": 7188,
      "▁2009](https://hi.wikipedia.org/wiki/भारत#CITEREFS": 7189,
      "▁2009](https://hi.wikipedia.org/wiki/भारत#CITEREFSingh2009": 7190,
      "▁2009](https://hi.wikipedia.org/wiki/भारत#CITEREFSingh2009),": 7191,
      "▁201": 7192,
      "▁2010": 7193,
      "▁2010](https://en.wikipedia.org/wiki/India#CITEREF": 7194,
      "▁2010](https://en.wikipedia.org/wiki/India#CITEREFStein2010": 7195,
      "▁2010](https://en.wikipedia.org/wiki/India#CITEREFStein2010),": 7196,
      "▁2011": 7197,
      "▁2011.": 7198,
      "▁2011.\n-": 7199,
      "▁2011](https://en.wikipedia.org/wiki/India#CITEREFR": 7200,
      "▁2011](https://en.wikipedia.org/wiki/India#CITEREFRobb2011": 7201,
      "▁2011](https://en.wikipedia.org/wiki/India#CITEREFRobb2011),": 7202,
      "▁2012": 7203,
      "▁2012.": 7204,
      "▁2012](https://en.wikipedia.org/wiki/India#CITEREF": 7205,
      "▁2012](https://en.wikipedia.org/wiki/India#CITEREFMetcalfMetcalf2012": 7206,
      "▁2012](https://en.wikipedia.org/wiki/India#CITEREFMetcalfMetcalf2012),": 7207,
      "▁2013": 7208,
      "▁2013.": 7209,
      "▁2014": 7210,
      "▁2014.": 7211,
      "▁2014.\n": 7212,
      "▁2014.\n1": 7213,
      "▁2014](https://en.wikipedia.org/wiki/India#CITEREF": 7214,
      "▁2014](https://en.wikipedia.org/wiki/India#CITEREFLudden2014": 7215,
      "▁2014](https://en.wikipedia.org/wiki/India#CITEREFLudden2014),": 7216,
      "▁2015": 7217,
      "▁2015.": 7218,
      "▁2016": 7219,
      "▁2016.": 7220,
      "▁2017": 7221,
      "▁2018": 7222,
      "▁2018](https://en.wikipedia.org/wiki/India#CITEREF": 7223,
      "▁2018](https://en.wikipedia.org/wiki/India#CITEREFDyson2018": 7224,
      "▁2018](https://en.wikipedia.org/wiki/India#CITEREFDyson2018),": 7225,
      "▁2018](https://en.wikipedia.org/wiki/India#CITEREFFisher2018": 7226,
      "▁2018](https://en.wikipedia.org/wiki/India#CITEREFFisher2018),": 7227,
      "▁2019": 7228,
      "▁2019.": 7229,
      "▁2020": 7230,
      "▁2020.": 7231,
      "▁2021": 7232,
      "▁2021.": 7233,
      "▁2021.\n": 7234,
      "▁2022": 7235,
      "▁2022.\n": 7236,
      "▁2023": 7237,
      "▁2023.": 7238,
      "▁2023](https://en.wikipedia.org/wiki/India#CITEREF": 7239,
      "▁2023](https://en.wikipedia.org/wiki/India#CITEREFDikshitSchwartzberg2023": 7240,
      "▁2023](https://en.wikipedia.org/wiki/India#CITEREFDikshitSchwartzberg2023),": 7241,
      "▁2024": 7242,
      "▁2024.": 7243,
      "▁2025": 7244,
      "▁2025.": 7245,
      "▁2025.\n": 7246,
      "▁2026": 7247,
      "▁21": 7248,
      "▁22": 7249,
      "▁23": 7250,
      "▁24": 7251,
      "▁25": 7252,
      "▁26": 7253,
      "▁27": 7254,
      "▁28": 7255,
      "▁29": 7256,
      "▁3": 7257,
      "▁3,": 7258,
      "▁30": 7259,
      "▁31": 7260,
      "▁35": 7261,
      "▁36": 7262,
      "▁4": 7263,
      "▁5": 7264,
      "▁50": 7265,
      "▁6": 7266,
      "▁6.": 7267,
      "▁7": 7268,
      "▁7.": 7269,
      "▁70": 7270,
      "▁8": 7271,
      "▁80": 7272,
      "▁9": 7273,
      "▁A": 7274,
      "▁A.": 7275,
      "▁Ac": 7276,
      "▁According": 7277,
      "▁Act": 7278,
      "▁Act,": 7279,
      "▁Ad": 7280,
      "▁Affairs": 7281,
      "▁Afric": 7282,
      "▁Africa": 7283,
      "▁After": 7284,
      "▁Ag": 7285,
      "▁Age": 7286,
      "▁Agency": 7287,
      "▁Al": 7288,
      "▁All": 7289,
      "▁Although": 7290,
      "▁Am": 7291,
      "▁Amb": 7292,
      "▁An": 7293,
      "▁Ap": 7294,
      "▁April": 7295,
      "▁Ar": 7296,
      "▁Arab": 7297,
      "▁Archived": 7298,
      "▁Art": 7299,
      "▁As": 7300,
      "▁Asher": 7301,
      "▁Asher,": 7302,
      "▁Asia": 7303,
      "▁Asia\")": 7304,
      "▁Asian": 7305,
      "▁Ass": 7306,
      "▁Assembly": 7307,
      "▁Association": 7308,
      "▁At": 7309,
      "▁Aug": 7310,
      "▁August": 7311,
      "▁B": 7312,
      "▁B.": 7313,
      "▁B.;": 7314,
      "▁BCE": 7315,
      "▁BJP": 7316,
      "▁BRICS": 7317,
      "▁Bangalore": 7318,
      "▁Bangladesh": 7319,
      "▁Bank": 7320,
      "▁Be": 7321,
      "▁Before": 7322,
      "▁Bengal": 7323,
      "▁Bharat": 7324,
      "▁Bi": 7325,
      "▁Book": 7326,
      "▁British": 7327,
      "▁Budd": 7328,
      "▁Buddha": 7329,
      "▁Buddhist": 7330,
      "▁By": 7331,
      "▁C": 7332,
      "▁C.": 7333,
      "▁CE": 7334,
      "▁CITEREF": 7335,
      "▁CITEREFKulkeRothermund2004": 7336,
      "▁CITEREFS": 7337,
      "▁CITEREFSingh2009": 7338,
      "▁CITEREFStein1998": 7339,
      "▁Ca": 7340,
      "▁Cambridge": 7341,
      "▁Carnatic": 7342,
      "▁Category:": 7343,
      "▁Cather": 7344,
      "▁Catherine": 7345,
      "▁Caves": 7346,
      "▁Census": 7347,
      "▁Central": 7348,
      "▁Centre": 7349,
      "▁Ch": 7350,
      "▁Cha": 7351,
      "▁Chand": 7352,
      "▁China": 7353,
      "▁Chinese": 7354,
      "▁Civil": 7355,
      "▁Civilisation": 7356,
      "▁Comm": 7357,
      "▁Commission": 7358,
      "▁Commissioner": 7359,
      "▁Commonwealth": 7360,
      "▁Comp": 7361,
      "▁Companion": 7362,
      "▁Company": 7363,
      "▁Con": 7364,
      "▁Congress": 7365,
      "▁Cons": 7366,
      "▁Conservation": 7367,
      "▁Constitution": 7368,
      "▁Cooperation": 7369,
      "▁Council": 7370,
      "▁Cyn": 7371,
      "▁Cynth": 7372,
      "▁Cynthia": 7373,
      "▁D": 7374,
      "▁D.": 7375,
      "▁Dance": 7376,
      "▁Data": 7377,
      "▁David": 7378,
      "▁De": 7379,
      "▁December": 7380,
      "▁Delhi": 7381,
      "▁Desert": 7382,
      "▁Development": 7383,
      "▁Di": 7384,
      "▁Dictionary": 7385,
      "▁During": 7386,
      "▁Dyson": 7387,
      "▁Dyson,": 7388,
      "▁E": 7389,
      "▁E.": 7390,
      "▁East": 7391,
      "▁Economic": 7392,
      "▁Economy": 7393,
      "▁Emer": 7394,
      "▁Emergency": 7395,
      "▁Emi": 7396,
      "▁Emirate": 7397,
      "▁Empire": 7398,
      "▁Empire\")": 7399,
      "▁English": 7400,
      "▁Environment": 7401,
      "▁Europe": 7402,
      "▁Europe*](https://books.google.com/books?id=": 7403,
      "▁Europe*](https://books.google.com/books?id=ZvaGuaJIJgo": 7404,
      "▁Europe*](https://books.google.com/books?id=ZvaGuaJIJgoC&pg=PA": 7405,
      "▁European": 7406,
      "▁Ex": 7407,
      "▁Exchange": 7408,
      "▁F": 7409,
      "▁February": 7410,
      "▁Food": 7411,
      "▁Football": 7412,
      "▁For": 7413,
      "▁Force": 7414,
      "▁Francis": 7415,
      "▁From": 7416,
      "▁Fund": 7417,
      "▁G": 7418,
      "▁GDP": 7419,
      "▁Games": 7420,
      "▁Games\")": 7421,
      "▁Gandhi": 7422,
      "▁Ganges": 7423,
      "▁Ge": 7424,
      "▁General": 7425,
      "▁Ghat": 7426,
      "▁Government": 7427,
      "▁Greek": 7428,
      "▁Gu": 7429,
      "▁Gujarat": 7430,
      "▁H": 7431,
      "▁H.": 7432,
      "▁Health": 7433,
      "▁Hima": 7434,
      "▁Himalay": 7435,
      "▁Himalayas": 7436,
      "▁Hind": 7437,
      "▁Hindi": 7438,
      "▁Hindu": 7439,
      "▁Hinduism": 7440,
      "▁Hindus": 7441,
      "▁History": 7442,
      "▁Home": 7443,
      "▁I": 7444,
      "▁II": 7445,
      "▁In": 7446,
      "▁Inc": 7447,
      "▁Increas": 7448,
      "▁Increase": 7449,
      "▁Ind": 7450,
      "▁India": 7451,
      "▁India\")": 7452,
      "▁India\")\n\n": 7453,
      "▁India\")*.": 7454,
      "▁India\"),": 7455,
      "▁India\").": 7456,
      "▁India\").[[": 7457,
      "▁India\".": 7458,
      "▁India's": 7459,
      "▁India*.": 7460,
      "▁India*](https://books.google.com/books?id=": 7461,
      "▁India,": 7462,
      "▁India.": 7463,
      "▁India.[[": 7464,
      "▁India:": 7465,
      "▁India](https://en.wikipedia.org/wiki/C": 7466,
      "▁India](https://en.wikipedia.org/wiki/D": 7467,
      "▁India](https://en.wikipedia.org/wiki/E": 7468,
      "▁India](https://en.wikipedia.org/wiki/G": 7469,
      "▁India](https://en.wikipedia.org/wiki/Government_of_India": 7470,
      "▁India](https://en.wikipedia.org/wiki/P": 7471,
      "▁India](https://en.wikipedia.org/wiki/S": 7472,
      "▁Indian": 7473,
      "▁Indians": 7474,
      "▁Indo-": 7475,
      "▁Indus": 7476,
      "▁Informatics": 7477,
      "▁Intelligence": 7478,
      "▁International": 7479,
      "▁Island": 7480,
      "▁Islands\")": 7481,
      "▁Islands](https://en.wikipedia.org/wiki/": 7482,
      "▁It": 7483,
      "▁Its": 7484,
      "▁J": 7485,
      "▁J.": 7486,
      "▁Jain": 7487,
      "▁January": 7488,
      "▁John": 7489,
      "▁Journal": 7490,
      "▁July": 7491,
      "▁June": 7492,
      "▁K": 7493,
      "▁K.": 7494,
      "▁Kashmir": 7495,
      "▁Kingdom": 7496,
      "▁L": 7497,
      "▁L.": 7498,
      "▁Language": 7499,
      "▁Lank": 7500,
      "▁Law": 7501,
      "▁Linguistic": 7502,
      "▁List": 7503,
      "▁London": 7504,
      "▁M": 7505,
      "▁M.": 7506,
      "▁Ma": 7507,
      "▁Machine": 7508,
      "▁Mah": 7509,
      "▁Man": 7510,
      "▁Mana": 7511,
      "▁Mar": 7512,
      "▁March": 7513,
      "▁May": 7514,
      "▁Metcalf": 7515,
      "▁Michael": 7516,
      "▁Middle": 7517,
      "▁Min": 7518,
      "▁Minister": 7519,
      "▁Minorities": 7520,
      "▁Minorities,": 7521,
      "▁Modern": 7522,
      "▁Modi": 7523,
      "▁Mon": 7524,
      "▁Monetary": 7525,
      "▁Movement": 7526,
      "▁Mughal": 7527,
      "▁Muslim": 7528,
      "▁N": 7529,
      "▁N.": 7530,
      "▁Nadu": 7531,
      "▁Nation": 7532,
      "▁National": 7533,
      "▁Nations": 7534,
      "▁Nehru": 7535,
      "▁New": 7536,
      "▁Nicobar": 7537,
      "▁November": 7538,
      "▁Nuclear": 7539,
      "▁O": 7540,
      "▁Ocean": 7541,
      "▁Oct": 7542,
      "▁October": 7543,
      "▁Official": 7544,
      "▁Olymp": 7545,
      "▁On": 7546,
      "▁Organisation": 7547,
      "▁Organisation\")": 7548,
      "▁Organization": 7549,
      "▁Oxford": 7550,
      "▁P": 7551,
      "▁P.": 7552,
      "▁Pakistan": 7553,
      "▁Park": 7554,
      "▁Pe": 7555,
      "▁Per": 7556,
      "▁Persian": 7557,
      "▁Plain": 7558,
      "▁Plate": 7559,
      "▁Plateau": 7560,
      "▁Policy": 7561,
      "▁Population": 7562,
      "▁Pradesh": 7563,
      "▁Pradesh\")": 7564,
      "▁Pres": 7565,
      "▁President": 7566,
      "▁Press": 7567,
      "▁Press\").": 7568,
      "▁Press,": 7569,
      "▁Press.": 7570,
      "▁Press](https://en.wikipedia.org/wiki/": 7571,
      "▁Press](https://en.wikipedia.org/wiki/C": 7572,
      "▁Press](https://en.wikipedia.org/wiki/Cambridge": 7573,
      "▁Press](https://en.wikipedia.org/wiki/Cambridge_University_Press": 7574,
      "▁Press](https://en.wikipedia.org/wiki/Oxford": 7575,
      "▁Press](https://en.wikipedia.org/wiki/Oxford_University_Press": 7576,
      "▁Prin": 7577,
      "▁Princ": 7578,
      "▁Princet": 7579,
      "▁Pro": 7580,
      "▁Programme": 7581,
      "▁Publ": 7582,
      "▁Public": 7583,
      "▁Publishing": 7584,
      "▁Publishing\").": 7585,
      "▁Punjab": 7586,
      "▁Puran": 7587,
      "▁Qu": 7588,
      "▁Quote": 7589,
      "▁Quote:": 7590,
      "▁R": 7591,
      "▁R.": 7592,
      "▁Ra": 7593,
      "▁Raj": 7594,
      "▁Re": 7595,
      "▁Reg": 7596,
      "▁Registrar": 7597,
      "▁Religion": 7598,
      "▁Report": 7599,
      "▁Republic": 7600,
      "▁Research": 7601,
      "▁Ret": 7602,
      "▁Retrie": 7603,
      "▁Retrieved": 7604,
      "▁Revolution": 7605,
      "▁River": 7606,
      "▁River\"),": 7607,
      "▁Rothermund": 7608,
      "▁Routledge": 7609,
      "▁S": 7610,
      "▁S.": 7611,
      "▁SAARC": 7612,
      "▁SCO": 7613,
      "▁Sabha": 7614,
      "▁Sanskrit": 7615,
      "▁Schedule": 7616,
      "▁Schwartzberg": 7617,
      "▁Science": 7618,
      "▁Se": 7619,
      "▁Sea": 7620,
      "▁Secret": 7621,
      "▁Security": 7622,
      "▁September": 7623,
      "▁Sfn": 7624,
      "▁Sh": 7625,
      "▁Shankar": 7626,
      "▁Sikh": 7627,
      "▁Singh": 7628,
      "▁So": 7629,
      "▁Society": 7630,
      "▁Some": 7631,
      "▁South": 7632,
      "▁St": 7633,
      "▁State": 7634,
      "▁States": 7635,
      "▁Ste": 7636,
      "▁Studies": 7637,
      "▁Sub": 7638,
      "▁Summit": 7639,
      "▁Summit\")": 7640,
      "▁T": 7641,
      "▁T.": 7642,
      "▁Talbot": 7643,
      "▁Talbot,": 7644,
      "▁Tamil": 7645,
      "▁Te": 7646,
      "▁Temple": 7647,
      "▁Territory": 7648,
      "▁Th": 7649,
      "▁The": 7650,
      "▁These": 7651,
      "▁This": 7652,
      "▁Tho": 7653,
      "▁Tim": 7654,
      "▁Times": 7655,
      "▁Trade": 7656,
      "▁U": 7657,
      "▁US": 7658,
      "▁US$": 7659,
      "▁Un": 7660,
      "▁Union": 7661,
      "▁United": 7662,
      "▁University": 7663,
      "▁Urdu": 7664,
      "▁V": 7665,
      "▁V.": 7666,
      "▁Valley": 7667,
      "▁Ved": 7668,
      "▁Vedic": 7669,
      "▁Vol": 7670,
      "▁W": 7671,
      "▁War": 7672,
      "▁West": 7673,
      "▁Western": 7674,
      "▁Wiki": 7675,
      "▁Wiley": 7676,
      "▁World": 7677,
      "▁Y": 7678,
      "▁York": 7679,
      "▁York:": 7680,
      "▁[": 7681,
      "▁[![": 7682,
      "▁[![A": 7683,
      "▁[![The": 7684,
      "▁[![](https://upload.wikimedia.org/wikipedia/commons/thumb/": 7685,
      "▁[![](https://upload.wikimedia.org/wikipedia/commons/thumb/c/c": 7686,
      "▁[\"": 7687,
      "▁[\"C": 7688,
      "▁[\"G": 7689,
      "▁[\"India": 7690,
      "▁[\"The": 7691,
      "▁[*": 7692,
      "▁[*A": 7693,
      "▁[*C": 7694,
      "▁[*H": 7695,
      "▁[*India": 7696,
      "▁[*P": 7697,
      "▁[*The": 7698,
      "▁[...]": 7699,
      "▁[1": 7700,
      "▁[19": 7701,
      "▁[1](https://en.wikipedia.org/wiki/India#cite_ref-": 7702,
      "▁[1](https://en.wikipedia.org/wiki/India#cite_ref-FOOTNOTE": 7703,
      "▁[1](https://hi.wikipedia.org/wiki/भारत#cite_ref-": 7704,
      "▁[1](https://te.wikipedia.org/wiki/భారతదేశం#cite_ref-": 7705,
      "▁[2": 7706,
      "▁[2](https://en.wikipedia.org/wiki/India#cite_ref-": 7707,
      "▁[2](https://en.wikipedia.org/wiki/India#cite_ref-FOOTNOTE": 7708,
      "▁[2](https://hi.wikipedia.org/wiki/भारत#cite_ref-": 7709,
      "▁[2](https://te.wikipedia.org/wiki/భారతదేశం#cite_ref-": 7710,
      "▁[3": 7711,
      "▁[3](https://en.wikipedia.org/wiki/India#cite_ref-": 7712,
      "▁[3](https://en.wikipedia.org/wiki/India#cite_ref-FOOTNOTE": 7713,
      "▁[4": 7714,
      "▁[978": 7715,
      "▁[978-0-": 7716,
      "▁[978-0-19": 7717,
      "▁[978-0-521": 7718,
      "▁[978-0-521-80904-7": 7719,
      "▁[978-0-521-80904-7](https://hi.wikipedia.org/wiki/विशेष:पुस्तक_स्रोत/978": 7720,
      "▁[978-0-521-80904-7](https://hi.wikipedia.org/wiki/विशेष:पुस्तक_स्रोत/978-0-521-80904-7": 7721,
      "▁[978-1": 7722,
      "▁[978-81": 7723,
      "▁[A": 7724,
      "▁[Andaman": 7725,
      "▁[Archived": 7726,
      "▁[Archived](https://web.archive.org/web/": 7727,
      "▁[Archived](https://web.archive.org/web/20": 7728,
      "▁[Archived](https://web.archive.org/web/201": 7729,
      "▁[Archived](https://web.archive.org/web/20110": 7730,
      "▁[Archived](https://web.archive.org/web/20190": 7731,
      "▁[Archived](https://web.archive.org/web/20210": 7732,
      "▁[Archived](https://web.archive.org/web/2023": 7733,
      "▁[Archived](https://web.archive.org/web/20250": 7734,
      "▁[Asher": 7735,
      "▁[B": 7736,
      "▁[BRICS": 7737,
      "▁[Bangladesh": 7738,
      "▁[Bengal": 7739,
      "▁[British": 7740,
      "▁[Buddhism": 7741,
      "▁[C": 7742,
      "▁[Cambridge": 7743,
      "▁[Central": 7744,
      "▁[Ch": 7745,
      "▁[China": 7746,
      "▁[China](https://en.wikipedia.org/wiki/C": 7747,
      "▁[China](https://en.wikipedia.org/wiki/China": 7748,
      "▁[Craven": 7749,
      "▁[D": 7750,
      "▁[Delhi": 7751,
      "▁[Dikshit": 7752,
      "▁[Dyson": 7753,
      "▁[E": 7754,
      "▁[East": 7755,
      "▁[European": 7756,
      "▁[F": 7757,
      "▁[Fisher": 7758,
      "▁[G": 7759,
      "▁[Ganges": 7760,
      "▁[Government": 7761,
      "▁[H": 7762,
      "▁[Harle": 7763,
      "▁[Hinduism": 7764,
      "▁[Hinduism](https://en.wikipedia.org/wiki/H": 7765,
      "▁[Hinduism](https://en.wikipedia.org/wiki/Hinduism": 7766,
      "▁[History": 7767,
      "▁[I": 7768,
      "▁[ISBN": 7769,
      "▁[ISBN](https://en.wikipedia.org/wiki/": 7770,
      "▁[ISBN](https://en.wikipedia.org/wiki/ISBN": 7771,
      "▁[ISBN](https://en.wikipedia.org/wiki/ISBN_(identifier)": 7772,
      "▁[ISBN](https://hi.wikipedia.org/wiki/": 7773,
      "▁[ISBN](https://hi.wikipedia.org/wiki/ISBN": 7774,
      "▁[ISBN](https://hi.wikipedia.org/wiki/ISBN_(identifier)": 7775,
      "▁[In": 7776,
      "▁[India": 7777,
      "▁[India](https://en.wikipedia.org/wiki/India": 7778,
      "▁[India](https://en.wikipedia.org/wiki/India)": 7779,
      "▁[Indian": 7780,
      "▁[Indo-": 7781,
      "▁[Indonesia": 7782,
      "▁[Indonesia](https://en.wikipedia.org/wiki/": 7783,
      "▁[Indonesia](https://en.wikipedia.org/wiki/Indonesia": 7784,
      "▁[Indus": 7785,
      "▁[International": 7786,
      "▁[Iran": 7787,
      "▁[Is": 7788,
      "▁[J": 7789,
      "▁[K": 7790,
      "▁[Kerala": 7791,
      "▁[Kulke": 7792,
      "▁[L": 7793,
      "▁[Ludden": 7794,
      "▁[M": 7795,
      "▁[Metcalf": 7796,
      "▁[Ministry": 7797,
      "▁[Mughal": 7798,
      "▁[N": 7799,
      "▁[National": 7800,
      "▁[New": 7801,
      "▁[O": 7802,
      "▁[Oxford": 7803,
      "▁[P": 7804,
      "▁[Pakistan": 7805,
      "▁[Pakistan](https://en.wikipedia.org/wiki/P": 7806,
      "▁[Pakistan](https://en.wikipedia.org/wiki/Pakistan": 7807,
      "▁[Pal": 7808,
      "▁[R": 7809,
      "▁[Re": 7810,
      "▁[Robb": 7811,
      "▁[Routledge": 7812,
      "▁[Routledge](https://en.wikipedia.org/wiki/R": 7813,
      "▁[Routledge](https://en.wikipedia.org/wiki/Routledge": 7814,
      "▁[Russia": 7815,
      "▁[Russia](https://en.wikipedia.org/wiki/Russia": 7816,
      "▁[S": 7817,
      "▁[SAARC": 7818,
      "▁[Singh": 7819,
      "▁[South": 7820,
      "▁[Sri": 7821,
      "▁[State": 7822,
      "▁[Stein": 7823,
      "▁[T": 7824,
      "▁[Tamil": 7825,
      "▁[U": 7826,
      "▁[United": 7827,
      "▁[V": 7828,
      "▁[W": 7829,
      "▁[West": 7830,
      "▁[World": 7831,
      "▁[Y": 7832,
      "▁[[": 7833,
      "▁[c": 7834,
      "▁[d": 7835,
      "▁[doi": 7836,
      "▁[doi](https://en.wikipedia.org/wiki/D": 7837,
      "▁[doi](https://en.wikipedia.org/wiki/Doi": 7838,
      "▁[doi](https://en.wikipedia.org/wiki/Doi_(identifier)": 7839,
      "▁[e": 7840,
      "▁[e](": 7841,
      "▁[e](Special:EditPage/Template:": 7842,
      "▁[e](https://hi.wikipedia.org/wiki/": 7843,
      "▁[e](https://hi.wikipedia.org/wiki/विशेष:EditPage/साँचा:": 7844,
      "▁[e](https://te.wikipedia.org/wiki/": 7845,
      "▁[e](https://te.wikipedia.org/wiki/ప్రత్యేక:EditPage/మూస:": 7846,
      "▁[f": 7847,
      "▁[g": 7848,
      "▁[m": 7849,
      "▁[n": 7850,
      "▁[p": 7851,
      "▁[s": 7852,
      "▁[t": 7853,
      "▁[t](https://en.wikipedia.org/wiki/T": 7854,
      "▁[t](https://en.wikipedia.org/wiki/Temp": 7855,
      "▁[t](https://en.wikipedia.org/wiki/Template_": 7856,
      "▁[t](https://en.wikipedia.org/wiki/Template_tal": 7857,
      "▁[t](https://en.wikipedia.org/wiki/Template_talk:": 7858,
      "▁[t](https://hi.wikipedia.org/wiki/साँचा_वार्ता:": 7859,
      "▁[t](https://te.wikipedia.org/wiki/మ": 7860,
      "▁[t](https://te.wikipedia.org/wiki/మూస": 7861,
      "▁[t](https://te.wikipedia.org/wiki/మూస_చ": 7862,
      "▁[t](https://te.wikipedia.org/wiki/మూస_చర్చ:": 7863,
      "▁[the": 7864,
      "▁[v": 7865,
      "▁[v](Template:": 7866,
      "▁[v](https://hi.wikipedia.org/wiki/साँचा:": 7867,
      "▁[v](https://te.wikipedia.org/wiki/మూస:": 7868,
      "▁[world": 7869,
      "▁[world's": 7870,
      "▁[अ": 7871,
      "▁[अंग्रेज़": 7872,
      "▁[अंग्रेज़ी](https://hi.wikipedia.org/wiki/अ": 7873,
      "▁[अंग्रेज़ी](https://hi.wikipedia.org/wiki/अंग्रेज़": 7874,
      "▁[अंग्रेज़ी](https://hi.wikipedia.org/wiki/अंग्रेज़ी_भाषा": 7875,
      "▁[आ": 7876,
      "▁[इ": 7877,
      "▁[उ": 7878,
      "▁[उत्तर": 7879,
      "▁[उर्दू": 7880,
      "▁[उर्दू](https://hi.wikipedia.org/wiki/उ": 7881,
      "▁[उर्दू](https://hi.wikipedia.org/wiki/उर्दू": 7882,
      "▁[ए": 7883,
      "▁[ओ": 7884,
      "▁[क": 7885,
      "▁[का": 7886,
      "▁[कु": 7887,
      "▁[ख": 7888,
      "▁[ग": 7889,
      "▁[गुजरात": 7890,
      "▁[गुजरात](https://hi.wikipedia.org/wiki/गुजरात": 7891,
      "▁[च": 7892,
      "▁[ज": 7893,
      "▁[ड": 7894,
      "▁[तमिल": 7895,
      "▁[द": 7896,
      "▁[दक्षिण": 7897,
      "▁[दिल्ल": 7898,
      "▁[दिल्ली](https://hi.wikipedia.org/wiki/दिल्ली": 7899,
      "▁[ध": 7900,
      "▁[धर्म": 7901,
      "▁[न": 7902,
      "▁[ना": 7903,
      "▁[नेपाल": 7904,
      "▁[प": 7905,
      "▁[पंजाब": 7906,
      "▁[पंजाब](https://hi.wikipedia.org/wiki/पंजाब": 7907,
      "▁[पश्चिम": 7908,
      "▁[पाकिस्तान": 7909,
      "▁[पाकिस्तान](https://hi.wikipedia.org/wiki/पाकिस्तान": 7910,
      "▁[पु": 7911,
      "▁[पुरालेखित": 7912,
      "▁[पुरालेखित](https://web.archive.org/web/201": 7913,
      "▁[प्र": 7914,
      "▁[ब": 7915,
      "▁[बांग्ला": 7916,
      "▁[बांग्ला](https://hi.wikipedia.org/wiki/ब": 7917,
      "▁[बांग्ला](https://hi.wikipedia.org/wiki/बांग्ला": 7918,
      "▁[ब्रिटिश": 7919,
      "▁[भारत": 7920,
      "▁[भारत](https://hi.wikipedia.org/wiki/भारत": 7921,
      "▁[भारत](https://hi.wikipedia.org/wiki/भारत)": 7922,
      "▁[भारतीय": 7923,
      "▁[म": 7924,
      "▁[मध्य": 7925,
      "▁[मराठ": 7926,
      "▁[महाराष्ट्र": 7927,
      "▁[महाराष्ट्र](https://hi.wikipedia.org/wiki/म": 7928,
      "▁[महाराष्ट्र](https://hi.wikipedia.org/wiki/महाराष्ट्र": 7929,
      "▁[मूल": 7930,
      "▁[य": 7931,
      "▁[राजस्थान": 7932,
      "▁[राजस्थान](https://hi.wikipedia.org/wiki/": 7933,
      "▁[राजस्थान](https://hi.wikipedia.org/wiki/राजस्थान": 7934,
      "▁[राज्य": 7935,
      "▁[राष्ट्रीय": 7936,
      "▁[ल": 7937,
      "▁[लोक": 7938,
      "▁[व": 7939,
      "▁[वि": 7940,
      "▁[विश्व": 7941,
      "▁[श": 7942,
      "▁[स": 7943,
      "▁[सं": 7944,
      "▁[संयुक्त": 7945,
      "▁[संस्कृत": 7946,
      "▁[सा": 7947,
      "▁[सिक्किम": 7948,
      "▁[ह": 7949,
      "▁[हिन्द": 7950,
      "▁[हिन्दी](https://hi.wikipedia.org/wiki/": 7951,
      "▁[हिन्दी](https://hi.wikipedia.org/wiki/हिन्दी": 7952,
      "▁[हिन्दी](https://mai.wikipedia.org/wiki/": 7953,
      "▁[हिन्दी](https://mai.wikipedia.org/wiki/हिन्दी": 7954,
      "▁[అ": 7955,
      "▁[ఆ": 7956,
      "▁[ఇ": 7957,
      "▁[ఇండో": 7958,
      "▁[ఉ": 7959,
      "▁[ఉత్తర": 7960,
      "▁[ఒడి": 7961,
      "▁[క": 7962,
      "▁[కు": 7963,
      "▁[గ": 7964,
      "▁[గణతంత్ర": 7965,
      "▁[గో": 7966,
      "▁[చ": 7967,
      "▁[చైనా": 7968,
      "▁[జ": 7969,
      "▁[జన": 7970,
      "▁[జమ్మూ": 7971,
      "▁[ఢిల్లీ": 7972,
      "▁[ఢిల్లీ](https://te.wikipedia.org/wiki/ఢిల్లీ": 7973,
      "▁[తమిళనాడు": 7974,
      "▁[తూర్పు": 7975,
      "▁[దక్షిణ": 7976,
      "▁[నేపాల": 7977,
      "▁[నేపాల్](https://te.wikipedia.org/wiki/": 7978,
      "▁[నేపాల్](https://te.wikipedia.org/wiki/నేపాల్": 7979,
      "▁[ప": 7980,
      "▁[పశ్చిమ": 7981,
      "▁[పా": 7982,
      "▁[పాకిస్తాన్": 7983,
      "▁[బ": 7984,
      "▁[బంగ్లాదేశ్": 7985,
      "▁[భారత": 7986,
      "▁[భారతదేశ": 7987,
      "▁[భారతదేశం": 7988,
      "▁[భారతదేశంలో": 7989,
      "▁[భారతీయ": 7990,
      "▁[భూటాన్": 7991,
      "▁[భూటాన్](https://te.wikipedia.org/wiki/": 7992,
      "▁[భూటాన్](https://te.wikipedia.org/wiki/భూటాన్": 7993,
      "▁[మ": 7994,
      "▁[మధ్య": 7995,
      "▁[ముంబై": 7996,
      "▁[ముంబై](https://te.wikipedia.org/wiki/": 7997,
      "▁[ముంబై](https://te.wikipedia.org/wiki/ముంబై": 7998,
      "▁[ర": 7999,
      "▁[రాష్ట్ర": 8000,
      "▁[రాష్ట్రపతి": 8001,
      "▁[వ": 8002,
      "▁[వి": 8003,
      "▁[శ": 8004,
      "▁[శ్రీలంక": 8005,
      "▁[శ్రీలంక](https://te.wikipedia.org/wiki/": 8006,
      "▁[శ్రీలంక](https://te.wikipedia.org/wiki/శ్రీలంక": 8007,
      "▁[స": 8008,
      "▁[సి": 8009,
      "▁[హ": 8010,
      "▁[హింద": 8011,
      "▁[హిందూ": 8012,
      "▁[↑": 8013,
      "▁[↑](https://en.wikipedia.org/wiki/India#cite_ref-": 8014,
      "▁[↑](https://en.wikipedia.org/wiki/India#cite_ref-3": 8015,
      "▁[↑](https://en.wikipedia.org/wiki/India#cite_ref-35": 8016,
      "▁[↑](https://en.wikipedia.org/wiki/India#cite_ref-4": 8017,
      "▁[↑](https://en.wikipedia.org/wiki/India#cite_ref-Combined": 8018,
      "▁[↑](https://en.wikipedia.org/wiki/India#cite_ref-FOOTNOTE": 8019,
      "▁[↑](https://en.wikipedia.org/wiki/India#cite_ref-FOOTNOTEB": 8020,
      "▁[↑](https://en.wikipedia.org/wiki/India#cite_ref-FOOTNOTECraven1997": 8021,
      "▁[↑](https://en.wikipedia.org/wiki/India#cite_ref-FOOTNOTEDikshitSchwartzberg2023": 8022,
      "▁[↑](https://en.wikipedia.org/wiki/India#cite_ref-FOOTNOTEHarle1994": 8023,
      "▁[↑](https://en.wikipedia.org/wiki/India#cite_ref-FOOTNOTEM": 8024,
      "▁[↑](https://en.wikipedia.org/wiki/India#cite_ref-FOOTNOTEMetcalfMetcalf2006": 8025,
      "▁[↑](https://en.wikipedia.org/wiki/India#cite_ref-FOOTNOTER": 8026,
      "▁[↑](https://en.wikipedia.org/wiki/India#cite_ref-FOOTNOTEStein2010": 8027,
      "▁[↑](https://hi.wikipedia.org/wiki/भारत#cite_ref-": 8028,
      "▁[↑](https://hi.wikipedia.org/wiki/भारत#cite_ref-1": 8029,
      "▁[↑](https://hi.wikipedia.org/wiki/भारत#cite_ref-10": 8030,
      "▁[↑](https://hi.wikipedia.org/wiki/भारत#cite_ref-Combined": 8031,
      "▁[↑](https://hi.wikipedia.org/wiki/भारत#cite_ref-FOOTNOTE": 8032,
      "▁[↑](https://hi.wikipedia.org/wiki/भारत#cite_ref-FOOTNOTESingh2009": 8033,
      "▁[↑](https://te.wikipedia.org/wiki/భారతదేశం#cite_ref-": 8034,
      "▁`": 8035,
      "▁`|": 8036,
      "▁a": 8037,
      "▁ab": 8038,
      "▁about": 8039,
      "▁above": 8040,
      "▁ac": 8041,
      "▁across": 8042,
      "▁ad": 8043,
      "▁addition": 8044,
      "▁administrative": 8045,
      "▁adop": 8046,
      "▁adopted": 8047,
      "▁after": 8048,
      "▁ag": 8049,
      "▁again": 8050,
      "▁ago": 8051,
      "▁agriculture": 8052,
      "▁air": 8053,
      "▁al": 8054,
      "▁all": 8055,
      "▁along": 8056,
      "▁also": 8057,
      "▁also:": 8058,
      "▁am": 8059,
      "▁among": 8060,
      "▁an": 8061,
      "▁ancient": 8062,
      "▁and": 8063,
      "▁ani": 8064,
      "▁ann": 8065,
      "▁any": 8066,
      "▁app": 8067,
      "▁appe": 8068,
      "▁appro": 8069,
      "▁approx": 8070,
      "▁approxima": 8071,
      "▁approximately": 8072,
      "▁ar": 8073,
      "▁archi": 8074,
      "▁architecture": 8075,
      "▁are": 8076,
      "▁area": 8077,
      "▁areas": 8078,
      "▁around": 8079,
      "▁art": 8080,
      "▁artic": 8081,
      "▁article:": 8082,
      "▁arts": 8083,
      "▁as": 8084,
      "▁ass": 8085,
      "▁astronom": 8086,
      "▁at": 8087,
      "▁att": 8088,
      "▁b": 8089,
      "▁band": 8090,
      "▁bas": 8091,
      "▁based": 8092,
      "▁be": 8093,
      "▁bec": 8094,
      "▁became": 8095,
      "▁become": 8096,
      "▁been": 8097,
      "▁before": 8098,
      "▁began": 8099,
      "▁being": 8100,
      "▁between": 8101,
      "▁billion": 8102,
      "▁birth": 8103,
      "▁bo": 8104,
      "▁border": 8105,
      "▁both": 8106,
      "▁bread": 8107,
      "▁bu": 8108,
      "▁built": 8109,
      "▁but": 8110,
      "▁by": 8111,
      "▁c": 8112,
      "▁c.": 8113,
      "▁called": 8114,
      "▁can": 8115,
      "▁cap": 8116,
      "▁capit": 8117,
      "▁capita": 8118,
      "▁cas": 8119,
      "▁caste": 8120,
      "▁caus": 8121,
      "▁caused": 8122,
      "▁census": 8123,
      "▁cent": 8124,
      "▁central": 8125,
      "▁centre": 8126,
      "▁centu": 8127,
      "▁centuries": 8128,
      "▁century": 8129,
      "▁century,": 8130,
      "▁ch": 8131,
      "▁change": 8132,
      "▁char": 8133,
      "▁ci": 8134,
      "▁cities": 8135,
      "▁class": 8136,
      "▁classical": 8137,
      "▁coal": 8138,
      "▁coast": 8139,
      "▁colle": 8140,
      "▁colleges": 8141,
      "▁comm": 8142,
      "▁common": 8143,
      "▁commun": 8144,
      "▁comp": 8145,
      "▁composed": 8146,
      "▁con": 8147,
      "▁cons": 8148,
      "▁consid": 8149,
      "▁constitution": 8150,
      "▁consum": 8151,
      "▁cont": 8152,
      "▁contin": 8153,
      "▁continu": 8154,
      "▁contrib": 8155,
      "▁control": 8156,
      "▁coral": 8157,
      "▁countries": 8158,
      "▁country": 8159,
      "▁cre": 8160,
      "▁cricket": 8161,
      "▁cuisine": 8162,
      "▁cultural": 8163,
      "▁culture": 8164,
      "▁cultures": 8165,
      "▁d": 8166,
      "▁dance": 8167,
      "▁dance\")": 8168,
      "▁dances": 8169,
      "▁de": 8170,
      "▁deb": 8171,
      "▁dec": 8172,
      "▁decad": 8173,
      "▁def": 8174,
      "▁defe": 8175,
      "▁democracy": 8176,
      "▁dependencies": 8177,
      "▁dependent": 8178,
      "▁develo": 8179,
      "▁developed": 8180,
      "▁development": 8181,
      "▁different": 8182,
      "▁direct": 8183,
      "▁directly": 8184,
      "▁dis": 8185,
      "▁disc": 8186,
      "▁dispu": 8187,
      "▁dist": 8188,
      "▁diversity": 8189,
      "▁division": 8190,
      "▁divisions": 8191,
      "▁do": 8192,
      "▁domestic": 8193,
      "▁during": 8194,
      "▁dynast": 8195,
      "▁dynasty\")": 8196,
      "▁e": 8197,
      "▁each": 8198,
      "▁ear": 8199,
      "▁earli": 8200,
      "▁earliest": 8201,
      "▁early": 8202,
      "▁east": 8203,
      "▁eastern": 8204,
      "▁eat": 8205,
      "▁eaten": 8206,
      "▁economic": 8207,
      "▁economy": 8208,
      "▁ed.).": 8209,
      "▁education": 8210,
      "▁election": 8211,
      "▁election\"),": 8212,
      "▁election](https://en.wikipedia.org/wiki/": 8213,
      "▁emer": 8214,
      "▁emerged": 8215,
      "▁empire": 8216,
      "▁employ": 8217,
      "▁employed": 8218,
      "▁en": 8219,
      "▁end": 8220,
      "▁endangered": 8221,
      "▁eng": 8222,
      "▁engineering": 8223,
      "▁ens": 8224,
      "▁enti": 8225,
      "▁entire": 8226,
      "▁epic": 8227,
      "▁er": 8228,
      "▁error": 8229,
      "▁error:": 8230,
      "▁errors": 8231,
      "▁errors\"))\n": 8232,
      "▁es": 8233,
      "▁especial": 8234,
      "▁especially": 8235,
      "▁establish": 8236,
      "▁estima": 8237,
      "▁estimate": 8238,
      "▁et": 8239,
      "▁even": 8240,
      "▁ex": 8241,
      "▁exp": 8242,
      "▁expectancy": 8243,
      "▁ext": 8244,
      "▁f": 8245,
      "▁families": 8246,
      "▁far": 8247,
      "▁feat": 8248,
      "▁festival": 8249,
      "▁fig": 8250,
      "▁first": 8251,
      "▁fl": 8252,
      "▁flow": 8253,
      "▁fol": 8254,
      "▁following": 8255,
      "▁for": 8256,
      "▁forest": 8257,
      "▁form": 8258,
      "▁formal": 8259,
      "▁found": 8260,
      "▁four": 8261,
      "▁from": 8262,
      "▁ful": 8263,
      "▁further": 8264,
      "▁g": 8265,
      "▁gar": 8266,
      "▁ge": 8267,
      "▁gen": 8268,
      "▁general": 8269,
      "▁government": 8270,
      "▁grad": 8271,
      "▁gre": 8272,
      "▁grew": 8273,
      "▁groups": 8274,
      "▁growing": 8275,
      "▁growth": 8276,
      "▁h": 8277,
      "▁had": 8278,
      "▁hand": 8279,
      "▁has": 8280,
      "▁have": 8281,
      "▁he": 8282,
      "▁held": 8283,
      "▁her": 8284,
      "▁hered": 8285,
      "▁high": 8286,
      "▁highest": 8287,
      "▁his": 8288,
      "▁hist": 8289,
      "▁historical": 8290,
      "▁history": 8291,
      "▁house": 8292,
      "▁however,": 8293,
      "▁hum": 8294,
      "▁human": 8295,
      "▁humans": 8296,
      "▁im": 8297,
      "▁imp": 8298,
      "▁import": 8299,
      "▁in": 8300,
      "▁inc": 8301,
      "▁includ": 8302,
      "▁include": 8303,
      "▁including": 8304,
      "▁increas": 8305,
      "▁increased": 8306,
      "▁ind": 8307,
      "▁independence": 8308,
      "▁industry": 8309,
      "▁inequality": 8310,
      "▁inf": 8311,
      "▁influ": 8312,
      "▁influen": 8313,
      "▁influences": 8314,
      "▁ins": 8315,
      "▁institution": 8316,
      "▁inte": 8317,
      "▁inter": 8318,
      "▁into": 8319,
      "▁is": 8320,
      "▁it": 8321,
      "▁its": 8322,
      "▁j": 8323,
      "▁jur": 8324,
      "▁just": 8325,
      "▁k": 8326,
      "▁kingdom": 8327,
      "▁km": 8328,
      "▁km2": 8329,
      "▁known": 8330,
      "▁l": 8331,
      "▁la": 8332,
      "▁land": 8333,
      "▁language": 8334,
      "▁language\")": 8335,
      "▁language\"),": 8336,
      "▁languages": 8337,
      "▁languages\")": 8338,
      "▁large": 8339,
      "▁largest": 8340,
      "▁last": 8341,
      "▁later": 8342,
      "▁later,": 8343,
      "▁law": 8344,
      "▁le": 8345,
      "▁lead": 8346,
      "▁leading": 8347,
      "▁led": 8348,
      "▁left": 8349,
      "▁leg": 8350,
      "▁legis": 8351,
      "▁li": 8352,
      "▁life": 8353,
      "▁like": 8354,
      "▁lim": 8355,
      "▁lite": 8356,
      "▁literacy": 8357,
      "▁lo": 8358,
      "▁local": 8359,
      "▁long": 8360,
      "▁longer": 8361,
      "▁low": 8362,
      "▁lower": 8363,
      "▁m": 8364,
      "▁ma": 8365,
      "▁made": 8366,
      "▁main": 8367,
      "▁maint:": 8368,
      "▁maj": 8369,
      "▁major": 8370,
      "▁majority": 8371,
      "▁man": 8372,
      "▁many": 8373,
      "▁mar": 8374,
      "▁mark": 8375,
      "▁market": 8376,
      "▁mathema": 8377,
      "▁mathematic": 8378,
      "▁may": 8379,
      "▁me": 8380,
      "▁medieval": 8381,
      "▁member": 8382,
      "▁members": 8383,
      "▁men": 8384,
      "▁met": 8385,
      "▁mi": 8386,
      "▁mi)": 8387,
      "▁middle": 8388,
      "▁mil": 8389,
      "▁military": 8390,
      "▁milk": 8391,
      "▁millennium": 8392,
      "▁million": 8393,
      "▁minister": 8394,
      "▁mo": 8395,
      "▁modern": 8396,
      "▁more": 8397,
      "▁most": 8398,
      "▁mountain": 8399,
      "▁movement": 8400,
      "▁much": 8401,
      "▁music": 8402,
      "▁music\")": 8403,
      "▁n": 8404,
      "▁name": 8405,
      "▁nation": 8406,
      "▁national": 8407,
      "▁ne": 8408,
      "▁near": 8409,
      "▁net": 8410,
[...]
