{
  "version": "1.0",
  "truncation": null,
  "padding": null,
  "added_tokens": [
    {
      "id": 0,
      "content": "[UNK]",
      "single_word": false,
      "lstrip": false,
      "rstrip": false,
      "normalized": false,
      "special": true
    }
  ],
  "normalizer": null,
  "pre_tokenizer": {
    "type": "WhitespaceSplit"
  },
  "post_processor": null,
  "decoder": null,
  "model": {
    "type": "BPE",
    "dropout": null,
    "unk_token": "[UNK]",
    "continuing_subword_prefix": null,
    "end_of_word_suffix": null,
    "fuse_unk": false,
    "byte_fallback": false,
    "ignore_merges": false,
    "vocab": {
      "[UNK]": 0,
      "\"": 1,
      "$": 2,
      "%": 3,
      "&": 4,
      "'": 5,
      "(": 6,
      ")": 7,
      "+": 8,
      ",": 9,
      "-": 10,
      ".": 11,
      "/": 12,
      "0": 13,
      "1": 14,
      "2": 15,
      "3": 16,
      "4": 17,
      "5": 18,
      "6": 19,
      "7": 20,
      "8": 21,
      "9": 22,
      ":": 23,
      ";": 24,
      "=": 25,
      "A": 26,
      "B": 27,
      "C": 28,
      "D": 29,
      "E": 30,
      "F": 31,
      "G": 32,
      "H": 33,
      "I": 34,
      "J": 35,
      "K": 36,
      "L": 37,
      "M": 38,
      "N": 39,
      "O": 40,
      "P": 41,
      "R": 42,
      "S": 43,
      "T": 44,
      "U": 45,
      "V": 46,
      "W": 47,
      "X": 48,
      "Y": 49,
      "Z": 50,
      "[": 51,
      "]": 52,
      "^": 53,
      "a": 54,
      "b": 55,
      "c": 56,
      "d": 57,
      "e": 58,
      "f": 59,
      "g": 60,
      "h": 61,
      "i": 62,
      "j": 63,
      "k": 64,
      "l": 65,
      "m": 66,
      "n": 67,
      "o": 68,
      "p": 69,
      "q": 70,
      "r": 71,
      "s": 72,
      "t": 73,
      "u": 74,
      "v": 75,
      "w": 76,
      "x": 77,
      "y": 78,
      "z": 79,
      "|": 80,
      "ª": 81,
      "«": 82,
      "°": 83,
      "»": 84,
      "Á": 85,
      "Í": 86,
      "Ö": 87,
      "á": 88,
      "â": 89,
      "é": 90,
      "í": 91,
      "ñ": 92,
      "ó": 93,
      "ú": 94,
      "ü": 95,
      "ā": 96,
      "ī": 97,
      "Ś": 98,
      "ū": 99,
      "ɑ": 100,
      "ə": 101,
      "ɦ": 102,
      "ɪ": 103,
      "ɾ": 104,
      "ʊ": 105,
      "ʌ": 106,
      "ʱ": 107,
      "ˈ": 108,
      "ː": 109,
      "̪": 110,
      "ί": 111,
      "α": 112,
      "δ": 113,
      "ι": 114,
      "ν": 115,
      "ο": 116,
      "ς": 117,
      "ό": 118,
      "ँ": 119,
      "ं": 120,
      "ः": 121,
      "अ": 122,
      "आ": 123,
      "इ": 124,
      "ई": 125,
      "उ": 126,
      "ऊ": 127,
      "ऋ": 128,
      "ए": 129,
      "ऐ": 130,
      "ऑ": 131,
      "ओ": 132,
      "औ": 133,
      "क": 134,
      "ख": 135,
      "ग": 136,
      "घ": 137,
      "च": 138,
      "छ": 139,
      "ज": 140,
      "झ": 141,
      "ञ": 142,
      "ट": 143,
      "ठ": 144,
      "ड": 145,
      "ढ": 146,
      "ण": 147,
      "त": 148,
      "थ": 149,
      "द": 150,
      "ध": 151,
      "न": 152,
      "प": 153,
      "फ": 154,
      "ब": 155,
      "भ": 156,
      "म": 157,
      "य": 158,
      "र": 159,
      "ल": 160,
      "व": 161,
      "श": 162,
      "ष": 163,
      "स": 164,
      "ह": 165,
      "़": 166,
      "ा": 167,
      "ि": 168,
      "ी": 169,
      "ु": 170,
      "ू": 171,
      "ृ": 172,
      "े": 173,
      "ै": 174,
      "ॉ": 175,
      "ो": 176,
      "ौ": 177,
      "्": 178,
      "।": 179,
      "०": 180,
      "१": 181,
      "२": 182,
      "३": 183,
      "४": 184,
      "५": 185,
      "६": 186,
      "७": 187,
      "८": 188,
      "९": 189,
      "॰": 190,
      "ం": 191,
      "ః": 192,
      "అ": 193,
      "ఆ": 194,
      "ఇ": 195,
      "ఈ": 196,
      "ఉ": 197,
      "ఋ": 198,
      "ఎ": 199,
      "ఏ": 200,
      "ఐ": 201,
      "ఒ": 202,
      "ఓ": 203,
      "ఔ": 204,
      "క": 205,
      "ఖ": 206,
      "గ": 207,
      "ఘ": 208,
      "చ": 209,
      "ఛ": 210,
      "జ": 211,
      "ఞ": 212,
      "ట": 213,
      "ఠ": 214,
      "డ": 215,
      "ఢ": 216,
      "ణ": 217,
      "త": 218,
      "థ": 219,
      "ద": 220,
      "ధ": 221,
      "న": 222,
      "ప": 223,
      "ఫ": 224,
      "బ": 225,
      "భ": 226,
      "మ": 227,
      "య": 228,
      "ర": 229,
      "ల": 230,
      "ళ": 231,
      "వ": 232,
      "శ": 233,
      "ష": 234,
      "స": 235,
      "హ": 236,
      "ా": 237,
      "ి": 238,
      "ీ": 239,
      "ు": 240,
      "ూ": 241,
      "ృ": 242,
      "ె": 243,
      "ే": 244,
      "ై": 245,
      "ొ": 246,
      "ో": 247,
      "ౌ": 248,
      "్": 249,
      "ṅ": 250,
      "ṇ": 251,
      "ṣ": 252,
      "ṭ": 253,
      "Ἰ": 254,
      "​": 255,
      "‌": 256,
      "‍": 257,
      "–": 258,
      "—": 259,
      "―": 260,
      "‘": 261,
      "’": 262,
      "“": 263,
      "”": 264,
      "†": 265,
      "′": 266,
      "₹": 267,
      "an": 268,
      "in": 269,
      "th": 270,
      "er": 271,
      "en": 272,
      "on": 273,
      "es": 274,
      "al": 275,
      "the": 276,
      "ar": 277,
      "as": 278,
      "di": 279,
      "or": 280,
      "ti": 281,
      "de": 282,
      "In": 283,
      "ed": 284,
      "and": 285,
      "re": 286,
      "is": 287,
      "la": 288,
      "Indi": 289,
      "os": 290,
      "of": 291,
      "ent": 292,
      "ci": 293,
      "om": 294,
      "India": 295,
      "at": 296,
      "el": 297,
      "==": 298,
      "ic": 299,
      "ing": 300,
      "ur": 301,
      "it": 302,
      "to": 303,
      "ad": 304,
      "్ర": 305,
      "un": 306,
      "tion": 307,
      "con": 308,
      "tr": 309,
      "ार": 310,
      "ార": 311,
      "li": 312,
      "am": 313,
      "्र": 314,
      "के": 315,
      "లు": 316,
      "le": 317,
      "us": 318,
      "ter": 319,
      "te": 320,
      "pr": 321,
      "ें": 322,
      "ch": 323,
      "se": 324,
      "में": 325,
      "19": 326,
      "ol": 327,
      "ly": 328,
      "ver": 329,
      "ul": 330,
      "Th": 331,
      "il": 332,
      "లో": 333,
      "है": 334,
      "స్": 335,
      "for": 336,
      "gr": 337,
      "्य": 338,
      "20": 339,
      "est": 340,
      "్య": 341,
      "im": 342,
      "be": 343,
      "ma": 344,
      "op": 345,
      "The": 346,
      "ce": 347,
      "న్": 348,
      "su": 349,
      "भार": 350,
      "भारत": 351,
      "ment": 352,
      "si": 353,
      "com": 354,
      "ow": 355,
      "ది": 356,
      "qu": 357,
      "का": 358,
      "===": 359,
      "దే": 360,
      "ప్ర": 361,
      "ab": 362,
      "ిం": 363,
      "par": 364,
      "र्": 365,
      "ir": 366,
      "దేశ": 367,
      "st": 368,
      "ాల": 369,
      "so": 370,
      "by": 371,
      "Indian": 372,
      "s,": 373,
      "ve": 374,
      "ిక": 375,
      "por": 376,
      "ర్": 377,
      "od": 378,
      "భార": 379,
      "ri": 380,
      "co": 381,
      "या": 382,
      "ों": 383,
      "భారత": 384,
      "ct": 385,
      "ation": 386,
      "las": 387,
      "los": 388,
      "ex": 389,
      "की": 390,
      "id": 391,
      "tic": 392,
      "న్న": 393,
      "और": 394,
      "ాలు": 395,
      "wi": 396,
      "से": 397,
      "ón": 398,
      "स्": 399,
      "00": 400,
      "em": 401,
      "ag": 402,
      "gh": 403,
      "a,": 404,
      "'s": 405,
      "s.": 406,
      "प्र": 407,
      "wh": 408,
      "per": 409,
      "ou": 410,
      "ने": 411,
      "ere": 412,
      "ist": 413,
      "pe": 414,
      "with": 415,
      "रा": 416,
      "was": 417,
      "del": 418,
      "ra": 419,
      "es,": 420,
      "tu": 421,
      "ang": 422,
      "గా": 423,
      "ion": 424,
      "ना": 425,
      "िक": 426,
      "fr": 427,
      "ది.": 428,
      "aci": 429,
      "oc": 430,
      "que": 431,
      "కు": 432,
      "ast": 433,
      "ని": 434,
      "क्": 435,
      "ता": 436,
      "వి": 437,
      "sh": 438,
      "ాయ": 439,
      "है।": 440,
      "has": 441,
      "वि": 442,
      "inc": 443,
      "over": 444,
      "క్": 445,
      "ాత": 446,
      "lu": 447,
      "ally": 448,
      "ant": 449,
      "ac": 450,
      "था": 451,
      "मा": 452,
      "ap": 453,
      "ern": 454,
      "ich": 455,
      "do": 456,
      "mil": 457,
      "from": 458,
      "are": 459,
      "దేశం": 460,
      "ीय": 461,
      ".​": 462,
      "ay": 463,
      "िया": 464,
      "ాన": 465,
      "cent": 466,
      "ha": 467,
      "ob": 468,
      "uc": 469,
      "ig": 470,
      "सा": 471,
      "et": 472,
      "lar": 473,
      "um": 474,
      "which": 475,
      "me": 476,
      "రా": 477,
      "్ట": 478,
      "ut": 479,
      "ari": 480,
      "न्": 481,
      "ను": 482,
      "पर": 483,
      "ong": 484,
      "ate": 485,
      "ind": 486,
      "ear": 487,
      "mar": 488,
      "सं": 489,
      "ales": 490,
      "min": 491,
      "ec": 492,
      "कर": 493,
      "ండ": 494,
      "ము": 495,
      "der": 496,
      "y,": 497,
      "its": 498,
      "ism": 499,
      "má": 500,
      "ति": 501,
      "ీయ": 502,
      "tra": 503,
      "क्ष": 504,
      "gen": 505,
      "ta": 506,
      "ద్": 507,
      "ిన": 508,
      "res": 509,
      "hi": 510,
      "vi": 511,
      "no": 512,
      "त्र": 513,
      "rit": 514,
      "को": 515,
      "త్": 516,
      "econ": 517,
      "lo": 518,
      "India's": 519,
      "reg": 520,
      "తి": 521,
      "ల్": 522,
      "స్త": 523,
      "form": 524,
      "ించ": 525,
      "indi": 526,
      "es.": 527,
      "201": 528,
      "भा": 529,
      "wor": 530,
      "were": 531,
      "ado": 532,
      "tern": 533,
      "port": 534,
      "हैं": 535,
      "larg": 536,
      "end": 537,
      "cul": 538,
      "ak": 539,
      "nor": 540,
      "up": 541,
      "जा": 542,
      "más": 543,
      "Con": 544,
      "cial": 545,
      "200": 546,
      "ous": 547,
      "ంత": 548,
      "low": 549,
      "ity": 550,
      "हु": 551,
      "రి": 552,
      "राज": 553,
      "ber": 554,
      "ary": 555,
      "af": 556,
      "bi": 557,
      "des": 558,
      "ess": 559,
      "econom": 560,
      "సం": 561,
      "India,": 562,
      "वा": 563,
      "ones": 564,
      "ente": 565,
      "ld": 566,
      "mi": 567,
      "दे": 568,
      "sub": 569,
      "Ch": 570,
      "ud": 571,
      "una": 572,
      "man": 573,
      "రు": 574,
      "ated": 575,
      "हा": 576,
      "o,": 577,
      "ro": 578,
      "ड़": 579,
      "పు": 580,
      "ులు": 581,
      "ans": 582,
      "titu": 583,
      "1,": 584,
      "tri": 585,
      "ical": 586,
      "స్థ": 587,
      "ame": 588,
      "minis": 589,
      "ough": 590,
      "overn": 591,
      "tw": 592,
      "pla": 593,
      "La": 594,
      "ca": 595,
      "fe": 596,
      "ni": 597,
      "En": 598,
      "po": 599,
      "कार": 600,
      "ంట": 601,
      "ింది.": 602,
      "ాయి": 603,
      "ved": 604,
      "त्": 605,
      "all": 606,
      "cu": 607,
      "tin": 608,
      "ía": 609,
      "िय": 610,
      "భారతదేశం": 611,
      "ación": 612,
      "gan": 613,
      "oth": 614,
      "ts": 615,
      "lion": 616,
      "age": 617,
      "overnment": 618,
      "ain": 619,
      "पा": 620,
      "ित": 621,
      "inclu": 622,
      "ada": 623,
      "ంలో": 624,
      "భా": 625,
      "ైన": 626,
      "ori": 627,
      "ción": 628,
      "as,": 629,
      "tem": 630,
      "CE": 631,
      "pop": 632,
      "stitu": 633,
      "ance": 634,
      "ely": 635,
      "uring": 636,
      "eral": 637,
      "ంగ": 638,
      "ded": 639,
      "tur": 640,
      "mo": 641,
      "ला": 642,
      "region": 643,
      "Asi": 644,
      "into": 645,
      "centur": 646,
      "fi": 647,
      "ూడ": 648,
      "ost": 649,
      "prim": 650,
      "ine": 651,
      "India.": 652,
      "),": 653,
      "a.": 654,
      "contin": 655,
      "199": 656,
      "ాయి.": 657,
      "pi": 658,
      "pro": 659,
      "angu": 660,
      "fir": 661,
      "भारतीय": 662,
      "pu": 663,
      "und": 664,
      "pres": 665,
      "भी": 666,
      "ान": 667,
      "eng": 668,
      "mer": 669,
      "lig": 670,
      "ture": 671,
      "north": 672,
      "pre": 673,
      "ser": 674,
      "cre": 675,
      "ంగా": 676,
      "ంది.": 677,
      "ధిక": 678,
      "వా": 679,
      "సా": 680,
      "క్ష": 681,
      "ding": 682,
      "कि": 683,
      "195": 684,
      "देश": 685,
      "Hind": 686,
      "peri": 687,
      "ఉన్న": 688,
      "పా": 689,
      "ారు": 690,
      "ati": 691,
      "ban": 692,
      "ty": 693,
      "नि": 694,
      "सम": 695,
      "196": 696,
      "्या": 697,
      "हैं।": 698,
      "but": 699,
      "government": 700,
      "langu": 701,
      "year": 702,
      "dis": 703,
      "ore": 704,
      "द्": 705,
      "शा": 706,
      "టి": 707,
      "ార్": 708,
      "000": 709,
      "tradi": 710,
      "ne": 711,
      "tan": 712,
      "तथा": 713,
      "ली": 714,
      "ome": 715,
      "cr": 716,
      "came": 717,
      "ंग": 718,
      "इस": 719,
      "तर": 720,
      "्ट": 721,
      "ali": 722,
      "peci": 723,
      "world": 724,
      "relig": 725,
      "odern": 726,
      "aj": 727,
      "av": 728,
      "fer": 729,
      "pan": 730,
      "ten": 731,
      "एक": 732,
      "ిత": 733,
      "్చ": 734,
      "Sou": 735,
      "mon": 736,
      "pa": 737,
      "ple": 738,
      "sy": 739,
      "ted": 740,
      "ence": 741,
      "lation": 742,
      "first": 743,
      "वर्": 744,
      "हि": 745,
      "ica": 746,
      "lear": 747,
      "ok": 748,
      "ती": 749,
      "दी": 750,
      "हो": 751,
      "राज्य": 752,
      "har": 753,
      "iv": 754,
      "ue": 755,
      "diver": 756,
      "202": 757,
      "al,": 758,
      "elec": 759,
      "sou": 760,
      "bl": 761,
      "cas": 762,
      "hist": 763,
      "lit": 764,
      "inf": 765,
      "बा": 766,
      "ం,": 767,
      "ష్ట": 768,
      "og": 769,
      "art": 770,
      "entr": 771,
      "मि": 772,
      "como": 773,
      "cor": 774,
      "during": 775,
      "fo": 776,
      "had": 777,
      "land": 778,
      "used": 779,
      "became": 780,
      "after": 781,
      "stitution": 782,
      "sys": 783,
      "जि": 784,
      "ते": 785,
      "रू": 786,
      "కూడ": 787,
      "జాత": 788,
      "urban": 789,
      "ప్రా": 790,
      "రాజ": 791,
      "El": 792,
      "sig": 793,
      "Congr": 794,
      "0,": 795,
      "dos": 796,
      "modern": 797,
      "ins": 798,
      "ene": 799,
      "ish": 800,
      "para": 801,
      "ambi": 802,
      "ular": 803,
      "clas": 804,
      "ting": 805,
      "án": 806,
      "पू": 807,
      "కో": 808,
      "క్ర": 809,
      "estern": 810,
      "also": 811,
      "ased": 812,
      "omin": 813,
      "ates": 814,
      "been": 815,
      "mente": 816,
      "cted": 817,
      "have": 818,
      "largest": 819,
      "pire": 820,
      "south": 821,
      "system": 822,
      "uclear": 823,
      "imal": 824,
      "mill": 825,
      "bre": 826,
      "ru": 827,
      "incre": 828,
      "Hindu": 829,
      "18": 830,
      "i,": 831,
      "sus": 832,
      "मु": 833,
      "श्": 834,
      "కా": 835,
      "చ్చ": 836,
      "ట్ట": 837,
      "నే": 838,
      "మొ": 839,
      "dev": 840,
      "र्व": 841,
      "most": 842,
      "more": 843,
      "tive": 844,
      "os,": 845,
      "such": 846,
      "ational": 847,
      "million": 848,
      "minister": 849,
      "jor": 850,
      "acion": 851,
      "sur": 852,
      "7,": 853,
      "ces": 854,
      "long": 855,
      "num": 856,
      "war": 857,
      "जन": 858,
      "षा": 859,
      "ంచ": 860,
      "దు": 861,
      "పే": 862,
      "మా": 863,
      "యా": 864,
      "tiv": 865,
      "భారతీయ": 866,
      "Com": 867,
      "Un": 868,
      "gre": 869,
      "tim": 870,
      "194": 871,
      "able": 872,
      "medi": 873,
      "led": 874,
      "mic": 875,
      "son": 876,
      "y.": 877,
      "किया": 878,
      "नी": 879,
      "सर": 880,
      "that": 881,
      "leg": 882,
      "major": 883,
      "tradition": 884,
      "South": 885,
      "Congress": 886,
      "mu": 887,
      "pos": 888,
      "Ar": 889,
      "fic": 890,
      "sin": 891,
      "én": 892,
      "ंत्र": 893,
      "तक": 894,
      "ही": 895,
      "నా": 896,
      "రై": 897,
      "లి": 898,
      "వ్య": 899,
      "సి": 900,
      "్ల": 901,
      "olog": 902,
      "త్వ": 903,
      "gu": 904,
      "Ma": 905,
      "pl": 906,
      "pen": 907,
      "ados": 908,
      "subcontin": 909,
      "Em": 910,
      "both": 911,
      "under": 912,
      "grow": 913,
      "coun": 914,
      "tical": 915,
      "two": 916,
      "prime": 917,
      "mus": 918,
      "अन": 919,
      "द्र": 920,
      "धिक": 921,
      "తర": 922,
      "వాత": 923,
      "197": 924,
      "రాష్ట": 925,
      "not": 926,
      "akist": 927,
      "ారు.": 928,
      "జాతీయ": 929,
      "రాష్ట్ర": 930,
      "1.": 931,
      "Bud": 932,
      "br": 933,
      "An": 934,
      "Pakist": 935,
      "een": 936,
      "ची": 937,
      "ले": 938,
      "erg": 939,
      "स्था": 940,
      "5,": 941,
      "str": 942,
      "ament": 943,
      "198": 944,
      "BCE": 945,
      "ever": 946,
      "ulation": 947,
      "ंध": 948,
      "िण": 949,
      "గు": 950,
      "తో": 951,
      "వచ్చ": 952,
      "ther": 953,
      "though": 954,
      "eron": 955,
      "enci": 956,
      "isation": 957,
      "ite": 958,
      "main": 959,
      "ికి": 960,
      "riti": 961,
      "out": 962,
      "ద్ధ": 963,
      "ల్ల": 964,
      "economic": 965,
      "years": 966,
      "caste": 967,
      "class": 968,
      "til": 969,
      "lim": 970,
      "parti": 971,
      "Budd": 972,
      "tre": 973,
      "लि": 974,
      "ष्ट": 975,
      "१९": 976,
      "dec": 977,
      "soci": 978,
      "साथ": 979,
      "agr": 980,
      "anges": 981,
      "milit": 982,
      "6%": 983,
      "bel": 984,
      "hum": 985,
      "ual": 986,
      "ís": 987,
      "धान": 988,
      "प्": 989,
      "यु": 990,
      "అధిక": 991,
      "కొ": 992,
      "ఖ్య": 993,
      "డు": 994,
      "పాల": 995,
      "మైన": 996,
      "వే": 997,
      "ando": 998,
      "భారతదేశ": 999,
      "ాలు,": 1000,
      "ంత్ర": 1001,
      "blic": 1002,
      "Briti": 1003,
      "ev": 1004,
      "kh": 1005,
      "this": 1006,
      "their": 1007,
      "tions": 1008,
      "life": 1009,
      "population": 1010,
      "language": 1011,
      "divers": 1012,
      "number": 1013,
      "Empire": 1014,
      "British": 1015,
      "17": 1016,
      "añ": 1017,
      "fol": 1018,
      "hab": 1019,
      "territ": 1020,
      "may": 1021,
      "मान": 1022,
      "भाषा": 1023,
      "Asia": 1024,
      "influ": 1025,
      "ambién": 1026,
      "ogr": 1027,
      "contr": 1028,
      "try": 1029,
      "ced": 1030,
      "pob": 1031,
      "उत्": 1032,
      "दो": 1033,
      "दक्ष": 1034,
      "ोग": 1035,
      "ఒక": 1036,
      "కాల": 1037,
      "డి": 1038,
      "ణా": 1039,
      "ద్ర": 1040,
      "మార్": 1041,
      "as.": 1042,
      "own": 1043,
      "ండి": 1044,
      "क्षे": 1045,
      "शास": 1046,
      "liter": 1047,
      "दक्षिण": 1048,
      "2,": 1049,
      "col": 1050,
      "han": 1051,
      "nuclear": 1052,
      "Ind": 1053,
      "Al": 1054,
      "dance": 1055,
      "ef": 1056,
      "ies": 1057,
      "o.": 1058,
      "ving": 1059,
      "western": 1060,
      "री": 1061,
      "ante": 1062,
      "Indo": 1063,
      "cond": 1064,
      "ami": 1065,
      "betw": 1066,
      "began": 1067,
      "sup": 1068,
      "ctor": 1069,
      "ism,": 1070,
      "large": 1071,
      "lowing": 1072,
      "many": 1073,
      "हिन्": 1074,
      "सरकार": 1075,
      "Pakistan": 1076,
      "between": 1077,
      "Eur": 1078,
      "Mu": 1079,
      "can": 1080,
      "fin": 1081,
      "ya": 1082,
      "ages": 1083,
      "territori": 1084,
      "Beng": 1085,
      "nacion": 1086,
      "ओं": 1087,
      "गया": 1088,
      "जी": 1089,
      "वी": 1090,
      "ఉంది.": 1091,
      "చే": 1092,
      "తం": 1093,
      "ధ్య": 1094,
      "శా": 1095,
      "్‌": 1096,
      "este": 1097,
      "amente": 1098,
      "्रे": 1099,
      "ింద": 1100,
      "र्म": 1101,
      "దేశాల": 1102,
      "ులు,": 1103,
      "बाद": 1104,
      "వ్యవ": 1105,
      "क्षेत्र": 1106,
      "gl": 1107,
      "our": 1108,
      "tal": 1109,
      "set": 1110,
      "cultur": 1111,
      "cri": 1112,
      "her": 1113,
      "ún": 1114,
      "यह": 1115,
      "ciones": 1116,
      "ural": 1117,
      "part": 1118,
      "social": 1119,
      "public": 1120,
      "रूप": 1121,
      "Af": 1122,
      "It": 1123,
      "au": 1124,
      "ach": 1125,
      "men": 1126,
      "mun": 1127,
      "pow": 1128,
      "rough": 1129,
      "speci": 1130,
      "ure": 1131,
      "we": 1132,
      "on-": 1133,
      "ree": 1134,
      "later": 1135,
      "ose": 1136,
      "prod": 1137,
      "river": 1138,
      "general": 1139,
      "northern": 1140,
      "world's": 1141,
      "power": 1142,
      "cada": 1143,
      "ge": 1144,
      "he": 1145,
      "red": 1146,
      "some": 1147,
      "también": 1148,
      "ढ़": 1149,
      "ంది": 1150,
      "ఎన్న": 1151,
      "కి": 1152,
      "టు": 1153,
      "పార": 1154,
      "పంచ": 1155,
      "ాబ": 1156,
      "ాన్": 1157,
      "ese": 1158,
      "ento": 1159,
      "ultan": 1160,
      "న్ని": 1161,
      "భారతదేశంలో": 1162,
      "ఉన్నాయి.": 1163,
      "mayor": 1164,
      "Ne": 1165,
      "car": 1166,
      "cient": 1167,
      "ades": 1168,
      "Chin": 1169,
      "Re": 1170,
      "bu": 1171,
      "pol": 1172,
      "कृ": 1173,
      "बसे": 1174,
      "सबसे": 1175,
      "one": 1176,
      "orig": 1177,
      "prop": 1178,
      "प्रा": 1179,
      "poli": 1180,
      "जिस": 1181,
      "ven": 1182,
      "za": 1183,
      "religi": 1184,
      "Mugh": 1185,
      "2.": 1186,
      "By": 1187,
      "Los": 1188,
      "fa": 1189,
      "ket": 1190,
      "rate": 1191,
      "t,": 1192,
      "दि": 1193,
      "बहु": 1194,
      "చె": 1195,
      "డ్": 1196,
      "ధాన": 1197,
      "పె": 1198,
      "ిన్న": 1199,
      "ీ,": 1200,
      "ెండ": 1201,
      "than": 1202,
      "there": 1203,
      "elop": 1204,
      "ited": 1205,
      "among": 1206,
      "ope": 1207,
      "sion": 1208,
      "ర్వ": 1209,
      "cour": 1210,
      "ght": 1211,
      "peop": 1212,
      "aph": 1213,
      "other": 1214,
      "including": 1215,
      "election": 1216,
      "increased": 1217,
      "मुख": 1218,
      "since": 1219,
      "subcontinent": 1220,
      "classical": 1221,
      "మార్గ": 1222,
      "వ్యవస్థ": 1223,
      "After": 1224,
      ").": 1225,
      "Himal": 1226,
      "pend": 1227,
      "asi": 1228,
      "centr": 1229,
      "Himalay": 1230,
      "5.": 1231,
      "पु": 1232,
      "ele": 1233,
      "gran": 1234,
      "emerg": 1235,
      "ign": 1236,
      "2011": 1237,
      "religion": 1238,
      "ष्ट्र": 1239,
      "Bengal": 1240,
      "origin": 1241,
      "bil": 1242,
      "late": 1243,
      "import": 1244,
      "period": 1245,
      "Mughal": 1246,
      "jab": 1247,
      "अप": 1248,
      "सि": 1249,
      "सी": 1250,
      "ంబ": 1251,
      "కృ": 1252,
      "కే": 1253,
      "కార": 1254,
      "తు": 1255,
      "దా": 1256,
      "మత": 1257,
      "హింద": 1258,
      "dic": 1259,
      "tiene": 1260,
      "unjab": 1261,
      "ానికి": 1262,
      "స్తు": 1263,
      "ministr": 1264,
      "ंग्रे": 1265,
      "país": 1266,
      "वर्ष": 1267,
      "కూడా": 1268,
      "మొద": 1269,
      "అధికార": 1270,
      "0.": 1271,
      "26": 1272,
      "S$": 1273,
      "US$": 1274,
      "cen": 1275,
      "fu": 1276,
      "king": 1277,
      "mid": 1278,
      "west": 1279,
      "enni": 1280,
      "especi": 1281,
      "dire": 1282,
      "ise": 1283,
      "ised": 1284,
      "ures": 1285,
      "constitution": 1286,
      "liament": 1287,
      "cho": 1288,
      "fore": 1289,
      "parliament": 1290,
      "sty": 1291,
      "state": 1292,
      "gener": 1293,
      "high": 1294,
      "new": 1295,
      "rule": 1296,
      "develop": 1297,
      "diversity": 1298,
      "people": 1299,
      "-d": 1300,
      "4%": 1301,
      "Punjab": 1302,
      "fed": 1303,
      "gar": 1304,
      "जो": 1305,
      "बंध": 1306,
      "सार": 1307,
      "inde": 1308,
      "ores": 1309,
      "icul": 1310,
      "amp": 1311,
      "है,": 1312,
      "स्व": 1313,
      "द्ध": 1314,
      "पूर्व": 1315,
      "encia": 1316,
      "agricul": 1317,
      "control": 1318,
      "pobla": 1319,
      "Centr": 1320,
      "da": 1321,
      "jo": 1322,
      "vari": 1323,
      "entre": 1324,
      "adas": 1325,
      "present": 1326,
      "Del": 1327,
      "Sans": 1328,
      "ath": 1329,
      "den": 1330,
      "ga": 1331,
      "loc": 1332,
      "és": 1333,
      "धर्म": 1334,
      "కర": 1335,
      "ట్": 1336,
      "త్ర": 1337,
      "త్య": 1338,
      "దక్ష": 1339,
      "పర": 1340,
      "పరి": 1341,
      "మీ": 1342,
      "మే": 1343,
      "మధ్య": 1344,
      "వర": 1345,
      "సు": 1346,
      "ి,": 1347,
      "cion": 1348,
      "trans": 1349,
      "्रा": 1350,
      "ప్రపంచ": 1351,
      "ప్రధాన": 1352,
      "parte": 1353,
      "र्थ": 1354,
      "ido": 1355,
      "स्त": 1356,
      "राष्ट्र": 1357,
      "ange": 1358,
      "ద్ద": 1359,
      "స్థాన": 1360,
      "భాష": 1361,
      "ప్రాంత": 1362,
      "రాజ్య": 1363,
      "పేరు": 1364,
      "రైలు": 1365,
      "human": 1366,
      "Wor": 1367,
      "cur": 1368,
      "fami": 1369,
      "vo": 1370,
      "vir": 1371,
      "era": 1372,
      "cip": 1373,
      "Indo-": 1374,
      "World": 1375,
      "3,": 1376,
      "As": 1377,
      "Gand": 1378,
      "Mus": 1379,
      "Se": 1380,
      "ión": 1381,
      "iern": 1382,
      "krit": 1383,
      "ned": 1384,
      "non-": 1385,
      "put": 1386,
      "sing": 1387,
      "ually": 1388,
      "अधिक": 1389,
      "थी": 1390,
      "दिया": 1391,
      "पार": 1392,
      "मी": 1393,
      "लग": 1394,
      "सद": 1395,
      "through": 1396,
      "ered": 1397,
      "them": 1398,
      "thema": 1399,
      "asing": 1400,
      "time": 1401,
      "ately": 1402,
      "lead": 1403,
      "tech": 1404,
      "forest": 1405,
      "vement": 1406,
      "माण": 1407,
      "obiern": 1408,
      "ismo": 1409,
      "work": 1410,
      "caused": 1411,
      "served": 1412,
      "pany": 1413,
      "मिल": 1414,
      "millenni": 1415,
      "श्व": 1416,
      "military": 1417,
      "ograph": 1418,
      "शासन": 1419,
      "Indus": 1420,
      "Europe": 1421,
      "Delhi": 1422,
      "Sanskrit": 1423,
      "Gandhi": 1424,
      "millennium": 1425,
      "BJ": 1426,
      "Des": 1427,
      "Is": 1428,
      "pic": 1429,
      "roc": 1430,
      "inv": 1431,
      "dem": 1432,
      "rela": 1433,
      "abl": 1434,
      "indus": 1435,
      "central": 1436,
      "BJP": 1437,
      "0%": 1438,
      "ंड": 1439,
      "बी": 1440,
      "रे": 1441,
      "ल्": 1442,
      "దాయ": 1443,
      "ప్": 1444,
      "వార": 1445,
      "వర్": 1446,
      "సభ": 1447,
      "ann": 1448,
      "div": 1449,
      "amil": 1450,
      "नाम": 1451,
      "विश्व": 1452,
      "క్కు": 1453,
      "ాత్ర": 1454,
      "దేశంలో": 1455,
      "साम": 1456,
      "popular": 1457,
      "క్రీ": 1458,
      "चीन": 1459,
      "mundo": 1460,
      "పార్ట": 1461,
      "దక్షి": 1462,
      "3.": 1463,
      "Ganges": 1464,
      "Si": 1465,
      "mit": 1466,
      "nolog": 1467,
      "rural": 1468,
      "yan": 1469,
      "ash": 1470,
      "ust": 1471,
      "ident": 1472,
      "music": 1473,
      "15": 1474,
      "4,": 1475,
      "42": 1476,
      "Jan": 1477,
      "bo": 1478,
      "bar": 1479,
      "bas": 1480,
      "bir": 1481,
      "कु": 1482,
      "बना": 1483,
      "लो": 1484,
      "ura": 1485,
      "cons": 1486,
      "ida": 1487,
      "1947,": 1488,
      "प्त": 1489,
      "उत्तर": 1490,
      "población": 1491,
      "obierno": 1492,
      "-largest": 1493,
      "Am": 1494,
      "east": 1495,
      "far": 1496,
      "ke": 1497,
      "inter": 1498,
      "oni": 1499,
      "theast": 1500,
      "ell": 1501,
      "becom": 1502,
      "mathema": 1503,
      "owever": 1504,
      "cook": 1505,
      "ation,": 1506,
      "ext": 1507,
      "wide": 1508,
      "who": 1509,
      "uced": 1510,
      "culture": 1511,
      "century": 1512,
      "cording": 1513,
      "majority": 1514,
      "crip": 1515,
      "billion": 1516,
      "Muslim": 1517,
      "owever,": 1518,
      "10": 1519,
      "6,": 1520,
      "ped": 1521,
      "चु": 1522,
      "तु": 1523,
      "बड़": 1524,
      "అయ": 1525,
      "ఆర్": 1526,
      "జనా": 1527,
      "నాలు": 1528,
      "భు": 1529,
      "రో": 1530,
      "రెండ": 1531,
      "లం": 1532,
      "లా": 1533,
      "వె": 1534,
      "anti": 1535,
      "contri": 1536,
      "tex": 1537,
      "prin": 1538,
      "ప్రజ": 1539,
      "ప్రభు": 1540,
      "स्ता": 1541,
      "ించింది.": 1542,
      "हुआ": 1543,
      "हुई": 1544,
      "निर्": 1545,
      "अनु": 1546,
      "హిందూ": 1547,
      "federal": 1548,
      "30": 1549,
      "cin": 1550,
      "cap": 1551,
      "dam": 1552,
      "dial": 1553,
      "export": 1554,
      "emp": 1555,
      "Mo": 1556,
      "Par": 1557,
      "Plate": 1558,
      "dom": 1559,
      "ho": 1560,
      "lan": 1561,
      "mb": 1562,
      "otr": 1563,
      "pas": 1564,
      "vil": 1565,
      "चि": 1566,
      "ज़": 1567,
      "ध्य": 1568,
      "भू": 1569,
      "म्": 1570,
      "मंत्र": 1571,
      "वार": 1572,
      "व्य": 1573,
      "ैन": 1574,
      "ोड़": 1575,
      "००": 1576,
      "ers": 1577,
      "aron": 1578,
      "iste": 1579,
      "sobre": 1580,
      "सेना": 1581,
      "जाता": 1582,
      "1950": 1583,
      "हिन्दी": 1584,
      "bal": 1585,
      "cal": 1586,
      "cos": 1587,
      "ron": 1588,
      "dif": 1589,
      "os.": 1590,
      "prom": 1591,
      "old": 1592,
      "ocra": 1593,
      "famili": 1594,
      "16": 1595,
      "2%": 1596,
      "25": 1597,
      "East": 1598,
      "Jain": 1599,
      "bac": 1600,
      "dan": 1601,
      "dle": 1602,
      "eas": 1603,
      "hat": 1604,
      "iz": 1605,
      "ked": 1606,
      "ning": 1607,
      "sultan": 1608,
      "uct": 1609,
      "ves": 1610,
      "val": 1611,
      "wom": 1612,
      "ंद्र": 1613,
      "दा": 1614,
      "लय": 1615,
      "ంద్ర": 1616,
      "ఇతర": 1617,
      "తా": 1618,
      "తరు": 1619,
      "పూ": 1620,
      "పో": 1621,
      "మన": 1622,
      "మి": 1623,
      "లకు": 1624,
      "వీ": 1625,
      "వు": 1626,
      "శ్ర": 1627,
      "ష్": 1628,
      "ీన": 1629,
      "thir": 1630,
      "arn": 1631,
      "dist": 1632,
      "ory": 1633,
      "ties": 1634,
      "use": 1635,
      "ly,": 1636,
      "ild": 1637,
      "స్కృ": 1638,
      "made": 1639,
      "ments": 1640,
      "common": 1641,
      "काल": 1642,
      "party": 1643,
      "ాల్": 1644,
      "coast": 1645,
      "ations": 1646,
      "tics": 1647,
      "स्कृ": 1648,
      "aciones": 1649,
      "antes": 1650,
      "early": 1651,
      "ecu": 1652,
      "ముఖ్య": 1653,
      "tain": 1654,
      "స్త్ర": 1655,
      "ించిన": 1656,
      "economy": 1657,
      "plain": 1658,
      "feat": 1659,
      "include": 1660,
      "century,": 1661,
      "సాం": 1662,
      "देशों": 1663,
      "समय": 1664,
      "Company": 1665,
      "great": 1666,
      "times": 1667,
      "growth": 1668,
      "వచ్చింది.": 1669,
      "following": 1670,
      "influen": 1671,
      "nacional": 1672,
      "political": 1673,
      "religious": 1674,
      "పెద్ద": 1675,
      "court": 1676,
      "emerged": 1677,
      "క్కువ": 1678,
      "పార్టీ": 1679,
      "Sikh": 1680,
      "back": 1681,
      "women": 1682,
      "third": 1683,
      "9%": 1684,
      "Dem": 1685,
      "ble": 1686,
      "mal": 1687,
      "wa": 1688,
      "animal": 1689,
      "arm": 1690,
      "arr": 1691,
      "ice": 1692,
      "oder": 1693,
      "ficial": 1694,
      "Bi": 1695,
      "Man": 1696,
      "bor": 1697,
      "ling": 1698,
      "ub": 1699,
      "ític": 1700,
      "गा": 1701,
      "तिक": 1702,
      "बढ़": 1703,
      "महा": 1704,
      "रि": 1705,
      "रु": 1706,
      "वं": 1707,
      "ष्": 1708,
      "ond": 1709,
      "educ": 1710,
      "isla": 1711,
      "entes": 1712,
      "केंद्र": 1713,
      "comer": 1714,
      "स्थ": 1715,
      "नाव": 1716,
      "viol": 1717,
      "राज्यों": 1718,
      "हीं": 1719,
      "Andam": 1720,
      "7.": 1721,
      "Pro": 1722,
      "ba": 1723,
      "dur": 1724,
      "hous": 1725,
      "hru": 1726,
      "sa": 1727,
      "enti": 1728,
      "endo": 1729,
      "arch": 1730,
      "consi": 1731,
      "chos": 1732,
      "oper": 1733,
      "stat": 1734,
      "insular": 1735,
      "peninsular": 1736,
      "Nehru": 1737,
      "Central": 1738,
      "consider": 1739,
      "7%": 1740,
      "8,": 1741,
      "8.": 1742,
      "dé": 1743,
      "gún": 1744,
      "उप": 1745,
      "एश": 1746,
      "क्र": 1747,
      "खा": 1748,
      "टि": 1749,
      "टे": 1750,
      "दान": 1751,
      "वे": 1752,
      "ం.": 1753,
      "అతి": 1754,
      "ఉత్": 1755,
      "ఉంట": 1756,
      "గర": 1757,
      "గి": 1758,
      "గీ": 1759,
      "జరి": 1760,
      "పట్ట": 1761,
      "బడ": 1762,
      "బా": 1763,
      "బె": 1764,
      "బ్ర": 1765,
      "మహ": 1766,
      "లలో": 1767,
      "వంట": 1768,
      "ుకు": 1769,
      "ini": 1770,
      "os.​": 1771,
      "administr": 1772,
      "లు,": 1773,
      "్యం": 1774,
      "प्रमुख": 1775,
      "విధ": 1776,
      "संघ": 1777,
      "india": 1778,
      "nific": 1779,
      "ियों": 1780,
      "భాగ": 1781,
      "వాణా": 1782,
      "अन्य": 1783,
      "लिए": 1784,
      "మార్గాలు": 1785,
      "కేంద్ర": 1786,
      "local": 1787,
      "ప్ప": 1788,
      "క్రీడ": 1789,
      "అయిన": 1790,
      "జనాభా": 1791,
      "princip": 1792,
      "ప్రభుత్వ": 1793,
      "स्तान": 1794,
      "తరువాత": 1795,
      "1%": 1796,
      "13": 1797,
      "9.": 1798,
      "Bhar": 1799,
      "Hindi": 1800,
      "Its": 1801,
      "Raj": 1802,
      "based": 1803,
      "cup": 1804,
      "dra": 1805,
      "day": 1806,
      "eth": 1807,
      "ft": 1808,
      "fig": 1809,
      "kn": 1810,
      "national": 1811,
      "pain": 1812,
      "rul": 1813,
      "scul": 1814,
      "uj": 1815,
      "yed": 1816,
      "ancient": 1817,
      "ers,": 1818,
      "they": 1819,
      "dio": 1820,
      "remain": 1821,
      "ically": 1822,
      "ing,": 1823,
      "tion.": 1824,
      "liber": 1825,
      "second": 1826,
      "There": 1827,
      "coali": 1828,
      "occup": 1829,
      "marri": 1830,
      "market": 1831,
      "formed": 1832,
      "Constitution": 1833,
      "lower": 1834,
      "Engl": 1835,
      "movement": 1836,
      "fied": 1837,
      "pread": 1838,
      "histor": 1839,
      "found": 1840,
      "United": 1841,
      "grew": 1842,
      "country": 1843,
      "literac": 1844,
      "support": 1845,
      "census": 1846,
      "especially": 1847,
      "direct": 1848,
      "parliamentary": 1849,
      "European": 1850,
      "painting": 1851,
      "sculp": 1852,
      "English": 1853,
      "50": 1854,
      "Est": 1855,
      "II": 1856,
      "act": 1857,
      "fue": 1858,
      "rat": 1859,
      "va": 1860,
      "चा": 1861,
      "त्य": 1862,
      "नों": 1863,
      "सैन": 1864,
      "arti": 1865,
      "ofi": 1866,
      "ारी": 1867,
      "sever": 1868,
      "क्त": 1869,
      "हैं,": 1870,
      "जाति": 1871,
      "Buddh": 1872,
      "China": 1873,
      "ces,": 1874,
      "domin": 1875,
      "je": 1876,
      "kil": 1877,
      "ank": 1878,
      "organ": 1879,
      "defin": 1880,
      "lid": 1881,
      "forma": 1882,
      "comple": 1883,
      "1991": 1884,
      "histori": 1885,
      "produc": 1886,
      "independ": 1887,
      "4.": 1888,
      "Act": 1889,
      "Tamil": 1890,
      "bod": 1891,
      "go": 1892,
      "hel": 1893,
      "here": 1894,
      "mul": 1895,
      "pur": 1896,
      "ry": 1897,
      "ste": 1898,
      "अन्": 1899,
      "आध": 1900,
      "इन": 1901,
      "गर": 1902,
      "च्": 1903,
      "ज्य": 1904,
      "दश": 1905,
      "द्य": 1906,
      "पश्": 1907,
      "ब्": 1908,
      "रहा": 1909,
      "शु": 1910,
      "समा": 1911,
      "అనే": 1912,
      "ఇది": 1913,
      "ఎక్కువ": 1914,
      "ఏర్": 1915,
      "కీయ": 1916,
      "కలి": 1917,
      "గో": 1918,
      "గ్": 1919,
      "గిన": 1920,
      "జన": 1921,
      "టిక": 1922,
      "ణం": 1923,
      "బహ": 1924,
      "మంత్ర": 1925,
      "రవాణా": 1926,
      "లే": 1927,
      "లను": 1928,
      "సిం": 1929,
      "సరి": 1930,
      "ిల్ల": 1931,
      "eri": 1932,
      "enta": 1933,
      "్రా": 1934,
      "్రె": 1935,
      "teri": 1936,
      "sequ": 1937,
      "sum": 1938,
      "ప్రస్తు": 1939,
      "ప్రదాయ": 1940,
      "క్క": 1941,
      "था।": 1942,
      "संस्कृ": 1943,
      "करने": 1944,
      "స్తాన్": 1945,
      "indios": 1946,
      "िये": 1947,
      "ంగ్రె": 1948,
      "సాధ": 1949,
      "పాకి": 1950,
      "ंगा": 1951,
      "రాజకీయ": 1952,
      "కాంగ్రె": 1953,
      "legisla": 1954,
      "కాలంలో": 1955,
      "ందిన": 1956,
      "ఎన్నో": 1957,
      "ాబ్": 1958,
      "మొదటి": 1959,
      "fuer": 1960,
      "దక్షిణ": 1961,
      "पश्चि": 1962,
      "3%": 1963,
      "adi": 1964,
      "bro": 1965,
      "cast": 1966,
      "crit": 1967,
      "mas": 1968,
      "sit": 1969,
      "tt": 1970,
      "vast": 1971,
      "wo": 1972,
      "ental": 1973,
      "trod": 1974,
      "ley": 1975,
      "sector": 1976,
      "disput": 1977,
      "signific": 1978,
      "much": 1979,
      "40": 1980,
      "400": 1981,
      "Ac": 1982,
      "DP": 1983,
      "During": 1984,
      "Government": 1985,
      "GDP": 1986,
      "Mun": 1987,
      "National": 1988,
      "Pr": 1989,
      "Per": 1990,
      "St": 1991,
      "Western": 1992,
      "ai": 1993,
      "air": 1994,
      "c.": 1995,
      "ei": 1996,
      "edi": 1997,
      "equ": 1998,
      "fast": 1999,
      "ham": 2000,
      "line": 2001,
      "ound": 2002,
      "pli": 2003,
      "poder": 2004,
      "ren": 2005,
      "rates": 2006,
      "ty,": 2007,
      "vis": 2008,
      "won": 2009,
      "way": 2010,
      "well": 2011,
      "अम": 2012,
      "अंग्रे": 2013,
      "कई": 2014,
      "गण": 2015,
      "गी": 2016,
      "णा": 2017,
      "तंत्र": 2018,
      "नहीं": 2019,
      "पह": 2020,
      "मन": 2021,
      "मै": 2022,
      "मध्य": 2023,
      "योग": 2024,
      "सू": 2025,
      "हर": 2026,
      "ena": 2027,
      "ard": 2028,
      "reat": 2029,
      "republic": 2030,
      "represent": 2031,
      "oss": 2032,
      "often": 2033,
      "official": 2034,
      "cid": 2035,
      "ating": 2036,
      "urther": 2037,
      "adv": 2038,
      "union": 2039,
      "tion,": 2040,
      "्री": 2041,
      "term": 2042,
      "ched": 2043,
      "uld": 2044,
      "These": 2045,
      "commer": 2046,
      "compos": 2047,
      "Indians": 2048,
      "expan": 2049,
      "execu": 2050,
      "whose": 2051,
      "oup": 2052,
      "विधान": 2053,
      "ants": 2054,
      "ario": 2055,
      "earli": 2056,
      "econó": 2057,
      "ternal": 2058,
      "Constitu": 2059,
      "हुए": 2060,
      "desde": 2061,
      "कारण": 2062,
      "त्व": 2063,
      "alled": 2064,
      "पाकि": 2065,
      "incluy": 2066,
      "regional": 2067,
      "centuries": 2068,
      "five": 2069,
      "primer": 2070,
      "prote": 2071,
      "created": 2072,
      "Hindus": 2073,
      "perio": 2074,
      "languages": 2075,
      "इसके": 2076,
      "होता": 2077,
      "diverse": 2078,
      "lands": 2079,
      "ished": 2080,
      "southern": 2081,
      "longer": 2082,
      "traditional": 2083,
      "Buddhist": 2084,
      "propi": 2085,
      "प्राचीन": 2086,
      "styl": 2087,
      "technolog": 2088,
      "Isla": 2089,
      "Among": 2090,
      "become": 2091,
      "चुनाव": 2092,
      "अनुसार": 2093,
      "व्यव": 2094,
      "eastern": 2095,
      "sultanate": 2096,
      "comerci": 2097,
      "Andaman": 2098,
      "एशिया": 2099,
      "body": 2100,
      "sequent": 2101,
      "According": 2102,
      "Persi": 2103,
      "पाकिस्तान": 2104,
      "28": 2105,
      "cl": 2106,
      "hen": 2107,
      "ris": 2108,
      "uch": 2109,
      "vel": 2110,
      "wan": 2111,
      "ende": 2112,
      "estim": 2113,
      "ar,": 2114,
      "rep": 2115,
      "proc": 2116,
      "serv": 2117,
      "..": 2118,
      "Dec": 2119,
      "Ghat": 2120,
      "Nuclear": 2121,
      "baj": 2122,
      "fund": 2123,
      "ide": 2124,
      "leng": 2125,
      "oun": 2126,
      "siste": 2127,
      "tos": 2128,
      "xim": 2129,
      "कॉ": 2130,
      "गु": 2131,
      "धी": 2132,
      "न्या": 2133,
      "मो": 2134,
      "అత్య": 2135,
      "ఇండి": 2136,
      "ఉప": 2137,
      "క్య": 2138,
      "గల": 2139,
      "చిన్న": 2140,
      "పై": 2141,
      "పతి": 2142,
      "భూ": 2143,
      "మై": 2144,
      "మాన": 2145,
      "యు": 2146,
      "యో": 2147,
      "రంగ": 2148,
      "లతో": 2149,
      "వల": 2150,
      "శ్": 2151,
      "షు": 2152,
      "ా,": 2153,
      "ావర": 2154,
      "ుకో": 2155,
      "ెలు": 2156,
      "్మ": 2157,
      "edad": 2158,
      "reform": 2159,
      "entos": 2160,
      "cimi": 2161,
      "trop": 2162,
      "estado": 2163,
      "ప్రతి": 2164,
      "ాలలో": 2165,
      "ాలను": 2166,
      "idad": 2167,
      "emple": 2168,
      "प्रति": 2169,
      "प्रधान": 2170,
      "क्ति": 2171,
      "విస్త": 2172,
      ".​​": 2173,
      "न्ह": 2174,
      "संविधान": 2175,
      "करोड़": 2176,
      "ండు": 2177,
      "क्षा": 2178,
      "resul": 2179,
      "సంస్కృ": 2180,
      "సంగీ": 2181,
      "ड़ा": 2182,
      "ంగ్ల": 2183,
      "द्वार": 2184,
      "ిత్ర": 2185,
      "ప్రాచ": 2186,
      "క్రమ": 2187,
      "millones": 2188,
      "సిని": 2189,
      "సియా": 2190,
      "itect": 2191,
      "भाषाओं": 2192,
      "गया।": 2193,
      "శాస్త్ర": 2194,
      "्राज्य": 2195,
      "साम्राज्य": 2196,
      "लोक": 2197,
      "ఆర్ధిక": 2198,
      "भूमि": 2199,
      "मंत्री": 2200,
      "दशक": 2201,
      "సరిహ": 2202,
      "అత్యధిక": 2203,
      "ఇండియా": 2204,
      "tropical": 2205,
      ");": 2206,
      "6.": 2207,
      "Bra": 2208,
      "No": 2209,
      "Nor": 2210,
      "PA": 2211,
      "aver": 2212,
      "ep": 2213,
      "mir": 2214,
      "nat": 2215,
      "pat": 2216,
      "pay": 2217,
      "sm": 2218,
      "istic": 2219,
      "uni": 2220,
      "tres": 2221,
      "1965,": 2222,
      "185": 2223,
      "pendi": 2224,
      "coloni": 2225,
      "ashmir": 2226,
      "Brah": 2227,
      "Ade": 2228,
      "PI": 2229,
      "Sab": 2230,
      "ah": 2231,
      "dad": 2232,
      "hind": 2233,
      "ived": 2234,
      "jer": 2235,
      "pon": 2236,
      "ér": 2237,
      "úl": 2238,
      "ख्या": 2239,
      "गठ": 2240,
      "चल": 2241,
      "ब्र": 2242,
      "यू": 2243,
      "रह": 2244,
      "anos": 2245,
      "introd": 2246,
      "encu": 2247,
      "esti": 2248,
      "almente": 2249,
      "tici": 2250,
      "lament": 2251,
      "cia": 2252,
      "ata": 2253,
      "convir": 2254,
      "grand": 2255,
      "grad": 2256,
      "cep": 2257,
      "comun": 2258,
      "soon": 2259,
      "tica": 2260,
      "न्न": 2261,
      "संबंध": 2262,
      "vidi": 2263,
      "norte": 2264,
      "proxim": 2265,
      "सम्": 2266,
      "0,000": 2267,
      "पूर्": 2268,
      "acional": 2269,
      "किया।": 2270,
      "Maur": 2271,
      "subcontinente": 2272,
      "condu": 2273,
      "हिन्द": 2274,
      "mayoría": 2275,
      "polític": 2276,
      "ंग्रेस": 2277,
      "स्वतंत्र": 2278,
      "agricultur": 2279,
      "राष्ट्रीय": 2280,
      "पार्ट": 2281,
      "democra": 2282,
      "बीच": 2283,
      "capit": 2284,
      "durante": 2285,
      "Bharat": 2286,
      "मैदान": 2287,
      "económic": 2288,
      "चुनावों": 2289,
      "व्यवस्था": 2290,
      "द्वारा": 2291,
      "convirti": 2292,
      "35": 2293,
      "9,": 2294,
      "Cr": 2295,
      "De": 2296,
      "For": 2297,
      "Kashmir": 2298,
      "ade": 2299,
      "further": 2300,
      "gi": 2301,
      "hy": 2302,
      "however,": 2303,
      "ken": 2304,
      "lin": 2305,
      "mem": 2306,
      "now": 2307,
      "nomin": 2308,
      "rich": 2309,
      "rise": 2310,
      "spe": 2311,
      "spread": 2312,
      "tle": 2313,
      "uary": 2314,
      "wild": 2315,
      "three": 2316,
      "er,": 2317,
      "als": 2318,
      "alth": 2319,
      "along": 2320,
      "around": 2321,
      "ord": 2322,
      "ed,": 2323,
      "and,": 2324,
      "recor": 2325,
      "lat": 2326,
      "off": 2327,
      "elf": 2328,
      "total": 2329,
      "until": 2330,
      "tional": 2331,
      "am,": 2332,
      "left": 2333,
      "che": 2334,
      "olved": 2335,
      "This": 2336,
      "ility": 2337,
      "group": 2338,
      "establ": 2339,
      "states": 2340,
      "ods": 2341,
      "last": 2342,
      "empire": 2343,
      "angered": 2344,
      "shor": 2345,
      "anted": 2346,
      "ety": 2347,
      "genc": 2348,
      "resident": 2349,
      "worn": 2350,
      "endangered": 2351,
      "subsequent": 2352,
      "place": 2353,
      "poin": 2354,
      "CE,": 2355,
      "ative": 2356,
      "Southeast": 2357,
      "art,": 2358,
      "four": 2359,
      "system,": 2360,
      "increasing": 2361,
      "survi": 2362,
      "Union": 2363,
      "growing": 2364,
      "every": 2365,
      "habit": 2366,
      "Although": 2367,
      "glob": 2368,
      "species,": 2369,
      "election,": 2370,
      "religions": 2371,
      "kingdom": 2372,
      "mid-": 2373,
      "middle": 2374,
      "chool": 2375,
      "style": 2376,
      "leading": 2377,
      "ographic": 2378,
      "Sanskrit,": 2379,
      "rock": 2380,
      "January": 2381,
      "birth": 2382,
      "cooked": 2383,
      "widely": 2384,
      "emplo": 2385,
      "villa": 2386,
      "differ": 2387,
      "influenced": 2388,
      "education": 2389,
      "known": 2390,
      "literacy": 2391,
      "sculpture": 2392,
      "held": 2393,
      "multi": 2394,
      "significant": 2395,
      "executive": 2396,
      "earliest": 2397,
      "Persian": 2398,
      "member": 2399,
      "Gup": 2400,
      "Wi": 2401,
      "West": 2402,
      "gobierno": 2403,
      "ier": 2404,
      "idi": 2405,
      "nue": 2406,
      "oeste": 2407,
      "rá": 2408,
      "ram": 2409,
      "vida": 2410,
      "ws": 2411,
      "ás": 2412,
      "ías": 2413,
      "आर्थ": 2414,
      "ई।": 2415,
      "उन": 2416,
      "टी": 2417,
      "ण्": 2418,
      "तृ": 2419,
      "धि": 2420,
      "पी": 2421,
      "फ़": 2422,
      "बर": 2423,
      "बे": 2424,
      "मत": 2425,
      "रो": 2426,
      "लों": 2427,
      "ం:": 2428,
      "ంధ": 2429,
      "ఆధ": 2430,
      "కాలు": 2431,
      "గణ": 2432,
      "జ్య": 2433,
      "జాబ": 2434,
      "ట్ల": 2435,
      "ఢిల్ల": 2436,
      "ణి": 2437,
      "తిక": 2438,
      "తంత్ర": 2439,
      "దం": 2440,
      "దార": 2441,
      "ధి": 2442,
      "నె": 2443,
      "నడి": 2444,
      "పించ": 2445,
      "భిన్న": 2446,
      "మె": 2447,
      "మూడ": 2448,
      "మాత్ర": 2449,
      "రహ": 2450,
      "వై": 2451,
      "సౌ": 2452,
      "సము": 2453,
      "సింది.": 2454,
      "సమా": 2455,
      "హార": 2456,
      "ీ;": 2457,
      "ీర్": 2458,
      "ara": 2459,
      "astr": 2460,
      "ciud": 2461,
      "ato": 2462,
      "conso": 2463,
      "cha": 2464,
      "में,": 2465,
      "స్య": 2466,
      "స్వ": 2467,
      "స్వా": 2468,
      "está": 2469,
      "్యాయ": 2470,
      "imi": 2471,
      "ప్రము": 2472,
      "భారత్": 2473,
      "exten": 2474,
      "extre": 2475,
      "स्ट": 2476,
      "प्रदेश": 2477,
      "pero": 2478,
      "नेतृ": 2479,
      "frica": 2480,
      "వివిధ": 2481,
      "विका": 2482,
      "विस्त": 2483,
      "etari": 2484,
      "संख्या": 2485,
      "ales.": 2486,
      "ద్దు": 2487,
      "ritán": 2488,
      "जाती": 2489,
      "2001": 2490,
      "ంతో": 2491,
      "economía": 2492,
      "miem": 2493,
      "Asia,": 2494,
      "continu": 2495,
      "provi": 2496,
      "సామ": 2497,
      "1950,": 2498,
      "द्वी": 2499,
      "cris": 2500,
      "entras": 2501,
      "కోర్": 2502,
      "పేర్": 2503,
      "धिकार": 2504,
      "రాష్ట్రపతి": 2505,
      "स्थान": 2506,
      "ద్ధి": 2507,
      "años": 2508,
      "శాఖ": 2509,
      "बहुत": 2510,
      "డ్డ": 2511,
      "మొదల": 2512,
      "కర్య": 2513,
      "ప్రాంతాలు": 2514,
      "थी।": 2515,
      "దేశంలోని": 2516,
      "రెండు": 2517,
      "contribu": 2518,
      "निर्माण": 2519,
      "ాల్లో": 2520,
      "ఉత్తర": 2521,
      "పట్టణ": 2522,
      "బెంగ": 2523,
      "బ్రి": 2524,
      "ప్పటిక": 2525,
      "सैन्य": 2526,
      "द्योग": 2527,
      "ఏర్ప": 2528,
      "బహు": 2529,
      "మంత్రి": 2530,
      "సింధ": 2531,
      "Mundial": 2532,
      "गणराज्य": 2533,
      "fundament": 2534,
      "sistema": 2535,
      "कॉंग्रेस": 2536,
      "cimiento": 2537,
      "సరిహద్దు": 2538,
      "आर्थिक": 2539,
      "సౌకర్య": 2540,
      "consolid": 2541,
      "ప్రముఖ": 2542,
      "द्वीप": 2543,
      "100": 2544,
      "500": 2545,
      "cli": 2546,
      "mant": 2547,
      "ran": 2548,
      "sil": 2549,
      "vas": 2550,
      "zon": 2551,
      "oro": 2552,
      "olu": 2553,
      "veg": 2554,
      "trav": 2555,
      "cru": 2556,
      "factor": 2557,
      "1200": 2558,
      "22": 2559,
      "5%": 2560,
      "Civ": 2561,
      "Gobierno": 2562,
      "Im": 2563,
      "Las": 2564,
      "Sing": 2565,
      "e.": 2566,
      "ian": 2567,
      "mat": 2568,
      "ns": 2569,
      "nú": 2570,
      "sari": 2571,
      "went": 2572,
      "íod": 2573,
      "ंप": 2574,
      "अर": 2575,
      "अव": 2576,
      "कर्": 2577,
      "चार": 2578,
      "जब": 2579,
      "दर": 2580,
      "पर्व": 2581,
      "बन": 2582,
      "लर": 2583,
      "लिया": 2584,
      "शे": 2585,
      "ोष": 2586,
      "ana": 2587,
      "erra": 2588,
      "enz": 2589,
      "dish": 2590,
      "addi": 2591,
      "prac": 2592,
      "secul": 2593,
      "्यों": 2594,
      "estados": 2595,
      "exist": 2596,
      "स्त्र": 2597,
      "períod": 2598,
      "aries": 2599,
      "परमाण": 2600,
      "tax": 2601,
      "respe": 2602,
      "indio": 2603,
      "bio": 2604,
      "mientras": 2605,
      "cade": 2606,
      "pot": 2607,
      "कार्य": 2608,
      "mero": 2609,
      "aliz": 2610,
      "harma": 2611,
      "siglo": 2612,
      "जनजाति": 2613,
      "musul": 2614,
      "स्थाप": 2615,
      "militar": 2616,
      "वीं": 2617,
      "aument": 2618,
      "industri": 2619,
      "हुआ।": 2620,
      "arrol": 2621,
      "च्च": 2622,
      "पश्चिम": 2623,
      "न्याया": 2624,
      "प्रधानमंत्री": 2625,
      "hindu": 2626,
      "पूर्ण": 2627,
      "extrem": 2628,
      "ritánic": 2629,
      "fundamental": 2630,
      "Civil": 2631,
      "Singh": 2632,
      "número": 2633,
      "परमाणु": 2634,
      "12": 2635,
      "21": 2636,
      "Bang": 2637,
      "Lank": 2638,
      "Mal": 2639,
      "Ori": 2640,
      "Sri": 2641,
      "mis": 2642,
      "mam": 2643,
      "pes": 2644,
      "sim": 2645,
      "vic": 2646,
      "asa": 2647,
      "tric": 2648,
      "li,": 2649,
      "separ": 2650,
      "migr": 2651,
      "ine.": 2652,
      "declar": 2653,
      "cultural": 2654,
      "Janata": 2655,
      "mbol": 2656,
      "Bangla": 2657,
      "vict": 2658,
      "23": 2659,
      "24": 2660,
      "300": 2661,
      "Africa": 2662,
      "C.": 2663,
      "Cop": 2664,
      "Dra": 2665,
      "Gree": 2666,
      "Guj": 2667,
      "However,": 2668,
      "Or": 2669,
      "Val": 2670,
      "británic": 2671,
      "called": 2672,
      "down": 2673,
      "ff": 2674,
      "flo": 2675,
      "his": 2676,
      "just": 2677,
      "ks": 2678,
      "kes": 2679,
      "mand": 2680,
      "pharma": 2681,
      "ras": 2682,
      "rene": 2683,
      "s;": 2684,
      "stic": 2685,
      "sport": 2686,
      "saf": 2687,
      "scrip": 2688,
      "school": 2689,
      "utical": 2690,
      "wed": 2691,
      "wear": 2692,
      "writ": 2693,
      "ंति": 2694,
      "ईसा": 2695,
      "ओर": 2696,
      "गति": 2697,
      "पे": 2698,
      "बो": 2699,
      "भग": 2700,
      "रक्षा": 2701,
      "लिये": 2702,
      "शन": 2703,
      "शी": 2704,
      "शता": 2705,
      "सक": 2706,
      "सह": 2707,
      "सभा": 2708,
      "२००": 2709,
      "ంద": 2710,
      "ందు": 2711,
      "అభ": 2712,
      "అను": 2713,
      "కళ": 2714,
      "కల్": 2715,
      "గే": 2716,
      "గలు": 2717,
      "గంగా": 2718,
      "చార": 2719,
      "చరి": 2720,
      "చైన": 2721,
      "టీ": 2722,
      "టె": 2723,
      "తన": 2724,
      "తూ": 2725,
      "తమి": 2726,
      "తాబ్": 2727,
      "థిక": 2728,
      "నీ": 2729,
      "నగర": 2730,
      "పత": 2731,
      "పొ": 2732,
      "పద్ధ": 2733,
      "పండు": 2734,
      "మర": 2735,
      "మ్య": 2736,
      "రూ": 2737,
      "ళ్ల": 2738,
      "వడ": 2739,
      "వహ": 2740,
      "వృ": 2741,
      "వత్": 2742,
      "శతాబ్": 2743,
      "సర": 2744,
      "సై": 2745,
      "సార": 2746,
      "సర్వ": 2747,
      "ిమ": 2748,
      "ు.": 2749,
      "ుంది.": 2750,
      "ans.": 2751,
      "in.": 2752,
      "als,": 2753,
      "associ": 2754,
      "ties,": 2755,
      "relation": 2756,
      "reach": 2757,
      "ising": 2758,
      "lay": 2759,
      "ents": 2760,
      "cities": 2761,
      "omy": 2762,
      "elit": 2763,
      "====": 2764,
      "ic,": 2765,
      "ured": 2766,
      "ity,": 2767,
      "took": 2768,
      "touch": 2769,
      "adores": 2770,
      "tions,": 2771,
      "ार्": 2772,
      "liance": 2773,
      "లు.": 2774,
      "char": 2775,
      "changes": 2776,
      "change": 2777,
      "very": 2778,
      "స్వాత": 2779,
      "est-": 2780,
      "before": 2781,
      "Their": 2782,
      "ceutical": 2783,
      "sive": 2784,
      "compan": 2785,
      "comenz": 2786,
      "qual": 2787,
      "ably": 2788,
      "about": 2789,
      "ability": 2790,
      "ాలతో": 2791,
      "vez": 2792,
      "righ": 2793,
      "right": 2794,
      "cog": 2795,
      "external": 2796,
      "ticas": 2797,
      "న్నాయి.": 2798,
      "again": 2799,
      "ago.": 2800,
      "when": 2801,
      "where": 2802,
      "ists": 2803,
      "within": 2804,
      "గా,": 2805,
      "ions": 2806,
      "quet": 2807,
      "నిర్వ": 2808,
      "shar": 2809,
      "show": 2810,
      "lugar": 2811,
      "ally,": 2812,
      "apon": 2813,
      "approxim": 2814,
      "areas.": 2815,
      "igual": 2816,
      "etwork": 2817,
      "meat": 2818,
      "aria": 2819,
      "न्द्र": 2820,
      "न्तु": 2821,
      "నుక": 2822,
      "నుండి": 2823,
      "संसद": 2824,
      "ders": 2825,
      "ism.": 2826,
      "más,": 2827,
      "genous": 2828,
      "tains": 2829,
      "త్తం": 2830,
      "loth": 2831,
      "ల్వే": 2832,
      "indigenous": 2833,
      "भाग": 2834,
      "भाज": 2835,
      "ternational": 2836,
      "aksh": 2837,
      "upper": 2838,
      "desarrol": 2839,
      "essed": 2840,
      "సంఖ్య": 2841,
      "हाला": 2842,
      "plate": 2843,
      "cause": 2844,
      "cual": 2845,
      "ganiz": 2846,
      "turned": 2847,
      "model": 2848,
      "regions": 2849,
      "Asian": 2850,
      "creasing": 2851,
      "निर": 2852,
      "languag": 2853,
      "tradicion": 2854,
      "avour": 2855,
      "ితా": 2856,
      "paí": 2857,
      "కూడిన": 2858,
      "south-": 2859,
      "Hinduism": 2860,
      "Hinduism,": 2861,
      "మొత్తం": 2862,
      "minister.": 2863,
      "ward": 2864,
      "traditionally": 2865,
      "Arab": 2866,
      "రైల్వే": 2867,
      "వాతావర": 2868,
      "Ancient": 2869,
      "ergy": 2870,
      "BCE,": 2871,
      "thought": 2872,
      "१९९": 2873,
      "decades": 2874,
      "below": 2875,
      "युद्ध": 2876,
      "పాలన": 2877,
      "భారతదేశానికి": 2878,
      "influence": 2879,
      "ఒకటి": 2880,
      "literat": 2881,
      "All": 2882,
      "dance-d": 2883,
      "Pakistan.": 2884,
      "nacionales": 2885,
      "చేయ": 2886,
      "దేశాలలో": 2887,
      "क्षेत्रीय": 2888,
      "species": 2889,
      "ure,": 2890,
      "weapon": 2891,
      "head": 2892,
      "reduced": 2893,
      "propor": 2894,
      "प्राप्त": 2895,
      "जिसमें": 2896,
      "मुख्य": 2897,
      "elected": 2898,
      "grande": 2899,
      "important": 2900,
      "తున్న": 2901,
      "वर्षों": 2902,
      "అధికారిక": 2903,
      "west,": 2904,
      "constitutional": 2905,
      "foreign": 2906,
      "rule.": 2907,
      "developed": 2908,
      "development": 2909,
      "Punjab,": 2910,
      "agriculture": 2911,
      "ట్లు": 2912,
      "ప్రపంచంలో": 2913,
      "single": 2914,
      "time,": 2915,
      "cooking": 2916,
      "extant": 2917,
      "culture.": 2918,
      "వెబ": 2919,
      "contribut": 2920,
      "ప్రజా": 2921,
      "Plateau": 2922,
      "otros": 2923,
      "oldest": 2924,
      "families": 2925,
      "dances": 2926,
      "commonly": 2927,
      "features": 2928,
      "greater": 2929,
      "third-largest": 2930,
      "waist": 2931,
      "Many": 2932,
      "violence": 2933,
      "house": 2934,
      "architect": 2935,
      "operation": 2936,
      "década": 2937,
      "జరిగిన": 2938,
      "వంటి": 2939,
      "principales": 2940,
      "directly": 2941,
      "Buddhism": 2942,
      "ब्दी": 2943,
      "समाज": 2944,
      "అనేక": 2945,
      "ఎక్కువగా": 2946,
      "ప్రస్తుతం": 2947,
      "కాంగ్రెసు": 2948,
      "पहले": 2949,
      "enacted": 2950,
      "commercial": 2951,
      "composed": 2952,
      "Hindustan": 2953,
      "technology": 2954,
      "endemic": 2955,
      "estimated": 2956,
      "धीरे": 2957,
      "resulting": 2958,
      "ప్రాచీన": 2959,
      "small": 2960,
      "últim": 2961,
      "ब्रि": 2962,
      "vidian": 2963,
      "conducted": 2964,
      "agricultural": 2965,
      "speak": 2966,
      "recorded": 2967,
      "established": 2968,
      "global": 2969,
      "kingdoms": 2970,
      "ramas": 2971,
      "ण्ड": 2972,
      "జాబితా": 2973,
      "దారులు,": 2974,
      "నడిపించ": 2975,
      "సముద్ర": 2976,
      "imiento": 2977,
      "नेतृत्व": 2978,
      "विकास": 2979,
      "continued": 2980,
      "अरब": 2981,
      "शेष": 2982,
      "musulman": 2983,
      "Copa": 2984,
      "Dravidian": 2985,
      "Organiz": 2986,
      "Valley": 2987,
      "pharmaceutical": 2988,
      "शताब्दी": 2989,
      "అభి": 2990,
      "చరిత్ర": 2991,
      "తమిళ": 2992,
      "relations": 2993,
      "స్వాతంత్ర": 2994,
      "rights": 2995,
      "నిర్వహ": 2996,
      "approximately": 2997,
      "వాతావరణం": 2998,
      "dance-dramas": 2999,
      "Ex": 3000,
      "Nic": 3001,
      "Pal": 3002,
      "Sin": 3003,
      "Uni": 3004,
      "UPA": 3005,
      "Vi": 3006,
      "band": 3007,
      "bri": 3008,
      "ez": 3009,
      "gin": 3010,
      "gos": 3011,
      "hal": 3012,
      "oci": 3013,
      "tes": 3014,
      "ula": 3015,
      "ya,": 3016,
      "incom": 3017,
      "ens": 3018,
      "ale": 3019,
      "aro,": 3020,
      "diment": 3021,
      "report": 3022,
      "lian": 3023,
      "Thar": 3024,
      "rig": 3025,
      "emper": 3026,
      "person": 3027,
      "reser": 3028,
      "onesi": 3029,
      "prov": 3030,
      "devo": 3031,
      "1947": 3032,
      "eval": 3033,
      "Indonesi": 3034,
      "Mohen": 3035,
      "colonial": 3036,
      "Wik": 3037,
      "crucial": 3038,
      "Nicob": 3039,
      "Mohenjo": 3040,
      "Fr": 3041,
      "Min": 3042,
      "bos": 3043,
      "cambi": 3044,
      "ctiv": 3045,
      "ej": 3046,
      "gob": 3047,
      "go,": 3048,
      "ie": 3049,
      "med": 3050,
      "tent": 3051,
      "zas": 3052,
      "élit": 3053,
      "ían": 3054,
      "íquet": 3055,
      "ús": 3056,
      "इंड": 3057,
      "एँ": 3058,
      "एवं": 3059,
      "गंगा": 3060,
      "थे": 3061,
      "दल": 3062,
      "दर्": 3063,
      "निक": 3064,
      "पै": 3065,
      "मू": 3066,
      "मौ": 3067,
      "लन": 3068,
      "लोग": 3069,
      "व्या": 3070,
      "स,": 3071,
      "सु": 3072,
      "हरी": 3073,
      "elig": 3074,
      "prob": 3075,
      "estos": 3076,
      "super": 3077,
      "idente": 3078,
      "embar": 3079,
      "acia": 3080,
      "साल": 3081,
      "deriv": 3082,
      "2004": 3083,
      "राजनी": 3084,
      "वायु": 3085,
      "देख": 3086,
      "हाँ": 3087,
      "ड़ी": 3088,
      "Entre": 3089,
      "presidente": 3090,
      "निभा": 3091,
      "pañ": 3092,
      "वर्त": 3093,
      "जिन": 3094,
      "जनसंख्या": 3095,
      "1971": 3096,
      "प्ले": 3097,
      "युक्त": 3098,
      "दोनों": 3099,
      "cultura": 3100,
      "अपने": 3101,
      "países": 3102,
      "fueron": 3103,
      "बंधन": 3104,
      "लगभग": 3105,
      "सदस": 3106,
      "कुछ": 3107,
      "कुल": 3108,
      "म्भ": 3109,
      "स्थित": 3110,
      "टिश": 3111,
      "oficial": 3112,
      "अन्त": 3113,
      "संस्कृति": 3114,
      "incluyen": 3115,
      "clás": 3116,
      "lengu": 3117,
      "न्हें": 3118,
      "भूमिका": 3119,
      "Además,": 3120,
      "स्वतंत्रता": 3121,
      "idiom": 3122,
      "miembr": 3123,
      "manten": 3124,
      "vegetari": 3125,
      "través": 3126,
      "ब्रिटिश": 3127,
      "gobern": 3128,
      "embargo,": 3129,
      "8%": 3130,
      "Ak": 3131,
      "At": 3132,
      "DA": 3133,
      "Econ": 3134,
      "Fron": 3135,
      "Ge": 3136,
      "Mar": 3137,
      "Modern": 3138,
      "Myan": 3139,
      "NDA": 3140,
      "ace": 3141,
      "cut": 3142,
      "dere": 3143,
      "fl": 3144,
      "fle": 3145,
      "fil": 3146,
      "hā": 3147,
      "kame": 3148,
      "nom": 3149,
      "sal": 3150,
      "sol": 3151,
      "u,": 3152,
      "yas": 3153,
      "–201": 3154,
      "anag": 3155,
      "estic": 3156,
      "oral": 3157,
      "tico": 3158,
      "de,": 3159,
      "edomin": 3160,
      "refer": 3161,
      "reven": 3162,
      "is.": 3163,
      "lac": 3164,
      "Indira": 3165,
      "civil": 3166,
      "tec": 3167,
      "predomin": 3168,
      "vers": 3169,
      "imin": 3170,
      "ques": 3171,
      "porter": 3172,
      "acr": 3173,
      "acter": 3174,
      "respon": 3175,
      "subd": 3176,
      "1991,": 3177,
      "ati,": 3178,
      "2022": 3179,
      "Arch": 3180,
      "ples": 3181,
      "China,": 3182,
      "religios": 3183,
      "-daro,": 3184,
      "ubs": 3185,
      "ject": 3186,
      "heredi": 3187,
      "Brahma": 3188,
      "Maurya": 3189,
      "Gupta": 3190,
      "practic": 3191,
      "Palla": 3192,
      "Mohenjo-daro,": 3193,
      "Myanmar": 3194,
      "kameez": 3195,
      "\".": 3196,
      "%),": 3197,
      "1-": 3198,
      "11": 3199,
      "36": 3200,
      "43": 3201,
      "46": 3202,
      ";​": 3203,
      "Gr": 3204,
      "Keral": 3205,
      "Nacional": 3206,
      "aut": 3207,
      "bra": 3208,
      "cá": 3209,
      "cost": 3210,
      "das": 3211,
      "ee": 3212,
      "fica": 3213,
      "hacia": 3214,
      "llan": 3215,
      "mús": 3216,
      "pú": 3217,
      "sí": 3218,
      "tando": 3219,
      "tasa": 3220,
      "í,": 3221,
      "ँच": 3222,
      "ँकि": 3223,
      "अप्र": 3224,
      "अर्थ": 3225,
      "अलग": 3226,
      "आधिकार": 3227,
      "घोष": 3228,
      "जल": 3229,
      "डी": 3230,
      "डॉ": 3231,
      "त्या": 3232,
      "तमिल": 3233,
      "थिय": 3234,
      "निय": 3235,
      "पं": 3236,
      "पड़": 3237,
      "बने": 3238,
      "बनी": 3239,
      "ये": 3240,
      "लं": 3241,
      "वल": 3242,
      "विक": 3243,
      "शि": 3244,
      "शक्ति": 3245,
      "सित": 3246,
      "हथिय": 3247,
      "ुनिक": 3248,
      "ृत": 3249,
      "२०": 3250,
      "అని": 3251,
      "ఆఫ": 3252,
      "ఇవ": 3253,
      "కం": 3254,
      "కల": 3255,
      "ఖండ": 3256,
      "చి": 3257,
      "జి": 3258,
      "జన్": 3259,
      "టం": 3260,
      "టా": 3261,
      "డే": 3262,
      "ణంగా": 3263,
      "దన": 3264,
      "దీ": 3265,
      "ద్య": 3266,
      "నాయ": 3267,
      "న్యాయ": 3268,
      "పం": 3269,
      "పద": 3270,
      "పశ": 3271,
      "పక్ష": 3272,
      "పాత్ర": 3273,
      "మల": 3274,
      "మలు": 3275,
      "మించ": 3276,
      "మ్మ": 3277,
      "రే": 3278,
      "ర్య": 3279,
      "రకాల": 3280,
      "లక్ష": 3281,
      "వరి": 3282,
      "సూ": 3283,
      "హా": 3284,
      "ిల్": 3285,
      "ిస్త": 3286,
      "ుల": 3287,
      "ెల": 3288,
      "ోర": 3289,
      "inos": 3290,
      "arqu": 3291,
      "ase": 3292,
      "as.​": 3293,
      "depend": 3294,
      "rebel": 3295,
      "lados": 3296,
      "cido": 3297,
      "ciente": 3298,
      "omb": 3299,
      "tro": 3300,
      "ारम्भ": 3301,
      "liz": 3302,
      "केन्द्र": 3303,
      "según": 3304,
      "లోక్": 3305,
      "స్,": 3306,
      "స్లా": 3307,
      "esta": 3308,
      "imperi": 3309,
      "काम": 3310,
      "ప్రకార": 3311,
      "ాలకు": 3312,
      "ిక,": 3313,
      "ికత": 3314,
      "ిక్": 3315,
      "सेवा": 3316,
      "स्तर": 3317,
      "प्रभा": 3318,
      "प्रकार": 3319,
      "प्रारम्भ": 3320,
      "िक्": 3321,
      "కుల": 3322,
      "కుంట": 3323,
      "కుటు": 3324,
      "నిర్": 3325,
      "వి.": 3326,
      "ాయు": 3327,
      "विदेश": 3328,
      "था,": 3329,
      "मालय": 3330,
      "ियाँ": 3331,
      "రాస్య": 3332,
      "परंप": 3333,
      "संयुक्त": 3334,
      "करना": 3335,
      "ము.": 3336,
      "ములో": 3337,
      "ముంబ": 3338,
      "ద్వీ": 3339,
      "తి,": 3340,
      "ల్లో": 3341,
      "जाते": 3342,
      "సంఘ": 3343,
      "సంప్రదాయ": 3344,
      "సంవత్": 3345,
      "పుట్ట": 3346,
      "స్థాన్": 3347,
      "ministra": 3348,
      "placa": 3349,
      "fect": 3350,
      "ంటే": 3351,
      "pués": 3352,
      "crecimiento": 3353,
      "క్షరాస్య": 3354,
      "పాక్": 3355,
      "ativ": 3356,
      "1960": 3357,
      "టిలో": 3358,
      "इसी": 3359,
      "वर्ग": 3360,
      "हिमालय": 3361,
      "blica": 3362,
      "ంచి": 3363,
      "tivo": 3364,
      "రైళ్ల": 3365,
      "రాష్ట్రాల": 3366,
      "రాష్ట్రాలు": 3367,
      "వచ్చిన": 3368,
      "sociales": 3369,
      "కొన్ని": 3370,
      "పాలిత": 3371,
      "వేగంగా": 3372,
      "భారతదేశపు": 3373,
      "años,": 3374,
      "दोलन": 3375,
      "ణాసియా": 3376,
      "शासित": 3377,
      "భారతదేశంలోని": 3378,
      "చెందిన": 3379,
      "డ్డు": 3380,
      "వ్యవస్థలో": 3381,
      "Bengala": 3382,
      "अपनी": 3383,
      "కార్య": 3384,
      "ministro": 3385,
      "independi": 3386,
      "ampli": 3387,
      "కరణ": 3388,
      "పరంగా": 3389,
      "పరిశ్ర": 3390,
      "మేన": 3391,
      "ప్రధానమంత్రి": 3392,
      "స్థానంలో": 3393,
      "రాజ్యాలు": 3394,
      "Según": 3395,
      "వారస": 3396,
      "సభ్య": 3397,
      "mundo,": 3398,
      "key": 3399,
      "बड़ा": 3400,
      "ఆర్థిక": 3401,
      "రోడ్డు": 3402,
      "antigu": 3403,
      "ज़ी": 3404,
      "పూ.": 3405,
      "ముఖ్యమైన": 3406,
      "సాంప్రదాయ": 3407,
      "ఉంటాయి.": 3408,
      "బాద్": 3409,
      "భాగం": 3410,
      "కేంద్రపాలిత": 3411,
      "आधुनिक": 3412,
      "terior": 3413,
      "సాధించ": 3414,
      "పాకిస్తాన్": 3415,
      "పాకిస్థాన్": 3416,
      "దక్షిణాన": 3417,
      "wood": 3418,
      "अमे": 3419,
      "పైగా": 3420,
      "సంస్కృతి": 3421,
      "సంగీతం": 3422,
      "సినిమా": 3423,
      "PIB": 3424,
      "Sabha": 3425,
      "गठबंधन": 3426,
      "रहे": 3427,
      "पार्टी": 3428,
      "nominal": 3429,
      "ఆధార": 3430,
      "ఢిల్లీ": 3431,
      "మూడు": 3432,
      "మాత్రం": 3433,
      "రహదారులు,": 3434,
      "స్వతంత్ర": 3435,
      "స్వామ్య": 3436,
      "సామ్రా": 3437,
      "బెంగాల": 3438,
      "బ్రిటి": 3439,
      "período": 3440,
      "न्यायालय": 3441,
      "victori": 3442,
      "శతాబ్దం": 3443,
      "సర్వీ": 3444,
      "भाजपा": 3445,
      "हालाँकि": 3446,
      "país.": 3447,
      "అభివృ": 3448,
      "मूल": 3449,
      "प्लेट": 3450,
      "आधिकारिक": 3451,
      "हथियार": 3452,
      "ఆఫ్": 3453,
      "పశ్చ": 3454,
      "కుటుంబ": 3455,
      "परंपरा": 3456,
      "క్షరాస్యత": 3457,
      "\",": 3458,
      "(i": 3459,
      "(c.": 3460,
      "-s": 3461,
      "26%": 3462,
      "Ash": 3463,
      "Bay": 3464,
      "Dance": 3465,
      "Ear": 3466,
      "Fact": 3467,
      "HO": 3468,
      "Mid": 3469,
      "Non-": 3470,
      "She": 3471,
      "Treat": 3472,
      "Va": 3473,
      "War": 3474,
      "Way": 3475,
      "WHO": 3476,
      "atic": 3477,
      "bes": 3478,
      "bour": 3479,
      "cy": 3480,
      "cess": 3481,
      "cy.": 3482,
      "ctions": 3483,
      "cloth": 3484,
      "dr": 3485,
      "dri": 3486,
      "eign": 3487,
      "edic": 3488,
      "fem": 3489,
      "fall": 3490,
      "gas": 3491,
      "gain": 3492,
      "igh": 3493,
      "ies,": 3494,
      "ief": 3495,
      "less": 3496,
      "nation": 3497,
      "near": 3498,
      "name": 3499,
      "oli": 3500,
      "oul": 3501,
      "ph": 3502,
      "pand": 3503,
      "pover": 3504,
      "pite": 3505,
      "range": 3506,
      "sti": 3507,
      "slow": 3508,
      "sched": 3509,
      "test": 3510,
      "ues": 3511,
      "udi": 3512,
      "uous": 3513,
      "varn": 3514,
      "wat": 3515,
      "ze": 3516,
      "zo": 3517,
      "anced": 3518,
      "another": 3519,
      "in,": 3520,
      "ining": 3521,
      "ines,": 3522,
      "institution": 3523,
      "then": 3524,
      "thor": 3525,
      "those": 3526,
      "these": 3527,
      "th-largest": 3528,
      "threat": 3529,
      "ened": 3530,
      "energy": 3531,
      "armi": 3532,
      "ass": 3533,
      "asser": 3534,
      "dise": 3535,
      "orally": 3536,
      "tified": 3537,
      "decade": 3538,
      "reli": 3539,
      "recent": 3540,
      "recog": 3541,
      "iso": 3542,
      "ister": 3543,
      "laws": 3544,
      "offic": 3545,
      "enter": 3546,
      "cies": 3547,
      "ator": 3548,
      "icket": 3549,
      "urid": 3550,
      "top": 3551,
      "tow": 3552,
      "today": 3553,
      "adop": 3554,
      "added": 3555,
      "adher": 3556,
      "une": 3557,
      "ung": 3558,
      "untouch": 3559,
      "contain": 3560,
      "contains": 3561,
      "try,": 3562,
      "ample": 3563,
      "level": 3564,
      "ush": 3565,
      "uscrip": 3566,
      "princ": 3567,
      "chang": 3568,
      "chain": 3569,
      "churid": 3570,
      "semb": 3571,
      "19th": 3572,
      "olving": 3573,
      "versi": 3574,
      "vereign": 3575,
      "uled": 3576,
      "ulous": 3577,
      "ulture": 3578,
      "ilway": 3579,
      "20th": 3580,
      "being": 3581,
      "matic": 3582,
      "makes": 3583,
      "oppos": 3584,
      "cean": 3585,
      "superi": 3586,
      "six": 3587,
      "side": 3588,
      "comprom": 3589,
      "parts": 3590,
      "stand": 3591,
      "sovereign": 3592,
      "co-": 3593,
      "could": 3594,
      "loss": 3595,
      "exchange": 3596,
      "example": 3597,
      "ago,": 3598,
      "perman": 3599,
      "pear": 3600,
      "rap": 3601,
      "rather": 3602,
      "railway": 3603,
      "ions,": 3604,
      "share": 3605,
      "ally.": 3606,
      "appear": 3607,
      "areas": 3608,
      "having": 3609,
      "uction": 3610,
      "marked": 3611,
      "trade": 3612,
      "gence": 3613,
      "forms": 3614,
      "formal": 3615,
      "2011,": 3616,
      "desh": 3617,
      "economy.": 3618,
      "mi)": 3619,
      "manuscrip": 3620,
      "round": 3621,
      "1,000": 3622,
      "tribal": 3623,
      "ought": 3624,
      "play": 3625,
      "placed": 3626,
      "played": 3627,
      "populous": 3628,
      "moist": 3629,
      "regions.": 3630,
      "Asia.": 3631,
      "century.": 3632,
      "centuries,": 3633,
      "primary": 3634,
      "ine,": 3635,
      "inequal": 3636,
      "president": 3637,
      "ength": 3638,
      "merch": 3639,
      "1951,": 3640,
      "ty.": 3641,
      "1962": 3642,
      "government,": 3643,
      "governments": 3644,
      "year.": 3645,
      "discr": 3646,
      "ometres": 3647,
      "crus": 3648,
      "world.": 3649,
      "oka": 3650,
      "elections": 3651,
      "urbanisation": 3652,
      "signed": 3653,
      "system.": 3654,
      "breath": 3655,
      "ministers.": 3656,
      "wars": 3657,
      "mediately": 3658,
      "Aryan": 3659,
      "guard": 3660,
      "Mach": 3661,
      "1977": 3662,
      "strong": 3663,
      "strength": 3664,
      "BCE.": 3665,
      "till": 3666,
      "limate": 3667,
      "Buddha": 3668,
      "belong": 3669,
      "belief": 3670,
      "life,": 3671,
      "language\"": 3672,
      "language,": 3673,
      "Empire.": 3674,
      "folk": 3675,
      "follow": 3676,
      "suppli": 3677,
      "Eurasi": 3678,
      "territories": 3679,
      "setting": 3680,
      "cultures": 3681,
      "wealth": 3682,
      "hea": 3683,
      "sometimes": 3684,
      "pollu": 3685,
      "vention": 3686,
      "subcontinent,": 3687,
      "classical,": 3688,
      "Himalayan": 3689,
      "originally": 3690,
      "parliament.": 3691,
      "gave": 3692,
      "transmit": 3693,
      "curren": 3694,
      "Indo-Aryan": 3695,
      "Assemb": 3696,
      "them.": 3697,
      "leader,": 3698,
      "ography": 3699,
      "Deser": 3700,
      "related": 3701,
      "ables,": 3702,
      "industry": 3703,
      "book": 3704,
      "consists": 3705,
      "east.": 3706,
      "becoming": 3707,
      "mathematical": 3708,
      "mathematics": 3709,
      "passing": 3710,
      "1950s,": 3711,
      "nings": 3712,
      "Democra": 3713,
      "Demographic": 3714,
      "chosen": 3715,
      "status": 3716,
      "initi": 3717,
      "13th": 3718,
      "drain": 3719,
      "figures": 3720,
      "remaining": 3721,
      "liberal": 3722,
      "coalition": 3723,
      "marriages": 3724,
      "supported": 3725,
      "census,": 3726,
      "painting,": 3727,
      "kilometres": 3728,
      "organisation": 3729,
      "independence": 3730,
      "summer": 3731,
      "broad": 3732,
      "would": 3733,
      "disputes": 3734,
      "Stat": 3735,
      "States": 3736,
      "expansion": 3737,
      "Constituent": 3738,
      "protected": 3739,
      "styles": 3740,
      "Islam": 3741,
      "Islamic": 3742,
      "process": 3743,
      "Deccan": 3744,
      "North": 3745,
      "average": 3746,
      "natal": 3747,
      "introduced": 3748,
      "gradually": 3749,
      "capita": 3750,
      "latter": 3751,
      "gency,": 3752,
      "increasingly": 3753,
      "habitat": 3754,
      "employed": 3755,
      "village": 3756,
      "different": 3757,
      "provided": 3758,
      "contributions": 3759,
      "Civilisation": 3760,
      "mammal": 3761,
      "Bangladesh": 3762,
      "Greek": 3763,
      "Gujar": 3764,
      "renew": 3765,
      "safe": 3766,
      "written": 3767,
      "reached": 3768,
      "character": 3769,
      "Arabian": 3770,
      "revenues": 3771,
      "lack": 3772,
      "across": 3773,
      "Ashoka": 3774,
      "Early": 3775,
      "Factbook": 3776,
      "Middle": 3777,
      "Wayback": 3778,
      "oulder": 3779,
      "panding": 3780,
      "scheduled": 3781,
      "armies": 3782,
      "assert": 3783,
      "office": 3784,
      "churidar": 3785,
      "compromise": 3786,
      "president,": 3787,
      "discrimin": 3788,
      "transmitted": 3789,
      "Assembly": 3790,
      "Demographics": 3791,
      "14%": 3792,
      "44": 3793,
      "40%": 3794,
      "55,": 3795,
      "70%": 3796,
      "80": 3797,
      "Gond": 3798,
      "IN": 3799,
      "Li": 3800,
      "Langu": 3801,
      "Maj": 3802,
      "Nar": 3803,
      "Oc": 3804,
      "Ram": 3805,
      "Ti": 3806,
      "az": 3807,
      "bol": 3808,
      "cat": 3809,
      "fes": 3810,
      "gun": 3811,
      "jur": 3812,
      "jay": 3813,
      "lleg": 3814,
      "nd": 3815,
      "o-": 3816,
      "pir": 3817,
      "rest": 3818,
      "smo": 3819,
      "tamil": 3820,
      "tér": 3821,
      "uk": 3822,
      "uvo": 3823,
      "vol": 3824,
      "vid": 3825,
      "ños": 3826,
      "óg": 3827,
      "ंक": 3828,
      "अफ": 3829,
      "आं": 3830,
      "आग": 3831,
      "उस": 3832,
      "ऊँ": 3833,
      "एं": 3834,
      "कह": 3835,
      "गए": 3836,
      "गत": 3837,
      "ग्र": 3838,
      "जै": 3839,
      "डा": 3840,
      "णी": 3841,
      "तो": 3842,
      "दृ": 3843,
      "पहा": 3844,
      "फल": 3845,
      "बै": 3846,
      "बार": 3847,
      "भर": 3848,
      "भि": 3849,
      "म,": 3850,
      "यों": 3851,
      "वन": 3852,
      "वै": 3853,
      "वरी": 3854,
      "सत": 3855,
      "सो": 3856,
      "सर्व": 3857,
      "ृद्ध": 3858,
      "ैली": 3859,
      "१८": 3860,
      "ano": 3861,
      "inno": 3862,
      "informa": 3863,
      "enen": 3864,
      "estr": 3865,
      "ora": 3866,
      "tiz": 3867,
      "tian": 3868,
      "repe": 3869,
      "isdic": 3870,
      "latitu": 3871,
      "entra": 3872,
      "cil": 3873,
      "civi": 3874,
      "ital": 3875,
      "ad,": 3876,
      "unit": 3877,
      "lifer": 3878,
      "sex": 3879,
      "segu": 3880,
      "193": 3881,
      "्यता": 3882,
      "estas": 3883,
      "estable": 3884,
      "quier": 3885,
      "abaj": 3886,
      "extin": 3887,
      "की।": 3888,
      "idos": 3889,
      "विज": 3890,
      "antes,": 3891,
      "arios": 3892,
      "indh": 3893,
      "करण": 3894,
      "तिहा": 3895,
      "hibi": 3896,
      "región": 3897,
      "2013": 3898,
      "2018": 3899,
      "2009": 3900,
      "वाद": 3901,
      "वादी": 3902,
      "nivel": 3903,
      "poco": 3904,
      "cuenta": 3905,
      "ियन": 3906,
      "ación,": 3907,
      "पालि": 3908,
      "लावा": 3909,
      "किन्तु": 3910,
      "1965": 3911,
      "शांति": 3912,
      "ली,": 3913,
      "लीन": 3914,
      "ali,": 3915,
      "monsoon": 3916,
      "वर्ण": 3917,
      "होती": 3918,
      "harkh": 3919,
      "2022,": 3920,
      "millon": 3921,
      "जनता": 3922,
      "Common": 3923,
      "medieval": 3924,
      "mujer": 3925,
      "plant": 3926,
      "ंधी": 3927,
      "partidos": 3928,
      "१९७": 3929,
      "१९८": 3930,
      "agrí": 3931,
      "युग": 3932,
      "año": 3933,
      "pobre": 3934,
      "territorio": 3935,
      "territorios": 3936,
      "Republic": 3937,
      "जिसके": 3938,
      "बहुमत": 3939,
      "Himalayas": 3940,
      "Himalayas,": 3941,
      "eleg": 3942,
      "original": 3943,
      "importantes": 3944,
      "especies": 3945,
      "divor": 3946,
      "बड़ी": 3947,
      "बड़े": 3948,
      "cinco": 3949,
      "Modi": 3950,
      "Parlament": 3951,
      "otras": 3952,
      "valle": 3953,
      "गांधी": 3954,
      "महाद्वीप": 3955,
      "वंश": 3956,
      "Prolifer": 3957,
      "defini": 3958,
      "शुरू": 3959,
      "संस्कृत": 3960,
      "muchas": 3961,
      "hambr": 3962,
      "अंग्रेजी": 3963,
      "comercio": 3964,
      "wana,": 3965,
      "bajo": 3966,
      "encuentra": 3967,
      "convirtió": 3968,
      "विस्तृत": 3969,
      "zonas": 3970,
      "materi": 3971,
      "कर्ज": 3972,
      "पर्वत": 3973,
      "aumento": 3974,
      "C.,": 3975,
      "शील": 3976,
      "सहयोग": 3977,
      "desarrollo": 3978,
      "Unión": 3979,
      "Indonesia.": 3980,
      "pañía": 3981,
      "miembros": 3982,
      "Kerala": 3983,
      "símbol": 3984,
      "डॉलर": 3985,
      "विदेशी": 3986,
      "independiente": 3987,
      "अमेरि": 3988,
      "Gondwana,": 3989,
      "Languages": 3990,
      "jurisdic": 3991,
      "innov": 3992,
      "पालिका": 3993,
      "%,": 3994,
      "517": 3995,
      "62": 3996,
      "Coun": 3997,
      "Lok": 3998,
      "Pand": 3999,
      "Pre": 4000,
      "cab": 4001,
      "camp": 4002,
      "dest": 4003,
      "eb": 4004,
      "ola": 4005,
      "pal": 4006,
      "pant": 4007,
      "sac": 4008,
      "tel": 4009,
      "deb": 4010,
      "def": 4011,
      "labor": 4012,
      "constitu": 4013,
      "tras": 4014,
      "seg": 4015,
      "que,": 4016,
      "2012": 4017,
      "1998": 4018,
      "1951": 4019,
      "alian": 4020,
      "Congres": 4021,
      "1980": 4022,
      "17.": 4023,
      "Rajya": 4024,
      "edia": 4025,
      "...": 4026,
      "superior": 4027,
      "(2": 4028,
      "(వె": 4029,
      ").​": 4030,
      ",​": 4031,
      ".పూ.": 4032,
      "12.": 4033,
      "21.": 4034,
      "94": 4035,
      "Ara": 4036,
      "BN": 4037,
      "Bal": 4038,
      "Dal": 4039,
      "Dur": 4040,
      "Hist": 4041,
      "IS": 4042,
      "Ja": 4043,
      "Jam": 4044,
      "Jharkh": 4045,
      "Kos": 4046,
      "Kaver": 4047,
      "Ni": 4048,
      "P.": 4049,
      "Relig": 4050,
      "So": 4051,
      "San": 4052,
      "Sultan": 4053,
      "Ter": 4054,
      "V.": 4055,
      "ail": 4056,
      "cad": 4057,
      "doc": 4058,
      "fam": 4059,
      "flan": 4060,
      "ger": 4061,
      "ha,": 4062,
      "hast": 4063,
      "hindi": 4064,
      "ith": 4065,
      "jain": 4066,
      "kur": 4067,
      "lí": 4068,
      "les": 4069,
      "lal": 4070,
      "oom": 4071,
      "ove": 4072,
      "pul": 4073,
      "past": 4074,
      "post": 4075,
      "rent": 4076,
      "ric": 4077,
      "rica": 4078,
      "sist": 4079,
      "sán": 4080,
      "scrit": 4081,
      "ta,": 4082,
      "uti": 4083,
      "ufa": 4084,
      "yal": 4085,
      "νδ": 4086,
      "ंह": 4087,
      "ं।": 4088,
      "अब": 4089,
      "अभी": 4090,
      "अधि": 4091,
      "आया": 4092,
      "आन्": 4093,
      "आदि": 4094,
      "इं": 4095,
      "इस्": 4096,
      "उद्योग": 4097,
      "ऋतु": 4098,
      "कम": 4099,
      "कटि": 4100,
      "गो": 4101,
      "चे": 4102,
      "जू": 4103,
      "जरा": 4104,
      "जलो": 4105,
      "टन": 4106,
      "तः": 4107,
      "तन": 4108,
      "दू": 4109,
      "नव": 4110,
      "नगर": 4111,
      "पि": 4112,
      "पीय": 4113,
      "भरा": 4114,
      "र्य": 4115,
      "रिक": 4116,
      "लु": 4117,
      "शत": 4118,
      "श्री": 4119,
      "सफल": 4120,
      "हन": 4121,
      "हार": 4122,
      "हरा": 4123,
      "िम": 4124,
      "िकी": 4125,
      "ैल": 4126,
      "ोसी": 4127,
      "ोच्च": 4128,
      "२.": 4129,
      "ంభ": 4130,
      "అహ": 4131,
      "అవి": 4132,
      "ఆక్రమ": 4133,
      "ఆహార": 4134,
      "ఇవి": 4135,
      "ఇంగ్ల": 4136,
      "ఇస్లా": 4137,
      "ఉండ": 4138,
      "కథ": 4139,
      "కూ": 4140,
      "కన్న": 4141,
      "కత్వ": 4142,
      "కింద": 4143,
      "కీర్": 4144,
      "చన": 4145,
      "చు": 4146,
      "చాల": 4147,
      "చిత్ర": 4148,
      "జాలు": 4149,
      "జరు": 4150,
      "జంబ": 4151,
      "టే": 4152,
      "టై": 4153,
      "టర్": 4154,
      "డిన": 4155,
      "తల": 4156,
      "తె": 4157,
      "తే": 4158,
      "తము": 4159,
      "తులు": 4160,
      "తంలో": 4161,
      "తెలు": 4162,
      "దర": 4163,
      "నది": 4164,
      "పీ": 4165,
      "పార్": 4166,
      "బి": 4167,
      "బంగ్ల": 4168,
      "బంధ": 4169,
      "బడ్డ": 4170,
      "భర": 4171,
      "భౌ": 4172,
      "మూ": 4173,
      "మౌ": 4174,
      "మాలు": 4175,
      "మతి": 4176,
      "మారు": 4177,
      "మంది": 4178,
      "యాలు": 4179,
      "లె": 4180,
      "లిం": 4181,
      "ళ్": 4182,
      "ళిక": 4183,
      "వల్ల": 4184,
      "వలం": 4185,
      "శెల": 4186,
      "సమ": 4187,
      "సహ": 4188,
      "సే": 4189,
      "స్ర": 4190,
      "సులు": 4191,
      "సైన": 4192,
      "సార్": 4193,
      "హై": 4194,
      "హిమ": 4195,
      "ాదేశ": 4196,
      "ాంగ": 4197,
      "ాపార": 4198,
      "ిగా": 4199,
      "ీర": 4200,
      "ీలు": 4201,
      "ుకొ": 4202,
      "ూప": 4203,
      "ూరు": 4204,
      "ెట్": 4205,
      "ే,": 4206,
      "్,": 4207,
      "్వ": 4208,
      "any": 4209,
      "anat": 4210,
      "ino": 4211,
      "indo": 4212,
      "endem": 4213,
      "ensa": 4214,
      "es:": 4215,
      "espe": 4216,
      "astri": 4217,
      "divi": 4218,
      "ti,": 4219,
      "redi": 4220,
      "refle": 4221,
      "lam": 4222,
      "osis": 4223,
      "enton": 4224,
      "entales": 4225,
      "entro": 4226,
      "ció": 4227,
      "cios": 4228,
      "omo": 4229,
      "India.​": 4230,
      "ats": 4231,
      "atro": 4232,
      "ingres": 4233,
      "uri": 4234,
      "ador": 4235,
      "adamente": 4236,
      "tros": 4237,
      "tra,": 4238,
      "trabaj": 4239,
      "ారంభ": 4240,
      "केवल": 4241,
      "pri": 4242,
      "promin": 4243,
      "sediment": 4244,
      "1930": 4245,
      "ológ": 4246,
      "ilar": 4247,
      "లోయ": 4248,
      "grup": 4249,
      "estat": 4250,
      "్యా": 4251,
      "impro": 4252,
      "imperio": 4253,
      "supre": 4254,
      "sido": 4255,
      "compr": 4256,
      "దిన": 4257,
      "దినాలు": 4258,
      "ప్రారంభ": 4259,
      "abs": 4260,
      "partic": 4261,
      "parlament": 4262,
      "र्ष": 4263,
      "దేశపు": 4264,
      "దేశానికి": 4265,
      "ాలయ": 4266,
      "ాలనే": 4267,
      "ాలెండ": 4268,
      "porte": 4269,
      "ర్,": 4270,
      "ర్త": 4271,
      "ర్ష": 4272,
      "ర్‌": 4273,
      "यास": 4274,
      "expres": 4275,
      "idades": 4276,
      "న్నది.": 4277,
      "న్నారు.": 4278,
      "ాలు.": 4279,
      "emer": 4280,
      "प्रयास": 4281,
      "ista": 4282,
      "pect": 4283,
      "rati": 4284,
      "గాంధ": 4285,
      "occid": 4286,
      "కులు": 4287,
      "నిస్తాన్": 4288,
      "విధ్య": 4289,
      "విభిన్న": 4290,
      "విద్య": 4291,
      "विभि": 4292,
      "विवाद": 4293,
      "ాతో": 4294,
      "माना": 4295,
      "app": 4296,
      "apel": 4297,
      "దేశంగా": 4298,
      "hau": 4299,
      "iga": 4300,
      "सां": 4301,
      "mega": 4302,
      "నుంచి": 4303,
      "mara": 4304,
      "minor": 4305,
      "करता": 4306,
      "ద్వార": 4307,
      "hi,": 4308,
      "త్వా": 4309,
      "త్తా": 4310,
      "logr": 4311,
      "తిగా": 4312,
      "ించే": 4313,
      "ించి,": 4314,
      "endé": 4315,
      "culosis": 4316,
      "जाना": 4317,
      "cialmente": 4318,
      "2003": 4319,
      "2008,": 4320,
      "berculosis": 4321,
      "సంకీర్": 4322,
      "సంబంధ": 4323,
      "Chand": 4324,
      "manufa": 4325,
      "పురు": 4326,
      "స్థి": 4327,
      "caus": 4328,
      "ంటు": 4329,
      "ganó": 4330,
      "पाद": 4331,
      "पास": 4332,
      "ción,": 4333,
      "ला,": 4334,
      "लाख": 4335,
      "regiones": 4336,
      "వాహ": 4337,
      "వాణి": 4338,
      "ఉన్నారు.": 4339,
      "పాటు": 4340,
      "పాదన": 4341,
      "समर्थ": 4342,
      "1967": 4343,
      "इसकी": 4344,
      "होते": 4345,
      "harlal": 4346,
      "elecciones": 4347,
      "entran": 4348,
      "కూడుకు": 4349,
      "sigu": 4350,
      "siglos": 4351,
      "కోల్": 4352,
      "కాశ్": 4353,
      "ట్టమొదటి": 4354,
      "నేపాల": 4355,
      "మొట్టమొదటి": 4356,
      "devast": 4357,
      "sur,": 4358,
      "మాబాద్": 4359,
      "Compañía": 4360,
      "legal": 4361,
      "muy": 4362,
      "posterior": 4363,
      "నాగర": 4364,
      "లిచ": 4365,
      "వ్యాపార": 4366,
      "notable": 4367,
      "1.1": 4368,
      "bron": 4369,
      "Pakistán": 4370,
      "గువ": 4371,
      "గుర్త": 4372,
      "వచ్చు.": 4373,
      "ద్ధం": 4374,
      "१९५": 4375,
      "१९६": 4376,
      "ualmente": 4377,
      "పాలించ": 4378,
      "మైనది.": 4379,
      "diversas": 4380,
      "ográ": 4381,
      "उत्पाद": 4382,
      "ఒకే": 4383,
      "hangr": 4384,
      "territorial": 4385,
      "చేసింది.": 4386,
      "్‌సై": 4387,
      "product": 4388,
      "ఎన్నిక": 4389,
      "polic": 4390,
      "పెనీ": 4391,
      "asiá": 4392,
      "अपना": 4393,
      "కేవలం": 4394,
      "కారణంగా": 4395,
      "తుంది.": 4396,
      "దాపు": 4397,
      "దాదాపు": 4398,
      "स्वरूप": 4399,
      "varias": 4400,
      "varios": 4401,
      "భాషలు": 4402,
      "రాజ్యాంగ": 4403,
      "current": 4404,
      "Indo-G": 4405,
      "अधिकार": 4406,
      "दिया।": 4407,
      "Delhi,": 4408,
      "వర్గ": 4409,
      "వర్ణ": 4410,
      "దక్షిణాసియా": 4411,
      "बनाने": 4412,
      "నాలుగు": 4413,
      "ప్రజల": 4414,
      "హిందూదేశం": 4415,
      "domestic": 4416,
      "calend": 4417,
      "16.": 4418,
      "పూర్వ": 4419,
      "వీటిలో": 4420,
      "శ్రీ": 4421,
      "ష్ణ": 4422,
      "స్కృతిక": 4423,
      "సాంస్కృతిక": 4424,
      "waharlal": 4425,
      "ubic": 4426,
      "ष्ठ": 4427,
      "ष्ण": 4428,
      "क्रम": 4429,
      "ఉంటుంది.": 4430,
      "బడత": 4431,
      "బడిన": 4432,
      "మహా": 4433,
      "ుకుంట": 4434,
      "క్రీడలు": 4435,
      "ప్రభుత్వం": 4436,
      "తరువాతి": 4437,
      "Rajiv": 4438,
      "II,": 4439,
      "artist": 4440,
      "కలిసి": 4441,
      "కలిగి": 4442,
      "జనగణ": 4443,
      "లేదా": 4444,
      "fuerza": 4445,
      "अमरी": 4446,
      "अंग्रेज़ी": 4447,
      "्रीका": 4448,
      "propios": 4449,
      "baja": 4450,
      "ఉపఖండ": 4451,
      "క్యాలెండ": 4452,
      "లతో,": 4453,
      "ుకోవడ": 4454,
      "ప్రతిపాదన": 4455,
      "प्रतिशत": 4456,
      "ిత్రక": 4457,
      "శాస్త్రీయ": 4458,
      "శాస్త్రం,": 4459,
      "यूरो": 4460,
      "encuentran": 4461,
      "grandes": 4462,
      "हिन्दू": 4463,
      "వైవిధ్య": 4464,
      "సమాఖ్య": 4465,
      "ciudad": 4466,
      "ciudades": 4467,
      "కోర్ట": 4468,
      "కోర్టు": 4469,
      "పేర్లు": 4470,
      "పేర్కొ": 4471,
      "మొదలైన": 4472,
      "ప్పటికీ,": 4473,
      "ఏర్పడ్డ": 4474,
      "బహుళ": 4475,
      "సింధు": 4476,
      "oroastri": 4477,
      "Imperio": 4478,
      "जबकि": 4479,
      "secular": 4480,
      "स्थापना": 4481,
      "industrial": 4482,
      "pesar": 4483,
      "similar": 4484,
      "separati": 4485,
      "చారిత్రక": 4486,
      "పతకాలు": 4487,
      "పొందిన": 4488,
      "పద్ధతి": 4489,
      "comenzó": 4490,
      "నుకటి": 4491,
      "వెబ్‌సై": 4492,
      "ప్రజాస్వామ్య": 4493,
      "últimos": 4494,
      "స్వాతంత్ర్య": 4495,
      "నిర్వహణ": 4496,
      "Vijay": 4497,
      "Nicobar": 4498,
      "व्यापार": 4499,
      "supercontin": 4500,
      "राजनीतिक": 4501,
      "वर्तमान": 4502,
      "lenguas": 4503,
      "idiomas": 4504,
      "Akbar": 4505,
      "hārat": 4506,
      "heredit": 4507,
      "Brahmapu": 4508,
      "Myanmar,": 4509,
      "361": 4510,
      "cámara": 4511,
      "llanura": 4512,
      "música": 4513,
      "अप्रैल": 4514,
      "अर्थव्यवस्था": 4515,
      "जलवायु": 4516,
      "पड़ोसी": 4517,
      "కంపెనీ": 4518,
      "జన్మ": 4519,
      "imperial": 4520,
      "ప్రకారం": 4521,
      "प्रभाव": 4522,
      "ముంబై": 4523,
      "ద్వీప": 4524,
      "సంప్రదాయాలు": 4525,
      "సంవత్సర": 4526,
      "రైళ్లను": 4527,
      "కార్యక్రమ": 4528,
      "పరిశ్రమలు": 4529,
      "వారసత్వ": 4530,
      "సాంప్రదాయిక": 4531,
      "wood,": 4532,
      "సామ్రాజ్య": 4533,
      "బెంగాలీ": 4534,
      "సర్వీసులు": 4535,
      "అభివృద్ధి": 4536,
      "ఆఫ్ఘ": 4537,
      "55,000": 4538,
      "INC": 4539,
      "términ": 4540,
      "अफ्रीका": 4541,
      "दृष्ट": 4542,
      "सर्वोच्च": 4543,
      "तिहास": 4544,
      "millones.": 4545,
      "(వెనుకటి": 4546,
      "ISBN": 4547,
      "Jawaharlal": 4548,
      "Jammu": 4549,
      "Sovi": 4550,
      "hasta": 4551,
      "kurta": 4552,
      "sánscrit": 4553,
      "जलोढ़": 4554,
      "ఇస్లామాబాద్": 4555,
      "కన్నడ": 4556,
      "చాలా": 4557,
      "జరుపు": 4558,
      "జంబూ": 4559,
      "తెలుగు": 4560,
      "పీఠ": 4561,
      "బంగ్లాదేశ": 4562,
      "ళ్ళ": 4563,
      "శెలవు": 4564,
      "హిమాలయ": 4565,
      "particular": 4566,
      "గాంధీ": 4567,
      "विभिन्न": 4568,
      "ద్వారా": 4569,
      "త్వాన్ని": 4570,
      "manufact": 4571,
      "వాణిజ్య": 4572,
      "समर्थन": 4573,
      "కాశ్మీ": 4574,
      "నాగరికత": 4575,
      "productos": 4576,
      "క్యాలెండర్": 4577,
      "यूरोपीय": 4578,
      "వెబ్‌సైటు": 4579,
      "Vijayanag": 4580,
      "(B": 4581,
      "(P": 4582,
      "(1,": 4583,
      "04%": 4584,
      "14": 4585,
      "48": 4586,
      "60": 4587,
      "70": 4588,
      "900": 4589,
      "Cu": 4590,
      "Cam": 4591,
      "I,": 4592,
      "Mi": 4593,
      "Sup": 4594,
      "Tr": 4595,
      "Tod": 4596,
      "big": 4597,
      "ey": 4598,
      "fre": 4599,
      "ici": 4600,
      "ipur": 4601,
      "ler": 4602,
      "na": 4603,
      "ov": 4604,
      "ument": 4605,
      "anim": 4606,
      "ances": 4607,
      "ero": 4608,
      "ortal": 4609,
      "tier": 4610,
      "la,": 4611,
      "ada,": 4612,
      "olly": 4613,
      "gres": 4614,
      "2019": 4615,
      "2020": 4616,
      "imedia": 4617,
      "ctu": 4618,
      "ockey": 4619,
      "2014": 4620,
      "2008": 4621,
      "continental": 4622,
      "instr": 4623,
      "medicin": 4624,
      "1974": 4625,
      "1975,": 4626,
      "struc": 4627,
      "Ass": 4628,
      "textil": 4629,
      "promul": 4630,
      "capital": 4631,
      "ordin": 4632,
      "crisis": 4633,
      "respectiv": 4634,
      "Wikimedia": 4635,
      "Archived": 4636,
      "Machine.": 4637,
      "\")": 4638,
      "(\"": 4639,
      "(Ἰ": 4640,
      "(0,": 4641,
      "(Ar": 4642,
      "(including": 4643,
      ",000": 4644,
      "-0": 4645,
      "-des": 4646,
      "-year": 4647,
      "-ga": 4648,
      "-majority": 4649,
      "-kn": 4650,
      "-body": 4651,
      "-style": 4652,
      "1st": 4653,
      "1000": 4654,
      "29": 4655,
      "39%": 4656,
      "46%": 4657,
      "55": 4658,
      "55.": 4659,
      "63": 4660,
      "6th": 4661,
      "7th": 4662,
      "700": 4663,
      "Aj": 4664,
      "Agenc": 4665,
      "Acha": 4666,
      "Bet": 4667,
      "Bhangr": 4668,
      "Clas": 4669,
      "Cup": 4670,
      "Cav": 4671,
      "Carn": 4672,
      "Culture": 4673,
      "Climate": 4674,
      "Dis": 4675,
      "Dev": 4676,
      "Eas": 4677,
      "Ele": 4678,
      "Emer": 4679,
      "Ety": 4680,
      "Fol": 4681,
      "Fore": 4682,
      "Gen": 4683,
      "He": 4684,
      "June": 4685,
      "Kal": 4686,
      "Laksh": 4687,
      "Mum": 4688,
      "Nat": 4689,
      "Network": 4690,
      "Over": 4691,
      "Out": 4692,
      "Old": 4693,
      "Ocean": 4694,
      "Pa": 4695,
      "Pla": 4696,
      "President": 4697,
      "Poli": 4698,
      "Sim": 4699,
      "Shas": 4700,
      "Sant": 4701,
      "Shi": 4702,
      "Some": 4703,
      "Sever": 4704,
      "Sarn": 4705,
      "Still": 4706,
      "To": 4707,
      "También": 4708,
      "Temple": 4709,
      "Ur": 4710,
      "Vis": 4711,
      "Vaj": 4712,
      "Vedic": 4713,
      "Yaksh": 4714,
      "Zoroastri": 4715,
      "aː": 4716,
      "aic": 4717,
      "aism,": 4718,
      "bul": 4719,
      "buc": 4720,
      "bond": 4721,
      "black": 4722,
      "cer": 4723,
      "cing": 4724,
      "clos": 4725,
      "cere": 4726,
      "care": 4727,
      "cado": 4728,
      "cak": 4729,
      "cro": 4730,
      "clear": 4731,
      "cera": 4732,
      "cust": 4733,
      "dy": 4734,
      "dó": 4735,
      "dre": 4736,
      "due": 4737,
      "dates": 4738,
      "dentro": 4739,
      "eur": 4740,
      "eous": 4741,
      "epic": 4742,
      "etici": 4743,
      "fla": 4744,
      "ful": 4745,
      "fec": 4746,
      "flow": 4747,
      "fused": 4748,
      "fish": 4749,
      "fash": 4750,
      "flower": 4751,
      "favour": 4752,
      "gol": 4753,
      "govern": 4754,
      "gins": 4755,
      "gods": 4756,
      "giga": 4757,
      "hun": 4758,
      "him": 4759,
      "hubs": 4760,
      "homb": 4761,
      "i)": 4762,
      "ip": 4763,
      "ive": 4764,
      "ies.": 4765,
      "ight": 4766,
      "jac": 4767,
      "kat": 4768,
      "ls": 4769,
      "lic,": 4770,
      "llam": 4771,
      "ms": 4772,
      "molog": 4773,
      "mismo": 4774,
      "males.": 4775,
      "mns": 4776,
      "nin": 4777,
      "ner": 4778,
      "non": 4779,
      "nas": 4780,
      "ndi": 4781,
      "nam": 4782,
      "next": 4783,
      "narr": 4784,
      "network": 4785,
      "och": 4786,
      "odiversity": 4787,
      "pil": 4788,
      "phere": 4789,
      "push": 4790,
      "papel": 4791,
      "rí": 4792,
      "rur": 4793,
      "rup": 4794,
      "ranges": 4795,
      "renta": 4796,
      "sc": 4797,
      "s—": 4798,
      "sans": 4799,
      "sical": 4800,
      "spic": 4801,
      "self": 4802,
      "savour": 4803,
      "t.": 4804,
      "tun": 4805,
      "ts,": 4806,
      "table": 4807,
      "tled": 4808,
      "uce": 4809,
      "vé": 4810,
      "vent": 4811,
      "vary": 4812,
      "vated": 4813,
      "vely": 4814,
      "vimiento": 4815,
      "win": 4816,
      "wing": 4817,
      "wet": 4818,
      "wind": 4819,
      "ween": 4820,
      "welf": 4821,
      "wanted": 4822,
      "xed": 4823,
      "ying": 4824,
      "zes": 4825,
      "ética": 4826,
      "ñan": 4827,
      "अभ": 4828,
      "अलावा": 4829,
      "आत": 4830,
      "इतिहास": 4831,
      "उच्च": 4832,
      "एन": 4833,
      "कर्म": 4834,
      "किये": 4835,
      "गई": 4836,
      "गई।": 4837,
      "घा": 4838,
      "चना": 4839,
      "छो": 4840,
      "छोड़": 4841,
      "जिक": 4842,
      "जहाँ": 4843,
      "ण,": 4844,
      "तट": 4845,
      "तम": 4846,
      "तगा": 4847,
      "दार": 4848,
      "दारी": 4849,
      "धार": 4850,
      "नै": 4851,
      "नौ": 4852,
      "नदिया": 4853,
      "पहु": 4854,
      "फि": 4855,
      "फ्रा": 4856,
      "बौ": 4857,
      "बंगा": 4858,
      "बदल": 4859,
      "मे": 4860,
      "यक": 4861,
      "यत": 4862,
      "र-": 4863,
      "रही": 4864,
      "ल,": 4865,
      "लना": 4866,
      "सल्": 4867,
      "ृत्य": 4868,
      "ौर": 4869,
      "ौद्योग": 4870,
      "्ञ": 4871,
      "०,": 4872,
      "१४": 4873,
      "१५": 4874,
      "२४": 4875,
      "aning": 4876,
      "anism": 4877,
      "ancia": 4878,
      "international": 4879,
      "th.": 4880,
      "thic": 4881,
      "erc": 4882,
      "eros": 4883,
      "ening": 4884,
      "enhouse": 4885,
      "onic": 4886,
      "only": 4887,
      "onome": 4888,
      "onset": 4889,
      "ess.": 4890,
      "espread": 4891,
      "aled": 4892,
      "alim": 4893,
      "ala,": 4894,
      "alber": 4895,
      "alliance": 4896,
      "algun": 4897,
      "theor": 4898,
      "aris": 4899,
      "arter": 4900,
      "artic": 4901,
      "ardis": 4902,
      "assin": 4903,
      "asures": 4904,
      "did": 4905,
      "died": 4906,
      "dified": 4907,
      "ors": 4908,
      "tile": 4909,
      "tice": 4910,
      "tido": 4911,
      "ties.": 4912,
      "tienen": 4913,
      "defe": 4914,
      "deleg": 4915,
      "decid": 4916,
      "decreasing": 4917,
      "International": 4918,
      "Increasing": 4919,
      "recon": 4920,
      "rece": 4921,
      "realiz": 4922,
      "returned": 4923,
      "ises": 4924,
      "ission": 4925,
      "isión": 4926,
      "isions": 4927,
      "laim": 4928,
      "Indias": 4929,
      "osphere": 4930,
      "entually": 4931,
      "cio": 4932,
      "ciales": 4933,
      "city": 4934,
      "cieron": 4935,
      "city,": 4936,
      "cities,": 4937,
      "citiz": 4938,
      "omic": 4939,
      "ica,": 4940,
      "ingl": 4941,
      "ings": 4942,
      "itated": 4943,
      "todo": 4944,
      "tober": 4945,
      "adwe": 4946,
      "uno": 4947,
      "unque": 4948,
      "unres": 4949,
      "united": 4950,
      "uncommon": 4951,
      "tioned": 4952,
      "concent": 4953,
      "consum": 4954,
      "concep": 4955,
      "conoci": 4956,
      "tró": 4957,
      "try.": 4958,
      "lik": 4959,
      "lies": 4960,
      "live": 4961,
      "lived": 4962,
      "living": 4963,
      "amed": 4964,
      "amend": 4965,
      "lev": 4966,
      "uso": 4967,
      "usually": 4968,
      "ter-ga": 4969,
      "tercera": 4970,
      "teen": 4971,
      "pressed": 4972,
      "chas": 4973,
      "chat": 4974,
      "chap": 4975,
      "child": 4976,
      "seals": 4977,
      "seats": 4978,
      "lying": 4979,
      "Thail": 4980,
      "ill": 4981,
      "ilding": 4982,
      "force": 4983,
      "forme": 4984,
      "fortified": 4985,
      "fortable": 4986,
      "graph": 4987,
      "gradi": 4988,
      "groom": 4989,
      "estre": 4990,
      "estuvo": 4991,
      "imple": 4992,
      "immediately": 4993,
      "begin": 4994,
      "make": 4995,
      "open": 4996,
      "They": 4997,
      "suc": 4998,
      "ment,": 4999,
      "ment.": 5000,
      "mental": 5001,
      "mented": 5002,
      "sia,": 5003,
      "sively": 5004,
      "company": 5005,
      "commit": 5006,
      "comfortable": 5007,
      "above": 5008,
      "pared": 5009,
      "parents": 5010,
      "र्तगा": 5011,
      "stre": 5012,
      "stud": 5013,
      "stanti": 5014,
      "sole": 5015,
      "Indians.": 5016,
      "portion": 5017,
      "rior": 5018,
      "coal": 5019,
      "cts": 5020,
      "cting": 5021,
      "lasted": 5022,
      "exca": 5023,
      "exporter": 5024,
      "expanding": 5025,
      "exerc": 5026,
      "idly": 5027,
      "idespread": 5028,
      "tically": 5029,
      "स्लि": 5030,
      "emen": 5031,
      "empres": 5032,
      "emission": 5033,
      "agu": 5034,
      "agree": 5035,
      "प्रशासन": 5036,
      "प्रत्य": 5037,
      "प्रचल": 5038,
      "प्रौद्योग": 5039,
      "what": 5040,
      "percent": 5041,
      "persist": 5042,
      "नेमा": 5043,
      "istan": 5044,
      "istán": 5045,
      "peace": 5046,
      "petro": 5047,
      "raid": 5048,
      "tuvo": 5049,
      "tuberculosis": 5050,
      "frame": 5051,
      "ocup": 5052,
      "occas": 5053,
      "occur": 5054,
      "shy": 5055,
      "shal": 5056,
      "shoulder": 5057,
      "ship": 5058,
      "वियत": 5059,
      "overran": 5060,
      "anta": 5061,
      "action": 5062,
      "accoun": 5063,
      "according": 5064,
      "access": 5065,
      "माल": 5066,
      "माध्य": 5067,
      "माजिक": 5068,
      "appli": 5069,
      "appoin": 5070,
      "are:": 5071,
      "area.": 5072,
      "centre": 5073,
      "hace": 5074,
      "साह": 5075,
      "सामाजिक": 5076,
      "eta": 5077,
      "ets": 5078,
      "etah": 5079,
      "meaning": 5080,
      "न्ध": 5081,
      "परी": 5082,
      "परे": 5083,
      "पर्य": 5084,
      "marry": 5085,
      "margins": 5086,
      "marshy": 5087,
      "संगी": 5088,
      "mini": 5089,
      "derived": 5090,
      "ismo,": 5091,
      "क्षर": 5092,
      "gender": 5093,
      "tail": 5094,
      "resour": 5095,
      "vie": 5096,
      "कोई": 5097,
      "loose": 5098,
      "register": 5099,
      "form,": 5100,
      "formó": 5101,
      "forms.": 5102,
      "formally": 5103,
      "2010.": 5104,
      "भाष": 5105,
      "largo": 5106,
      "larger": 5107,
      "largely": 5108,
      "ends": 5109,
      "ending": 5110,
      "akh": 5111,
      "2001,": 5112,
      "ousand": 5113,
      "ously": 5114,
      "राजधान": 5115,
      "राजनै": 5116,
      "affir": 5117,
      "affa": 5118,
      "desem": 5119,
      "essenti": 5120,
      "economy,": 5121,
      "economies": 5122,
      "वास": 5123,
      "miti": 5124,
      "देव": 5125,
      "देखा": 5126,
      "substanti": 5127,
      "Chess": 5128,
      "Champ": 5129,
      "Chris": 5130,
      "Chhau": 5131,
      "ated.": 5132,
      "atedly": 5133,
      "role": 5134,
      "tries": 5135,
      "cuis": 5136,
      "cuando": 5137,
      "cuatro": 5138,
      "tspot": 5139,
      "includes": 5140,
      "included": 5141,
      "temper": 5142,
      "temples": 5143,
      "CE.": 5144,
      "ance,": 5145,
      "turn": 5146,
      "region.": 5147,
      "Asians": 5148,
      "),​": 5149,
      "1999.": 5150,
      "presence": 5151,
      "भील": 5152,
      "north,": 5153,
      "north-": 5154,
      "northwest": 5155,
      "prevent": 5156,
      "serving": 5157,
      "creating": 5158,
      "creativ": 5159,
      "1950.": 5160,
      "ati.": 5161,
      "atives": 5162,
      "्यादा": 5163,
      "years,": 5164,
      "tradiciones": 5165,
      "neigh": 5166,
      "tanto": 5167,
      "तरह": 5168,
      "ence.": 5169,
      "हिं": 5170,
      "हिस्": 5171,
      "तीस": 5172,
      "तीसर": 5173,
      "ively": 5174,
      "2023.": 5175,
      "2026,": 5176,
      "infec": 5177,
      "बाहरी": 5178,
      "artes": 5179,
      "arts,": 5180,
      "cordi": 5181,
      "food": 5182,
      "foetici": 5183,
      "lands,": 5184,
      "dose": 5185,
      "class.": 5186,
      "south,": 5187,
      "south.": 5188,
      "systems": 5189,
      "bread": 5190,
      "break": 5191,
      "18th": 5192,
      "मुस्लि": 5193,
      "million-": 5194,
      "long-": 5195,
      "numeral": 5196,
      "warrior": 5197,
      "जनवरी": 5198,
      "greenhouse": 5199,
      "medios": 5200,
      "किया,": 5201,
      "that,": 5202,
      "leges": 5203,
      "traditions": 5204,
      "traditions.": 5205,
      "ंत्रिक": 5206,
      "ological": 5207,
      "ologically": 5208,
      "plan": 5209,
      "planted": 5210,
      "country,": 5211,
      "1971,": 5212,
      "notably": 5213,
      "1.3": 5214,
      "brought": 5215,
      "चीफ": 5216,
      "therers,": 5217,
      "encia,": 5218,
      "mainly": 5219,
      "maintain": 5220,
      "years;": 5221,
      "caste,": 5222,
      "caste-": 5223,
      "classes": 5224,
      "limited": 5225,
      "partially": 5226,
      "partido": 5227,
      "partition.": 5228,
      "treat": 5229,
      "declin": 5230,
      "societ": 5231,
      "humans": 5232,
      "eventually": 5233,
      "population,": 5234,
      "numbers": 5235,
      "numbers,": 5236,
      "British-style": 5237,
      "17th": 5238,
      "años.​": 5239,
      "había": 5240,
      "habían": 5241,
      "मानसू": 5242,
      "भाषाएँ": 5243,
      "literary": 5244,
      "colleges": 5245,
      "Alliance": 5246,
      "efly": 5247,
      "effect": 5248,
      "amiento": 5249,
      "supplanted": 5250,
      "large-s": 5251,
      "सरकारें": 5252,
      "Pakistan)": 5253,
      "Pakistan,": 5254,
      "territories.": 5255,
      "जीत": 5256,
      "settle": 5257,
      "men,": 5258,
      "species.": 5259,
      "specific": 5260,
      "ure.": 5261,
      "web": 5262,
      "later,": 5263,
      "produced": 5264,
      "produce": 5265,
      "river,": 5266,
      "rivers,": 5267,
      "power.": 5268,
      "geograph": 5269,
      "redu": 5270,
      "ese,": 5271,
      "ultaneous": 5272,
      "carri": 5273,
      "carved": 5274,
      "budist": 5275,
      "building": 5276,
      "कृष": 5277,
      "policies": 5278,
      "जिसका": 5279,
      "2.8": 5280,
      "rate,": 5281,
      "दिल्": 5282,
      "thereafter": 5283,
      "therefore": 5284,
      "course": 5285,
      "election.": 5286,
      "elections.": 5287,
      "pending": 5288,
      "asive": 5289,
      "Himalayas.": 5290,
      "पुरा": 5291,
      "पुर्तगा": 5292,
      "importante": 5293,
      "period.": 5294,
      "सिंह": 5295,
      "सिनेमा": 5296,
      "US$2,": 5297,
      "US$100": 5298,
      "state,": 5299,
      "generated": 5300,
      "generally,": 5301,
      "highly": 5302,
      "highest": 5303,
      "rule,": 5304,
      "diversity.": 5305,
      "-day": 5306,
      "garlic,": 5307,
      "amphibi": 5308,
      "पूर्वी": 5309,
      "various": 5310,
      "dense": 5311,
      "transformed": 5312,
      "angetic": 5313,
      "family": 5314,
      "voted": 5315,
      "Indo-European": 5316,
      "Sea": 5317,
      "Sea.": 5318,
      "non-Congress": 5319,
      "non-violence": 5320,
      "non-co-": 5321,
      "puts,": 5322,
      "लगा": 5323,
      "techni": 5324,
      "forest,": 5325,
      "forests,": 5326,
      "मिलियन": 5327,
      "Europe.": 5328,
      "Islands,": 5329,
      "pically": 5330,
      "involved": 5331,
      "involving": 5332,
      "relative": 5333,
      "annual": 5334,
      "annually": 5335,
      "music.": 5336,
      "bodi": 5337,
      "bott": 5338,
      "consiste": 5339,
      "far-": 5340,
      "farmer": 5341,
      "intervention": 5342,
      "theast,": 5343,
      "mathematici": 5344,
      "extends": 5345,
      "10th": 5346,
      "ped.": 5347,
      "texts": 5348,
      "हुई।": 5349,
      "exports": 5350,
      "exported": 5351,
      "exports.": 5352,
      "emphas": 5353,
      "Plate.": 5354,
      "hotspot": 5355,
      "pass": 5356,
      "cale": 5357,
      "costa": 5358,
      "ronic": 5359,
      "diffused": 5360,
      "promo": 5361,
      "2%.": 5362,
      "Jainism": 5363,
      "Jainism,": 5364,
      "ización": 5365,
      "ucture": 5366,
      "distinc": 5367,
      "coastal": 5368,
      "coastline": 5369,
      "plains,": 5370,
      "feature": 5371,
      "influences": 5372,
      "courts,": 5373,
      "courts.": 5374,
      "Sikhs,": 5375,
      "9%.": 5376,
      "animals": 5377,
      "arms": 5378,
      "Biodiversity": 5379,
      "borne": 5380,
      "borders": 5381,
      "बढ़कर": 5382,
      "स्थि": 5383,
      "violent": 5384,
      "7.5%": 5385,
      "bai,": 5386,
      "saw": 5387,
      "archaic": 5388,
      "statu": 5389,
      "उपमहाद्वीप": 5390,
      "वेश": 5391,
      "administration": 5392,
      "administración": 5393,
      "संघीय": 5394,
      "संघर्ष": 5395,
      "principalmente": 5396,
      "1%.": 5397,
      "Rajputs,": 5398,
      "draw": 5399,
      "ethical": 5400,
      "figur": 5401,
      "nationalist": 5402,
      "ruled": 5403,
      "ruling": 5404,
      "remained": 5405,
      "second-largest": 5406,
      "coalición": 5407,
      "coalition,": 5408,
      "occupation,": 5409,
      "married": 5410,
      "markets.": 5411,
      "movement.": 5412,
      "history,": 5413,
      "historical": 5414,
      "historically": 5415,
      "country's": 5416,
      "literacy,": 5417,
      "support.": 5418,
      "paintings": 5419,
      "Estados": 5420,
      "सैनिक": 5421,
      "artistic": 5422,
      "artisans": 5423,
      "several": 5424,
      "severely": 5425,
      "Buddhism,": 5426,
      "dominion": 5427,
      "dominance": 5428,
      "organised": 5429,
      "defined": 5430,
      "complex": 5431,
      "historians": 5432,
      "independent": 5433,
      "goods": 5434,
      "steamed": 5435,
      "अन्तर": 5436,
      "आधार": 5437,
      "शुरु": 5438,
      "समाप्त": 5439,
      "legislature": 5440,
      "fuerzas": 5441,
      "पश्चिमी": 5442,
      "castes,": 5443,
      "sites": 5444,
      "disputed": 5445,
      "GDP,": 5446,
      "eigh": 5447,
      "either": 5448,
      "eight": 5449,
      "edicts": 5450,
      "equi": 5451,
      "well-": 5452,
      "ards": 5453,
      "advent": 5454,
      "advanced": 5455,
      "term.": 5456,
      "commerce": 5457,
      "incluyendo": 5458,
      "five-year": 5459,
      "styles,": 5460,
      "comerciales": 5461,
      "repú": 5462,
      "service": 5463,
      "Ghats,": 5464,
      "length": 5465,
      "गुप्त": 5466,
      "Northeast": 5467,
      "patron": 5468,
      "payee": 5469,
      "Sabha,": 5470,
      "comunidad": 5471,
      "política": 5472,
      "democratic": 5473,
      "democracy.": 5474,
      "Críquet": 5475,
      "Cricket": 5476,
      "give": 5477,
      "hymns": 5478,
      "spreading": 5479,
      "wildlife": 5480,
      "cheetah": 5481,
      "short": 5482,
      "residents": 5483,
      "subsequently": 5484,
      "points": 5485,
      "survives": 5486,
      "Union.": 5487,
      "everyday": 5488,
      "villag": 5489,
      "multi-": 5490,
      "nuevas": 5491,
      "ráp": 5492,
      "extensively": 5493,
      "विस्तार": 5494,
      "climatic": 5495,
      "olution": 5496,
      "dishes": 5497,
      "additional": 5498,
      "secular,": 5499,
      "existing": 5500,
      "biodiversity": 5501,
      "biotech": 5502,
      "hinduismo": 5503,
      "extremely": 5504,
      "Lankan": 5505,
      "Malay": 5506,
      "mission": 5507,
      "migration": 5508,
      "declared": 5509,
      "flour": 5510,
      "sports": 5511,
      "schools": 5512,
      "पेक्ष": 5513,
      "associate": 5514,
      "associated": 5515,
      "layer": 5516,
      "elites": 5517,
      "elites,": 5518,
      "companies": 5519,
      "against": 5520,
      "whereas": 5521,
      "shared": 5522,
      "meat,": 5523,
      "निरपेक्ष": 5524,
      "languages,": 5525,
      "languages.": 5526,
      "literatura": 5527,
      "weapons": 5528,
      "contributed": 5529,
      "Plateau,": 5530,
      "architecture,": 5531,
      "Hindustani": 5532,
      "speaking": 5533,
      "speakers": 5534,
      "Organization": 5535,
      "Organización": 5536,
      "briefly": 5537,
      "half": 5538,
      "income": 5539,
      "emperor": 5540,
      "provin": 5541,
      "इंडिया": 5542,
      "थे।": 5543,
      "लोगों": 5544,
      "probably": 5545,
      "निभाई": 5546,
      "clásica": 5547,
      "Economy": 5548,
      "Front": 5549,
      "Geography": 5550,
      "Marath": 5551,
      "solo": 5552,
      "response": 5553,
      "घोषणा": 5554,
      "पंजा": 5555,
      "विकसित": 5556,
      "dependent": 5557,
      "rebellion": 5558,
      "cientemente": 5559,
      "ministrative": 5560,
      "victories": 5561,
      "Non-Prolifer": 5562,
      "Treaty,": 5563,
      "drop": 5564,
      "females": 5565,
      "gained": 5566,
      "poverty": 5567,
      "thorn": 5568,
      "threatened": 5569,
      "assassin": 5570,
      "relief": 5571,
      "recogn": 5572,
      "isolation": 5573,
      "towns": 5574,
      "adopted": 5575,
      "untouchability": 5576,
      "changed": 5577,
      "standardis": 5578,
      "example,": 5579,
      "railways,": 5580,
      "manuscript": 5581,
      "inequality,": 5582,
      "crust,": 5583,
      "breathing": 5584,
      "strongly": 5585,
      "headed": 5586,
      "Desert,": 5587,
      "Democratic": 5588,
      "liberalisation": 5589,
      "States,": 5590,
      "Islam,": 5591,
      "mammals,": 5592,
      "Gujarat": 5593,
      "renewable": 5594,
      "safeguard": 5595,
      "characteristic": 5596,
      "churidars.": 5597,
      "Major": 5598,
      "October": 5599,
      "Tibe": 5600,
      "cattle": 5601,
      "volcan": 5602,
      "उसके": 5603,
      "कहते": 5604,
      "जैसे": 5605,
      "information": 5606,
      "tianity,": 5607,
      "repeatedly": 5608,
      "civilian": 5609,
      "unitary": 5610,
      "extinct": 5611,
      "Commonwealth": 5612,
      "mujeres": 5613,
      "agríco": 5614,
      "elegido": 5615,
      "divorce": 5616,
      "hambrun": 5617,
      "अमेरिका": 5618,
      "jurisdiction": 5619,
      "(2)": 5620,
      "Durante": 5621,
      "History": 5622,
      "Kosi": 5623,
      "Religion": 5624,
      "Sultanate": 5625,
      "pastoral": 5626,
      "आन्दोलन": 5627,
      "जून": 5628,
      "तनत": 5629,
      "ológic": 5630,
      "grupos": 5631,
      "estatus": 5632,
      "supreme": 5633,
      "comprising": 5634,
      "expression": 5635,
      "megadiverse": 5636,
      "endémic": 5637,
      "policy": 5638,
      "Indo-Gangetic": 5639,
      "supercontinent": 5640,
      "hereditary": 5641,
      "términos": 5642,
      "दृष्टि": 5643,
      "Soviet": 5644,
      "Vijayanagara": 5645,
      "(Ἰνδ": 5646,
      "(Artic": 5647,
      "-knit": 5648,
      "Achaemen": 5649,
      "Between": 5650,
      "Classical": 5651,
      "Cups,": 5652,
      "Carnatic": 5653,
      "Eastern": 5654,
      "Emergency,": 5655,
      "Etymolog": 5656,
      "Following": 5657,
      "Foreign": 5658,
      "General": 5659,
      "Health": 5660,
      "Lakshadwe": 5661,
      "Mumbai,": 5662,
      "Politics": 5663,
      "Simultaneous": 5664,
      "Shastri": 5665,
      "Shiva": 5666,
      "Several": 5667,
      "Urd": 5668,
      "Vajpayee": 5669,
      "Yakshag": 5670,
      "Zoroastrianism": 5671,
      "bulk": 5672,
      "buck": 5673,
      "bonds": 5674,
      "blackbuck": 5675,
      "close": 5676,
      "cereal": 5677,
      "cleared": 5678,
      "custom": 5679,
      "dólar": 5680,
      "drew": 5681,
      "europe": 5682,
      "flowering": 5683,
      "gigawat": 5684,
      "hunter-ga": 5685,
      "hombres": 5686,
      "jacket": 5687,
      "nonviolent": 5688,
      "narrow": 5689,
      "savoury": 5690,
      "tunic": 5691,
      "winds": 5692,
      "welfare": 5693,
      "अभिया": 5694,
      "छोटे": 5695,
      "नदियाँ": 5696,
      "सल्तनत": 5697,
      "arisen": 5698,
      "defeated.": 5699,
      "delegates": 5700,
      "deciduous": 5701,
      "laiming": 5702,
      "unresolved": 5703,
      "concentra": 5704,
      "consump": 5705,
      "amendments": 5706,
      "beginnings": 5707,
      "committe": 5708,
      "excavated": 5709,
      "प्रौद्योगिकी": 5710,
      "percentage": 5711,
      "framework": 5712,
      "occurred": 5713,
      "माध्यम": 5714,
      "applied": 5715,
      "संगीत": 5716,
      "loose-knit": 5717,
      "राजधानी": 5718,
      "राजनैतिक": 5719,
      "affair": 5720,
      "essential": 5721,
      "Christianity,": 5722,
      "northwest.": 5723,
      "creativity": 5724,
      "neighbour": 5725,
      "foeticide,": 5726,
      "मुस्लिम": 5727,
      "मानसून": 5728,
      "large-scale": 5729,
      "bottom": 5730,
      "mathematicians": 5731,
      "Non-Proliferation": 5732,
      "assassinated": 5733,
      "standardised": 5734,
      "Etymology": 5735,
      "Lakshadweep": 5736,
      "Simultaneously,": 5737,
      "hunter-gatherers,": 5738,
      "36%": 5739,
      "59": 5740,
      "64": 5741,
      "68": 5742,
      "600": 5743,
      "7000": 5744,
      "85.": 5745,
      "Ad": 5746,
      "BB": 5747,
      "Ban": 5748,
      "Bolly": 5749,
      "Cal": 5750,
      "Di": 5751,
      "F)": 5752,
      "Fed": 5753,
      "Har": 5754,
      "Kar": 5755,
      "Lord": 5756,
      "Me": 5757,
      "Of": 5758,
      "Open": 5759,
      "Pol": 5760,
      "Sh": 5761,
      "Sang": 5762,
      "Ved": 5763,
      "bit": 5764,
      "dat": 5765,
      "fun": 5766,
      "gil": 5767,
      "gir": 5768,
      "hor": 5769,
      "hockey": 5770,
      "ible": 5771,
      "judi": 5772,
      "kan": 5773,
      "nu": 5774,
      "rom": 5775,
      "san": 5776,
      "ster": 5777,
      "sap": 5778,
      "anj": 5779,
      "ana,": 5780,
      "era,": 5781,
      "alam,": 5782,
      "deci": 5783,
      "isi": 5784,
      "conserv": 5785,
      "trig": 5786,
      "lio": 5787,
      "ustr": 5788,
      "termin": 5789,
      "prana": 5790,
      "secu": 5791,
      "1900": 5792,
      "ma,": 5793,
      "excep": 5794,
      "identi": 5795,
      "sha": 5796,
      "incl": 5797,
      "acu": 5798,
      "minster": 5799,
      "resur": 5800,
      "restric": 5801,
      "regula": 5802,
      "2007": 5803,
      "2006,": 5804,
      "descri": 5805,
      "subordin": 5806,
      "Chol": 5807,
      "1990": 5808,
      "previ": 5809,
      "neg": 5810,
      "avor": 5811,
      "2021": 5812,
      "2021,": 5813,
      "entren": 5814,
      "folio": 5815,
      "1848": 5816,
      "1885.": 5817,
      "7,517": 5818,
      "plural": 5819,
      "1981": 5820,
      "limit": 5821,
      "kho": 5822,
      "socialist": 5823,
      "News": 5824,
      "adesh": 5825,
      "Central,": 5826,
      "3,42": 5827,
      "annada,": 5828,
      "3.8": 5829,
      "malnu": 5830,
      "considerable": 5831,
      "tton": 5832,
      "Prim": 5833,
      "Pradesh": 5834,
      "reptil": 5835,
      "9,000": 5836,
      "total.": 5837,
      "Westminster": 5838,
      "Maldiv": 5839,
      "vegetarian": 5840,
      "festiv": 5841,
      "promulg": 5842,
      "BBC": 5843,
      "Sangam": 5844,
      "malnutri": 5845,
      "\"భర": 5846,
      "''": 5847,
      "(el": 5848,
      "(0.": 5849,
      "-లా": 5850,
      "-ఢిల్లీ": 5851,
      "5-0": 5852,
      "7/": 5853,
      "CI": 5854,
      "Dere": 5855,
      "Gu": 5856,
      "Su": 5857,
      "VII": 5858,
      "[ci": 5859,
      "aún": 5860,
      "beng": 5861,
      "cele": 5862,
      "cadas": 5863,
      "don": 5864,
      "há": 5865,
      "hac": 5866,
      "iendo": 5867,
      "llev": 5868,
      "mes": 5869,
      "mica": 5870,
      "o.​": 5871,
      "rim": 5872,
      "sos": 5873,
      "té": 5874,
      "tam": 5875,
      "tado": 5876,
      "tend": 5877,
      "tados": 5878,
      "udo": 5879,
      "uales": 5880,
      "yó": 5881,
      "Índi": 5882,
      "ác": 5883,
      "áre": 5884,
      "ín": 5885,
      "ífer": 5886,
      "óme": 5887,
      "üís": 5888,
      "ंट": 5889,
      "अग": 5890,
      "अने": 5891,
      "अति": 5892,
      "अल्": 5893,
      "आज": 5894,
      "आप": 5895,
      "आय": 5896,
      "आस": 5897,
      "इसे": 5898,
      "ई,": 5899,
      "उसे": 5900,
      "उन्हें": 5901,
      "उष्ण": 5902,
      "एव": 5903,
      "कप": 5904,
      "कश्": 5905,
      "क्यों": 5906,
      "चो": 5907,
      "चित": 5908,
      "जट": 5909,
      "जों": 5910,
      "जमा": 5911,
      "टक": 5912,
      "टल": 5913,
      "टा": 5914,
      "ढा": 5915,
      "तीय": 5916,
      "तनाव": 5917,
      "दु": 5918,
      "दों": 5919,
      "न,": 5920,
      "पत्": 5921,
      "फा": 5922,
      "फैली": 5923,
      "बि": 5924,
      "बजट": 5925,
      "भु": 5926,
      "भ्यता": 5927,
      "मार्": 5928,
      "मस्वरूप": 5929,
      "यि": 5930,
      "यहाँ": 5931,
      "रख": 5932,
      "रल": 5933,
      "लै": 5934,
      "लौ": 5935,
      "लड़ा": 5936,
      "शहर": 5937,
      "शस्त्र": 5938,
      "शहरी": 5939,
      "शिक्": 5940,
      "सन्": 5941,
      "सहा": 5942,
      "सक्र": 5943,
      "सभ्यता": 5944,
      "हॉ": 5945,
      "ामस्वरूप": 5946,
      "ेक": 5947,
      "ेक्षा": 5948,
      "ोत्": 5949,
      "४.": 5950,
      "४०": 5951,
      "४७": 5952,
      "ం;": 5953,
      "ంక": 5954,
      "ంకా": 5955,
      "అణ": 5956,
      "అవ": 5957,
      "అంత": 5958,
      "అంట": 5959,
      "అన్ని": 5960,
      "అప్ప": 5961,
      "అమె": 5962,
      "అక్షరాస్యత": 5963,
      "ఆసియా": 5964,
      "ఇదే": 5965,
      "ఇండ": 5966,
      "ఇక్క": 5967,
      "ఇటీ": 5968,
      "ఈశ": 5969,
      "ఈస్": 5970,
      "ఎడ": 5971,
      "ఎల": 5972,
      "ఏప్ర": 5973,
      "ఐరో": 5974,
      "ఐక్య": 5975,
      "ఒలం": 5976,
      "క,": 5977,
      "కీ": 5978,
      "కలు": 5979,
      "కాత": 5980,
      "కను": 5981,
      "కనుక": 5982,
      "కంటే": 5983,
      "కబడ్డ": 5984,
      "ఖో": 5985,
      "ఖని": 5986,
      "గత": 5987,
      "గ్ర": 5988,
      "గంగ": 5989,
      "గమన": 5990,
      "గ్రా": 5991,
      "గెలు": 5992,
      "చద": 5993,
      "చయ": 5994,
      "చవి": 5995,
      "చూడ": 5996,
      "చించిన": 5997,
      "చుకోవడ": 5998,
      "జల": 5999,
      "జీ": 6000,
      "జో": 6001,
      "జ్": 6002,
      "జమ్మ": 6003,
      "జిక,": 6004,
      "టక": 6005,
      "ట్ర": 6006,
      "టలు": 6007,
      "టన్": 6008,
      "ట్‌": 6009,
      "టాన్": 6010,
      "టోర": 6011,
      "డైన": 6012,
      "ఢా": 6013,
      "ణులు": 6014,
      "తర్": 6015,
      "తను": 6016,
      "తంగా": 6017,
      "తం,": 6018,
      "తత్వ": 6019,
      "తక్కువ": 6020,
      "తీర": 6021,
      "థ్యం": 6022,
      "దర్": 6023,
      "దగా": 6024,
      "దరా": 6025,
      "దండ": 6026,
      "ధీన": 6027,
      "నం": 6028,
      "నూ": 6029,
      "నిక": 6030,
      "పలు": 6031,
      "పిక": 6032,
      "పవి": 6033,
      "ప్ల": 6034,
      "పల్ల": 6035,
      "పడు": 6036,
      "పర్వ": 6037,
      "పతా": 6038,
      "పక్క": 6039,
      "పడిన": 6040,
      "ఫల": 6041,
      "బు": 6042,
      "బౌ": 6043,
      "బంగ": 6044,
      "భవ": 6045,
      "భక్": 6046,
      "భాతో": 6047,
      "మ్": 6048,
      "మాత": 6049,
      "మిత": 6050,
      "మరో": 6051,
      "యింది.": 6052,
      "యాత్ర": 6053,
      "యమించ": 6054,
      "రీ": 6055,
      "రిక": 6056,
      "రకాలు": 6057,
      "రచయ": 6058,
      "లీ": 6059,
      "లౌ": 6060,
      "లకొ": 6061,
      "లమె": 6062,
      "లస్య": 6063,
      "ళా": 6064,
      "ళి,": 6065,
      "వం": 6066,
      "విం": 6067,
      "వంత": 6068,
      "వరు": 6069,
      "వైన": 6070,
      "వార్": 6071,
      "వులు,": 6072,
      "వత్ర": 6073,
      "వనాలు": 6074,
      "వాయు": 6075,
      "శక": 6076,
      "శి": 6077,
      "శీ": 6078,
      "శై": 6079,
      "శో": 6080,
      "శకు": 6081,
      "శక్": 6082,
      "షయాలు": 6083,
      "సన": 6084,
      "సీ": 6085,
      "సె": 6086,
      "సాల": 6087,
      "సమర": 6088,
      "సిక్": 6089,
      "హో": 6090,
      "హ్ర": 6091,
      "ాక": 6092,
      "ామ": 6093,
      "ాన్ని": 6094,
      "ాడే": 6095,
      "ిమాన": 6096,
      "ీం": 6097,
      "ీక్ష": 6098,
      "ీషు": 6099,
      "ుత్": 6100,
      "ూనది": 6101,
      "ే.": 6102,
      "ౌర": 6103,
      "్మా": 6104,
      "‌సభ": 6105,
      "‌కాత": 6106,
      "intent": 6107,
      "erdo": 6108,
      "erida": 6109,
      "eni": 6110,
      "ense": 6111,
      "escrit": 6112,
      "alí,": 6113,
      "así": 6114,
      "difer": 6115,
      "dial,": 6116,
      "tiem": 6117,
      "tierra": 6118,
      "rey": 6119,
      "requ": 6120,
      "recient": 6121,
      "reinos": 6122,
      "lado": 6123,
      "Indio": 6124,
      "osas": 6125,
      "cipi": 6126,
      "atra": 6127,
      "ellos": 6128,
      "icas": 6129,
      "icación": 6130,
      "uras": 6131,
      "todos": 6132,
      "todas": 6133,
      "unión": 6134,
      "conver": 6135,
      "contra": 6136,
      "contiene": 6137,
      "ారి": 6138,
      "లుగా": 6139,
      "prác": 6140,
      "chado": 6141,
      "sejo": 6142,
      "లో,": 6143,
      "లోను": 6144,
      "లోమీ": 6145,
      "స్వీ": 6146,
      "స్కరణ": 6147,
      "స్లిం": 6148,
      "estab": 6149,
      "están": 6150,
      "sij": 6151,
      "común": 6152,
      "quistán": 6153,
      "कालीन": 6154,
      "ప్రదేశ": 6155,
      "ప్రాయ": 6156,
      "ప్రసి": 6157,
      "ప్రత్య": 6158,
      "ప్రయో": 6159,
      "ప్రీం": 6160,
      "ింది": 6161,
      "దేశీ": 6162,
      "sober": 6163,
      "ర్పు": 6164,
      "ర్జాతీయ": 6165,
      "ర్చు": 6166,
      "ర్తిగా": 6167,
      "ర్థ్యం": 6168,
      "या।": 6169,
      "భారతం,": 6170,
      "భారత్‌": 6171,
      "idas": 6172,
      "ticos": 6173,
      "న్నీ": 6174,
      "న్నై": 6175,
      "से,": 6176,
      "प्रका": 6177,
      "प्रिय": 6178,
      "प्रदान": 6179,
      "प्रणा": 6180,
      "प्रभु": 6181,
      "permiti": 6182,
      "नेह": 6183,
      "istas": 6184,
      "peque": 6185,
      "राजा": 6186,
      "గాన్ని": 6187,
      "नागा": 6188,
      "नागर": 6189,
      "ocrá": 6190,
      "కు,": 6191,
      "నిపు": 6192,
      "నిడి": 6193,
      "నియమించ": 6194,
      "क्ट": 6195,
      "విలు": 6196,
      "విమాన": 6197,
      "విశ్": 6198,
      "విషయాలు": 6199,
      "విదేశీ": 6200,
      "विरो": 6201,
      "विशेष": 6202,
      "క్టోర": 6203,
      "ాతం": 6204,
      "ాతి": 6205,
      "ాత్మా": 6206,
      "माता": 6207,
      "దేశం.": 6208,
      "ayud": 6209,
      "ियां": 6210,
      "ానీ": 6211,
      "ాను": 6212,
      "ాన్య": 6213,
      "centro": 6214,
      "obras": 6215,
      "obtuvo": 6216,
      "सागर": 6217,
      "न्त्र": 6218,
      "నులు,": 6219,
      "परिण": 6220,
      "संग": 6221,
      "minu": 6222,
      "करती": 6223,
      "करते": 6224,
      "ండ్": 6225,
      "ము,": 6226,
      "ముడి": 6227,
      "ముస్లిం": 6228,
      "क्षण": 6229,
      "ినీ": 6230,
      "त्रि": 6231,
      "తిరు": 6232,
      "స్తులు": 6233,
      "స్తారు": 6234,
      "formas": 6235,
      "indio,": 6236,
      "भागी": 6237,
      "ternacional": 6238,
      "हैं:": 6239,
      "noreste": 6240,
      "noroeste": 6241,
      "Consejo": 6242,
      "ంతర": 6243,
      "राजवंश": 6244,
      "afía": 6245,
      "desigual": 6246,
      "después": 6247,
      "సంస్కరణ": 6248,
      "वाली": 6249,
      "वास्त": 6250,
      "manera": 6251,
      "हाल": 6252,
      "పుకో": 6253,
      "పుతూ": 6254,
      "trib": 6255,
      "స్థావర": 6256,
      "ంటి": 6257,
      "त्म": 6258,
      "cuales": 6259,
      "భారతదేశం.": 6260,
      "gana": 6261,
      "पात": 6262,
      "पाया": 6263,
      "पाँच": 6264,
      "ంలో,": 6265,
      "భావిస్త": 6266,
      "భాగాన్ని": 6267,
      "CEE": 6268,
      "movimiento": 6269,
      "primera": 6270,
      "puestos": 6271,
      "pueb": 6272,
      "ంగా,": 6273,
      "వాదం": 6274,
      "సాహ": 6275,
      "సామా": 6276,
      "किए": 6277,
      "किसी": 6278,
      "పావ": 6279,
      "పాడు": 6280,
      "పాంతర": 6281,
      "निम्": 6282,
      "निवेश": 6283,
      "समझ": 6284,
      "समृद्ध": 6285,
      "disminu": 6286,
      "शाली": 6287,
      "ార్థ": 6288,
      "लीवि": 6289,
      "críquet": 6290,
      "इसमें": 6291,
      "इसका": 6292,
      "तीन": 6293,
      "होना": 6294,
      "राज्यसभा": 6295,
      "casi": 6296,
      "मिला": 6297,
      "जिन्हें": 6298,
      "रूस": 6299,
      "కూడి": 6300,
      "కూడుకొ": 6301,
      "జాతి": 6302,
      "జాతులు,": 6303,
      "urbana": 6304,
      "రాజు": 6305,
      "án,": 6306,
      "पूरा": 6307,
      "पूरे": 6308,
      "కోట్ల": 6309,
      "క్రి": 6310,
      "కాహార": 6311,
      "కా-ఢిల్లీ": 6312,
      "కాపాడు": 6313,
      "చ్చే": 6314,
      "నేరే": 6315,
      "మొగలు": 6316,
      "ంచిన": 6317,
      "దుగా": 6318,
      "మాట్ల": 6319,
      "యాళ": 6320,
      "tiva": 6321,
      "son:": 6322,
      "నాథ": 6323,
      "guerra": 6324,
      "द्रो": 6325,
      "తరాలు": 6326,
      "రాష్ట్రాలు,": 6327,
      "bran": 6328,
      "लेकर": 6329,
      "ंधु": 6330,
      "గుబా": 6331,
      "వచ్చని": 6332,
      "encias": 6333,
      "sociedad": 6334,
      "వే.": 6335,
      "వేద": 6336,
      "వేల": 6337,
      "भाषाएं": 6338,
      "కాలే": 6339,
      "డిస్": 6340,
      "ద్రా": 6341,
      "जीवन": 6342,
      "శాసన": 6343,
      "దేశాలను": 6344,
      "menudo": 6345,
      "mundial": 6346,
      "ందింది.": 6347,
      "ఎన్నుకో": 6348,
      "ఎన్నుకుంట": 6349,
      "కిలోమీ": 6350,
      "Repú": 6351,
      "दिरा": 6352,
      "చెప్": 6353,
      "చెంద": 6354,
      "చెందు": 6355,
      "చెన్నై": 6356,
      "पुरु": 6357,
      "religiones": 6358,
      "सिंधु": 6359,
      "కేతిక": 6360,
      "తులతో": 6361,
      "మతాలు": 6362,
      "మతము": 6363,
      "dicos": 6364,
      "అధికారం": 6365,
      "26న": 6366,
      "बंधीय": 6367,
      "agricult": 6368,
      "controlar": 6369,
      "denomin": 6370,
      "త్రి": 6371,
      "పర్యాయ": 6372,
      "పరీక్ష": 6373,
      "పరిపాలన": 6374,
      "మీదగా": 6375,
      "మే.": 6376,
      "వరీ": 6377,
      "సుప్రీం": 6378,
      "cionado": 6379,
      "ప్రపంచములో": 6380,
      "స్థానం": 6381,
      "స్థానాలను": 6382,
      "భాషా": 6383,
      "భాషలను": 6384,
      "ప్రాంతీయ": 6385,
      "ప్రాంతాల్లో": 6386,
      "రాజ్యంగా": 6387,
      "పేరు,": 6388,
      "humanos": 6389,
      "मीर": 6390,
      "सदन": 6391,
      "Después": 6392,
      "relaciones": 6393,
      "దాయంలో": 6394,
      "వారి": 6395,
      "వర్ష": 6396,
      "వర్తి": 6397,
      "సభను": 6398,
      "सामरिक": 6399,
      "populares": 6400,
      "క్రీ.పూ.": 6401,
      "mundo.​": 6402,
      "పార్టీ,": 6403,
      "nología": 6404,
      "उत्तर-": 6405,
      "उत्तरी": 6406,
      "तुलना": 6407,
      "జనాభాతో": 6408,
      "రెండవ": 6409,
      "రెండో": 6410,
      "వెల్ల": 6411,
      "principi": 6412,
      "ప్రజలు": 6413,
      "ప్రభుత్వాన్ని": 6414,
      "मंत्रिम": 6415,
      "०००": 6416,
      "sultanato": 6417,
      "పూర్తిగా": 6418,
      "పోయింది.": 6419,
      "మనదేశం": 6420,
      "మిస్తు": 6421,
      "వుతుంది.": 6422,
      "स्कृतिक": 6423,
      "ecutivo": 6424,
      "ముఖ్యంగా": 6425,
      "స్త్రీలు": 6426,
      "సాంకేతిక": 6427,
      "lingüís": 6428,
      "बढ़ती": 6429,
      "ष्क": 6430,
      "comercial": 6431,
      "décadas": 6432,
      "उपयोग": 6433,
      "टेलीवि": 6434,
      "అతిపెద్ద": 6435,
      "జరిగే": 6436,
      "బడింది.": 6437,
      "మహి": 6438,
      "మహాత్మా": 6439,
      "క్రీడా": 6440,
      "క్రీడలలో": 6441,
      "అయినా,": 6442,
      "ujeron": 6443,
      "Estado": 6444,
      "ofile": 6445,
      "kilóme": 6446,
      "historiadores": 6447,
      "independencia": 6448,
      "च्छ": 6449,
      "रहा।": 6450,
      "शुष्क": 6451,
      "గోదా": 6452,
      "గోళిక": 6453,
      "గినది.": 6454,
      "జనతా": 6455,
      "జనవరి": 6456,
      "లేదు": 6457,
      "ప్రస్తుతము": 6458,
      "క్కను": 6459,
      "సాధించిన": 6460,
      "కాంగ్రెస్": 6461,
      "కాలంలో,": 6462,
      "ాబ్ది": 6463,
      "fuerte": 6464,
      "Profile": 6465,
      "सूची": 6466,
      "Constitución": 6467,
      "propiedad": 6468,
      "Ghats": 6469,
      "गुजरा": 6470,
      "मोहन": 6471,
      "ఉపయో": 6472,
      "భూభాగం": 6473,
      "భూటాన్": 6474,
      "మానం:": 6475,
      "యుగ": 6476,
      "రంగంలో": 6477,
      "వలన": 6478,
      "వలస": 6479,
      "reformas": 6480,
      "ప్రతిపక్ష": 6481,
      "విస్తీర్": 6482,
      "సినిమాలు": 6483,
      "लोकता": 6484,
      "लोकप्रिय": 6485,
      "Además": 6486,
      "érci": 6487,
      "estión": 6488,
      "comunicación": 6489,
      "संबंधों": 6490,
      "हिन्दु": 6491,
      "मैदानी": 6492,
      "además": 6493,
      "उनके": 6494,
      "उनकी": 6495,
      "గణతంత్ర": 6496,
      "ఢిల్లీ,": 6497,
      "నెలకొ": 6498,
      "మాత్రమే": 6499,
      "సమాజ": 6500,
      "భారత్,": 6501,
      "సామర్థ్యం": 6502,
      "ఉత్తరాన": 6503,
      "పట్టణాలు,": 6504,
      "బ్రిటీ": 6505,
      "ప్పటికినీ": 6506,
      "సింధూనది": 6507,
      "సరిహద్దుగా": 6508,
      "సౌకర్యాలు": 6509,
      "సౌకర్యాలలో": 6510,
      "ప్రముఖమైన": 6511,
      "अवशेष": 6512,
      "existen": 6513,
      "कार्यकाल": 6514,
      "कार्यपालिका": 6515,
      "militares": 6516,
      "industria": 6517,
      "mandato": 6518,
      "२००४": 6519,
      "చైనా,": 6520,
      "చైనాను": 6521,
      "తూర్పు": 6522,
      "నగరాలు": 6523,
      "పండుగలు": 6524,
      "రూపాంతర": 6525,
      "సారస్వ": 6526,
      "modelo": 6527,
      "tradicionales": 6528,
      "రైల్వేశాఖ": 6529,
      "పాలనలో": 6530,
      "ఒకటిగా": 6531,
      "ప్రపంచంలోని": 6532,
      "వెబ్": 6533,
      "ప్రజాదర": 6534,
      "últimas": 6535,
      "ण्डल": 6536,
      "సముద్రం,": 6537,
      "సముద్రతీర": 6538,
      "musulmanes": 6539,
      "స్వాతంత్ర్యం": 6540,
      "నిర్వహించింది.": 6541,
      "Minis": 6542,
      "bosques": 6543,
      "cambios": 6544,
      "ejérci": 6545,
      "élite": 6546,
      "élites": 6547,
      "मौर्य": 6548,
      "जिनमें": 6549,
      "सदस्य": 6550,
      "सदस्यों": 6551,
      "tecnología": 6552,
      "लंका": 6553,
      "लंबे": 6554,
      "ఇవిక": 6555,
      "చిరు": 6556,
      "నాయకత్వ": 6557,
      "మలయాళ": 6558,
      "సూచించిన": 6559,
      "హాకీ": 6560,
      "ిస్తారు.": 6561,
      "arquitect": 6562,
      "లోక్‌సభ": 6563,
      "కులాలు,": 6564,
      "కుంటూ": 6565,
      "కుంటారు.": 6566,
      "ాయుత": 6567,
      "మేనని": 6568,
      "రాజ్యాలుగా": 6569,
      "సభ్యు": 6570,
      "సభ్యులు": 6571,
      "పాకిస్థాన్,": 6572,
      "ఆధారపడిన": 6573,
      "బ్రిటిష్": 6574,
      "బ్రిటిషు": 6575,
      "పశ్చిమ": 6576,
      "పశ్చిమాన": 6577,
      "परंपरागत": 6578,
      "आगमन": 6579,
      "ऊँची": 6580,
      "डालर": 6581,
      "सोवियत": 6582,
      "estruct": 6583,
      "seguido": 6584,
      "quierda": 6585,
      "विजय": 6586,
      "símbolos": 6587,
      "Country": 6588,
      "campes": 6589,
      "destac": 6590,
      "Congreso": 6591,
      "utiliz": 6592,
      "इंदिरा": 6593,
      "इस्ला": 6594,
      "कटिबंधीय": 6595,
      "श्रीलंका": 6596,
      "ఇంగ్లీషు": 6597,
      "కిందకు": 6598,
      "టైటి": 6599,
      "టర్లకు": 6600,
      "పార్లమె": 6601,
      "భౌగోళిక": 6602,
      "మూల": 6603,
      "మౌర్య": 6604,
      "సహస్ర": 6605,
      "సైనిక": 6606,
      "సార్వత్ర": 6607,
      "హైదరా": 6608,
      "especialmente": 6609,
      "entonces": 6610,
      "ప్రారంభించ": 6611,
      "ర్షణ": 6612,
      "ర్‌ల": 6613,
      "విద్యుత్": 6614,
      "सांस्कृतिक": 6615,
      "సంకీర్ణ": 6616,
      "పురుషు": 6617,
      "స్థితి": 6618,
      "కూడుకుని": 6619,
      "sigui": 6620,
      "కోల్‌కాత": 6621,
      "నేపాల్,": 6622,
      "१९५०": 6623,
      "పాలించారు.": 6624,
      "ográfica": 6625,
      "ఎన్నికల్లో": 6626,
      "రాజ్యాంగం": 6627,
      "బడతారు.": 6628,
      "జనగణన": 6629,
      "अमरीकी": 6630,
      "ప్రతిపాదనకు": 6631,
      "సమాఖ్య.": 6632,
      "కోర్టులు": 6633,
      "ఏర్పడ్డాయి.": 6634,
      "కార్యక్రమాలు": 6635,
      "ఆఫ్ఘనిస్తాన్": 6636,
      "జరుపుకుంటారు.": 6637,
      "తెలుగు,": 6638,
      "పీఠభూ": 6639,
      "బంగ్లాదేశ్‌": 6640,
      "శెలవుదినాలు": 6641,
      "Paquistán": 6642,
      "rurales": 6643,
      "नौसेना": 6644,
      "पहुँच": 6645,
      "फ्रां": 6646,
      "बौद्ध": 6647,
      "्ञान": 6648,
      "alberga": 6649,
      "recono": 6650,
      "inglés": 6651,
      "प्रत्येक": 6652,
      "परीक्षण": 6653,
      "पर्यटन": 6654,
      "भाषी": 6655,
      "cordil": 6656,
      "कृषि": 6657,
      "दिल्ली": 6658,
      "स्थिति": 6659,
      "शुरुआत": 6660,
      "república": 6661,
      "rápido": 6662,
      "पंजाब": 6663,
      "-లాహో": 6664,
      "CIA": 6665,
      "[cita": 6666,
      "bengalí,": 6667,
      "meseta": 6668,
      "rimoni": 6669,
      "áreas": 6670,
      "अनेक": 6671,
      "कश्मीर": 6672,
      "शिक्षा": 6673,
      "सहायक": 6674,
      "सक्रिय": 6675,
      "हॉकी": 6676,
      "అంతర్జాతీయ": 6677,
      "అమెరిక": 6678,
      "ఇండో": 6679,
      "ఈశాన్య": 6680,
      "ఈస్ట్": 6681,
      "ఎలక్టోర": 6682,
      "ఏప్రిల్": 6683,
      "ఐరోపా": 6684,
      "ఖనిజాలు": 6685,
      "గెలుచుకోవడ": 6686,
      "చూడండి": 6687,
      "జమ్మూ": 6688,
      "ట్రో": 6689,
      "ఢాకా-ఢిల్లీ": 6690,
      "తర్వాత": 6691,
      "పిక్‌": 6692,
      "పవిత్ర": 6693,
      "పతాక": 6694,
      "పక్కన": 6695,
      "బౌద్ధ": 6696,
      "బంగారు": 6697,
      "రచయిత": 6698,
      "లౌక": 6699,
      "సమరం": 6700,
      "erida]": 6701,
      "tiempo": 6702,
      "requerida]": 6703,
      "ప్రసిద్ధి": 6704,
      "భారత్‌లో": 6705,
      "प्रणाली": 6706,
      "नागरिक": 6707,
      "నిపుణులు": 6708,
      "నిడివి": 6709,
      "परिणामस्वरूप": 6710,
      "తిరుగుబా": 6711,
      "స్థావరాలు": 6712,
      "సామాజిక,": 6713,
      "కూడుకొని": 6714,
      "కాపాడుకుంటూ": 6715,
      "నేరేడు": 6716,
      "మాట్లాడే": 6717,
      "ఎన్నుకోబడతారు.": 6718,
      "కిలోమీటర్లకు": 6719,
      "చెప్పుకో": 6720,
      "చెందాయి.": 6721,
      "చెందుతున్న": 6722,
      "पुरुष": 6723,
      "పర్యాయాలు": 6724,
      "मंत्रिमण्डल": 6725,
      "ఉపయోగి": 6726,
      "ప్రజాదరణ": 6727,
      "సూచించినట్లు": 6728,
      "సహస్రాబ్ది": 6729,
      "సార్వత్రిక": 6730,
      "కోల్‌కాతా": 6731,
      "ఎలక్టోరల్": 6732,
      "గెలుచుకోవడం": 6733,
      "ఢాకా-ఢిల్లీ-లాహో": 6734,
      "తిరుగుబాటు": 6735,
      "\"no": 6736,
      "'í": 6737,
      "(BJP": 6738,
      "(UPA": 6739,
      "(NDA": 6740,
      "01": 6741,
      "120": 6742,
      "10,": 6743,
      "13.": 6744,
      "140": 6745,
      "21,": 6746,
      "31": 6747,
      "30,000": 6748,
      "65": 6749,
      "6°": 6750,
      "64%": 6751,
      "7°": 6752,
      "7′": 6753,
      "72.": 6754,
      "74.": 6755,
      "800": 6756,
      "97°": 6757,
      "Ab": 6758,
      "Au": 6759,
      "Acade": 6760,
      "Austr": 6761,
      "Br": 6762,
      "But": 6763,
      "Co": 6764,
      "Can": 6765,
      "Col": 6766,
      "Cap": 6767,
      "Chi": 6768,
      "Dal,": 6769,
      "Dho": 6770,
      "Es": 6771,
      "God": 6772,
      "Gov": 6773,
      "Homo": 6774,
      "Iran": 6775,
      "Kr": 6776,
      "Kut": 6777,
      "Kali": 6778,
      "Mul": 6779,
      "Map": 6780,
      "Medi": 6781,
      "Nad": 6782,
      "Nag": 6783,
      "Nav": 6784,
      "Narm": 6785,
      "Odish": 6786,
      "Pe": 6787,
      "Proc": 6788,
      "Pubs": 6789,
      "Ra": 6790,
      "Res": 6791,
      "Rus": 6792,
      "Rann": 6793,
      "Sat": 6794,
      "Sund": 6795,
      "Stre": 6796,
      "Sindh": 6797,
      "T20": 6798,
      "Tap": 6799,
      "UC": 6800,
      "Utt": 6801,
      "Vindh": 6802,
      "Yam": 6803,
      "[ˈ": 6804,
      "bʱ": 6805,
      "bli": 6806,
      "clan": 6807,
      "dho": 6808,
      "dham": 6809,
      "fas": 6810,
      "faci": 6811,
      "fac": 6812,
      "gla": 6813,
      "gam": 6814,
      "god": 6815,
      "hr": 6816,
      "hari": 6817,
      "ili,": 6818,
      "ji": 6819,
      "jam": 6820,
      "jati": 6821,
      "kti": 6822,
      "kab": 6823,
      "khar": 6824,
      "len": 6825,
      "lof": 6826,
      "mod": 6827,
      "mpic": 6828,
      "nic": 6829,
      "nav": 6830,
      "nam,": 6831,
      "ota": 6832,
      "py": 6833,
      "paci": 6834,
      "pura": 6835,
      "ral": 6836,
      "rum": 6837,
      "sar": 6838,
      "sis": 6839,
      "tas,": 6840,
      "tele": 6841,
      "u.": 6842,
      "ule": 6843,
      "ual,": 6844,
      "ugu": 6845,
      "vul": 6846,
      "vac": 6847,
      "vice": 6848,
      "xal": 6849,
      "zones": 6850,
      "int": 6851,
      "inst": 6852,
      "er.": 6853,
      "erry": 6854,
      "on,": 6855,
      "onkan": 6856,
      "es;": 6857,
      "arc": 6858,
      "ars": 6859,
      "arā": 6860,
      "aran": 6861,
      "aren": 6862,
      "arra": 6863,
      "asim": 6864,
      "aspect": 6865,
      "orar": 6866,
      "demar": 6867,
      "decor": 6868,
      "anda,": 6869,
      "real": 6870,
      "reve": 6871,
      "repres": 6872,
      "rector": 6873,
      "lavir": 6874,
      "lagos": 6875,
      "India\"": 6876,
      "India:": 6877,
      "India;": 6878,
      "at,": 6879,
      "atol": 6880,
      "elo": 6881,
      "inger": 6882,
      "urgen": 6883,
      "itan": 6884,
      "adha": 6885,
      "condi": 6886,
      "conce": 6887,
      "consu": 6888,
      "contem": 6889,
      "contex": 6890,
      "trad": 6891,
      "lip": 6892,
      "li-d": 6893,
      "tect": 6894,
      "pron": 6895,
      "priv": 6896,
      "semin": 6897,
      "gram": 6898,
      "opol": 6899,
      "sula": 6900,
      "comb": 6901,
      "coher": 6902,
      "experi": 6903,
      "agore": 6904,
      "percep": 6905,
      "pet": 6906,
      "delta": 6907,
      "ional": 6908,
      "havir": 6909,
      "hakti": 6910,
      "oblig": 6911,
      "etMap": 6912,
      "etnam,": 6913,
      "ari,": 6914,
      "ongol": 6915,
      "ateg": 6916,
      "marin": 6917,
      "margin": 6918,
      "indic": 6919,
      "2017,": 6920,
      "2011.": 6921,
      "endra": 6922,
      "aka": 6923,
      "2007,": 6924,
      "descen": 6925,
      "subtropical": 6926,
      "Cher": 6927,
      "Chota": 6928,
      "udal": 6929,
      "1,3": 6930,
      "Laos,": 6931,
      "feudal": 6932,
      "alleng": 6933,
      "adai,": 6934,
      "mohan": 6935,
      "fire": 6936,
      "fici": 6937,
      "fiel": 6938,
      "ost-": 6939,
      "1996,": 6940,
      "1998.": 6941,
      "1956,": 6942,
      "atiya": 6943,
      "1962,": 6944,
      "avari,": 6945,
      "2023,": 6946,
      "2024,": 6947,
      "oge": 6948,
      "coral": 6949,
      "inspir": 6950,
      "insurgen": 6951,
      "ishn": 6952,
      "189": 6953,
      "1820": 6954,
      "7,6": 6955,
      "longit": 6956,
      "gui": 6957,
      "Mahan": 6958,
      "Mahat": 6959,
      "Mahavir": 6960,
      "plic": 6961,
      "1972,": 6962,
      "braries": 6963,
      "1984": 6964,
      "1985": 6965,
      "1989,": 6966,
      "tiling": 6967,
      "particip": 6968,
      "evid": 6969,
      "1765": 6970,
      "contrast": 6971,
      "final": 6972,
      "tala": 6973,
      "Nepal": 6974,
      "carb": 6975,
      "Refer": 6976,
      "diclof": 6977,
      "0.7": 6978,
      "26.": 6979,
      "garh": 6980,
      "local,": 6981,
      "Indo-Austr": 6982,
      "Gandhi.": 6983,
      "BJP,": 6984,
      "divasi": 6985,
      "423": 6986,
      "interv": 6987,
      "30′": 6988,
      "Party": 6989,
      "25′": 6990,
      "2500": 6991,
      "Bihar": 6992,
      "Bibli": 6993,
      "Manipur": 6994,
      "Manmohan": 6995,
      "Project": 6996,
      "Progres": 6997,
      "durable": 6998,
      "housie": 6999,
      "archi": 7000,
      "Bharatiya": 7001,
      "productiv": 7002,
      "Act,": 7003,
      "multiling": 7004,
      "eria": 7005,
      "legislatur": 7006,
      "adi,": 7007,
      "visit": 7008,
      "protec": 7009,
      "ideas": 7010,
      "patr": 7011,
      "payat": 7012,
      "universi": 7013,
      "1857.": 7014,
      "1858,": 7015,
      "gradual": 7016,
      "35°": 7017,
      "Guptas,": 7018,
      "addi,": 7019,
      "respec": 7020,
      "Lanka": 7021,
      "simple": 7022,
      "Vietnam,": 7023,
      "Nicobar,": 7024,
      "Atlas": 7025,
      "Pallavas": 7026,
      "Grad": 7027,
      "tandoor": 7028,
      "tandoori": 7029,
      "zooge": 7030,
      "44′": 7031,
      "Libraries": 7032,
      "Narasim": 7033,
      "Narendra": 7034,
      "Ramsar": 7035,
      "latitud": 7036,
      "1935,": 7037,
      "Pandyas": 7038,
      "sacri": 7039,
      "segreg": 7040,
      "Araval": 7041,
      "Dalhousie": 7042,
      "Jharkhand": 7043,
      "Kaveri": 7044,
      "Territ": 7045,
      "ithili,": 7046,
      "prominent": 7047,
      "appa,": 7048,
      "Chandra": 7049,
      "16.6%": 7050,
      "Akbar,": 7051,
      "Brahmaputra,": 7052,
      "particular,": 7053,
      "instru": 7054,
      "Assam": 7055,
      "textiles,": 7056,
      "68°": 7057,
      "Bollywood,": 7058,
      "Calcut": 7059,
      "Director": 7060,
      "Harappa,": 7061,
      "Mehr": 7062,
      "OpenStre": 7063,
      "gilli-d": 7064,
      "sapi": 7065,
      "inclus": 7066,
      "reptiles": 7067,
      "(NDA),": 7068,
      "1206.": 7069,
      "74.04%": 7070,
      "Academi": 7071,
      "Capital": 7072,
      "Chief": 7073,
      "Dholavir": 7074,
      "Godavari,": 7075,
      "GovPubs": 7076,
      "Krishn": 7077,
      "Kutch": 7078,
      "Nagpur": 7079,
      "Narmada": 7080,
      "Odisha": 7081,
      "Rao,": 7082,
      "Reser": 7083,
      "Satpura": 7084,
      "Sundar": 7085,
      "Tapti,": 7086,
      "Uttar": 7087,
      "Vindhya": 7088,
      "Yamuna": 7089,
      "[ˈbʱ": 7090,
      "dhamma": 7091,
      "facilit": 7092,
      "glaci": 7093,
      "jamas,": 7094,
      "kabaddi,": 7095,
      "pyjamas,": 7096,
      "demarc": 7097,
      "lagos:": 7098,
      "contempor": 7099,
      "Mahanadi,": 7100,
      "Mahatma": 7101,
      "Indo-Australian": 7102,
      "Narasimha": 7103,
      "Directory": 7104,
      "Mehrgarh": 7105,
      "OpenStreetMap": 7106,
      "gilli-danda,": 7107,
      "\".​": 7108,
      "(/": 7109,
      "(C": 7110,
      "(en": 7111,
      "(०,": 7112,
      "-आ": 7113,
      "-धीरे": 7114,
      "47": 7115,
      "52": 7116,
      "72": 7117,
      "75,": 7118,
      "Cor": 7119,
      "Dav": 7120,
      "Eth": 7121,
      "Fi": 7122,
      "IX": 7123,
      "Jue": 7124,
      "Ley": 7125,
      "N)": 7126,
      "ON": 7127,
      "Portal": 7128,
      "SI": 7129,
      "Trat": 7130,
      "VI": 7131,
      "XVII": 7132,
      "apar": 7133,
      "aproxim": 7134,
      "aunque": 7135,
      "boc": 7136,
      "cam": 7137,
      "cali": 7138,
      "d.": 7139,
      "ect": 7140,
      "efect": 7141,
      "hú": 7142,
      "hay": 7143,
      "io": 7144,
      "ió": 7145,
      "jó": 7146,
      "juni": 7147,
      "lá": 7148,
      "lones": 7149,
      "mé": 7150,
      "mo,": 7151,
      "nación": 7152,
      "naciones": 7153,
      "otra": 7154,
      "ocho": 7155,
      "pel": 7156,
      "rse": 7157,
      "ría": 7158,
      "rbol": 7159,
      "sof": 7160,
      "sold": 7161,
      "tar": 7162,
      "tbol": 7163,
      "uación": 7164,
      "vig": 7165,
      "vestre": 7166,
      "yen": 7167,
      "zado": 7168,
      "zada": 7169,
      "ábig": 7170,
      "árbol": 7171,
      "ía,": 7172,
      "ícul": 7173,
      "ías,": 7174,
      "ímic": 7175,
      "ítico": 7176,
      "ña": 7177,
      "órica": 7178,
      "útbol": 7179,
      "ंतर": 7180,
      "ंजन": 7181,
      "अर्": 7182,
      "अनि": 7183,
      "असम": 7184,
      "अहिं": 7185,
      "अक्ट": 7186,
      "अच्छ": 7187,
      "आई": 7188,
      "आर": 7189,
      "आते": 7190,
      "आकर्म": 7191,
      "ईद": 7192,
      "ईस्ट": 7193,
      "उठ": 7194,
      "उभरा": 7195,
      "ऊपर": 7196,
      "ऑफ": 7197,
      "ऑपरे": 7198,
      "क,": 7199,
      "कल": 7200,
      "कमा": 7201,
      "कंप": 7202,
      "खन": 7203,
      "खर": 7204,
      "खे": 7205,
      "खंड": 7206,
      "गै": 7207,
      "ग्": 7208,
      "गों": 7209,
      "गढ़": 7210,
      "ग्री": 7211,
      "चर": 7212,
      "चौ": 7213,
      "चला": 7214,
      "चली": 7215,
      "छह": 7216,
      "जु": 7217,
      "जन्": 7218,
      "जैन": 7219,
      "झे": 7220,
      "झार": 7221,
      "टना": 7222,
      "ठक": 7223,
      "ठार": 7224,
      "डि": 7225,
      "डु": 7226,
      "डे": 7227,
      "डिया": 7228,
      "तब": 7229,
      "तार": 7230,
      "तरा": 7231,
      "थल": 7232,
      "दिक": 7233,
      "दियों": 7234,
      "नम": 7235,
      "नर": 7236,
      "नो": 7237,
      "नार": 7238,
      "नियों": 7239,
      "नृत्य": 7240,
      "नदियों": 7241,
      "पद": 7242,
      "पो": 7243,
      "पक्ष": 7244,
      "पड़ा": 7245,
      "पठार": 7246,
      "फु": 7247,
      "बद": 7248,
      "बहा": 7249,
      "बियों": 7250,
      "बडी": 7251,
      "बन्ध": 7252,
      "भो": 7253,
      "भरी": 7254,
      "मं": 7255,
      "मल": 7256,
      "मह": 7257,
      "मार": 7258,
      "मना": 7259,
      "मही": 7260,
      "मले": 7261,
      "यन": 7262,
      "यर": 7263,
      "यें": 7264,
      "यद्य": 7265,
      "यपालिका": 7266,
      "रों": 7267,
      "रिया": 7268,
      "रत्": 7269,
      "रखा": 7270,
      "लू": 7271,
      "लिक": 7272,
      "व,": 7273,
      "वृद्ध": 7274,
      "श्र": 7275,
      "शिया": 7276,
      "शिय": 7277,
      "श्रे": 7278,
      "शक्त": 7279,
      "शैली": 7280,
      "सौ": 7281,
      "सर्": 7282,
      "सों": 7283,
      "सभी": 7284,
      "सदी": 7285,
      "समान": 7286,
      "सशस्त्र": 7287,
      "हती": 7288,
      "हार्": 7289,
      "हत्या": 7290,
      "ाफ": 7291,
      "ूत": 7292,
      "ूह": 7293,
      "ूबर": 7294,
      "्ष": 7295,
      "१,": 7296,
      "१०": 7297,
      "१७": 7298,
      "२५": 7299,
      "२६": 7300,
      "५२": 7301,
      "९.": 7302,
      "anex": 7303,
      "inte": 7304,
      "eran": 7305,
      "enca": 7306,
      "encontr": 7307,
      "onom": 7308,
      "estra": 7309,
      "alt": 7310,
      "alre": 7311,
      "alto": 7312,
      "alfa": 7313,
      "arta": 7314,
      "dividi": 7315,
      "dirse": 7316,
      "timo": 7317,
      "tigre": 7318,
      "tiemp": 7319,
      "deporte": 7320,
      "reforma": 7321,
      "recientemente": 7322,
      "reelegido": 7323,
      "islas": 7324,
      "islá": 7325,
      "laciones": 7326,
      "lada": 7327,
      "cia,": 7328,
      "oment": 7329,
      "ita": 7330,
      "itos": 7331,
      "toda": 7332,
      "adqu": 7333,
      "ados,": 7334,
      "unos": 7335,
      "unales": 7336,
      "const": 7337,
      "construc": 7338,
      "libr": 7339,
      "्रो": 7340,
      "tera": 7341,
      "prome": 7342,
      "prue": 7343,
      "seis": 7344,
      "2000": 7345,
      "impuestos": 7346,
      "sión": 7347,
      "siendo": 7348,
      "sidad": 7349,
      "compu": 7350,
      "qui": 7351,
      "quin": 7352,
      "químic": 7353,
      "काज": 7354,
      "rique": 7355,
      "cooper": 7356,
      "ोंने": 7357,
      "exc": 7358,
      "extr": 7359,
      "idos,": 7360,
      "स्ति": 7361,
      "प्रसार": 7362,
      "प्रदेशों": 7363,
      "प्रगति": 7364,
      "नेट": 7365,
      "petró": 7366,
      "iones": 7367,
      "ता,": 7368,
      "वित": 7369,
      "विध": 7370,
      "विशा": 7371,
      "विमान": 7372,
      "विद्रो": 7373,
      "lugu": 7374,
      "acces": 7375,
      "थान": 7376,
      "सामान": 7377,
      "साक्षर": 7378,
      "परि": 7379,
      "marcada": 7380,
      "marath": 7381,
      "ecen": 7382,
      "करे": 7383,
      "करो": 7384,
      "करवा": 7385,
      "derro": 7386,
      "hicieron": 7387,
      "vieron": 7388,
      "त्र,": 7389,
      "त्री": 7390,
      "indias": 7391,
      "indias,": 7392,
      "2010": 7393,
      "endas": 7394,
      "जाने": 7395,
      "राजभाषा": 7396,
      "राजस्थान": 7397,
      "afir": 7398,
      "bier": 7399,
      "bien": 7400,
      "desig": 7401,
      "desier": 7402,
      "economías": 7403,
      "वाम": 7404,
      "mantiene": 7405,
      "ड़ियाँ": 7406,
      "1,9": 7407,
      "poten": 7408,
      "कारी": 7409,
      "cubier": 7410,
      "ियो": 7411,
      "ganado": 7412,
      "पान": 7413,
      "पाल": 7414,
      "ित्य": 7415,
      "temas": 7416,
      "dedor": 7417,
      "लाल": 7418,
      "regionales.": 7419,
      "1996": 7420,
      "1999": 7421,
      "1990,": 7422,
      "भारतीयों": 7423,
      "unda": 7424,
      "mercado": 7425,
      "creó": 7426,
      "निवास": 7427,
      "समूह": 7428,
      "1961": 7429,
      "्यात": 7430,
      "शामिल": 7431,
      "शास्त्र": 7432,
      "तरिक": 7433,
      "tenido": 7434,
      "paz": 7435,
      "वर्षा": 7436,
      "होने": 7437,
      "ivas": 7438,
      "ivado": 7439,
      "ueva": 7440,
      "diversidad": 7441,
      "2023": 7442,
      "al,​": 7443,
      "histórica": 7444,
      "मिश्र": 7445,
      "जिन्ह": 7446,
      "clases": 7447,
      "ándose": 7448,
      "millón": 7449,
      "मुद्र": 7450,
      "tivos": 7451,
      "tivamente": 7452,
      "Unido": 7453,
      "1948": 7454,
      "media": 7455,
      "medio": 7456,
      "नीति": 7457,
      "सरे": 7458,
      "mucho": 7459,
      "muchos": 7460,
      "ología": 7461,
      "guer": 7462,
      "1987": 7463,
      "लिख": 7464,
      "लिस": 7465,
      "१९४७": 7466,
      "साथ,": 7467,
      "प्ति": 7468,
      "diversos": 7469,
      "मानव": 7470,
      "influencia": 7471,
      "ografía": 7472,
      "सरकारों": 7473,
      "Muchas": 7474,
      "finales": 7475,
      "finalmente": 7476,
      "गया,": 7477,
      "amente,": 7478,
      "क्षेत्रों": 7479,
      "partes": 7480,
      "menos": 7481,
      "budis": 7482,
      "जिसकी": 7483,
      "जिसने": 7484,
      "बहुमूल": 7485,
      "पुन": 7486,
      "पुड़ा": 7487,
      "पुलिस": 7488,
      "billones": 7489,
      "अपेक्षा": 7490,
      "सीमा": 7491,
      "263": 7492,
      "सारी": 7493,
      "presenta": 7494,
      "धर्म,": 7495,
      "धर्मों": 7496,
      "cionales": 7497,
      "थी,": 7498,
      "मी.": 7499,
      "मील": 7500,
      "मीणा": 7501,
      "Desde": 7502,
      "invas": 7503,
      "democrá": 7504,
      "relacion": 7505,
      "mitad": 7506,
      "barri": 7507,
      "basándose": 7508,
      "चुकी": 7509,
      "textos": 7510,
      "हुआ,": 7511,
      "निर्भर": 7512,
      "hoy": 7513,
      "ज़्यादा": 7514,
      "सेनाओं": 7515,
      "costu": 7516,
      "familia": 7517,
      "familias": 7518,
      "1652": 7519,
      "danza": 7520,
      "izquierda": 7521,
      "ningún": 7522,
      "बढ़ा": 7523,
      "बढ़ने": 7524,
      "महासागर": 7525,
      "रुप": 7526,
      "islam": 7527,
      "केंद्रीय": 7528,
      "स्थल": 7529,
      "consideran": 7530,
      "एशन": 7531,
      "क्रय": 7532,
      "क्रि": 7533,
      "directamente": 7534,
      "Estas": 7535,
      "actualmente": 7536,
      "चाई": 7537,
      "oficiales": 7538,
      "teriores": 7539,
      "castas": 7540,
      "situación": 7541,
      "leyes": 7542,
      "Mundial,": 7543,
      "aire": 7544,
      "पहली": 7545,
      "मनमोहन": 7546,
      "मध्यम": 7547,
      "सूचना": 7548,
      "representando": 7549,
      "expandirse": 7550,
      "primeros": 7551,
      "periodist": 7552,
      "propietari": 7553,
      "प्राचीनतम": 7554,
      "गुट": 7555,
      "न्यायपालिका": 7556,
      "मोर्": 7557,
      "मोदी": 7558,
      "empleo": 7559,
      "साम्राज्यों": 7560,
      "लोकसभा": 7561,
      "ahora": 7562,
      "estilos": 7563,
      "estilo": 7564,
      "ticias": 7565,
      "सम्पूर्ण": 7566,
      "condujo": 7567,
      "políticos": 7568,
      "पार्टियों": 7569,
      "democracia": 7570,
      "económico": 7571,
      "económicas": 7572,
      "convirtieron": 7573,
      "habitantes,": 7574,
      "nuev": 7575,
      "उनका": 7576,
      "astronom": 7577,
      "स्टाफ": 7578,
      "miembro": 7579,
      "स्थानीय": 7580,
      "100,000": 7581,
      "silvestre": 7582,
      "olución": 7583,
      "matrimoni": 7584,
      "अवधि": 7585,
      "बनने": 7586,
      "alizado": 7587,
      "स्थापित": 7588,
      "hinduist": 7589,
      "extremadamente": 7590,
      "Oriental": 7591,
      "Orientales": 7592,
      "mamífer": 7593,
      "británicos": 7594,
      "सकता": 7595,
      "सकते": 7596,
      "comenzaron": 7597,
      "संसदीय": 7598,
      "१९९१": 7599,
      "धीरे-धीरे": 7600,
      "विकासशील": 7601,
      "personas": 7602,
      "Frente": 7603,
      "bosque": 7604,
      "cambio": 7605,
      "ejecutivo": 7606,
      "इंडो": 7607,
      "दर्शन": 7608,
      "राजनीति": 7609,
      "निभाई।": 7610,
      "अन्तर्": 7611,
      "अन्ततः": 7612,
      "lengua": 7613,
      "mantener": 7614,
      "gobernantes": 7615,
      "derechos": 7616,
      "flore": 7617,
      "nombre": 7618,
      "tico,": 7619,
      "Archivado": 7620,
      "costas": 7621,
      "públic": 7622,
      "घोषित": 7623,
      "नियु": 7624,
      "नियंत्र": 7625,
      "पंथी": 7626,
      "बने।": 7627,
      "२०१४": 7628,
      "dependencia": 7629,
      "rebelión": 7630,
      "ombay": 7631,
      "केन्द्रशासित": 7632,
      "कामकाज": 7633,
      "सेवाओं": 7634,
      "प्रारम्भिक": 7635,
      "ampliamente": 7636,
      "país.​": 7637,
      "permane": 7638,
      "llegó": 7639,
      "आंदोलन": 7640,
      "आंतरिक": 7641,
      "आगे": 7642,
      "ऊँचाई": 7643,
      "पहाड़ी": 7644,
      "बैठक": 7645,
      "वैदिक": 7646,
      "सतपुड़ा": 7647,
      "विज्ञान": 7648,
      "वर्णन": 7649,
      "१९८४": 7650,
      "Parlamento.": 7651,
      "Premi": 7652,
      "debido": 7653,
      "jainismo": 7654,
      "líne": 7655,
      "rico": 7656,
      "trabajo": 7657,
      "occidental": 7658,
      "logrado": 7659,
      "प्रभावशाली": 7660,
      "sánscrito": 7661,
      "Cuando": 7662,
      "Supre": 7663,
      "Todos": 7664,
      "leras": 7665,
      "animales": 7666,
      "tierras": 7667,
      "cerca": 7668,
      "golfo": 7669,
      "himno": 7670,
      "घाटी": 7671,
      "छोड़कर": 7672,
      "algunos": 7673,
      "conocidos": 7674,
      "प्रचलित": 7675,
      "मालदी": 7676,
      "साहित्य": 7677,
      "desemboc": 7678,
      "हिस्सा": 7679,
      "तीसरी": 7680,
      "पुर्तगाली": 7681,
      "लगातार": 7682,
      "agrícola": 7683,
      "ológicos": 7684,
      "endémicas": 7685,
      "dólares,": 7686,
      "अभियान": 7687,
      "concentración": 7688,
      "Derechos": 7689,
      "Guerra": 7690,
      "donde": 7691,
      "hacer": 7692,
      "télugu": 7693,
      "अगस्त": 7694,
      "आसपास": 7695,
      "पत्ति": 7696,
      "enseñan": 7697,
      "diferentes": 7698,
      "recientes": 7699,
      "प्रकाश": 7700,
      "नेहरू": 7701,
      "pequeños": 7702,
      "विरोध": 7703,
      "भागीदारी": 7704,
      "वास्तविक": 7705,
      "tribunales": 7706,
      "समझौ": 7707,
      "República": 7708,
      "agricultores": 7709,
      "principios": 7710,
      "kilómetros": 7711,
      "गुजरात": 7712,
      "लोकतांत्रिक": 7713,
      "campesinos": 7714,
      "cordilleras": 7715,
      "पुरुषों": 7716,
      "Corte": 7717,
      "Juegos": 7718,
      "Tratado": 7719,
      "aproximadamente": 7720,
      "efectos": 7721,
      "húmed": 7722,
      "junio": 7723,
      "películ": 7724,
      "अक्टूबर": 7725,
      "आकर्मण": 7726,
      "ऑपरेशन": 7727,
      "कमांड": 7728,
      "गैर-": 7729,
      "गोंड": 7730,
      "फुट": 7731,
      "यद्यपि": 7732,
      "वृद्धि": 7733,
      "सौहार्": 7734,
      "integr": 7735,
      "encabe": 7736,
      "alrededor": 7737,
      "alfabe": 7738,
      "tiempo,": 7739,
      "construcción": 7740,
      "promedio": 7741,
      "pruebas": 7742,
      "petróle": 7743,
      "विशाल": 7744,
      "विद्रोह": 7745,
      "acceso": 7746,
      "साक्षरता": 7747,
      "desierto": 7748,
      "बहुमूल्य": 7749,
      "desembocan": 7750,
      "सौहार्द": 7751,
      "\"A": 7752,
      "\"G": 7753,
      "\"the": 7754,
      "\"pr": 7755,
      "\"pu": 7756,
      "\"out": 7757,
      "\"national": 7758,
      "\"bro": 7759,
      "\"official": 7760,
      "\"down": 7761,
      "\"Min": 7762,
      "\"untouch": 7763,
      "\"scheduled": 7764,
      "\"river,": 7765,
      "\"associate": 7766,
      "\"India\"": 7767,
      "%.": 7768,
      "')": 7769,
      "'.": 7770,
      "'E": 7771,
      "'the": 7772,
      "([": 7773,
      "(a": 7774,
      "(s": 7775,
      "(an": 7776,
      "(al": 7777,
      "(or": 7778,
      "(Indian": 7779,
      "(ca": 7780,
      "(199": 7781,
      "(after": 7782,
      "(liter": 7783,
      "(US$": 7784,
      "(present": 7785,
      "(3,": 7786,
      "(4,": 7787,
      "(Par": 7788,
      "(1991": 7789,
      "(400": 7790,
      "(GDP": 7791,
      "(2004": 7792,
      "(WHO": 7793,
      "(1967": 7794,
      "(1.3": 7795,
      "(generally,": 7796,
      "('E": 7797,
      "-T": 7798,
      "-n": 7799,
      "-la": 7800,
      "-si": 7801,
      "-sh": 7802,
      "-urban": 7803,
      "-tre": 7804,
      "-own": 7805,
      "-origin": 7806,
      "-gener": 7807,
      "-div": 7808,
      "-century": 7809,
      "-Dem": 7810,
      "-market": 7811,
      "-produc": 7812,
      "-fast": 7813,
      "-five": 7814,
      "-rich": 7815,
      "-growing": 7816,
      "-weapon": 7817,
      "-elected": 7818,
      "-colonial": 7819,
      "-round": 7820,
      "-president,": 7821,
      "-discrimin": 7822,
      "-divi": 7823,
      "-tier": 7824,
      "-wing": 7825,
      "-lived": 7826,
      "-force": 7827,
      "-derived": 7828,
      "-million-": 7829,
      "-specific": 7830,
      "-rule,": 7831,
      "-borne": 7832,
      "-defined": 7833,
      "-castes,": 7834,
      "-existing": 7835,
      "-speaking": 7836,
      "-income": 7837,
      "-Pol": 7838,
      "-hor": 7839,
      "-rum": 7840,
      "-inspir": 7841,
      ".\")": 7842,
      ".1%.": 7843,
      "0–": 7844,
      "094": 7845,
      "15,": 7846,
      "15.": 7847,
      "12%": 7848,
      "11%": 7849,
      "113": 7850,
      "14.": 7851,
      "2),": 7852,
      "24%": 7853,
      "27.": 7854,
      "27%": 7855,
      "28.": 7856,
      "24.": 7857,
      "29,": 7858,
      "2nd": 7859,
      "29%.": 7860,
      "32": 7861,
      "34": 7862,
      "31,": 7863,
      "31.": 7864,
      "30.": 7865,
      "343": 7866,
      "31.1": 7867,
      "4th": 7868,
      "45.": 7869,
      "41%": 7870,
      "49.": 7871,
      "43%": 7872,
      "40,000": 7873,
      "4–201": 7874,
      "41.1": 7875,
      "53": 7876,
      "5th": 7877,
      "54%": 7878,
      "53%": 7879,
      "50,000": 7880,
      "522": 7881,
      "580": 7882,
      "65.": 7883,
      "60%": 7884,
      "63.8": 7885,
      "74%": 7886,
      "79.": 7887,
      "731": 7888,
      "8–": 7889,
      "8th": 7890,
      "82.": 7891,
      "81%": 7892,
      "80,000": 7893,
      "9th": 7894,
      "93.": 7895,
      "91%": 7896,
      "940": 7897,
      "Ah": 7898,
      "Ap": 7899,
      "Aṣ": 7900,
      "Aver": 7901,
      "Amar": 7902,
      "Alig": 7903,
      "Acr": 7904,
      "Atal": 7905,
      "Aza": 7906,
      "Adivasi": 7907,
      "Ba": 7908,
      "Be": 7909,
      "Bh": 7910,
      "Bed": 7911,
      "Bab": 7912,
      "Bod": 7913,
      "Bhas": 7914,
      "Both": 7915,
      "Based": 7916,
      "Boun": 7917,
      "Bah": 7918,
      "Boulder": 7919,
      "Bakh": 7920,
      "Bhakti": 7921,
      "Cen": 7922,
      "Cri": 7923,
      "Cha": 7924,
      "Cold": 7925,
      "Cloth": 7926,
      "Credi": 7927,
      "D.": 7928,
      "DN": 7929,
      "Don": 7930,
      "Dom": 7931,
      "Dic": 7932,
      "Domin": 7933,
      "Dogr": 7934,
      "Ed": 7935,
      "Each": 7936,
      "Epic": 7937,
      "Eigh": 7938,
      "Evid": 7939,
      "Fic": 7940,
      "Ful": 7941,
      "Fem": 7942,
      "Fut": 7943,
      "Four": 7944,
      "Fai": 7945,
      "Further": 7946,
      "Gan": 7947,
      "Gar": 7948,
      "Gol": 7949,
      "Gow": 7950,
      "Gover": 7951,
      "H.": 7952,
      "Hy": 7953,
      "Hell": 7954,
      "I.": 7955,
      "IT": 7956,
      "Ire": 7957,
      "Iden": 7958,
      "IUC": 7959,
      "Jus": 7960,
      "Jap": 7961,
      "Jud": 7962,
      "K.": 7963,
      "King": 7964,
      "Kol": 7965,
      "Ksh": 7966,
      "Karn": 7967,
      "Key": 7968,
      "Kannada,": 7969,
      "Konkan": 7970,
      "Kadai,": 7971,
      "Lal": 7972,
      "Lat": 7973,
      "Loc": 7974,
      "Long": 7975,
      "Lef": 7976,
      "Mit": 7977,
      "May": 7978,
      "Most": 7979,
      "Meas": 7980,
      "Moder": 7981,
      "Medic": 7982,
      "Morar": 7983,
      "Madha": 7984,
      "Mongol": 7985,
      "Na": 7986,
      "Nain": 7987,
      "Nations": 7988,
      "N-des": 7989,
      "On": 7990,
      "Ox": 7991,
      "Oly": 7992,
      "PP": 7993,
      "Py": 7994,
      "Pā": 7995,
      "Pan": 7996,
      "Phi": 7997,
      "Pud": 7998,
      "Pain": 7999,
      "Pali": 8000,
      "Part": 8001,
      "Pach": 8002,
      "Pash": 8003,
      "Post-": 8004,
      "Ri": 8005,
      "Rā": 8006,
      "Ras": 8007,
      "Rom": 8008,
      "Rid": 8009,
      "Rig": 8010,
      "Rev": 8011,
      "Rice": 8012,
      "Ruk": 8013,
      "Rakh": 8014,
      "Sr": 8015,
      "Sū": 8016,
      "Sha": 8017,
      "Sig": 8018,
      "Set": 8019,
      "Sind": 8020,
      "Sta": 8021,
      "Sport": 8022,
      "Shan": 8023,
      "Sange": 8024,
      "Soni": 8025,
      "Sched": 8026,
      "School": 8027,
      "Shal": 8028,
      "Soci": 8029,
      "Te": 8030,
      "Tel": 8031,
      "Tow": 8032,
      "Tra": 8033,
      "Tig": 8034,
      "Tash": 8035,
      "Teth": 8036,
      "Tai": 8037,
      "Trig": 8038,
      "Temper": 8039,
      "Uday": 8040,
      "Vir": 8041,
      "Varā": 8042,
      "V-Dem": 8043,
      "Whe": 8044,
      "Wild": 8045,
      "When": 8046,
      "War,": 8047,
      "Web": 8048,
      "Widespread": 8049,
      "a—": 8050,
      "athan": 8051,
      "adic": 8052,
      "away": 8053,
      "ahead": 8054,
      "bur": 8055,
      "best": 8056,
      "blo": 8057,
      "bak": 8058,
      "bans": 8059,
      "blowing": 8060,
      "bust": 8061,
      "best-": 8062,
      "bhārat": 8063,
      "cle": 8064,
      "cra": 8065,
      "cum": 8066,
      "cy,": 8067,
      "cres": 8068,
      "ces.": 8069,
      "call": 8070,
      "cori": 8071,
      "cine": 8072,
      "core": 8073,
      "cence": 8074,
      "cise": 8075,
      "cked": 8076,
      "ction.": 8077,
      "cine,": 8078,
      "climate": 8079,
      "ds": 8080,
      "dol": 8081,
      "ds,": 8082,
      "dou": 8083,
      "date": 8084,
      "dres": 8085,
      "dro": 8086,
      "dome": 8087,
      "dled": 8088,
      "dhan": 8089,
      "drough": 8090,
      "done": 8091,
      "dasi": 8092,
      "dry": 8093,
      "data": 8094,
      "dhy": 8095,
      "dining": 8096,
      "e;": 8097,
      "e—": 8098,
      "eat": 8099,
      "eing": 8100,
      "ece": 8101,
      "etic": 8102,
      "eper": 8103,
      "eded": 8104,
      "etry": 8105,
      "each": 8106,
      "eking": 8107,
      "eties": 8108,
      "eets": 8109,
      "f.": 8110,
      "fel": 8111,
      "foc": 8112,
      "fend": 8113,
      "fts": 8114,
      "ffer": 8115,
      "fted": 8116,
      "flowing": 8117,
      "free": 8118,
      "ffed": 8119,
      "fell": 8120,
      "foss": 8121,
      "fought": 8122,
      "fables,": 8123,
      "gap": 8124,
      "gare": 8125,
      "gup": 8126,
      "giv": 8127,
      "gentr": 8128,
      "gust": 8129,
      "gold": 8130,
      "gala,": 8131,
      "ginger": 8132,
      "hl": 8133,
      "hâ": 8134,
      "hon": 8135,
      "hos": 8136,
      "hom": 8137,
      "hic": 8138,
      "hol": 8139,
      "hir": 8140,
      "hap": 8141,
      "hear": 8142,
      "hori": 8143,
      "host": 8144,
      "hund": 8145,
      "home": 8146,
      "hami": 8147,
      "hour": 8148,
      "hub": 8149,
      "hgala,": 8150,
      "ik": 8151,
      "ied": 8152,
      "ition": 8153,
      "ile": 8154,
      "ily": 8155,
      "ifer": 8156,
      "ither": 8157,
      "itions": 8158,
      "iho": 8159,
      "ition,": 8160,
      "ivers": 8161,
      "ii)": 8162,
      "ities.": 8163,
      "i-Pol": 8164,
      "jec": 8165,
      "jour": 8166,
      "jured": 8167,
      "jaz": 8168,
      "k;": 8169,
      "ka": 8170,
      "kk": 8171,
      "ker": 8172,
      "kar": 8173,
      "kent": 8174,
      "kir": 8175,
      "kut": 8176,
      "kne": 8177,
      "kriti": 8178,
      "kies": 8179,
      "kara": 8180,
      "ksha": 8181,
      "lor": 8182,
      "lis": 8183,
      "lop": 8184,
      "list": 8185,
      "les,": 8186,
      "loni": 8187,
      "my": 8188,
      "mā": 8189,
      "ming": 8190,
      "mob": 8191,
      "mari": 8192,
      "mud": 8193,
      "morally": 8194,
      "mortal": 8195,
      "melo": 8196,
      "mopol": 8197,
      "n,": 8198,
      "n]": 8199,
      "nap": 8200,
      "ncre": 8201,
      "nearly": 8202,
      "native": 8203,
      "oist": 8204,
      "oded": 8205,
      "ook": 8206,
      "oven": 8207,
      "ocean": 8208,
      "ot.": 8209,
      "ps": 8210,
      "pical": 8211,
      "ptem": 8212,
      "plit": 8213,
      "ping,": 8214,
      "pants": 8215,
      "pines,": 8216,
      "pali,": 8217,
      "plying": 8218,
      "ppayat": 8219,
      "rar": 8220,
      "ring": 8221,
      "run": 8222,
      "rag": 8223,
      "ra,": 8224,
      "res,": 8225,
      "rits": 8226,
      "rical": 8227,
      "rence": 8228,
      "rice": 8229,
      "rank": 8230,
      "rhy": 8231,
      "rush": 8232,
      "s\"": 8233,
      "s:": 8234,
      "sw": 8235,
      "sor": 8236,
      "sand": 8237,
      "sci": 8238,
      "sto": 8239,
      "sli": 8240,
      "spr": 8241,
      "sch": 8242,
      "swi": 8243,
      "ses,": 8244,
      "sales": 8245,
      "stra": 8246,
      "sity": 8247,
      "stri": 8248,
      "same": 8249,
      "spo": 8250,
      "sine": 8251,
      "site": 8252,
      "slowing": 8253,
      "sau": 8254,
      "smen": 8255,
      "scen": 8256,
      "stics": 8257,
      "slid": 8258,
      "spon": 8259,
      "sessed": 8260,
      "spite": 8261,
      "stop": 8262,
      "sung": 8263,
      "still": 8264,
      "spending": 8265,
      "s')": 8266,
      "skir": 8267,
      "split": 8268,
      "t]": 8269,
      "ton": 8270,
      "tch": 8271,
      "tment": 8272,
      "tab": 8273,
      "tation": 8274,
      "tag": 8275,
      "ts.": 8276,
      "tang": 8277,
      "tta": 8278,
      "tes.": 8279,
      "tell": 8280,
      "tling": 8281,
      "tched": 8282,
      "tally.": 8283,
      "tors": 8284,
      "u;": 8285,
      "ude": 8286,
      "ubi": 8287,
      "ucted": 8288,
      "ught": 8289,
      "uistic": 8290,
      "ves,": 8291,
      "vall": 8292,
      "vas,": 8293,
      "va.": 8294,
      "vara": 8295,
      "vulture": 8296,
      "vati.": 8297,
      "vasive": 8298,
      "wes": 8299,
      "wly": 8300,
      "wage": 8301,
      "winter": 8302,
      "weri": 8303,
      "walled": 8304,
      "wrap": 8305,
      "wnings": 8306,
      "wala,": 8307,
      "will": 8308,
      "widespread": 8309,
      "wati.": 8310,
      "xic": 8311,
      "xture": 8312,
      "xide": 8313,
      "xuri": 8314,
      "yī": 8315,
      "yment": 8316,
      "yab": 8317,
      "yog": 8318,
      "yond": 8319,
      "youn": 8320,
      "yam,": 8321,
      "ypically": 8322,
      "yards": 8323,
      "yi-Pol": 8324,
      "yloni": 8325,
      "zed": 8326,
      "zone": 8327,
      "zero": 8328,
      "°C": 8329,
      "°F)": 8330,
      "Ön": 8331,
      "á'í": 8332,
      "ādhy": 8333,
      "āyī": 8334,
      "Śul": 8335,
      "ət]": 8336,
      "ɦɪ": 8337,
      "ɾət]": 8338,
      "ʊˈ": 8339,
      "ία": 8340,
      "ς),": 8341,
      "ός),": 8342,
      "ṅga": 8343,
      "ṇa,": 8344,
      "ṇini": 8345,
      "ṭādhy": 8346,
      "–200": 8347,
      "–Pakistan": 8348,
      "–400": 8349,
      "–35": 8350,
      "–2001": 8351,
      "–Arab": 8352,
      "–1900": 8353,
      "–29,": 8354,
      "–60%": 8355,
      "–Kadai,": 8356,
      "—to": 8357,
      "—be": 8358,
      "—so": 8359,
      "—co": 8360,
      "—ex": 8361,
      "—which": 8362,
      "—were": 8363,
      "—among": 8364,
      "—cooked": 8365,
      "—passing": 8366,
      "—dates": 8367,
      "—notably": 8368,
      "₹20": 8369,
      "₹23": 8370,
      "an.": 8371,
      "anuj": 8372,
      "ances,": 8373,
      "ancy": 8374,
      "andise": 8375,
      "antra,": 8376,
      "anistan": 8377,
      "in;": 8378,
      "ined": 8379,
      "inct": 8380,
      "ins.": 8381,
      "infr": 8382,
      "inet": 8383,
      "ines.": 8384,
      "iniv": 8385,
      "inations": 8386,
      "internal": 8387,
      "invention": 8388,
      "insula": 8389,
      "thin": 8390,
      "thus": 8391,
      "thme": 8392,
      "thmic": 8393,
      "thousand": 8394,
      "thagore": 8395,
      "ering": 8396,
      "erly": 8397,
      "er's": 8398,
      "ers.": 8399,
      "erous": 8400,
      "erations": 8401,
      "erwan": 8402,
      "enli": 8403,
      "encom": 8404,
      "enab": 8405,
      "ens.": 8406,
      "enac": 8407,
      "ences": 8408,
      "envir": 8409,
      "enabl": 8410,
      "enistic": 8411,
      "enna": 8412,
      "encro": 8413,
      "ences.": 8414,
      "onisation": 8415,
      "onomy": 8416,
      "onists": 8417,
      "onward": 8418,
      "onmental": 8419,
      "es\"": 8420,
      "es)": 8421,
      "esi": 8422,
      "esans": 8423,
      "ession": 8424,
      "alo": 8425,
      "alent": 8426,
      "alid": 8427,
      "als.": 8428,
      "allu": 8429,
      "altern": 8430,
      "allow": 8431,
      "almon": 8432,
      "allowing": 8433,
      "alge": 8434,
      "alised": 8435,
      "aras": 8436,
      "ars,": 8437,
      "arri": 8438,
      "arsh": 8439,
      "ary,": 8440,
      "arts": 8441,
      "arded": 8442,
      "araj": 8443,
      "arish": 8444,
      "arose": 8445,
      "arhi,": 8446,
      "as:": 8447,
      "asants": 8448,
      "ase.": 8449,
      "asured": 8450,
      "asaras": 8451,
      "dira": 8452,
      "diers,": 8453,
      "dilian": 8454,
      "order": 8455,
      "orism": 8456,
      "orado": 8457,
      "orders": 8458,
      "tial": 8459,
      "tied": 8460,
      "tight": 8461,
      "tistic": 8462,
      "tiger": 8463,
      "ti-gener": 8464,
      "tika": 8465,
      "deal": 8466,
      "deem": 8467,
      "depos": 8468,
      "death": 8469,
      "deforest": 8470,
      "decentral": 8471,
      "defeat": 8472,
      "deep": 8473,
      "detail": 8474,
      "determin": 8475,
      "Indos": 8476,
      "Inste": 8477,
      "Intel": 8478,
      "ed.": 8479,
      "edom": 8480,
      "eding": 8481,
      "ander,": 8482,
      "re\"": 8483,
      "reen": 8484,
      "recom": 8485,
      "rehab": 8486,
      "refin": 8487,
      "remit": 8488,
      "recording": 8489,
      "reject": 8490,
      "replaced": 8491,
      "rety.": 8492,
      "return": 8493,
      "retreat": 8494,
      "recourse": 8495,
      "reorganised": 8496,
      "re-elected": 8497,
      "is)": 8498,
      "isak": 8499,
      "isine": 8500,
      "islation": 8501,
      "island": 8502,
      "isively": 8503,
      "lating": 8504,
      "label": 8505,
      "laving": 8506,
      "labour": 8507,
      "laf.": 8508,
      "laps": 8509,
      "os;": 8510,
      "osed": 8511,
      "ostitu": 8512,
      "osely": 8513,
      "osome": 8514,
      "offer": 8515,
      "offici": 8516,
      "ofession": 8517,
      "ent)": 8518,
      "ent,": 8519,
      "ented": 8520,
      "ently": 8521,
      "ents.": 8522,
      "entered": 8523,
      "entments": 8524,
      "cide": 8525,
      "cies,": 8526,
      "ciary": 8527,
      "cited": 8528,
      "ciously": 8529,
      "cigare": 8530,
      "omically": 8531,
      "omerations": 8532,
      "India–Pakistan": 8533,
      "attr": 8534,
      "atop": 8535,
      "atri": 8536,
      "attra": 8537,
      "atures": 8538,
      "atory": 8539,
      "attain": 8540,
      "ature,": 8541,
      "ataka": 8542,
      "atypically": 8543,
      "elder": 8544,
      "ely,": 8545,
      "elite": 8546,
      "ellate": 8547,
      "eliho": 8548,
      "icken": 8549,
      "iconic": 8550,
      "ingent": 8551,
      "ingest": 8552,
      "inga,": 8553,
      "ingredi": 8554,
      "urt": 8555,
      "urs.": 8556,
      "urces": 8557,
      "urred": 8558,
      "uru,": 8559,
      "it,": 8560,
      "its,": 8561,
      "itous": 8562,
      "itage": 8563,
      "itely": 8564,
      "toad": 8565,
      "toward": 8566,
      "toler": 8567,
      "tours.": 8568,
      "adver": 8569,
      "administer": 8570,
      "adjo": 8571,
      "advers": 8572,
      "adrup": 8573,
      "administrative": 8574,
      "unle": 8575,
      "units": 8576,
      "unded": 8577,
      "unpre": 8578,
      "uneas": 8579,
      "untain": 8580,
      "unlin": 8581,
      "unconstitutional": 8582,
      "unrest": 8583,
      "unanim": 8584,
      "unwanted": 8585,
      "undisputed": 8586,
      "tioning": 8587,
      "tionist": 8588,
      "tionately": 8589,
      "tionary,": 8590,
      "conqu": 8591,
      "consequent": 8592,
      "contrav": 8593,
      "content": 8594,
      "conifer": 8595,
      "contours.": 8596,
      "trous": 8597,
      "trical": 8598,
      "trough": 8599,
      "trine.": 8600,
      "truction": 8601,
      "lie": 8602,
      "lide": 8603,
      "lila": 8604,
      "lique": 8605,
      "like": 8606,
      "ligence": 8607,
      "lidified": 8608,
      "ams": 8609,
      "amy": 8610,
      "ams,": 8611,
      "amtre": 8612,
      "amble": 8613,
      "amah": 8614,
      "amples": 8615,
      "leum": 8616,
      "leaf": 8617,
      "lexic": 8618,
      "using": 8619,
      "usage": 8620,
      "usher": 8621,
      "usively": 8622,
      "ter.": 8623,
      "tery": 8624,
      "tered": 8625,
      "terly": 8626,
      "ters.": 8627,
      "terra": 8628,
      "terculture.": 8629,
      "terrence": 8630,
      "ters')": 8631,
      "teed": 8632,
      "tead": 8633,
      "teak": 8634,
      "teach": 8635,
      "tematic": 8636,
      "teams,": 8637,
      "press": 8638,
      "prene": 8639,
      "prise": 8640,
      "pride": 8641,
      "profession": 8642,
      "chem": 8643,
      "chay": 8644,
      "chec": 8645,
      "chta": 8646,
      "chi,": 8647,
      "chose": 8648,
      "chasing": 8649,
      "chnolog": 8650,
      "charts,": 8651,
      "chronic": 8652,
      "challeng": 8653,
      "chik": 8654,
      "chicken": 8655,
      "seen": 8656,
      "seaf": 8657,
      "seas,": 8658,
      "seal,": 8659,
      "seven": 8660,
      "seals,": 8661,
      "sealed": 8662,
      "seeking": 8663,
      "seams": 8664,
      "1920": 8665,
      "1928": 8666,
      "1935": 8667,
      "1911": 8668,
      "193,42": 8669,
      "1901": 8670,
      "1921,": 8671,
      "olished": 8672,
      "olonisation": 8673,
      "olars,": 8674,
      "vering": 8675,
      "verbal": 8676,
      "ul,": 8677,
      "ulari": 8678,
      "ultry": 8679,
      "ulsing": 8680,
      "Through": 8681,
      "Three": 8682,
      "Thousand": 8683,
      "Thanj": 8684,
      "ils": 8685,
      "iling": 8686,
      "iline": 8687,
      "illegal": 8688,
      "ilitated": 8689,
      "ford": 8690,
      "foray": 8691,
      "forces": 8692,
      "forced": 8693,
      "forba": 8694,
      "gration": 8695,
      "grid": 8696,
      "grain": 8697,
      "ground": 8698,
      "gross": 8699,
      "granted": 8700,
      "grass": 8701,
      "graz": 8702,
      "20%": 8703,
      "2030.": 8704,
      "est,": 8705,
      "estment": 8706,
      "ests,": 8707,
      "im.": 8708,
      "ims": 8709,
      "imum": 8710,
      "immen": 8711,
      "improv": 8712,
      "importer": 8713,
      "imitated": 8714,
      "beach": 8715,
      "bears": 8716,
      "beyond": 8717,
      "mative": 8718,
      "matical": 8719,
      "opy": 8720,
      "ophi": 8721,
      "opping,": 8722,
      "ceeded": 8723,
      "ceeding": 8724,
      "sue": 8725,
      "sukh": 8726,
      "ments,": 8727,
      "mentation": 8728,
      "sidel": 8729,
      "sible": 8730,
      "size": 8731,
      "sizes": 8732,
      "commun": 8733,
      "compared": 8734,
      "commission": 8735,
      "commod": 8736,
      "complic": 8737,
      "owded": 8738,
      "quate": 8739,
      "quely": 8740,
      "quite": 8741,
      "quarter": 8742,
      "quitous": 8743,
      "quadrup": 8744,
      "abad": 8745,
      "abatic": 8746,
      "abad,": 8747,
      "abjured": 8748,
      "abolished": 8749,
      "parel": 8750,
      "parity": 8751,
      "parall": 8752,
      "parks": 8753,
      "irt": 8754,
      "iron": 8755,
      "irreg": 8756,
      "irrig": 8757,
      "stup": 8758,
      "stage": 8759,
      "stati": 8760,
      "start": 8761,
      "stable": 8762,
      "stone": 8763,
      "stamp": 8764,
      "story": 8765,
      "staː": 8766,
      "sojour": 8767,
      "sources": 8768,
      "Indian,": 8769,
      "Indian-own": 8770,
      "veill": 8771,
      "vehic": 8772,
      "portra": 8773,
      "ods,": 8774,
      "oding,": 8775,
      "ri;": 8776,
      "rial": 8777,
      "riage": 8778,
      "riff": 8779,
      "coales": 8780,
      "covery": 8781,
      "cooperation": 8782,
      "codified": 8783,
      "cotton": 8784,
      "cotta": 8785,
      "coins.": 8786,
      "codilian": 8787,
      "ation.": 8788,
      "ations.": 8789,
      "lasting": 8790,
      "losing": 8791,
      "lost.": 8792,
      "exe": 8793,
      "expe": 8794,
      "exog": 8795,
      "excur": 8796,
      "excl": 8797,
      "expendi": 8798,
      "expect": 8799,
      "exchanged": 8800,
      "express": 8801,
      "exceeding": 8802,
      "id,": 8803,
      "idered": 8804,
      "idly,": 8805,
      "idli,": 8806,
      "tic,": 8807,
      "tics.": 8808,
      "em,": 8809,
      "emits": 8810,
      "embo": 8811,
      "embro": 8812,
      "aging": 8813,
      "aggl": 8814,
      "aged.": 8815,
      "agmentation": 8816,
      "ghat": 8817,
      "ghari": 8818,
      "ghten": 8819,
      "ghanistan": 8820,
      "white": 8821,
      "while": 8822,
      "whims": 8823,
      "per,": 8824,
      "perform": 8825,
      "perhap": 8826,
      "pervasive": 8827,
      "istance": 8828,
      "istently": 8829,
      "peak": 8830,
      "peep": 8831,
      "pelagos:": 8832,
      "pehl": 8833,
      "pees)": 8834,
      "peasants": 8835,
      "delines.": 8836,
      "raw": 8837,
      "rainf": 8838,
      "raising": 8839,
      "raksha": 8840,
      "tually": 8841,
      "tucked": 8842,
      "anged": 8843,
      "ion,": 8844,
      "ions.": 8845,
      "fragmentation": 8846,
      "acity": 8847,
      "ock": 8848,
      "asts": 8849,
      "astal": 8850,
      "shear": 8851,
      "shali": 8852,
      "sheets": 8853,
      "shook": 8854,
      "sherwan": 8855,
      "shirt": 8856,
      "inction": 8857,
      "over,": 8858,
      "overall": 8859,
      "overlaps": 8860,
      "luxuri": 8861,
      "antly": 8862,
      "ants,": 8863,
      "anta,": 8864,
      "antaged.": 8865,
      "active": 8866,
      "acy.": 8867,
      "actional": 8868,
      "accompan": 8869,
      "accommod": 8870,
      "aped": 8871,
      "apparel": 8872,
      "erness": 8873,
      "area,": 8874,
      "areas,": 8875,
      "cent-sh": 8876,
      "obstr": 8877,
      "observed": 8878,
      "obstruc": 8879,
      "obsc": 8880,
      "ucation": 8881,
      "igai": 8882,
      "igarhi,": 8883,
      "etables,": 8884,
      "ettes.": 8885,
      "larless": 8886,
      "laration.": 8887,
      "which,": 8888,
      "meal": 8889,
      "meet": 8890,
      "measures": 8891,
      "meets": 8892,
      "measured": 8893,
      "meter.": 8894,
      "utan": 8895,
      "ari;": 8896,
      "arippayat": 8897,
      "arithme": 8898,
      "ate.": 8899,
      "earth.": 8900,
      "mark": 8901,
      "mary": 8902,
      "marma": 8903,
      "marble": 8904,
      "marital": 8905,
      "martial": 8906,
      "min,": 8907,
      "ecologically": 8908,
      "ecasts": 8909,
      "dering": 8910,
      "derabad": 8911,
      "itself": 8912,
      "tra.": 8913,
      "traded": 8914,
      "training": 8915,
      "geny,": 8916,
      "genders": 8917,
      "genetic": 8918,
      "genres,": 8919,
      "taking": 8920,
      "taken": 8921,
      "takes": 8922,
      "taker": 8923,
      "taught": 8924,
      "resolution": 8925,
      "resentments": 8926,
      "resistance": 8927,
      "vial": 8928,
      "vily": 8929,
      "noun": 8930,
      "rite": 8931,
      "ritual,": 8932,
      "loor": 8933,
      "loyal": 8934,
      "loosely": 8935,
      "regulation": 8936,
      "regarded": 8937,
      "form.": 8938,
      "forms,": 8939,
      "formula": 8940,
      "formerly": 8941,
      "individ": 8942,
      "2010,": 8943,
      "2013.": 8944,
      "2017.": 8945,
      "2018.": 8946,
      "working": 8947,
      "worship": 8948,
      "port.": 8949,
      "ports,": 8950,
      "portant": 8951,
      "portfolio": 8952,
      "end—passing": 8953,
      "culus": 8954,
      "akening": 8955,
      "norm": 8956,
      "northeast,": 8957,
      "upon": 8958,
      "upati": 8959,
      "upsur": 8960,
      "Conven": 8961,
      "Conserv": 8962,
      "Concurrent": 8963,
      "2001.": 8964,
      "low.": 8965,
      "low;": 8966,
      "lows.": 8967,
      "lowered": 8968,
      "low-income": 8969,
      "lowest,": 8970,
      "ity.": 8971,
      "beration": 8972,
      "affe": 8973,
      "affec": 8974,
      "bias,": 8975,
      "biosphere": 8976,
      "biological": 8977,
      "despite": 8978,
      "destruction": 8979,
      "might": 8980,
      "mixed": 8981,
      "mixture": 8982,
      "subject": 8983,
      "subcaste,": 8984,
      "sub-castes,": 8985,
      "Chord": 8986,
      "Chola": 8987,
      "Chronic": 8988,
      "Chrom": 8989,
      "Charan": 8990,
      "Chenna": 8991,
      "udhar": 8992,
      "udra,": 8993,
      "manage": 8994,
      "manism,": 8995,
      "royal": 8996,
      "root.": 8997,
      "1,42": 8998,
      "1,21": 8999,
      "trial": 9000,
      "triad": 9001,
      "tries.": 9002,
      "tribut": 9003,
      "tribes": 9004,
      "tricity": 9005,
      "twice": 9006,
      "places,": 9007,
      "Latika": 9008,
      "caval": 9009,
      "few": 9010,
      "nition": 9011,
      "nicity,": 9012,
      "nized": 9013,
      "Energy": 9014,
      "poetry": 9015,
      "poultry": 9016,
      "all.": 9017,
      "alling": 9018,
      "cuffed": 9019,
      "othly": 9020,
      "age,": 9021,
      "age;": 9022,
      "ageable": 9023,
      "ada.": 9024,
      "orities": 9025,
      "temple": 9026,
      "CE)": 9027,
      "CE),": 9028,
      "CE).": 9029,
      "ded,": 9030,
      "turmer": 9031,
      "moved": 9032,
      "moving": 9033,
      "mountain": 9034,
      "region,": 9035,
      "regionally": 9036,
      "region-specific": 9037,
      "fixed": 9038,
      "ineering": 9039,
      "continue": 9040,
      "1994": 9041,
      "1991.": 9042,
      "1995.": 9043,
      "pivo": 9044,
      "piece": 9045,
      "pilaf.": 9046,
      "proje": 9047,
      "provis": 9048,
      "projec": 9049,
      "protag": 9050,
      "fires,": 9051,
      "undale": 9052,
      "enge": 9053,
      "engineering": 9054,
      "ture.": 9055,
      "north.": 9056,
      "north;": 9057,
      "northwest,": 9058,
      "prefer": 9059,
      "preyed": 9060,
      "preva": 9061,
      "prehen": 9062,
      "prepared": 9063,
      "preexisting": 9064,
      "pre-existing": 9065,
      "precise": 9066,
      "series": 9067,
      "serves": 9068,
      "series.": 9069,
      "create": 9070,
      "dings": 9071,
      "1957,": 9072,
      "atite": 9073,
      "banned": 9074,
      "banded,": 9075,
      "typically": 9076,
      "ty-n": 9077,
      "typical": 9078,
      "ty—ex": 9079,
      "1967,": 9080,
      "1962.": 9081,
      "1964,": 9082,
      "1966,": 9083,
      "1964–201": 9084,
      "government;": 9085,
      "government's": 9086,
      "year,": 9087,
      "year-round": 9088,
      "disadv": 9089,
      "distric": 9090,
      "dispropor": 9091,
      "display": 9092,
      "displaced": 9093,
      "displayed": 9094,
      "disrup": 9095,
      "discontent": 9096,
      "disbanded,": 9097,
      "need": 9098,
      "neoli": 9099,
      "neither": 9100,
      "neem,": 9101,
      "tances": 9102,
      "tane.": 9103,
      "crust": 9104,
      "cricket": 9105,
      "cropping,": 9106,
      "crowded": 9107,
      "world,": 9108,
      "worldwide": 9109,
      "avur": 9110,
      "avati,": 9111,
      "avened": 9112,
      "avarsh": 9113,
      "avenge": 9114,
      "pancak": 9115,
      "panchay": 9116,
      "mons": 9117,
      "monary": 9118,
      "monkey": 9119,
      "montane.": 9120,
      "paid": 9121,
      "paved": 9122,
      "paper,": 9123,
      "pleated": 9124,
      "pleasures": 9125,
      "symbol": 9126,
      "syncre": 9127,
      "ence,": 9128,
      "learned": 9129,
      "harsh": 9130,
      "ivite": 9131,
      "ivalent": 9132,
      "2024": 9133,
      "2026": 9134,
      "2024.": 9135,
      "2026.": 9136,
      "elective": 9137,
      "electrical": 9138,
      "electricity": 9139,
      "sought": 9140,
      "southeast,": 9141,
      "bled": 9142,
      "blurred": 9143,
      "block": 9144,
      "cases": 9145,
      "history": 9146,
      "little": 9147,
      "infanti": 9148,
      "inflows.": 9149,
      "art.": 9150,
      "arts.": 9151,
      "cordial": 9152,
      "founder": 9153,
      "founded": 9154,
      "had,": 9155,
      "hadur": 9156,
      "land.": 9157,
      "landown": 9158,
      "landmas": 9159,
      "landmark": 9160,
      "after;": 9161,
      "afterward": 9162,
      "systematic": 9163,
      "urban;": 9164,
      "Ellor": 9165,
      "signing": 9166,
      "0,193,42": 9167,
      "dosa,": 9168,
      "modern,": 9169,
      "modern-day": 9170,
      "inscrip": 9171,
      "instead": 9172,
      "ishing": 9173,
      "ishment": 9174,
      "ishya,": 9175,
      "ambitions": 9176,
      "largest,": 9177,
      "largest.": 9178,
      "southwest,": 9179,
      "southwes": 9180,
      "system's": 9181,
      "rupees)": 9182,
      "increase": 9183,
      "incremental": 9184,
      "Hindu,": 9185,
      "Hindu-majority": 9186,
      "Hindu–Arab": 9187,
      "18,": 9188,
      "18%,": 9189,
      "18.1%.": 9190,
      "sustain": 9191,
      "suspending": 9192,
      "devadas": 9193,
      "devdasi": 9194,
      "moreover,": 9195,
      "minister;": 9196,
      "surround": 9197,
      "surpassing": 9198,
      "surveill": 9199,
      "long.": 9200,
      "longest-": 9201,
      "numerous": 9202,
      "war,": 9203,
      "war.": 9204,
      "wars.": 9205,
      "warmer": 9206,
      "tives": 9207,
      "tively": 9208,
      "Comprehen": 9209,
      "Under": 9210,
      "Until": 9211,
      "Untouch": 9212,
      "1946": 9213,
      "1949": 9214,
      "1947.": 9215,
      "1949.": 9216,
      "median": 9217,
      "medicine,": 9218,
      "meditation": 9219,
      "son,": 9220,
      "legislation": 9221,
      "legacy.": 9222,
      "tradition.": 9223,
      "traditions,": 9224,
      "South,": 9225,
      "Congress's": 9226,
      "Congress\")": 9227,
      "possessed": 9228,
      "Art,": 9229,
      "Ardhan": 9230,
      "Aryab": 9231,
      "Arundale": 9232,
      "fices": 9233,
      "ologic": 9234,
      "Mathema": 9235,
      "Mahā": 9236,
      "Maithili,": 9237,
      "Maoist": 9238,
      "plus": 9239,
      "plann": 9240,
      "plants": 9241,
      "peninsula": 9242,
      "Embra": 9243,
      "Empir": 9244,
      "under,": 9245,
      "underwent": 9246,
      "under-five": 9247,
      "underskir": 9248,
      "underground": 9249,
      "grown": 9250,
      "growing,": 9251,
      "counted": 9252,
      "council": 9253,
      "country.": 9254,
      "countries": 9255,
      "counterculture.": 9256,
      "countries.": 9257,
      "must": 9258,
      "musical": 9259,
      "musici": 9260,
      "1975": 9261,
      "1970–": 9262,
      "1.4": 9263,
      "1.5": 9264,
      "1.6%": 9265,
      "1.7%": 9266,
      "1.24": 9267,
      "Any": 9268,
      "Anand": 9269,
      "5,423": 9270,
      "strident": 9271,
      "string,": 9272,
      "stressed": 9273,
      "strung": 9274,
      "stress.": 9275,
      "structure": 9276,
      "strateg": 9277,
      "1985.": 9278,
      "1980.": 9279,
      "1988.": 9280,
      "1984.": 9281,
      "BCE)": 9282,
      "BCE;": 9283,
      "BCE),": 9284,
      "thought,": 9285,
      "isation,": 9286,
      "isational,": 9287,
      "mainland": 9288,
      "maintains": 9289,
      "mainstre": 9290,
      "output": 9291,
      "outside": 9292,
      "outpost": 9293,
      "economic,": 9294,
      "economics.": 9295,
      "economically": 9296,
      "caste.": 9297,
      "classes.": 9298,
      "tils,": 9299,
      "parties": 9300,
      "partition": 9301,
      "parties.": 9302,
      "partitioned": 9303,
      "trees": 9304,
      "decenni": 9305,
      "decline": 9306,
      "decisions": 9307,
      "decisively": 9308,
      "decolonisation": 9309,
      "socially": 9310,
      "society": 9311,
      "socio-": 9312,
      "societies": 9313,
      "agro-": 9314,
      "militants": 9315,
      "6%,": 9316,
      "bellion": 9317,
      "humped": 9318,
      "humid,": 9319,
      "evolved": 9320,
      "evolving": 9321,
      "kho,": 9322,
      "life;": 9323,
      "life-force": 9324,
      "population.": 9325,
      "number,": 9326,
      "Empire,": 9327,
      "Empire);": 9328,
      "British,": 9329,
      "17)": 9330,
      "172": 9331,
      "territory": 9332,
      "Asiatic": 9333,
      "Asia's": 9334,
      "Asia—dates": 9335,
      "cedented": 9336,
      "2,094": 9337,
      "cold": 9338,
      "collabor": 9339,
      "collis": 9340,
      "collarless": 9341,
      "han,": 9342,
      "nuclear-weapon": 9343,
      "Almost": 9344,
      "dance,": 9345,
      "dance.": 9346,
      "effec": 9347,
      "Indoi,": 9348,
      "conduct": 9349,
      "began,": 9350,
      "began.": 9351,
      "suppressed": 9352,
      "supplying": 9353,
      "ctors": 9354,
      "Pakistan's": 9355,
      "canon": 9356,
      "canalled": 9357,
      "canals,": 9358,
      "canopy": 9359,
      "finely": 9360,
      "finitely": 9361,
      "yaṇa,": 9362,
      "Bengal,": 9363,
      "Bengali,": 9364,
      "talkies": 9365,
      "setback": 9366,
      "settled": 9367,
      "settling": 9368,
      "culturally": 9369,
      "critical": 9370,
      "critically": 9371,
      "herbal": 9372,
      "herds": 9373,
      "heritage": 9374,
      "partner": 9375,
      "Afghanistan": 9376,
      "author": 9377,
      "achment": 9378,
      "achie": 9379,
      "mended": 9380,
      "mentioned": 9381,
      "roughly": 9382,
      "ure-la": 9383,
      "weight": 9384,
      "weakening": 9385,
      "later.": 9386,
      "rivers": 9387,
      "river-borne": 9388,
      "powers": 9389,
      "geologically": 9390,
      "geologic": 9391,
      "Nepali,": 9392,
      "Newly": 9393,
      "cardam": 9394,
      "carry": 9395,
      "China.": 9396,
      "Chinese": 9397,
      "Reorganisation": 9398,
      "Report.": 9399,
      "Rebellion": 9400,
      "buff": 9401,
      "polling": 9402,
      "one's": 9403,
      "proper": 9404,
      "proposed": 9405,
      "politics": 9406,
      "policies,": 9407,
      "2.5": 9408,
      "2.9%": 9409,
      "2.3%": 9410,
      "faith": 9411,
      "there.": 9412,
      "thereby": 9413,
      "elopment": 9414,
      "sions": 9415,
      "courts": 9416,
      "court,": 9417,
      "peoples,": 9418,
      "others.": 9419,
      "others—": 9420,
      "others:": 9421,
      "elections,": 9422,
      "subcontinent.": 9423,
      "subcontinent's": 9424,
      "5.24": 9425,
      "elements": 9426,
      "emerge": 9427,
      "emerging": 9428,
      "ignated": 9429,
      "religion.": 9430,
      "religions,": 9431,
      "religions.": 9432,
      "Bengal.": 9433,
      "Bengal;": 9434,
      "Bengaluru,": 9435,
      "origins,": 9436,
      "originated": 9437,
      "Mughals": 9438,
      "0.4%": 9439,
      "0.7%": 9440,
      "26,": 9441,
      "264": 9442,
      "268–": 9443,
      "US$3,": 9444,
      "US$42": 9445,
      "US$30": 9446,
      "US$64": 9447,
      "US$1,3": 9448,
      "US$24.": 9449,
      "future": 9450,
      "kingly": 9451,
      "midriff": 9452,
      "west;": 9453,
      "directiv": 9454,
      "directions": 9455,
      "direction.": 9456,
      "directors": 9457,
      "ised,": 9458,
      "constitution)": 9459,
      "constitution,": 9460,
      "choice": 9461,
      "choli,": 9462,
      "state.": 9463,
      "state:": 9464,
      "state's": 9465,
      "generic": 9466,
      "generation": 9467,
      "generally": 9468,
      "generate": 9469,
      "higher": 9470,
      "newly": 9471,
      "develop.": 9472,
      "developing": 9473,
      "developed,": 9474,
      "people,": 9475,
      "people.": 9476,
      "Punjabi": 9477,
      "Punjabi,": 9478,
      "garments": 9479,
      "garment,": 9480,
      "garment.": 9481,
      "indefinitely": 9482,
      "controlled": 9483,
      "Centred": 9484,
      "daily": 9485,
      "dawnings": 9486,
      "joint": 9487,
      "variations": 9488,
      "varied,": 9489,
      "variety": 9490,
      "entreprene": 9491,
      "athes": 9492,
      "den\".": 9493,
      "density": 9494,
      "locations": 9495,
      "transmission": 9496,
      "translating": 9497,
      "transactional": 9498,
      "curtail": 9499,
      "Indo-Islamic": 9500,
      "3,000": 9501,
      "Music": 9502,
      "See": 9503,
      "Septem": 9504,
      "non-economic": 9505,
      "non-Muslim": 9506,
      "non-European": 9507,
      "non-traditional": 9508,
      "singers.": 9509,
      "throughout": 9510,
      "them,": 9511,
      "leads": 9512,
      "leader": 9513,
      "forests": 9514,
      "vement.": 9515,
      "vement;": 9516,
      "work,": 9517,
      "works": 9518,
      "worker": 9519,
      "works,": 9520,
      "served,": 9521,
      "Indus;": 9522,
      "Industries": 9523,
      "Indus'.": 9524,
      "Europe,": 9525,
      "Sanskrit)": 9526,
      "Sanskrit.": 9527,
      "Gandhi,": 9528,
      "Gandhian": 9529,
      "millennium,": 9530,
      "millennium.": 9531,
      "Desai": 9532,
      "Despite": 9533,
      "Islands": 9534,
      "picuous": 9535,
      "rocked": 9536,
      "invasive": 9537,
      "invalid": 9538,
      "investment": 9539,
      "demand,": 9540,
      "industry,": 9541,
      "industry.": 9542,
      "centralised,": 9543,
      "annexe": 9544,
      "divisions": 9545,
      "popular.": 9546,
      "popularity": 9547,
      "3.94": 9548,
      "Sikk": 9549,
      "mittent": 9550,
      "rural-urban": 9551,
      "yani,": 9552,
      "musics": 9553,
      "15th": 9554,
      "1500": 9555,
      "1525": 9556,
      "15(2)": 9557,
      "42%.": 9558,
      "bark": 9559,
      "barley": 9560,
      "basin": 9561,
      "basin.": 9562,
      "basis.": 9563,
      "basin,": 9564,
      "bird": 9565,
      "birch": 9566,
      "biryani,": 9567,
      "uraṅga": 9568,
      "consciously": 9569,
      "consistently": 9570,
      "conspicuous": 9571,
      "Amrits": 9572,
      "eastward": 9573,
      "farther": 9574,
      "faraway": 9575,
      "keep": 9576,
      "interest": 9577,
      "interval": 9578,
      "intermittent": 9579,
      "mathematics.": 9580,
      "extinction": 9581,
      "widely,": 9582,
      "culture,": 9583,
      "culture;": 9584,
      "culture—to": 9585,
      "majority.": 9586,
      "cription": 9587,
      "billion.": 9588,
      "Muslims": 9589,
      "Muslims,": 9590,
      "Muslim-majority": 9591,
      "anti-discrimin": 9592,
      "texts,": 9593,
      "textile": 9594,
      "cines": 9595,
      "cinnam": 9596,
      "capped": 9597,
      "capability": 9598,
      "capacity": 9599,
      "exporting": 9600,
      "Movement.": 9601,
      "Parche": 9602,
      "Parvati.": 9603,
      "Plate,": 9604,
      "dom,": 9605,
      "hooded": 9606,
      "landed": 9607,
      "pastime,": 9608,
      "balance": 9609,
      "balanced": 9610,
      "calculus": 9611,
      "cosine": 9612,
      "cosine,": 9613,
      "cosmopol": 9614,
      "promised": 9615,
      "old.": 9616,
      "families.": 9617,
      "16th": 9618,
      "16(2)": 9619,
      "East,": 9620,
      "Jain.": 9621,
      "Jains,": 9622,
      "Jainism.": 9623,
      "dances,": 9624,
      "dancing": 9625,
      "hata,": 9626,
      "ves;": 9627,
      "value": 9628,
      "distance,": 9629,
      "distinct": 9630,
      "use\"": 9631,
      "use,": 9632,
      "party;": 9633,
      "coast;": 9634,
      "coasts": 9635,
      "coasts.": 9636,
[...]
