{
  "version": "1.0",
  "truncation": null,
  "padding": null,
  "added_tokens": [
    {
      "id": 0,
      "content": "[UNK]",
      "single_word": false,
      "lstrip": false,
      "rstrip": false,
      "normalized": false,
      "special": true
    }
  ],
  "normalizer": {
    "type": "NFKC"
  },
  "pre_tokenizer": {
    "type": "Metaspace",
    "replacement": "▁",
    "prepend_scheme": "never",
    "split": true
  },
  "post_processor": null,
  "decoder": {
    "type": "Metaspace",
    "replacement": "▁",
    "prepend_scheme": "never",
    "split": true
  },
  "model": {
    "type": "BPE",
    "dropout": null,
    "unk_token": "[UNK]",
    "continuing_subword_prefix": null,
    "end_of_word_suffix": null,
    "fuse_unk": false,
    "byte_fallback": false,
    "ignore_merges": false,
    "vocab": {
      "[UNK]": 0,
      "\n": 1,
      "!": 2,
      "\"": 3,
      "#": 4,
      "$": 5,
      "%": 6,
      "&": 7,
      "'": 8,
      "(": 9,
      ")": 10,
      "*": 11,
      "+": 12,
      ",": 13,
      "-": 14,
      ".": 15,
      "/": 16,
      "0": 17,
      "1": 18,
      "2": 19,
      "3": 20,
      "4": 21,
      "5": 22,
      "6": 23,
      "7": 24,
      "8": 25,
      "9": 26,
      ":": 27,
      ";": 28,
      "<": 29,
      "=": 30,
      ">": 31,
      "?": 32,
      "A": 33,
      "B": 34,
      "C": 35,
      "D": 36,
      "E": 37,
      "F": 38,
      "G": 39,
      "H": 40,
      "I": 41,
      "J": 42,
      "K": 43,
      "L": 44,
      "M": 45,
      "N": 46,
      "O": 47,
      "P": 48,
      "Q": 49,
      "R": 50,
      "S": 51,
      "T": 52,
      "U": 53,
      "V": 54,
      "W": 55,
      "X": 56,
      "Y": 57,
      "Z": 58,
      "[": 59,
      "\\": 60,
      "]": 61,
      "^": 62,
      "_": 63,
      "`": 64,
      "a": 65,
      "b": 66,
      "c": 67,
      "d": 68,
      "e": 69,
      "f": 70,
      "g": 71,
      "h": 72,
      "i": 73,
      "j": 74,
      "k": 75,
      "l": 76,
      "m": 77,
      "n": 78,
      "o": 79,
      "p": 80,
      "q": 81,
      "r": 82,
      "s": 83,
      "t": 84,
      "u": 85,
      "v": 86,
      "w": 87,
      "x": 88,
      "y": 89,
      "z": 90,
      "{": 91,
      "|": 92,
      "}": 93,
      "~": 94,
      "°": 95,
      "·": 96,
      "Ö": 97,
      "á": 98,
      "â": 99,
      "æ": 100,
      "ç": 101,
      "è": 102,
      "é": 103,
      "í": 104,
      "ñ": 105,
      "ö": 106,
      "ü": 107,
      "ā": 108,
      "ī": 109,
      "İ": 110,
      "Ś": 111,
      "ś": 112,
      "ū": 113,
      "ș": 114,
      "ə": 115,
      "ɦ": 116,
      "ɪ": 117,
      "ɾ": 118,
      "ʊ": 119,
      "ʼ": 120,
      "ˈ": 121,
      "ː": 122,
      "ί": 123,
      "α": 124,
      "δ": 125,
      "θ": 126,
      "ν": 127,
      "π": 128,
      "ς": 129,
      "ό": 130,
      "ँ": 131,
      "ं": 132,
      "ः": 133,
      "अ": 134,
      "आ": 135,
      "इ": 136,
      "ई": 137,
      "उ": 138,
      "ऊ": 139,
      "ऋ": 140,
      "ऍ": 141,
      "ए": 142,
      "ऐ": 143,
      "ऑ": 144,
      "ओ": 145,
      "औ": 146,
      "क": 147,
      "ख": 148,
      "ग": 149,
      "घ": 150,
      "ङ": 151,
      "च": 152,
      "छ": 153,
      "ज": 154,
      "झ": 155,
      "ञ": 156,
      "ट": 157,
      "ठ": 158,
      "ड": 159,
      "ढ": 160,
      "ण": 161,
      "त": 162,
      "थ": 163,
      "द": 164,
      "ध": 165,
      "न": 166,
      "ऩ": 167,
      "प": 168,
      "फ": 169,
      "ब": 170,
      "भ": 171,
      "म": 172,
      "य": 173,
      "र": 174,
      "ल": 175,
      "ळ": 176,
      "व": 177,
      "श": 178,
      "ष": 179,
      "स": 180,
      "ह": 181,
      "ऻ": 182,
      "़": 183,
      "ऽ": 184,
      "ा": 185,
      "ि": 186,
      "ी": 187,
      "ु": 188,
      "ू": 189,
      "ृ": 190,
      "े": 191,
      "ै": 192,
      "ॉ": 193,
      "ॊ": 194,
      "ो": 195,
      "ौ": 196,
      "्": 197,
      "॔": 198,
      "।": 199,
      "०": 200,
      "१": 201,
      "२": 202,
      "३": 203,
      "४": 204,
      "५": 205,
      "६": 206,
      "७": 207,
      "८": 208,
      "९": 209,
      "॰": 210,
      "ం": 211,
      "ః": 212,
      "అ": 213,
      "ఆ": 214,
      "ఇ": 215,
      "ఈ": 216,
      "ఉ": 217,
      "ఋ": 218,
      "ఎ": 219,
      "ఏ": 220,
      "ఐ": 221,
      "ఒ": 222,
      "ఓ": 223,
      "ఔ": 224,
      "క": 225,
      "ఖ": 226,
      "గ": 227,
      "ఘ": 228,
      "చ": 229,
      "ఛ": 230,
      "జ": 231,
      "ఞ": 232,
      "ట": 233,
      "ఠ": 234,
      "డ": 235,
      "ఢ": 236,
      "ణ": 237,
      "త": 238,
      "థ": 239,
      "ద": 240,
      "ధ": 241,
      "న": 242,
      "ప": 243,
      "ఫ": 244,
      "బ": 245,
      "భ": 246,
      "మ": 247,
      "య": 248,
      "ర": 249,
      "ల": 250,
      "ళ": 251,
      "వ": 252,
      "శ": 253,
      "ష": 254,
      "స": 255,
      "హ": 256,
      "ా": 257,
      "ి": 258,
      "ీ": 259,
      "ు": 260,
      "ూ": 261,
      "ృ": 262,
      "ె": 263,
      "ే": 264,
      "ై": 265,
      "ొ": 266,
      "ో": 267,
      "ౌ": 268,
      "్": 269,
      "ṅ": 270,
      "ṇ": 271,
      "Ṛ": 272,
      "ṣ": 273,
      "ṭ": 274,
      "Ἰ": 275,
      "‌": 276,
      "‍": 277,
      "‎": 278,
      "–": 279,
      "—": 280,
      "‘": 281,
      "’": 282,
      "“": 283,
      "”": 284,
      "†": 285,
      "•": 286,
      "′": 287,
      "‹": 288,
      "›": 289,
      "⁡": 290,
      "₹": 291,
      "↑": 292,
      "−": 293,
      "▁": 294,
      "﻿": 295,
      "wi": 296,
      "ki": 297,
      "wiki": 298,
      "ia": 299,
      "dia": 300,
      "or": 301,
      "tt": 302,
      "](": 303,
      ":/": 304,
      "htt": 305,
      "http": 306,
      "pe": 307,
      "://": 308,
      "https": 309,
      "https://": 310,
      "](https://": 311,
      "g/": 312,
      ".or": 313,
      ".org/": 314,
      "pedia": 315,
      ".wiki": 316,
      ".org/wiki": 317,
      ".org/wiki/": 318,
      ".wikipedia": 319,
      ".wikipedia.org/wiki/": 320,
      "▁[": 321,
      "en": 322,
      "te": 323,
      "▁\"": 324,
      "\")": 325,
      "in": 326,
      "an": 327,
      "on": 328,
      "In": 329,
      "th": 330,
      "](https://en": 331,
      "](https://en.wikipedia.org/wiki/": 332,
      "ti": 333,
      "hi": 334,
      "India": 335,
      "er": 336,
      "ar": 337,
      "20": 338,
      "al": 339,
      "es": 340,
      "ार": 341,
      "](https://hi": 342,
      "](https://hi.wikipedia.org/wiki/": 343,
      "▁क": 344,
      "re": 345,
      "of": 346,
      "▁|": 347,
      "्र": 348,
      "is": 349,
      "the": 350,
      "ci": 351,
      "भार": 352,
      "भारत": 353,
      "tion": 354,
      "and": 355,
      "om": 356,
      "ed": 357,
      "te_": 358,
      "▁-": 359,
      "▁स": 360,
      "▁the": 361,
      "▁of": 362,
      "#ci": 363,
      "#cite_": 364,
      "it": 365,
      "▁(": 366,
      "ou": 367,
      "as": 368,
      "](https://en.wikipedia.org/wiki/India": 369,
      "201": 370,
      "ic": 371,
      "▁म": 372,
      "▁India": 373,
      "्य": 374,
      "le": 375,
      "OT": 376,
      "19": 377,
      "oo": 378,
      "▁in": 379,
      "no": 380,
      "్ర": 381,
      "id": 382,
      "ra": 383,
      "रा": 384,
      "](https://te": 385,
      "](https://te.wikipedia.org/wiki/": 386,
      "▁प": 387,
      "ent": 388,
      "▁s": 389,
      "](https://en.wikipedia.org/wiki/India#cite_": 390,
      "▁and": 391,
      "200": 392,
      "-0": 393,
      "▁p": 394,
      "**": 395,
      "ate": 396,
      "et": 397,
      "ri": 398,
      "ార": 399,
      "ान": 400,
      "ing": 401,
      "-1": 402,
      "am": 403,
      "ें": 404,
      "▁c": 405,
      "र्": 406,
      "us": 407,
      "ation": 408,
      "at": 409,
      "▁C": 410,
      "▁A": 411,
      "ref": 412,
      "▁के": 413,
      "ag": 414,
      "](https://hi.wikipedia.org/wiki/भारत": 415,
      "note": 416,
      "्त": 417,
      ").": 418,
      "▁ह": 419,
      "▁S": 420,
      "ook": 421,
      "ac": 422,
      "\\_": 423,
      "▁f": 424,
      "[[": 425,
      "ang": 426,
      "ad": 427,
      "ref-": 428,
      "note-": 429,
      "▁t": 430,
      "78": 431,
      "▁b": 432,
      "ve": 433,
      "li": 434,
      "ur": 435,
      "lo": 436,
      "या": 437,
      "िक": 438,
      "um": 439,
      "ాల": 440,
      "▁m": 441,
      "▁P": 442,
      "ver": 443,
      "ist": 444,
      "IS": 445,
      "ीय": 446,
      "we": 447,
      "▁में": 448,
      "ul": 449,
      "com": 450,
      "he": 451,
      "FO": 452,
      "▁अ": 453,
      "▁1": 454,
      "NOT": 455,
      "OTNOT": 456,
      "FOOTNOT": 457,
      "FOOTNOTE": 458,
      "\"),": 459,
      "్య": 460,
      "of_": 461,
      "978": 462,
      "_of_": 463,
      "BN": 464,
      "ISBN": 465,
      "ww": 466,
      "ch": 467,
      "ial": 468,
      ".\n": 469,
      "▁[↑": 470,
      "fi": 471,
      "ro": 472,
      "ce": 473,
      "st": 474,
      "భార": 475,
      "భారత": 476,
      "దే": 477,
      "ों": 478,
      "▁201": 479,
      "un": 480,
      "ory": 481,
      "దేశ": 482,
      "స్": 483,
      "il": 484,
      "▁w": 485,
      "]](https://en.wikipedia.org/wiki/India#cite_": 486,
      "▁d": 487,
      "वि": 488,
      "enti": 489,
      "ter": 490,
      "our": 491,
      "ना": 492,
      "](https://en.wikipedia.org/wiki/India#cite_ref-": 493,
      "]](https://en.wikipedia.org/wiki/India#cite_note-": 494,
      "21": 495,
      "्ष": 496,
      "▁ప": 497,
      "▁T": 498,
      "▁ज": 499,
      "ol": 500,
      "ons": 501,
      "ाल": 502,
      "▁M": 503,
      "identi": 504,
      "00": 505,
      "lin": 506,
      "fier": 507,
      "identifier": 508,
      "▁R": 509,
      "సా": 510,
      "_क": 511,
      "tic": 512,
      "▁द": 513,
      "identifier)": 514,
      "▁है": 515,
      "िया": 516,
      "न्": 517,
      "ర్": 518,
      "-0)": 519,
      "ेश": 520,
      "web": 521,
      "त्र": 522,
      "](https://hi.wikipedia.org/wiki/भारत#cite_": 523,
      "▁to": 524,
      "chi": 525,
      "▁**": 526,
      "राज": 527,
      "red": 528,
      "న్": 529,
      "em": 530,
      "book": 531,
      "res": 532,
      "▁|\n": 533,
      "▁B": 534,
      "▁a": 535,
      "),": 536,
      "ment": 537,
      "es/": 538,
      "s.": 539,
      "भा": 540,
      "cial": 541,
      "ni": 542,
      "age": 543,
      "और": 544,
      "25": 545,
      "▁ब": 546,
      "ig": 547,
      "ंग": 548,
      "pg": 549,
      "▁भारत": 550,
      "्व": 551,
      "_(": 552,
      "23": 553,
      "10": 554,
      "ला": 555,
      "▁प्र": 556,
      "▁की": 557,
      "link": 558,
      "=1": 559,
      "ir": 560,
      "ति": 561,
      "IT": 562,
      "▁D": 563,
      "▁न": 564,
      "edit": 565,
      "▁l": 566,
      "▁\"S": 567,
      "26": 568,
      "ity": 569,
      "action": 570,
      "angu": 571,
      "ind": 572,
      "▁से": 573,
      "sia": 574,
      "▁India\")": 575,
      "ER": 576,
      ".com": 577,
      "24": 578,
      "EF": 579,
      "action=": 580,
      "ITER": 581,
      "action=edit": 582,
      "&red": 583,
      "?action=edit": 584,
      "link=1": 585,
      "ITEREF": 586,
      "&redlink=1": 587,
      "?action=edit&redlink=1": 588,
      ".j": 589,
      "ay": 590,
      "ता": 591,
      "▁और": 592,
      "_स": 593,
      "▁[↑](https://en.wikipedia.org/wiki/India#cite_ref-": 594,
      "లు": 595,
      "ly": 596,
      ".com/": 597,
      "्ट": 598,
      "pecial": 599,
      "▁e": 600,
      "▁का": 601,
      "्रे": 602,
      "రా": 603,
      "▁E": 604,
      "ma": 605,
      "india": 606,
      "ourc": 607,
      ")\n": 608,
      "199": 609,
      "con": 610,
      "·**": 611,
      "▁**·**": 612,
      "ion": 613,
      "_India": 614,
      "▁•": 615,
      "pecial:": 616,
      "▁*": 617,
      "భారతదేశ": 618,
      "me": 619,
      "28": 620,
      "ld": 621,
      "_S": 622,
      ".శ": 623,
      ".శ.": 624,
      "#C": 625,
      "ct": 626,
      "లో": 627,
      "Uni": 628,
      "cal": 629,
      "▁\"भारत": 630,
      "go": 631,
      "\").": 632,
      "సా.శ.": 633,
      "#CITEREF": 634,
      "ved": 635,
      "ources/": 636,
      "स्त": 637,
      "978-0": 638,
      "Book": 639,
      "▁h": 640,
      "▁H": 641,
      "outh": 642,
      "up": 643,
      "_in": 644,
      "Sources/": 645,
      "pecial:Book": 646,
      "pecial:BookSources/": 647,
      "ber": 648,
      "oun": 649,
      "rom": 650,
      "▁व": 651,
      "राज्य": 652,
      "▁క": 653,
      "978-0-": 654,
      "▁G": 655,
      "▁N": 656,
      "न्द": 657,
      "क्ष": 658,
      "ित": 659,
      "षा": 660,
      "11": 661,
      "sh": 662,
      "www": 663,
      "▁आ": 664,
      "-3": 665,
      "for": 666,
      "త్ర": 667,
      "op": 668,
      "ాలు": 669,
      "ास": 670,
      "_A": 671,
      "రి": 672,
      "▁200": 673,
      "ry": 674,
      "-4": 675,
      "el": 676,
      "www.": 677,
      "archi": 678,
      "gory": 679,
      "క్": 680,
      "ategory": 681,
      "mp": 682,
      "पु": 683,
      "▁त": 684,
      "ంద": 685,
      "▁on": 686,
      "ategory:": 687,
      "ew": 688,
      "tu": 689,
      "calf": 690,
      "vers": 691,
      "anguage": 692,
      "50": 693,
      "▁20": 694,
      "ని": 695,
      "▁వ": 696,
      "▁re": 697,
      "etcalf": 698,
      "ak": 699,
      "▁th": 700,
      "भाषा": 701,
      "ary": 702,
      "\")\n": 703,
      "ational": 704,
      "ub": 705,
      "ab": 706,
      "](https://en.wikipedia.org/wiki/India#CITEREF": 707,
      "-8": 708,
      "archive": 709,
      "err": 710,
      "स्": 711,
      "ast": 712,
      "22": 713,
      "n_": 714,
      "ge": 715,
      "ish": 716,
      "30": 717,
      "▁19": 718,
      "The": 719,
      "ల్": 720,
      "est": 721,
      "▁[S": 722,
      "देश": 723,
      ".in": 724,
      "▁n": 725,
      "భారతదేశం": 726,
      "od": 727,
      "मा": 728,
      "▁or": 729,
      "ress": 730,
      "▁(identifier)": 731,
      "_(identifier)": 732,
      "▁(identifier)\")": 733,
      "था": 734,
      "री": 735,
      "णी": 736,
      "18": 737,
      "ची": 738,
      "]](https://en.wikipedia.org/wiki/India#cite_note-FOOTNOTE": 739,
      "ted": 740,
      "_of_India": 741,
      "29": 742,
      "ంగ": 743,
      "▁F": 744,
      "▁from": 745,
      "▁को": 746,
      "▁ग": 747,
      "archive.org/": 748,
      "--": 749,
      "▁J": 750,
      "rit": 751,
      "▁స": 752,
      "▁---": 753,
      "ain": 754,
      "http://": 755,
      "error": 756,
      "]](https://hi.wikipedia.org/wiki/भारत#cite_": 757,
      "ड़": 758,
      ".[[": 759,
      "gh": 760,
      "▁[\"": 761,
      "Har": 762,
      ".jpg": 763,
      "Metcalf": 764,
      "▁మ": 765,
      "orld": 766,
      "▁p.": 767,
      "ष्ट": 768,
      "ud": 769,
      "ep": 770,
      "▁उ": 771,
      "▁for": 772,
      "_P": 773,
      "goo": 774,
      "web.": 775,
      "▁ए": 776,
      "ust": 777,
      "ाद": 778,
      "](https://web.": 779,
      "▁by": 780,
      "web/": 781,
      "archive.org/web/": 782,
      "](https://web.archive.org/web/": 783,
      "▁पर": 784,
      "్రా": 785,
      "books": 786,
      "List": 787,
      "im": 788,
      "gle": 789,
      "▁In": 790,
      "_and": 791,
      "▁.": 792,
      "40": 793,
      "AA": 794,
      "versity": 795,
      "▁है।": 796,
      "os": 797,
      "_1": 798,
      "id=": 799,
      "श्रे": 800,
      "27": 801,
      "▁[म": 802,
      "▁\"C": 803,
      "ष्ट्र": 804,
      "▁[A": 805,
      "श्रेणी": 806,
      "ha": 807,
      "har": 808,
      "ీయ": 809,
      "▁ar": 810,
      "_के": 811,
      "ount": 812,
      "का": 813,
      "▁g": 814,
      "▁श": 815,
      "▁is": 816,
      "](https://en.wikipedia.org/wiki/S": 817,
      "_म": 818,
      "▁सं": 819,
      "google": 820,
      "with": 821,
      "ort": 822,
      "conom": 823,
      "श्रेणी:": 824,
      "ండ": 825,
      "▁Indian": 826,
      "978-1": 827,
      "▁L": 828,
      "ने": 829,
      "ec": 830,
      "?id=": 831,
      "ले": 832,
      "books.": 833,
      ".com/books": 834,
      "google.com/books": 835,
      "books.google.com/books": 836,
      "ेत्र": 837,
      "▁O": 838,
      "▁वि": 839,
      "books.google.com/books?id=": 840,
      "प्र": 841,
      "▁[ISBN": 842,
      "ens": 843,
      "umb": 844,
      "म्": 845,
      "िल": 846,
      "▁\"ISBN": 847,
      "ISBN_(identifier)": 848,
      "_C": 849,
      "_in_India": 850,
      "జ్య": 851,
      "s/": 852,
      "-9": 853,
      "'s": 854,
      "15": 855,
      "▁చ": 856,
      "late": 857,
      "](https://hi.wikipedia.org/wiki/भारत#cite_ref-": 858,
      "]](https://hi.wikipedia.org/wiki/भारत#cite_note-": 859,
      "▁Asia": 860,
      "हि": 861,
      "▁./": 862,
      "ap": 863,
      "▁K": 864,
      "▁W": 865,
      "▁[*": 866,
      "*.": 867,
      "13": 868,
      "](https://books.google.com/books?id=": 869,
      "ther": 870,
      "्या": 871,
      "ng": 872,
      "▁[C": 873,
      "▁इ": 874,
      "16": 875,
      "తా": 876,
      "िय": 877,
      "ము": 878,
      "ut": 879,
      "](https://en.wikipedia.org/wiki/C": 880,
      "నా": 881,
      "17": 882,
      "▁([": 883,
      "inal": 884,
      "la": 885,
      "తి": 886,
      "్ట": 887,
      "gov": 888,
      "_के_": 889,
      "arg": 890,
      "सं": 891,
      "University": 892,
      "##": 893,
      "px": 894,
      "p.": 895,
      "do": 896,
      "▁The": 897,
      "सा": 898,
      "ी](https://hi.wikipedia.org/wiki/": 899,
      "▁र": 900,
      "▁\"M": 901,
      "ot": 902,
      "uc": 903,
      "mons": 904,
      "ज़": 905,
      "సి": 906,
      "media": 907,
      "errors": 908,
      "త్": 909,
      "Harv": 910,
      "nd": 911,
      "त्त": 912,
      "▁pp.": 913,
      "s,": 914,
      "](S": 915,
      ".gov": 916,
      "ff": 917,
      "▁[↑](https://en.wikipedia.org/wiki/India#cite_ref-FOOTNOTE": 918,
      "per": 919,
      ".in/": 920,
      "14": 921,
      "av": 922,
      "de": 923,
      "▁be": 924,
      "pecial:BookSources/978-0-": 925,
      "-7": 926,
      "र्व": 927,
      "umm": 928,
      "-2": 929,
      "ong": 930,
      "PA": 931,
      "▁[M": 932,
      "fn": 933,
      "aj": 934,
      "राष्ट्र": 935,
      "over": 936,
      "](https://en.wikipedia.org/wiki/M": 937,
      "load": 938,
      "▁(సా.శ.": 939,
      "und": 940,
      "upload": 941,
      "ence": 942,
      "tein": 943,
      "ys": 944,
      ".wikimedia": 945,
      "ance": 946,
      ")[[": 947,
      "br": 948,
      "िस": 949,
      "యా": 950,
      "35": 951,
      "commons": 952,
      "![": 953,
      "ंड": 954,
      "ులు": 955,
      "▁రా": 956,
      "al_": 957,
      "pedia/": 958,
      ".org/wikipedia/": 959,
      "thumb": 960,
      "्षेत्र": 961,
      "upload.wikimedia": 962,
      "upload.wikimedia.org/wikipedia/": 963,
      "](https://upload.wikimedia.org/wikipedia/": 964,
      "▁सा": 965,
      "–సా.శ.": 966,
      "▁भाषा": 967,
      "](https://en.wikipedia.org/wiki/ISBN_(identifier)": 968,
      "▁[ISBN](https://en.wikipedia.org/wiki/ISBN_(identifier)": 969,
      "/thumb": 970,
      "/thumb/": 971,
      "-5": 972,
      "di": 973,
      "cy": 974,
      "▁అ": 975,
      "▁\"म": 976,
      "art": 977,
      "](https://upload.wikimedia.org/wikipedia/commons": 978,
      "rie": 979,
      "ి.": 980,
      "▁ल": 981,
      "%2": 982,
      "ी_": 983,
      "▁[B": 984,
      "&pg": 985,
      "&pg=": 986,
      "ans": 987,
      "](https://upload.wikimedia.org/wikipedia/commons/thumb/": 988,
      "px-": 989,
      "47": 990,
      "▁\"B": 991,
      "iginal": 992,
      "ow": 993,
      "▁as": 994,
      "▁st": 995,
      "_M": 996,
      "पा": 997,
      "▁ప్ర": 998,
      "चि": 999,
      "जा": 1000,
      ".p": 1001,
      "36": 1002,
      "_D": 1003,
      "ిక": 1004,
      "▁राज्य": 1005,
      "ear": 1006,
      "मन": 1007,
      "lig": 1008,
      "ages": 1009,
      "all": 1010,
      "▁I": 1011,
      "tern": 1012,
      "తం": 1013,
      "log": 1014,
      "38": 1015,
      "▁original": 1016,
      "श्रेणी:Harv": 1017,
      "▁\"A": 1018,
      "2.": 1019,
      "ूची": 1020,
      "&pg=PA": 1021,
      "▁\"P": 1022,
      "विश": 1023,
      "ht": 1024,
      "Category:": 1025,
      "▁य": 1026,
      "](https://web.archive.org/web/201": 1027,
      "rchi": 1028,
      "▁भ": 1029,
      "ana": 1030,
      "▁Ret": 1031,
      "ిన": 1032,
      "▁हैं": 1033,
      "జ్యం": 1034,
      "land": 1035,
      "▁with": 1036,
      "70": 1037,
      "गर": 1038,
      "rieved": 1039,
      "▁Retrieved": 1040,
      "ll": 1041,
      "1.": 1042,
      "ere": 1043,
      "esh": 1044,
      "_T": 1045,
      "జా": 1046,
      "2006": 1047,
      "temp": 1048,
      "](https://en.wikipedia.org/wiki/B": 1049,
      "emp": 1050,
      "ी\")": 1051,
      "opul": 1052,
      "कार": 1053,
      "हा": 1054,
      "2018": 1055,
      "ంచ": 1056,
      "కు": 1057,
      "Indian": 1058,
      "ore": 1059,
      "ss": 1060,
      "omm": 1061,
      "ensus": 1062,
      "ummit": 1063,
      "og": 1064,
      "-10": 1065,
      "](https://te.wikipedia.org/wiki/భారతదేశం": 1066,
      "▁[↑](https://hi.wikipedia.org/wiki/भारत#cite_ref-": 1067,
      "कि": 1068,
      "nic": 1069,
      "](https://en.wikipedia.org/wiki/P": 1070,
      "क्त": 1071,
      "ंग्रे": 1072,
      "हिन्द": 1073,
      "▁University": 1074,
      "ates": 1075,
      "ेला": 1076,
      "ను": 1077,
      "పూ": 1078,
      "▁no": 1079,
      "2011": 1080,
      "ोल": 1081,
      "ass": 1082,
      "ile": 1083,
      "*](https://books.google.com/books?id=": 1084,
      "ke": 1085,
      "पर": 1086,
      "%20": 1087,
      "मी": 1088,
      "titu": 1089,
      "▁\"T": 1090,
      "ism": 1091,
      "ata": 1092,
      "భా": 1093,
      "▁&": 1094,
      "▁[P": 1095,
      "▁कर": 1096,
      "istory": 1097,
      "-6": 1098,
      "39": 1099,
      "nment": 1100,
      "](http://": 1101,
      "hin": 1102,
      "ani": 1103,
      "ric": 1104,
      "ప్ర": 1105,
      "48": 1106,
      "rchived": 1107,
      "िर": 1108,
      "ire": 1109,
      "ank": 1110,
      "ద్": 1111,
      "ింద": 1112,
      "▁क्षेत्र": 1113,
      ".jp": 1114,
      "oc": 1115,
      "ेष": 1116,
      "द्": 1117,
      "▁was": 1118,
      "▁*[": 1119,
      "opulation": 1120,
      "se": 1121,
      "/https://": 1122,
      "60": 1123,
      "धान": 1124,
      "▁ఉ": 1125,
      "▁अन": 1126,
      "Stein": 1127,
      "र्म": 1128,
      "▁\"E": 1129,
      "90": 1130,
      "ts": 1131,
      "ंध": 1132,
      "ం:": 1133,
      "](https://hi.wikipedia.org/wiki/म": 1134,
      "Hind": 1135,
      "से": 1136,
      ".jpg)": 1137,
      "ard": 1138,
      "ाना": 1139,
      "ubl": 1140,
      "sher": 1141,
      "वा": 1142,
      "ृत": 1143,
      "ord": 1144,
      "eral": 1145,
      "▁Category:": 1146,
      "ue": 1147,
      "श्": 1148,
      "▁ఆ": 1149,
      "्रा": 1150,
      "▁ex": 1151,
      "ai": 1152,
      "to": 1153,
      "%2C": 1154,
      ".jpg/": 1155,
      "स्तान": 1156,
      "](https://www.": 1157,
      "ries": 1158,
      "▁language": 1159,
      "ेल": 1160,
      "ोत": 1161,
      "7.": 1162,
      "धार": 1163,
      "▁an": 1164,
      "arget": 1165,
      "language": 1166,
      "](https://en.wikipedia.org/wiki/A": 1167,
      "▁de": 1168,
      "भि": 1169,
      "▁ర": 1170,
      "_N": 1171,
      "\"))": 1172,
      "▁[अ": 1173,
      "▁ने": 1174,
      "anguages": 1175,
      "ture": 1176,
      "CS": 1177,
      "ies": 1178,
      "](https://en.wikipedia.org/wiki/E": 1179,
      "_R": 1180,
      "▁१": 1181,
      "9.": 1182,
      "_b": 1183,
      "▁are": 1184,
      "మా": 1185,
      "▁సా": 1186,
      "భారతీయ": 1187,
      "45": 1188,
      "▁\"अ": 1189,
      "_B": 1190,
      "other": 1191,
      "వా": 1192,
      "ीय_": 1193,
      "\").\n": 1194,
      "के": 1195,
      "िण": 1196,
      "▁r": 1197,
      "](https://en.wikipedia.org/wiki/T": 1198,
      "46": 1199,
      "▁Press": 1200,
      "ीप": 1201,
      "రు": 1202,
      "▁[भारत": 1203,
      "▁\"D": 1204,
      "als": 1205,
      "लेख": 1206,
      "AJ": 1207,
      "43": 1208,
      "▁ति": 1209,
      "▁एक": 1210,
      "ical": 1211,
      "BAJ": 1212,
      "QBAJ": 1213,
      "4.": 1214,
      "ont": 1215,
      "2010": 1216,
      "ingh": 1217,
      "ूल": 1218,
      "ations": 1219,
      "iss": 1220,
      "mai": 1221,
      "_s": 1222,
      "వి": 1223,
      "ష్ట": 1224,
      "▁it": 1225,
      "ian": 1226,
      "tem": 1227,
      "ార్": 1228,
      "పూ.": 1229,
      "▁पु": 1230,
      "▁Hind": 1231,
      "_Asia": 1232,
      "विशेष": 1233,
      "ंद": 1234,
      "ंत्र": 1235,
      "ोग": 1236,
      "▁\"G": 1237,
      "▁\"List": 1238,
      "క్ష": 1239,
      "udd": 1240,
      "tics": 1241,
      "ford": 1242,
      "_G": 1243,
      "](https://en.wikipedia.org/wiki/D": 1244,
      "ib": 1245,
      "▁V": 1246,
      "](https://mai": 1247,
      "▁\"स": 1248,
      "స్థ": 1249,
      "onstitu": 1250,
      "क्षिण": 1251,
      "రిత్ర": 1252,
      "विशेष:": 1253,
      "les": 1254,
      "ine": 1255,
      "aki": 1256,
      "ex": 1257,
      "▁[978-0-": 1258,
      "](https://mai.wikipedia.org/wiki/": 1259,
      "iv": 1260,
      "थि": 1261,
      "AAQBAJ": 1262,
      "df": 1263,
      "▁[स": 1264,
      "/http://": 1265,
      "xford": 1266,
      "▁[G": 1267,
      "htm": 1268,
      "▁whi": 1269,
      "eng": 1270,
      "ern": 1271,
      "న్న": 1272,
      "▁प्रदेश": 1273,
      "ountries": 1274,
      "conomic": 1275,
      "ers": 1276,
      "omp": 1277,
      "hm": 1278,
      "49": 1279,
      "▁\"N": 1280,
      "a\")": 1281,
      "List_of_": 1282,
      "end": 1283,
      "MetcalfMetcalf": 1284,
      "tive": 1285,
      "▁2011": 1286,
      "ess": 1287,
      "stan": 1288,
      "ction": 1289,
      "ral": 1290,
      "ik": 1291,
      "यु": 1292,
      "▁(P": 1293,
      "33": 1294,
      "6.": 1295,
      "_E": 1296,
      "pecial:BookSources/978-1": 1297,
      "RI": 1298,
      "_p": 1299,
      "oli": 1300,
      "ven": 1301,
      "गमन": 1302,
      "नी": 1303,
      "artic": 1304,
      "ult": 1305,
      "tim": 1306,
      "vi": 1307,
      "▁तिथि": 1308,
      "▁3": 1309,
      "-p": 1310,
      "ions": 1311,
      "जन": 1312,
      "द्य": 1313,
      "ी_स": 1314,
      "conomy": 1315,
      "](https://te.wikipedia.org/wiki/భారతదేశం#cite_": 1316,
      ").\n": 1317,
      "धिक": 1318,
      "▁ख": 1319,
      "▁[2": 1320,
      "▁\"भारतीय": 1321,
      "77": 1322,
      "▁[D": 1323,
      "na": 1324,
      "ँच": 1325,
      "ून": 1326,
      "గా": 1327,
      "▁\"R": 1328,
      "2009": 1329,
      "▁देश": 1330,
      "0%": 1331,
      "1998": 1332,
      "1)": 1333,
      "5.": 1334,
      "▁[N": 1335,
      "▁\"क": 1336,
      "ark": 1337,
      "्री": 1338,
      "▁जन": 1339,
      "▁भारतीय": 1340,
      "](https://en.wikipedia.org/wiki/G": 1341,
      "](https://en.wikipedia.org/wiki/R": 1342,
      "ంట": 1343,
      "కి": 1344,
      "▁तिथि:": 1345,
      "port": 1346,
      "▁तथा": 1347,
      "bot": 1348,
      "rou": 1349,
      "▁which": 1350,
      "ढ़": 1351,
      "మ్రా": 1352,
      "cont": 1353,
      "ష్ట్ర": 1354,
      "cl": 1355,
      "▁[![": 1356,
      "ूर्व": 1357,
      "▁[1": 1358,
      "▁[E": 1359,
      "▁\"ब": 1360,
      "ties": 1361,
      "icial": 1362,
      "ope": 1363,
      "त्": 1364,
      "ంత": 1365,
      "▁च": 1366,
      "](https://en.wikipedia.org/wiki/N": 1367,
      "his": 1368,
      "lop": 1369,
      "▁अभि": 1370,
      "250": 1371,
      "▁अभिगमन": 1372,
      "au": 1373,
      "-1)": 1374,
      ".pdf": 1375,
      ".pdf)": 1376,
      "धर्म": 1377,
      "DF": 1378,
      "albot": 1379,
      "fe": 1380,
      "दी": 1381,
      "्रोत": 1382,
      "▁South": 1383,
      "new": 1384,
      "्ल": 1385,
      "india.gov": 1386,
      "out": 1387,
      "riti": 1388,
      "ती": 1389,
      "పు": 1390,
      "▁हैं।": 1391,
      "](https://en.wikipedia.org/wiki/List_of_": 1392,
      "मान": 1393,
      "वं": 1394,
      "हर": 1395,
      "▁[क": 1396,
      "ame": 1397,
      "Asher": 1398,
      "बर": 1399,
      "▁న": 1400,
      "▁[R": 1401,
      "▁[T": 1402,
      "ach": 1403,
      "▁(PDF": 1404,
      "▁li": 1405,
      "▁India's": 1406,
      "द्ध": 1407,
      "8.": 1408,
      "▁has": 1409,
      "▁that": 1410,
      ")\")": 1411,
      "మి": 1412,
      "ాన": 1413,
      "](https://hi.wikipedia.org/wiki/क": 1414,
      "ration": 1415,
      "स्तक": 1416,
      "पुस्तक": 1417,
      "ublic": 1418,
      "विशेष:पुस्तक": 1419,
      "्रोत/": 1420,
      "ta": 1421,
      "territ": 1422,
      "gen": 1423,
      "रकार": 1424,
      "िका": 1425,
      "▁जा": 1426,
      "▁\"Special:BookSources/978-0-": 1427,
      "पुर": 1428,
      "](Special:BookSources/978-0-": 1429,
      "राष्ट्रीय": 1430,
      "3.": 1431,
      "ob": 1432,
      "పా": 1433,
      "▁ఇ": 1434,
      "▁త": 1435,
      "▁राज": 1436,
      "▁[ब": 1437,
      "▁[Archived": 1438,
      "భాష": 1439,
      "AAQBAJ&pg=PA": 1440,
      "80": 1441,
      "_and_": 1442,
      "▁5": 1443,
      "ous": 1444,
      "गु": 1445,
      "हार": 1446,
      "ali": 1447,
      "](https://hi.wikipedia.org/wiki/स": 1448,
      "United": 1449,
      "RICS": 1450,
      "ath": 1451,
      "ty": 1452,
      "िट": 1453,
      "rad": 1454,
      "स्क": 1455,
      ",_": 1456,
      "ज्": 1457,
      "పాల": 1458,
      "లీ": 1459,
      "▁स्": 1460,
      "▁pro": 1461,
      "▁इस": 1462,
      "logy": 1463,
      "4)": 1464,
      "ile:": 1465,
      "sland": 1466,
      "inist": 1467,
      "sv": 1468,
      "idge": 1469,
      "हास": 1470,
      "िश": 1471,
      "▁దేశ": 1472,
      "▁मेला": 1473,
      "ange": 1474,
      "స్తా": 1475,
      "▁De": 1476,
      "▁–": 1477,
      "▁\"प": 1478,
      "▁वर्": 1479,
      "56": 1480,
      "eg": 1481,
      "ya": 1482,
      "File:": 1483,
      "ure": 1484,
      "िव": 1485,
      "వర్": 1486,
      "ాయ": 1487,
      "pend": 1488,
      "aste": 1489,
      "रालेख": 1490,
      "ost": 1491,
      "▁\"In": 1492,
      "hist": 1493,
      "3)": 1494,
      "ा_": 1495,
      "र्थ": 1496,
      "▁हु": 1497,
      "_की_स": 1498,
      "10.": 1499,
      "_में": 1500,
      "्च": 1501,
      "DP": 1502,
      "ree": 1503,
      "MetcalfMetcalf2006": 1504,
      "ध्य": 1505,
      "ुख": 1506,
      "](https://hi.wikipedia.org/wiki/अ": 1507,
      "000": 1508,
      "mpire": 1509,
      "ंग्रेज़": 1510,
      "మ్రాజ్యం": 1511,
      "रालेखित": 1512,
      "\"\n": 1513,
      "▁[K": 1514,
      "ritish": 1515,
      "iki": 1516,
      "ove": 1517,
      "2004": 1518,
      "85": 1519,
      "_भारत": 1520,
      "man": 1521,
      "द्र": 1522,
      "](File:": 1523,
      "rap": 1524,
      "amil": 1525,
      "దేశ్": 1526,
      "▁भी": 1527,
      "onstitution": 1528,
      "37": 1529,
      "ah": 1530,
      "▁2014": 1531,
      "▁pe": 1532,
      "elhi": 1533,
      "थान": 1534,
      "शिया": 1535,
      "ुस": 1536,
      "ం](https://te.wikipedia.org/wiki/": 1537,
      "ated": 1538,
      "bridge": 1539,
      "चित्र": 1540,
      "ru": 1541,
      "ite": 1542,
      "▁at": 1543,
      "▁सम": 1544,
      "](https://en.wikipedia.org/wiki/India#cite_ref-FOOTNOTE": 1545,
      "-b": 1546,
      "-s": 1547,
      "..": 1548,
      "12": 1549,
      "2007": 1550,
      "ambridge": 1551,
      "फ़": 1552,
      "ంబ": 1553,
      "టి": 1554,
      "](https://hi.wikipedia.org/wiki/ब": 1555,
      "त्तर": 1556,
      ".nic": 1557,
      "hand": 1558,
      "ese": 1559,
      "outh_Asia": 1560,
      "67": 1561,
      "पाल": 1562,
      "ोक": 1563,
      "▁सूची": 1564,
      "velop": 1565,
      "▁v": 1566,
      "▁cent": 1567,
      "late_": 1568,
      "do-": 1569,
      "्ड": 1570,
      "ంలో": 1571,
      "](https://hi.wikipedia.org/wiki/भारत_में": 1572,
      "స్తాన్": 1573,
      "\"](https://web.archive.org/web/201": 1574,
      "s\")": 1575,
      "▁\"K": 1576,
      "hel": 1577,
      "मिल": 1578,
      "ीन": 1579,
      "्स": 1580,
      "▁7": 1581,
      "usic": 1582,
      "▁हि": 1583,
      "किस्तान": 1584,
      "times": 1585,
      "](https://en.wikipedia.org/wiki/In": 1586,
      "yson": 1587,
      "-d": 1588,
      "duc": 1589,
      "lia": 1590,
      "గు": 1591,
      "డు": 1592,
      "నే": 1593,
      "్చ": 1594,
      "ack": 1595,
      "ountry": 1596,
      "▁भाषा\")": 1597,
      "oh": 1598,
      "▁\"Indian": 1599,
      "gover": 1600,
      "ansk": 1601,
      "-t": 1602,
      "120": 1603,
      "▁\"The": 1604,
      "▁se": 1605,
      "qu": 1606,
      "world": 1607,
      "ते": 1608,
      "మూ": 1609,
      "▁[978-1": 1610,
      "isation": 1611,
      "్రీ": 1612,
      "▁History": 1613,
      "జాత": 1614,
      "▁its": 1615,
      "521": 1616,
      "RC": 1617,
      "▁te": 1618,
      "▁un": 1619,
      "inent": 1620,
      "lection": 1621,
      "4%": 1622,
      "न\")": 1623,
      "रु": 1624,
      "▁U": 1625,
      "▁[प": 1626,
      "▁सरकार": 1627,
      "्वीप": 1628,
      "anskrit": 1629,
      "E0%": 1630,
      "IN": 1631,
      "Oxford": 1632,
      "dit": 1633,
      "रब": 1634,
      "ूच": 1635,
      "ूर": 1636,
      "లా": 1637,
      "ase": 1638,
      "ulture": 1639,
      "ign": 1640,
      "▁reg": 1641,
      "ంగా": 1642,
      "html": 1643,
      "2)": 1644,
      "ashm": 1645,
      "\\_S": 1646,
      "row": 1647,
      "velopment": 1648,
      "Dw": 1649,
      "▁घ": 1650,
      "▁(201": 1651,
      "ater": 1652,
      "akistan": 1653,
      "alay": 1654,
      "uring": 1655,
      "template": 1656,
      "_d": 1657,
      "हु": 1658,
      "ा:": 1659,
      "డ్": 1660,
      "ిల్": 1661,
      "▁२": 1662,
      "▁జ": 1663,
      "▁199": 1664,
      "alth": 1665,
      "dition": 1666,
      "emplate": 1667,
      ".nic.in/": 1668,
      "World": 1669,
      "lish": 1670,
      "कर": 1671,
      "▁4": 1672,
      "orth": 1673,
      "mer": 1674,
      "mund": 1675,
      "/https://www.": 1676,
      "othermund": 1677,
      "_language": 1678,
      "census": 1679,
      "गण": 1680,
      "दक्षिण": 1681,
      "ष्": 1682,
      "ैद": 1683,
      "లి": 1684,
      "lion": 1685,
      "స్త్ర": 1686,
      "▁तक": 1687,
      "साँच": 1688,
      "roup": 1689,
      "led": 1690,
      "pu": 1691,
      "](https://en.wikipedia.org/wiki/K": 1692,
      "ome": 1693,
      "urope": 1694,
      "▁wh": 1695,
      "irst": 1696,
      ".jpg)\n": 1697,
      "ave": 1698,
      "ूप": 1699,
      "any": 1700,
      "ulke": 1701,
      "श्चि": 1702,
      "62": 1703,
      "radesh": 1704,
      "59": 1705,
      "కా": 1706,
      "ణా": 1707,
      "దక్ష": 1708,
      "ధిక": 1709,
      "](https://hi.wikipedia.org/wiki/भारतीय_": 1710,
      "नाम": 1711,
      "▁ప్రా": 1712,
      "▁వి": 1713,
      "సియా": 1714,
      "overnment": 1715,
      "జాతీయ": 1716,
      "_F": 1717,
      "▁languages": 1718,
      "05": 1719,
      "_प्र": 1720,
      "सम": 1721,
      "▁[L": 1722,
      "\"))\n": 1723,
      "▁sub": 1724,
      "▁18": 1725,
      "odern": 1726,
      "AARC": 1727,
      "ज्ञ": 1728,
      "Singh": 1729,
      "ati": 1730,
      "ef": 1731,
      "▁ad": 1732,
      "▁cont": 1733,
      "▁mil": 1734,
      "ligion": 1735,
      "వం": 1736,
      "ury": 1737,
      "ों_की_स": 1738,
      "▁సం": 1739,
      "▁చరిత్ర": 1740,
      "▁were": 1741,
      "ograp": 1742,
      "government": 1743,
      ".;": 1744,
      "ined": 1745,
      "ound": 1746,
      "Stein2010": 1747,
      "-m": 1748,
      "65": 1749,
      "tical": 1750,
      "doi": 1751,
      "ओं": 1752,
      "ीं": 1753,
      "డి": 1754,
      "▁[the": 1755,
      "](https://hi.wikipedia.org/wiki/प": 1756,
      "]](https://hi.wikipedia.org/wiki/भारत#cite_note-FOOTNOTE": 1757,
      "2003": 1758,
      "ril": 1759,
      "###": 1760,
      "![](https://upload.wikimedia.org/wikipedia/commons/thumb/": 1761,
      "continent": 1762,
      "250px-": 1763,
      "\"](https://www.": 1764,
      "-india": 1765,
      "ख्या": 1766,
      "जी": 1767,
      "\")*": 1768,
      "erv": 1769,
      "न्न": 1770,
      "▁le": 1771,
      "_by": 1772,
      "/c": 1773,
      "ంధ": 1774,
      "▁किया": 1775,
      "స్త": 1776,
      "_and_S": 1777,
      "_के_राज्य": 1778,
      "▁రాజ్యం": 1779,
      "Stein1998": 1780,
      "▁సామ్రాజ్యం": 1781,
      "ंदिर": 1782,
      "వర్గ": 1783,
      "దక్షి": 1784,
      "Singh2009": 1785,
      "usin": 1786,
      "\\_and": 1787,
      "\\_errors": 1788,
      "help": 1789,
      ".sv": 1790,
      "oi": 1791,
      "ames": 1792,
      "▁विश": 1793,
      "जाब": 1794,
      "▁Hindu": 1795,
      "val": 1796,
      "_the": 1797,
      "దీ": 1798,
      "▁[In": 1799,
      "▁\"L": 1800,
      "ice": 1801,
      "न्द्र": 1802,
      "ండి": 1803,
      "వర్గం:": 1804,
      "6)": 1805,
      "History": 1806,
      "Talbot": 1807,
      "▁2": 1808,
      "▁errors": 1809,
      "2008": 1810,
      "▁St": 1811,
      "▁2021": 1812,
      "▁([help": 1813,
      "AsherTalbot": 1814,
      "▁errors\"))\n": 1815,
      "%E0%": 1816,
      "anc": 1817,
      "old": 1818,
      "age/": 1819,
      ".jpg)](File:": 1820,
      "omb": 1821,
      "2005": 1822,
      "▁2007": 1823,
      "ght": 1824,
      "69": 1825,
      "gan": 1826,
      "mber": 1827,
      "ंजाब": 1828,
      "ण्ड": 1829,
      "वन": 1830,
      "ुल": 1831,
      "తర": 1832,
      "ది": 1833,
      "▁బ": 1834,
      "▁नि": 1835,
      "चीन": 1836,
      "ission": 1837,
      "▁खाना": 1838,
      "ों_की_सूची": 1839,
      "▁8": 1840,
      "rate": 1841,
      "\").[[": 1842,
      "7)": 1843,
      "▁हो": 1844,
      "▁2010": 1845,
      "-in": 1846,
      "hy": 1847,
      "ms": 1848,
      "ug": 1849,
      "une": 1850,
      "ystem": 1851,
      "1_": 1852,
      "जरा": 1853,
      "बसे": 1854,
      "ట్": 1855,
      "ిత": 1856,
      "](https://en.wikipedia.org/wiki/Indian_": 1857,
      "ेंद्र": 1858,
      "](https://hi.wikipedia.org/wiki/भारत_क": 1859,
      "▁गया": 1860,
      "▁Asian": 1861,
      "▁राज्यों": 1862,
      "58": 1863,
      "fn_": 1864,
      "uary": 1865,
      "▁error": 1866,
      "▁template": 1867,
      "no-t": 1868,
      "▁Sfn": 1869,
      "\\_no-t": 1870,
      "▁target": 1871,
      "matics": 1872,
      "](https://web.archive.org/web/20": 1873,
      "fn\\_no-t": 1874,
      "template_": 1875,
      "arget\\_errors": 1876,
      "\\_Sfn\\_no-t": 1877,
      "_and_Sfn_": 1878,
      "\\_and\\_Sfn\\_no-t": 1879,
      "▁error:": 1880,
      "▁target:": 1881,
      "template_errors": 1882,
      "arget\\_errors\n": 1883,
      "_and_Sfn_template_errors": 1884,
      "\\_and\\_Sfn\\_no-target\\_errors\n": 1885,
      "चल": 1886,
      "ब्": 1887,
      "मे": 1888,
      "▁[उ": 1889,
      "ise": 1890,
      "▁Comm": 1891,
      "▁[मूल": 1892,
      "_c": 1893,
      "ail": 1894,
      "▁26": 1895,
      "on-": 1896,
      "_చ": 1897,
      "uk": 1898,
      "बंध": 1899,
      "ोर": 1900,
      "ం\")": 1901,
      "▁\"మ": 1902,
      "ant": 1903,
      "ालय": 1904,
      "ctor": 1905,
      "ింది.": 1906,
      "ुसार": 1907,
      "▁सूची\")": 1908,
      "34": 1909,
      "C&pg=PA": 1910,
      "[![](https://upload.wikimedia.org/wikipedia/commons/thumb/": 1911,
      "_L": 1912,
      "▁CITEREF": 1913,
      "ace": 1914,
      "_m": 1915,
      "aw": 1916,
      "eneral": 1917,
      "](https://en.wikipedia.org/wiki/L": 1918,
      "्रिट": 1919,
      "▁ch": 1920,
      "▁Ap": 1921,
      "स्था": 1922,
      "data": 1923,
      "51": 1924,
      "प्त": 1925,
      "िन": 1926,
      "ैन": 1927,
      "▁ఎ": 1928,
      "▁[మ": 1929,
      "▁\"F": 1930,
      "ari": 1931,
      "▁सबसे": 1932,
      "uly": 1933,
      "ियों": 1934,
      "▁(సా.శ.పూ.": 1935,
      "▁पुरालेखित": 1936,
      "चित्र:": 1937,
      "▁पुरालेखित।": 1938,
      "-g": 1939,
      "hind": 1940,
      "vis": 1941,
      "▁25": 1942,
      "▁sfn": 1943,
      "isher": 1944,
      "Edit": 1945,
      "Page/": 1946,
      "o-": 1947,
      "▁प्रा": 1948,
      "ternational": 1949,
      "inistry": 1950,
      "EditPage/": 1951,
      "5)": 1952,
      "shi": 1953,
      "ister": 1954,
      "india.gov.in/": 1955,
      "68": 1956,
      "fter": 1957,
      "lass": 1958,
      "pr": 1959,
      "year": 1960,
      "ధ్య": 1961,
      "▁గ": 1962,
      "▁శ": 1963,
      "▁territ": 1964,
      "ork": 1965,
      "ories": 1966,
      "](https://hi.wikipedia.org/wiki/चित्र:": 1967,
      "off": 1968,
      "ियाँ": 1969,
      "ంద్ర": 1970,
      "ustry": 1971,
      "पाकिस्तान": 1972,
      "क्ति": 1973,
      "/artic": 1974,
      "cies": 1975,
      "rib": 1976,
      "ashmir": 1977,
      "-l": 1978,
      "yn": 1979,
      "aman": 1980,
      "ats": 1981,
      "ood": 1982,
      "earch": 1983,
      "।[[": 1984,
      "ైన": 1985,
      "▁\"उ": 1986,
      "](https://en.wikipedia.org/wiki/F": 1987,
      "](https://te.wikipedia.org/wiki/మ": 1988,
      "▁పే": 1989,
      "▁जिस": 1990,
      "_सं": 1991,
      "स्थान": 1992,
      "air": 1993,
      "mb": 1994,
      "2014": 1995,
      "_Indian_": 1996,
      "Union": 1997,
      "A4%": 1998,
      "वरी": 1999,
      "▁ri": 2000,
      "याल": 2001,
      "ाली": 2002,
      "aint": 2003,
      "▁./श्रेणी:": 2004,
      "युक्त": 2005,
      "स्कृत": 2006,
      "DwAAQBAJ&pg=PA": 2007,
      "▁[F": 2008,
      "Rothermund": 2009,
      "आई": 2010,
      "च्च": 2011,
      "ట్ట": 2012,
      "హింద": 2013,
      "▁భారతదేశం": 2014,
      "▁मान": 2015,
      "](https://hi.wikipedia.org/wiki/भारत#CITEREF": 2016,
      "ంగ్": 2017,
      "▁है।\n": 2018,
      "▁साथ": 2019,
      "ద్ధ": 2020,
      "](https://hi.wikipedia.org/wiki/भारत_में_": 2021,
      "330": 2022,
      "Wiki": 2023,
      "uj": 2024,
      "uch": 2025,
      "ugh": 2026,
      "▁An": 2027,
      "umber": 2028,
      "▁10": 2029,
      "_भाषा": 2030,
      "्ला": 2031,
      "▁धर्म": 2032,
      "197": 2033,
      "▁अधिक": 2034,
      "▁17": 2035,
      "▁**[": 2036,
      "्वर": 2037,
      "▁आधार": 2038,
      "ople": 2039,
      "▁this": 2040,
      "▁संघ": 2041,
      "nglish": 2042,
      "श्मी": 2043,
      "▁१९": 2044,
      "Kulke": 2045,
      "a_": 2046,
      "low": 2047,
      "▁New": 2048,
      "की": 2049,
      "ज्य": 2050,
      "म्रा": 2051,
      "ించ": 2052,
      "▁ఒ": 2053,
      "▁ag": 2054,
      "▁था": 2055,
      "▁భాష": 2056,
      "▁[క": 2057,
      "▁\"श्रेणी:Harv": 2058,
      "](https://hi.wikipedia.org/wiki/श्रेणी:Harv": 2059,
      "▁सि": 2060,
      "▁India,": 2061,
      "ley": 2062,
      "ాల్": 2063,
      "▁\"Special:BookSources/978-1": 2064,
      "▁./श्रेणी:Harv": 2065,
      "▁./Category:": 2066,
      "](Special:BookSources/978-1": 2067,
      "▁Island": 2068,
      "](http://www.": 2069,
      "▁([help](https://hi.wikipedia.org/wiki/श्रेणी:Harv": 2070,
      "_and_Sfn_template_errors?action=edit&redlink=1": 2071,
      "▁./श्रेणी:Harv\\_and\\_Sfn\\_no-target\\_errors\n": 2072,
      "▁([help](https://hi.wikipedia.org/wiki/श्रेणी:Harv_and_Sfn_template_errors?action=edit&redlink=1": 2073,
      "ed.": 2074,
      "▁Pres": 2075,
      "ongress": 2076,
      "ombined": 2077,
      "1,": 2078,
      "100": 2079,
      "PP": 2080,
      "aper": 2081,
      "les/": 2082,
      "तमिल": 2083,
      "दा": 2084,
      "तिहास": 2085,
      "▁Empire": 2086,
      "म्ब": 2087,
      "▁World": 2088,
      "emplate:": 2089,
      "▁विश्व": 2090,
      "8/": 2091,
      "att": 2092,
      "mar": 2093,
      "emb": 2094,
      "▁Asia\")": 2095,
      "ower": 2096,
      "Hindi": 2097,
      "]](https://te.wikipedia.org/wiki/భారతదేశం#cite_": 2098,
      "णा": 2099,
      "तंत्र": 2100,
      "शास": 2101,
      "ेव": 2102,
      "చ్చ": 2103,
      "జీ": 2104,
      "ేంద్ర": 2105,
      "ority": 2106,
      "▁\"క": 2107,
      "](https://hi.wikipedia.org/wiki/उ": 2108,
      "edi": 2109,
      "्यट": 2110,
      "्रिटिश": 2111,
      "म्राज्य": 2112,
      "1/": 2113,
      "lim": 2114,
      "iron": 2115,
      ".jpg/250px-": 2116,
      "KulkeRothermund": 2117,
      "57": 2118,
      "रे": 2119,
      "▁बाद": 2120,
      "िल्ल": 2121,
      "▁[भारतीय": 2122,
      "gy": 2123,
      "ori": 2124,
      "arch": 2125,
      "▁July": 2126,
      "ledge": 2127,
      "▁April": 2128,
      "national": 2129,
      "ंब": 2130,
      "गढ़": 2131,
      "भी": 2132,
      "मुख": 2133,
      "वे": 2134,
      "ांग": 2135,
      "త్య": 2136,
      "బ్": 2137,
      "మీ": 2138,
      "radition": 2139,
      "](https://te.wikipedia.org/wiki/ద": 2140,
      "్యా": 2141,
      "రాష్ట్ర": 2142,
      "माण": 2143,
      "▁उप": 2144,
      "▁./వర్గం:": 2145,
      "Hindu": 2146,
      "news/": 2147,
      "▁हिन्द": 2148,
      "-c": 2149,
      "Dyson": 2150,
      "dom": 2151,
      "king": 2152,
      "lear": 2153,
      "act": 2154,
      "▁\"South": 2155,
      "ummit\")": 2156,
      "/http://www.": 2157,
      "7-1": 2158,
      "Combined": 2159,
      "ober": 2160,
      "ution": 2161,
      "▁[W": 2162,
      ".\"\n": 2163,
      "121": 2164,
      "du": 2165,
      "viron": 2166,
      "▁government": 2167,
      "entral": 2168,
      "uman": 2169,
      "hina": 2170,
      "vironment": 2171,
      "ves": 2172,
      "में": 2173,
      "ంక": 2174,
      "ప్": 2175,
      "యు": 2176,
      "▁9": 2177,
      "▁[J": 2178,
      "▁\"J": 2179,
      "rab": 2180,
      "▁cons": 2181,
      "line": 2182,
      "्वार": 2183,
      "क्षेत्र": 2184,
      "eptem": 2185,
      "▁शास": 2186,
      "తంత్ర": 2187,
      "▁not": 2188,
      "engal": 2189,
      "](https://te.wikipedia.org/wiki/భారతదేశం#cite_ref-": 2190,
      "దక్షిణ": 2191,
      "]](https://te.wikipedia.org/wiki/భారతదేశం#cite_note-": 2192,
      "eptember": 2193,
      "_at": 2194,
      "07": 2195,
      "pt": 2196,
      "वर्": 2197,
      "ाट": 2198,
      "ागर": 2199,
      "▁us": 2200,
      "▁कार": 2201,
      "ide": 2202,
      "▁Pradesh": 2203,
      "ional": 2204,
      "▁language\")": 2205,
      "also": 2206,
      "श्चिम": 2207,
      "9)": 2208,
      "athe": 2209,
      "cre": 2210,
      "▁year": 2211,
      "](https://en.wikipedia.org/wiki/J": 2212,
      "cient": 2213,
      "▁into": 2214,
      "▁system": 2215,
      "▁pl": 2216,
      "_Press": 2217,
      "uclear": 2218,
      "uropean": 2219,
      "_స": 2220,
      "_और": 2221,
      "एं": 2222,
      "ोर्": 2223,
      "తము": 2224,
      "వే": 2225,
      "ష్": 2226,
      "ాన్": 2227,
      "▁थ": 2228,
      "స్క": 2229,
      "▁En": 2230,
      "▁have": 2231,
      "ड़ा": 2232,
      "imes": 2233,
      "fficial": 2234,
      "▁यह": 2235,
      "ిల్లీ": 2236,
      "ज्ञान": 2237,
      "▁off": 2238,
      "▁15": 2239,
      "\"](https://": 2240,
      "0.": 2241,
      "2-0)": 2242,
      "_re": 2243,
      "ocial": 2244,
      "ph": 2245,
      "▁[सं": 2246,
      "\")**": 2247,
      "now": 2248,
      "anges": 2249,
      "▁during": 2250,
      "s.[[": 2251,
      "_summit": 2252,
      "गुजरा": 2253,
      "_प्रदेश": 2254,
      "%E0%A4%": 2255,
      "Dyson2018": 2256,
      ",000": 2257,
      "uis": 2258,
      "argest": 2259,
      "▁[Archived](https://web.archive.org/web/20": 2260,
      "dus": 2261,
      "तर": 2262,
      "జి": 2263,
      "ధాన": 2264,
      "బె": 2265,
      "▁\"विशेष:पुस्तक": 2266,
      "inister": 2267,
      "](https://hi.wikipedia.org/wiki/ISBN_(identifier)": 2268,
      "](https://hi.wikipedia.org/wiki/विशेष:पुस्तक": 2269,
      "▁स्रोत/": 2270,
      "▁their": 2271,
      "▁पा": 2272,
      "ారు": 2273,
      "▁comp": 2274,
      "](https://hi.wikipedia.org/wiki/भारत_के_": 2275,
      "ember": 2276,
      "लाई": 2277,
      "_स्रोत/": 2278,
      "▁కా": 2279,
      "▁[ISBN](https://hi.wikipedia.org/wiki/ISBN_(identifier)": 2280,
      "_के_आ": 2281,
      "▁రాజ": 2282,
      "▁लि": 2283,
      "▁(PDF)": 2284,
      "साँचा:": 2285,
      "ographi": 2286,
      "ांग्ला": 2287,
      "](https://hi.wikipedia.org/wiki/विशेष:पुस्तक_स्रोत/": 2288,
      "jab": 2289,
      "mi": 2290,
      "oor": 2291,
      "rin": 2292,
      "▁[t": 2293,
      "\")*.": 2294,
      "idd": 2295,
      "ram": 2296,
      "▁Archived": 2297,
      "▁first": 2298,
      "▁Pro": 2299,
      "ill": 2300,
      "ayan": 2301,
      "map": 2302,
      "odi": 2303,
      "▁Press\").": 2304,
      "outledge": 2305,
      "%28": 2306,
      "%29": 2307,
      "44": 2308,
      "_K": 2309,
      "ote": 2310,
      "एस": 2311,
      "annic": 2312,
      "▁countries": 2313,
      "ref-1": 2314,
      "note-1": 2315,
      "ctober": 2316,
      "ritannic": 2317,
      "▁October": 2318,
      "▁यु": 2319,
      "त्प": 2320,
      "fl": 2321,
      "son": 2322,
      "▁24": 2323,
      "▁also": 2324,
      "▁par": 2325,
      "▁16": 2326,
      "▁2023": 2327,
      "ंप": 2328,
      "దు": 2329,
      "మ్": 2330,
      "శ్": 2331,
      "▁राष्ट्रीय": 2332,
      "2023": 2333,
      "](https://te.wikipedia.org/wiki/క": 2334,
      "▁part": 2335,
      "్యవ": 2336,
      "▁[↑](https://hi.wikipedia.org/wiki/भारत#cite_": 2337,
      "▁जु": 2338,
      "▁है,": 2339,
      "ेश्वर": 2340,
      "ంది.": 2341,
      "history": 2342,
      "liament": 2343,
      "ूचना": 2344,
      "_చరిత్ర": 2345,
      "330px-": 2346,
      "/0": 2347,
      "31": 2348,
      "ive": 2349,
      "▁k": 2350,
      "▁21": 2351,
      "cience": 2352,
      "▁Sh": 2353,
      "▁dis": 2354,
      "brary": 2355,
      "usiness": 2356,
      "_In": 2357,
      "काल": 2358,
      "धी": 2359,
      "India)": 2360,
      "्यव": 2361,
      "▁con": 2362,
      "▁Th": 2363,
      "india/": 2364,
      "▁2024": 2365,
      "-80": 2366,
      "udden": 2367,
      "National": 2368,
      "_University": 2369,
      "ban": 2370,
      "ne": 2371,
      "ran": 2372,
      "ond": 2373,
      "hism": 2374,
      "/p": 2375,
      "_पर": 2376,
      "बाद": 2377,
      "रक्ष": 2378,
      "ली": 2379,
      "ाष्ट्र": 2380,
      "००": 2381,
      "ఢిల్లీ": 2382,
      "పంచ": 2383,
      "–1": 2384,
      "time": 2385,
      "▁स्व": 2386,
      "▁India:": 2387,
      "entre": 2388,
      "etwe": 2389,
      "ారి": 2390,
      "िक्ष": 2391,
      "chno": 2392,
      "▁world": 2393,
      "▁दक्षिण": 2394,
      "िया\")": 2395,
      "_मेला": 2396,
      "नेमा": 2397,
      "▁रूप": 2398,
      "धार_पर": 2399,
      "द्योग": 2400,
      "हाराष्ट्र": 2401,
      "మూస": 2402,
      "_के_आधार_पर": 2403,
      "etween": 2404,
      "_के_आधार_पर_भारत": 2405,
      "/A": 2406,
      "ology": 2407,
      "estern": 2408,
      "19-8": 2409,
      "racy": 2410,
      "▁Ch": 2411,
      "▁Aug": 2412,
      "▁September": 2413,
      "ishing": 2414,
      "▁form": 2415,
      "▁(PDF).": 2416,
      "▁Commission": 2417,
      "▁August": 2418,
      "-19": 2419,
      "ck": 2420,
      "rans": 2421,
      "एशिया": 2422,
      "तेल": 2423,
      "न्त": 2424,
      "▁नाम": 2425,
      "▁class": 2426,
      "ural": 2427,
      "rop": 2428,
      "unjab": 2429,
      "1994": 2430,
      "pecial:BookSources/978": 2431,
      "_H": 2432,
      "▁22": 2433,
      "▁[I": 2434,
      "▁2019": 2435,
      ".svg": 2436,
      "-26": 2437,
      "pib": 2438,
      "वाद": 2439,
      "వు": 2440,
      "▁wi": 2441,
      "▁[न": 2442,
      "▁\"భారతీయ": 2443,
      "thno": 2444,
      "▁मंदिर": 2445,
      "▁पूर्व": 2446,
      "adu": 2447,
      "urr": 2448,
      "▁अप": 2449,
      "▁Metcalf": 2450,
      "▁Re": 2451,
      "ंगा": 2452,
      "▁विक": 2453,
      "▁[Archived](https://web.archive.org/web/201": 2454,
      "ंग्रेज़ी": 2455,
      "▁subcontinent": 2456,
      "▁पुरालेखित।.": 2457,
      "▁जुलाई": 2458,
      "_के_आधार_पर_भारत_के_राज्य": 2459,
      "2_": 2460,
      "3-0)": 2461,
      "iver": 2462,
      "wing": 2463,
      "er,": 2464,
      "ool": 2465,
      "_University_Press": 2466,
      "ron": 2467,
      "सद": 2468,
      "सी": 2469,
      "▁2018": 2470,
      "210": 2471,
      "▁2006": 2472,
      "fr": 2473,
      "ual": 2474,
      "one": 2475,
      "▁Act": 2476,
      "oll": 2477,
      "CE": 2478,
      "a,": 2479,
      "pp": 2480,
      "चे": 2481,
      "జన": 2482,
      "టు": 2483,
      "టె": 2484,
      "ार्": 2485,
      "▁कि": 2486,
      "omen": 2487,
      "raven": 2488,
      "amb": 2489,
      "नाग": 2490,
      "▁न्या": 2491,
      "▁చె": 2492,
      "నాయ": 2493,
      "–సా.శ.పూ.": 2494,
      "▁[↑](https://hi.wikipedia.org/wiki/भारत#cite_ref-FOOTNOTE": 2495,
      "▁ఆర్": 2496,
      "▁देशों": 2497,
      "gency": 2498,
      "పాలిత": 2499,
      "స్త్రం:": 2500,
      "▁ప్రాంత": 2501,
      "ేంద్రపాలిత": 2502,
      "](https://te.wikipedia.org/wiki/దస్త్రం:": 2503,
      "-20": 2504,
      "_%28": 2505,
      "▁6": 2506,
      "▁\"H": 2507,
      "-17": 2508,
      "\".": 2509,
      "-re": 2510,
      "4-0)": 2511,
      "tal": 2512,
      "टे": 2513,
      "ोन": 2514,
      "▁res": 2515,
      "▁[हिन्द": 2516,
      "▁\"O": 2517,
      "▁India\"),": 2518,
      "▁Ass": 2519,
      "▁Se": 2520,
      "▁June": 2521,
      "ortal": 2522,
      "▁been": 2523,
      "ी_भाषा": 2524,
      "▁अनुसार": 2525,
      "्यवस्था": 2526,
      "chnology": 2527,
      "_I": 2528,
      "▁per": 2529,
      "eser": 2530,
      "▁but": 2531,
      "▁[*A": 2532,
      "iddle": 2533,
      "cri": 2534,
      "pl": 2535,
      "ंक": 2536,
      "खा": 2537,
      "मह": 2538,
      "ఖ్య": 2539,
      "గో": 2540,
      "తో": 2541,
      "బి": 2542,
      "హి": 2543,
      "▁[H": 2544,
      "ara": 2545,
      "ार्ट": 2546,
      "▁population": 2547,
      "▁Cambridge": 2548,
      "▁between": 2549,
      "विधान": 2550,
      "ंगाल": 2551,
      "▁तट": 2552,
      "▁एवं": 2553,
      "ffair": 2554,
      "श्मीर": 2555,
      "స్కృ": 2556,
      "ritannica": 2557,
      "-language": 2558,
      "87": 2559,
      "countries": 2560,
      "oast": 2561,
      "andhi": 2562,
      "edic": 2563,
      "able": 2564,
      ".jpg/330px-": 2565,
      "▁2014.\n": 2566,
      ".html": 2567,
      "_3": 2568,
      "fric": 2569,
      "hol": 2570,
      "lad": 2571,
      "ule": 2572,
      "va": 2573,
      "पति": 2574,
      "ल\")": 2575,
      "ीस": 2576,
      "arh": 2577,
      "1947": 2578,
      "▁more": 2579,
      "▁2016": 2580,
      "▁गण": 2581,
      "Harle": 2582,
      "harma": 2583,
      "▁प्रदेश\")": 2584,
      "embly": 2585,
      "rish": 2586,
      "▁al": 2587,
      "▁ac": 2588,
      "ped": 2589,
      "ident": 2590,
      "amp": 2591,
      "ument": 2592,
      "▁Population": 2593,
      "avid": 2594,
      "%2F": 2595,
      "904": 2596,
      "india.gov.in": 2597,
      "Template:": 2598,
      "_ప": 2599,
      "ok": 2600,
      "रो": 2601,
      "హా": 2602,
      "ి.\n": 2603,
      "▁Y": 2604,
      "▁all": 2605,
      "▁ను": 2606,
      "▁జాతీయ": 2607,
      "▁\"द": 2608,
      "ering": 2609,
      "▁केंद्र": 2610,
      "भाग": 2611,
      "संख्या": 2612,
      "%20%20": 2613,
      "धिकार": 2614,
      "్యవస్థ": 2615,
      "8)": 2616,
      "mu": 2617,
      "oon": 2618,
      "▁[[": 2619,
      "▁[Indian": 2620,
      "rade": 2621,
      "▁bec": 2622,
      "▁music": 2623,
      "igh": 2624,
      "berg": 2625,
      "ligi": 2626,
      "logue": 2627,
      "▁century": 2628,
      ":[": 2629,
      "_W": 2630,
      "ft": 2631,
      "van": 2632,
      "जय": 2633,
      "लि": 2634,
      "श्री": 2635,
      ".org/10.": 2636,
      "▁\"W": 2637,
      "▁\"इ": 2638,
      "int": 2639,
      "2024": 2640,
      "_क्षेत्र": 2641,
      "ड़ी": 2642,
      "▁एशिया": 2643,
      "depend": 2644,
      "-2)": 2645,
      "doi.org/10.": 2646,
      "are": 2647,
      "ures": 2648,
      "istan": 2649,
      "epublic": 2650,
      "umbai": 2651,
      "▁state": 2652,
      "81": 2653,
      "_अ": 2654,
      "fic": 2655,
      "ibrary": 2656,
      "lang": 2657,
      "tates": 2658,
      "एँ": 2659,
      "गो": 2660,
      "स्ट": 2661,
      "ैक": 2662,
      "ोड़": 2663,
      "డా": 2664,
      "దా": 2665,
      "బడ": 2666,
      "మే": 2667,
      "రణ": 2668,
      "▁లో": 2669,
      "peration": 2670,
      "▁\"I": 2671,
      "icy": 2672,
      "▁मा": 2673,
      "▁मु": 2674,
      "▁मूल": 2675,
      "▁dance": 2676,
      "term": 2677,
      "▁जो": 2678,
      "ाला": 2679,
      "▁after": 2680,
      "▁बहु": 2681,
      "▁सेना": 2682,
      "▁కూ": 2683,
      "ాలు,": 2684,
      "▁2009": 2685,
      "-81": 2686,
      "म्बर": 2687,
      "▁రాష్ట్ర": 2688,
      "विश्व": 2689,
      "▁भू": 2690,
      "rick": 2691,
      "ompany": 2692,
      "view": 2693,
      "కిస్తాన్": 2694,
      "clud": 2695,
      "▁చరిత్ర\")": 2696,
      "ujar": 2697,
      "्यटन": 2698,
      "thnologue": 2699,
      "88": 2700,
      "par": 2701,
      "ttar": 2702,
      "▁[3": 2703,
      "▁East": 2704,
      "ces": 2705,
      "imp": 2706,
      "ls": 2707,
      "ीत": 2708,
      "▁over": 2709,
      "ia\")": 2710,
      "▁[इ": 2711,
      "▁\"हिन्द": 2712,
      "र्द": 2713,
      "cember": 2714,
      "▁ab": 2715,
      "230": 2716,
      "form": 2717,
      "▁1950": 2718,
      "▁[Stein": 2719,
      "▁For": 2720,
      "▁Jan": 2721,
      "▁साम्राज्य": 2722,
      "▁समय": 2723,
      "गुजरात": 2724,
      "4–": 2725,
      "76": 2726,
      "dustry": 2727,
      "pur": 2728,
      "wart": 2729,
      "zberg": 2730,
      "▁other": 2731,
      "kim": 2732,
      "iation": 2733,
      "ince": 2734,
      "ones": 2735,
      "chwart": 2736,
      "▁National": 2737,
      "fore": 2738,
      "olitical": 2739,
      "▁Press.": 2740,
      "▁years": 2741,
      "chwartzberg": 2742,
      "2/": 2743,
      "75": 2744,
      "her": 2745,
      "wo": 2746,
      "तिक": 2747,
      "भू": 2748,
      "ील": 2749,
      "ेट": 2750,
      "▁ఈ": 2751,
      "▁భారత": 2752,
      "▁28": 2753,
      "](https://en.wikipedia.org/wiki/W": 2754,
      "▁comm": 2755,
      "▁di": 2756,
      "नाथ": 2757,
      "▁English": 2758,
      "త్రి": 2759,
      "ాలు](https://te.wikipedia.org/wiki/": 2760,
      "▁अन्य": 2761,
      "les\\_": 2762,
      "▁2011.\n": 2763,
      "▁स्थ": 2764,
      "▁वर्ष": 2765,
      "ovement": 2766,
      "▁region": 2767,
      "1-0)": 2768,
      "500": 2769,
      "_O": 2770,
      "lam": 2771,
      "alley": 2772,
      "ade": 2773,
      "life": 2774,
      "ird": 2775,
      "▁2020": 2776,
      "▁number": 2777,
      "_De": 2778,
      "ganisation": 2779,
      "%7": 2780,
      ".as": 2781,
      "por": 2782,
      "y\")": 2783,
      "त्य": 2784,
      "लोक": 2785,
      "pear": 2786,
      "▁[Metcalf": 2787,
      "▁\"न": 2788,
      "▁\"सं": 2789,
      "](https://en.wikipedia.org/wiki/H": 2790,
      "2016": 2791,
      "rime": 2792,
      "anglad": 2793,
      "▁most": 2794,
      "▁India\")\n": 2795,
      "cture": 2796,
      "▁(identifier)\"):[": 2797,
      "नेपाल": 2798,
      "शासित": 2799,
      "angladesh": 2800,
      "79": 2801,
      "▁es": 2802,
      "arb": 2803,
      "2019": 2804,
      "▁Ar": 2805,
      "cyc": 2806,
      "obb": 2807,
      "-to": 2808,
      "64": 2809,
      "ID": 2810,
      "_క": 2811,
      "क्स": 2812,
      "टक": 2813,
      "धु": 2814,
      "पी": 2815,
      "िन्": 2816,
      "తు": 2817,
      "పతి": 2818,
      "▁ड": 2819,
      "▁फ": 2820,
      "▁ని": 2821,
      "▁27": 2822,
      "▁స్థ": 2823,
      "▁[द": 2824,
      "▁[అ": 2825,
      "▁[ప": 2826,
      "▁\"భారతదేశం": 2827,
      "్రి": 2828,
      "ourt": 2829,
      "ర్వ": 2830,
      "న్ని": 2831,
      "ose": 2832,
      "म्म": 2833,
      "apit": 2834,
      "राष्ट्रपति": 2835,
      ".jpg)](https://hi.wikipedia.org/wiki/चित्र:": 2836,
      "वंश": 2837,
      "మిళ": 2838,
      "▁जाता": 2839,
      "हासागर": 2840,
      "ैदान": 2841,
      "వంశ": 2842,
      "तंत्रता": 2843,
      "वेब": 2844,
      "द्योगिक": 2845,
      "_t": 2846,
      "▁en": 2847,
      "▁[e": 2848,
      "▁[v": 2849,
      "theast": 2850,
      "2001": 2851,
      "olicy": 2852,
      "▁election": 2853,
      "▁[South": 2854,
      "ustral": 2855,
      "emple": 2856,
      "ikshi": 2857,
      "▁[2](https://en.wikipedia.org/wiki/India#cite_ref-FOOTNOTE": 2858,
      "▁[1](https://en.wikipedia.org/wiki/India#cite_ref-FOOTNOTE": 2859,
      "times.com/": 2860,
      "ikshit": 2861,
      "*,": 2862,
      "-f": 2863,
      "ges": 2864,
      "ze": 2865,
      "णि": 2866,
      "encies": 2867,
      "asia": 2868,
      "2000": 2869,
      "atus": 2870,
      "▁Congress": 2871,
      "_of_the": 2872,
      "▁Talbot": 2873,
      "▁May": 2874,
      "▁दे": 2875,
      "▁उत्तर": 2876,
      "with\\_": 2877,
      "▁states": 2878,
      "र्थिक": 2879,
      "89": 2880,
      "Fisher": 2881,
      "orther": 2882,
      "ash": 2883,
      "2012": 2884,
      "lob": 2885,
      "▁13": 2886,
      "union": 2887,
      "ode": 2888,
      "Fisher2018": 2889,
      "-le": 2890,
      "Ar": 2891,
      "CO": 2892,
      "IM": 2893,
      "_మ": 2894,
      "_భాష": 2895,
      "cent": 2896,
      "lations": 2897,
      "पे": 2898,
      "मंत्र": 2899,
      "रवरी": 2900,
      "िज़": 2901,
      "।\n": 2902,
      "ఫ్": 2903,
      "▁छ": 2904,
      "▁స్": 2905,
      "▁[బ": 2906,
      "▁[స": 2907,
      "▁[पु": 2908,
      "▁\"అ": 2909,
      "ics": 2910,
      "ama": 2911,
      "wealth": 2912,
      "विज्ञान": 2913,
      "న్నాయ": 2914,
      "▁కాల": 2915,
      "ాలు\")": 2916,
      "]](https://hi.wikipedia.org/wiki/भारत#cite_note-1": 2917,
      "ड़े": 2918,
      "eport": 2919,
      "▁Oxford": 2920,
      "ी](https://hi.wikipedia.org/wiki/अ": 2921,
      "ndaman": 2922,
      "ులు](https://te.wikipedia.org/wiki/": 2923,
      ".jpg)](https://te.wikipedia.org/wiki/దస్త్రం:": 2924,
      "▁రై": 2925,
      "द्यान": 2926,
      "यालय": 2927,
      "హిందూ": 2928,
      "▁[↑](https://hi.wikipedia.org/wiki/भारत#cite_ref-1": 2929,
      "▁2006](https://en.wikipedia.org/wiki/India#CITEREF": 2930,
      "-21": 2931,
      "1–": 2932,
      "co": 2933,
      "oth": 2934,
      "ale": 2935,
      "ased": 2936,
      "▁Census": 2937,
      "formatics": 2938,
      "auth": 2939,
      "120px-": 2940,
      "▁territories": 2941,
      "ffairs": 2942,
      "-25": 2943,
      "32": 2944,
      "Vi": 2945,
      "_territ": 2946,
      "min": 2947,
      "oci": 2948,
      "डी": 2949,
      "तु": 2950,
      "वै": 2951,
      "ृति": 2952,
      "reat": 2953,
      "्यता": 2954,
      "▁spe": 2955,
      "▁Constitution": 2956,
      "str": 2957,
      "▁2012": 2958,
      "▁had": 2959,
      "▁वा": 2960,
      "हिन्दी": 2961,
      "censusindia.gov.in/": 2962,
      "ed.).": 2963,
      "▁official": 2964,
      "ographic": 2965,
      "langoff": 2966,
      "▁January": 2967,
      "orthern": 2968,
      ".india": 2969,
      "4).": 2970,
      "73": 2971,
      "a/": 2972,
      "eh": 2973,
      "p?": 2974,
      "pa": 2975,
      "▁[s": 2976,
      "onwealth": 2977,
      "eration": 2978,
      "ough": 2979,
      "adi": 2980,
      "ched": 2981,
      "emoc": 2982,
      "▁Budd": 2983,
      "▁BCE": 2984,
      "ight": 2985,
      "▁[2](https://en.wikipedia.org/wiki/India#cite_ref-": 2986,
      "▁[1](https://en.wikipedia.org/wiki/India#cite_ref-": 2987,
      "AsherTalbot2008": 2988,
      "▁2010](https://en.wikipedia.org/wiki/India#CITEREF": 2989,
      "ughal": 2990,
      "CN": 2991,
      "Uttar": 2992,
      "डु": 2993,
      "रण": 2994,
      "ल्": 2995,
      "ेस": 2996,
      "ఆసియా": 2997,
      "ద్ర": 2998,
      "భూ": 2999,
      "మె": 3000,
      "య్య": 3001,
      "ర్య": 3002,
      "▁ల": 3003,
      "▁23": 3004,
      "](https://doi.org/10.": 3005,
      "▁[ज": 3006,
      "▁\"ప": 3007,
      "▁\"బ": 3008,
      "▁\"స": 3009,
      "ofindia": 3010,
      "ाने": 3011,
      "▁अग": 3012,
      "▁[↑](https://te.wikipedia.org/wiki/భారతదేశం#cite_ref-": 3013,
      "files/": 3014,
      "ross": 3015,
      "नाव": 3016,
      "▁द्वार": 3017,
      "माज": 3018,
      "త్త": 3019,
      "▁అధిక": 3020,
      "▁ప్రదేశ్": 3021,
      "ప్రదేశ్": 3022,
      "सेना": 3023,
      "▁चु": 3024,
      "▁हुई": 3025,
      "▁निर्": 3026,
      "त्पाद": 3027,
      "▁నుండి": 3028,
      "55": 3029,
      "_4": 3030,
      "country": 3031,
      "pect": 3032,
      "andard": 3033,
      "eds.": 3034,
      "riod": 3035,
      "▁tradition": 3036,
      "come": 3037,
      "▁1,": 3038,
      "▁dec": 3039,
      "▁national": 3040,
      "▁Hindi": 3041,
      "▁December": 3042,
      "▁became": 3043,
      "-78": 3044,
      "1]](https://en.wikipedia.org/wiki/India#cite_note-FOOTNOTE": 3045,
      "GDP": 3046,
      "TR": 3047,
      "_ब": 3048,
      "has": 3049,
      "▁ऊ": 3050,
      "▁up": 3051,
      "▁\"आ": 3052,
      "\");": 3053,
      "ala": 3054,
      "▁sh": 3055,
      "▁two": 3056,
      "▁me": 3057,
      "change": 3058,
      "▁2022": 3059,
      "▁रह": 3060,
      "▁It": 3061,
      "olitics": 3062,
      "▁विकास": 3063,
      "ligious": 3064,
      "86": 3065,
      "bi": 3066,
      "s-": 3067,
      "high": 3068,
      "ised": 3069,
      "▁Pe": 3070,
      "▁Plate": 3071,
      "▁March": 3072,
      "▁Development": 3073,
      "nown": 3074,
      ",[[": 3075,
      "-23": 3076,
      "-28": 3077,
      "han": 3078,
      "ईसा": 3079,
      "कल": 3080,
      "खाना": 3081,
      "नगर": 3082,
      "ूर्": 3083,
      "ణి": 3084,
      "తమిళ": 3085,
      "మైన": 3086,
      "హార": 3087,
      "ోర్": 3088,
      "▁[आ": 3089,
      "▁\"ఇ": 3090,
      "▁\"భారత": 3091,
      "](https://hi.wikipedia.org/wiki/इ": 3092,
      "▁सु": 3093,
      "](https://te.wikipedia.org/wiki/బ": 3094,
      "▁दिया": 3095,
      "▁बढ़": 3096,
      "-40": 3097,
      "abad": 3098,
      "▁మొ": 3099,
      "harat": 3100,
      "నాగ": 3101,
      "త్తర": 3102,
      "ులు\")": 3103,
      "्रां": 3104,
      "▁हुआ": 3105,
      "फ़रवरी": 3106,
      "ष्ण": 3107,
      "ंबई": 3108,
      "▁लिए": 3109,
      "శ్మీ": 3110,
      "మూస:": 3111,
      "र्दू": 3112,
      "censusindia.gov.in/2011": 3113,
      ".n": 3114,
      "7-0": 3115,
      "Asia": 3116,
      "if": 3117,
      "▁we": 3118,
      "▁ro": 3119,
      "▁[O": 3120,
      "](https://en.wikipedia.org/wiki/The": 3121,
      "read": 3122,
      "omin": 3123,
      "▁includ": 3124,
      "rah": 3125,
      "▁summit\")": 3126,
      "etail": 3127,
      "ing\\_": 3128,
      "▁caste": 3129,
      "ussia": 3130,
      "loy": 3131,
      "▁war": 3132,
      "ters": 3133,
      "1997": 3134,
      "_in_S": 3135,
      "▁2025": 3136,
      "rits": 3137,
      "▁artic": 3138,
      "▁general": 3139,
      "▁[*India": 3140,
      "▁\"Economy": 3141,
      "](https://en.wikipedia.org/wiki/Economy": 3142,
      "ivil": 3143,
      ".indiatimes.com/": 3144,
      "-B": 3145,
      "_19": 3146,
      "cat": 3147,
      "f/": 3148,
      "योग": 3149,
      "िज": 3150,
      "▁'": 3151,
      "▁ट": 3152,
      "ारी": 3153,
      "city": 3154,
      "inguis": 3155,
      "▁*The": 3156,
      "▁क्षेत्र\")": 3157,
      "erala": 3158,
      "्रीका": 3159,
      "गणना": 3160,
      "2).": 3161,
      "EO": 3162,
      "WEO": 3163,
      "_V": 3164,
      "_11": 3165,
      "c=": 3166,
      "cord": 3167,
      "ect": 3168,
      "get": 3169,
      "nam": 3170,
      "vol": 3171,
      "▁$": 3172,
      "▁Union": 3173,
      "ann": 3174,
      "tionary": 3175,
      "rain": 3176,
      "▁1.": 3177,
      "▁Times": 3178,
      "▁Reg": 3179,
      ".png": 3180,
      "_f": 3181,
      "_प": 3182,
      "ae": 3183,
      "lesh": 3184,
      "rganisation": 3185,
      "गोल": 3186,
      "द्वीप": 3187,
      "धि": 3188,
      "न](https://hi.wikipedia.org/wiki/": 3189,
      "सभ": 3190,
      "శా": 3191,
      "ైనా": 3192,
      "▁j": 3193,
      "▁[ఇ": 3194,
      "▁[India": 3195,
      "▁[doi": 3196,
      "teen": 3197,
      "▁\"జ": 3198,
      "](https://en.wikipedia.org/wiki/O": 3199,
      "arna": 3200,
      "ार्च": 3201,
      "ooperation": 3202,
      "](https://te.wikipedia.org/wiki/ఇ": 3203,
      "](https://te.wikipedia.org/wiki/స": 3204,
      "▁पार्ट": 3205,
      "atar": 3206,
      "िक्": 3207,
      "▁अरब": 3208,
      "chool": 3209,
      "భారత_": 3210,
      "▁जून": 3211,
      "olk": 3212,
      "▁दिस": 3213,
      "राजस्थान": 3214,
      "▁BRICS": 3215,
      "_(India)": 3216,
      "_सा": 3217,
      "రాజ": 3218,
      "లో](https://te.wikipedia.org/wiki/": 3219,
      "రిజ": 3220,
      "క్కు": 3221,
      "▁संविधान": 3222,
      "ండ్": 3223,
      "त्तरा": 3224,
      ".gov.in/": 3225,
      "ow/": 3226,
      "जाति": 3227,
      "धानमंत्र": 3228,
      "▁\"Doi": 3229,
      "](https://en.wikipedia.org/wiki/Doi": 3230,
      "▁खाना\")": 3231,
      "माणु": 3232,
      "▁थी": 3233,
      "స్కృతి": 3234,
      "▁(identifier)\"):[10.": 3235,
      "म्मू": 3236,
      "IMF": 3237,
      "leshow/": 3238,
      "▁[doi](https://en.wikipedia.org/wiki/Doi": 3239,
      "▁दिसम्बर": 3240,
      "▁[doi](https://en.wikipedia.org/wiki/Doi_(identifier)": 3241,
      "/S": 3242,
      "6).": 3243,
      "7/": 3244,
      "99": 3245,
      "▁time": 3246,
      "ini": 3247,
      "ered": 3248,
      "▁incre": 3249,
      "▁Fe": 3250,
      ".jpg/120px-": 3251,
      "▁Commissioner": 3252,
      "5–": 3253,
      "C).": 3254,
      "_न": 3255,
      "yan": 3256,
      "डिया": 3257,
      "िस्तान": 3258,
      "ौद्ध": 3259,
      "▁30": 3260,
      "▁und": 3261,
      "tel": 3262,
      "्रम": 3263,
      "omas": 3264,
      "▁India.": 3265,
      "1950": 3266,
      "▁Sanskrit": 3267,
      "adh": 3268,
      "ung": 3269,
      "पुरी": 3270,
      "imalay": 3271,
      "▁War": 3272,
      "doc": 3273,
      "bruary": 3274,
      "ublishing": 3275,
      "स्कृति": 3276,
      "▁period": 3277,
      ".aspx": 3278,
      "4/": 3279,
      "Craven": 3280,
      "cms": 3281,
      "oy": 3282,
      "slam": 3283,
      "yayan": 3284,
      "▁ref": 3285,
      "▁rate": 3286,
      "tes": 3287,
      "tecture": 3288,
      "than": 3289,
      "](https://en.wikipedia.org/wiki/I": 3290,
      "19-9": 3291,
      "▁sup": 3292,
      "logo": 3293,
      "▁modern": 3294,
      "cean": 3295,
      "ilg": 3296,
      "illion": 3297,
      "▁one": 3298,
      "▁Press](https://en.wikipedia.org/wiki/": 3299,
      "ultan": 3300,
      "521-80": 3301,
      "atsyayan": 3302,
      "ainting": 3303,
      "KulkeRothermund2004": 3304,
      "Hinduism": 3305,
      "_Island": 3306,
      "countries_by": 3307,
      "904-7": 3308,
      "ricket": 3309,
      "ujarat": 3310,
      "Craven1997": 3311,
      "521-80904-7": 3312,
      "&s": 3313,
      ".htm": 3314,
      "124": 3315,
      "LA": 3316,
      "bn": 3317,
      "ned": 3318,
      "tro": 3319,
      "रेल": 3320,
      "वी": 3321,
      "ैल": 3322,
      "ैंड": 3323,
      "ం?action=edit&redlink=1": 3324,
      "చే": 3325,
      "బా": 3326,
      "▁ध": 3327,
      "▁फ़रवरी": 3328,
      "▁[జ": 3329,
      "](https://hi.wikipedia.org/wiki/सं": 3330,
      "▁(eds.": 3331,
      "▁मार्च": 3332,
      "▁पह": 3333,
      "र्स": 3334,
      "र्जा": 3335,
      "](https://hi.wikipedia.org/wiki/भारतीय": 3336,
      "▁పా": 3337,
      "त्रि": 3338,
      "▁बना": 3339,
      "▁2008": 3340,
      "▁వా": 3341,
      "▁group": 3342,
      "ండు": 3343,
      "▁చూ": 3344,
      "▁इतिहास": 3345,
      "త్వ": 3346,
      "र्वत": 3347,
      "ंडिया": 3348,
      "पात": 3349,
      "ंग्रेस": 3350,
      "ప్రధాన": 3351,
      "▁తే": 3352,
      "mbol": 3353,
      "▁हिन्दी": 3354,
      "▁शासन": 3355,
      "वेबैक": 3356,
      "▁द्वारा": 3357,
      "inguistic": 3358,
      "minist": 3359,
      "▁0.": 3360,
      "\"):": 3361,
      "chin": 3362,
      "1990": 3363,
      "cond": 3364,
      "1162": 3365,
      "▁than": 3366,
      "▁northern": 3367,
      "▁[*The": 3368,
      "duction": 3369,
      "2]](https://en.wikipedia.org/wiki/India#cite_note-FOOTNOTE": 3370,
      "Main": 3371,
      "ahar": 3372,
      "jan": 3373,
      "m.nic.in/": 3374,
      "ncl": 3375,
      "rg": 3376,
      "vatsyayan": 3377,
      "way": 3378,
      "▁am": 3379,
      "▁29": 3380,
      "▁emp": 3381,
      "▁end": 3382,
      "arge": 3383,
      "astern": 3384,
      "राठ": 3385,
      "▁such": 3386,
      "109": 3387,
      "▁later": 3388,
      "ताब्": 3389,
      "aksh": 3390,
      "▁there": 3391,
      "ाद्वीप": 3392,
      "▁art": 3393,
      "](https://en.wikipedia.org/wiki/South_Asia": 3394,
      "म्प": 3395,
      ".ph": 3396,
      "-108": 3397,
      "-107-1": 3398,
      "CS1": 3399,
      "_BRICS": 3400,
      "athak": 3401,
      "ovember": 3402,
      "▁घाट": 3403,
      "▁million": 3404,
      "-in-": 3405,
      "-lord": 3406,
      "19-88": 3407,
      "▁classical": 3408,
      "ehru": 3409,
      "nclm.nic.in/": 3410,
      "vatsyayan-lord": 3411,
      "/auth": 3412,
      "98": 3413,
      "ee": 3414,
      "ealth": 3415,
      "site": 3416,
      "utt": 3417,
      "ar,": 3418,
      "▁(*": 3419,
      "-14": 3420,
      "▁2017": 3421,
      "olper": 3422,
      "akh": 3423,
      "▁1947": 3424,
      "ankar": 3425,
      "lobal": 3426,
      "olpert": 3427,
      "2–": 3428,
      "6–": 3429,
      "En": 3430,
      "JP": 3431,
      "_సా": 3432,
      "back": 3433,
      "ंट": 3434,
      "खंड": 3435,
      "खण्ड": 3436,
      "मार": 3437,
      "रू": 3438,
      "वार": 3439,
      "व्यवस्था": 3440,
      "शीन": 3441,
      "सभा": 3442,
      "हीं": 3443,
      "ुरु": 3444,
      "ुंबई": 3445,
      "ोम": 3446,
      "ौर": 3447,
      "ौद्योगिक": 3448,
      "०१": 3449,
      "ంప": 3450,
      "కో": 3451,
      "గణ": 3452,
      "దిన": 3453,
      "నై": 3454,
      "రీ": 3455,
      "▁या": 3456,
      "▁\"చ": 3457,
      "arliament": 3458,
      "▁संग": 3459,
      "ould": 3460,
      "ict": 3461,
      "▁मैदान": 3462,
      "](https://te.wikipedia.org/wiki/జ": 3463,
      "ారం": 3464,
      "ammu": 3465,
      "्ता:": 3466,
      "_of_S": 3467,
      "▁2013": 3468,
      "नाडु": 3469,
      "▁जल": 3470,
      "▁Modern": 3471,
      "▁दर": 3472,
      "▁दृ": 3473,
      "▁प्रति": 3474,
      "▁प्रमुख": 3475,
      "स्त्र": 3476,
      "upta": 3477,
      "▁క్రీ": 3478,
      "▁2004": 3479,
      "క్‌": 3480,
      "నికి": 3481,
      "ల్ల": 3482,
      "ంగీ": 3483,
      "▁సి": 3484,
      "osed": 3485,
      "▁Language": 3486,
      "](https://hi.wikipedia.org/wiki/भारत#cite_ref-FOOTNOTE": 3487,
      "నాభా": 3488,
      "▁हैं,": 3489,
      "జాబి": 3490,
      "किम": 3491,
      "पर्यटन": 3492,
      "Hindust": 3493,
      "ikh": 3494,
      "▁[![](https://upload.wikimedia.org/wikipedia/commons/thumb/": 3495,
      "दीव": 3496,
      "achal": 3497,
      "▁इसके": 3498,
      "पालिका": 3499,
      "▁శా": 3500,
      "▁భాష\")": 3501,
      "▁सिनेमा": 3502,
      "▁Environment": 3503,
      "బెంగ": 3504,
      "िक्षा": 3505,
      "▁अगस्त": 3506,
      "िक्किम": 3507,
      "▁February": 3508,
      "జాబితా": 3509,
      "BC": 3510,
      "cul": 3511,
      "lor": 3512,
      "ner": 3513,
      "rar": 3514,
      "ras": 3515,
      "ua": 3516,
      "war": 3517,
      "arly": 3518,
      "ed/": 3519,
      "▁(2018": 3520,
      "ouse": 3521,
      "▁south": 3522,
      "etra": 3523,
      "right": 3524,
      "atak": 3525,
      "urt": 3526,
      "▁mathe": 3527,
      "▁Per": 3528,
      "▁Pakistan": 3529,
      "istrar": 3530,
      "▁2019.": 3531,
      "olle": 3532,
      "ake": 3533,
      "owland": 3534,
      "MetcalfMetcalf2006),": 3535,
      "rowth": 3536,
      "▁who": 3537,
      "limate": 3538,
      "▁2018](https://en.wikipedia.org/wiki/India#CITEREF": 3539,
      "Harle1994": 3540,
      ".IN": 3541,
      "IA": 3542,
      "UN": 3543,
      "len": 3544,
      "nal": 3545,
      "rist": 3546,
      "गा": 3547,
      "निक": 3548,
      "फल": 3549,
      "ोष": 3550,
      "rovis": 3551,
      "▁2015": 3552,
      "▁Min": 3553,
      "▁दो": 3554,
      "▁British": 3555,
      "_Sh": 3556,
      "▁K.": 3557,
      "hinese": 3558,
      "onstituent": 3559,
      "pura": 3560,
      "▁2021.\n": 3561,
      "धिकारिक": 3562,
      "WEO.IN": 3563,
      "IMFWEO.IN": 3564,
      "Ludden": 3565,
      "Qu": 3566,
      "_for": 3567,
      "tb": 3568,
      "tig": 3569,
      "▁14": 3570,
      "ild": 3571,
      "errit": 3572,
      "_Centre": 3573,
      "do-A": 3574,
      "-to-": 3575,
      "▁under": 3576,
      "3]](https://en.wikipedia.org/wiki/India#cite_note-FOOTNOTE": 3577,
      "Dikshit": 3578,
      "European": 3579,
      "Schwartzberg": 3580,
      "_आ": 3581,
      "can": 3582,
      "dones": 3583,
      "lag": 3584,
      "rm": 3585,
      "ria": 3586,
      "ura": 3587,
      "west": 3588,
      "टी": 3589,
      "लिस": 3590,
      "वीं": 3591,
      "शक": 3592,
      "स](https://hi.wikipedia.org/wiki/": 3593,
      "ां": 3594,
      "ाम": 3595,
      "చల్": 3596,
      "యన్": 3597,
      "షు": 3598,
      "ూర్": 3599,
      "▁राष्ट्र": 3600,
      "▁[m": 3601,
      "▁[ओ": 3602,
      "▁[చ": 3603,
      "▁[భారత": 3604,
      "▁[భారతీయ": 3605,
      "▁\"V": 3606,
      "▁\"ओ": 3607,
      "](https://en.wikipedia.org/wiki/V": 3608,
      "arn": 3609,
      "esearch": 3610,
      "▁industry": 3611,
      "rative": 3612,
      "](https://te.wikipedia.org/wiki/ప": 3613,
      "](https://te.wikipedia.org/wiki/భారతీయ": 3614,
      "ార్ట": 3615,
      "ingdom": 3616,
      "ాలయ": 3617,
      "▁many": 3618,
      "state": 3619,
      "▁long": 3620,
      "▁large": 3621,
      "▁2003": 3622,
      "క్క": 3623,
      "▁వ్యవస్థ": 3624,
      "ast_Asia": 3625,
      "▁ము": 3626,
      "osi": 3627,
      "ండో": 3628,
      "िये": 3629,
      "ముంబ": 3630,
      "utra": 3631,
      "సిన": 3632,
      "ినల్": 3633,
      "ద్ద": 3634,
      "▁ఉన్న": 3635,
      "▁ఉన్నాయ": 3636,
      "ृत्य": 3637,
      "▁rule": 3638,
      "ूनिव": 3639,
      "పాకిస్తాన్": 3640,
      "▁people": 3641,
      "ूरो": 3642,
      "ంధీ": 3643,
      "](https://hi.wikipedia.org/wiki/भारत_की_": 3644,
      "](https://hi.wikipedia.org/wiki/भारत_का_": 3645,
      "inistry_of_": 3646,
      "_संघ": 3647,
      "▁ఒక": 3648,
      "▁ఒరిజ": 3649,
      "▁युद्ध": 3650,
      "तेलु": 3651,
      "pecial:BookSources/978-81": 3652,
      "▁न्यायालय": 3653,
      "వంశం": 3654,
      "▁[पुरालेखित": 3655,
      "](https://en.wikipedia.org/wiki/Economy_of_": 3656,
      "धानमंत्री": 3657,
      "▁(eds.).": 3658,
      "▁తేదీ": 3659,
      "▁among": 3660,
      "DikshitSchwartzberg": 3661,
      "ార్టీ": 3662,
      "▁ఒరిజినల్": 3663,
      "DikshitSchwartzberg2023": 3664,
      "\"](https://books.google.com/books?id=": 3665,
      "-of": 3666,
      "2,": 3667,
      "aus": 3668,
      "ele": 3669,
      "▁[978": 3670,
      "▁[United": 3671,
      "tions": 3672,
      "▁Ac": 3673,
      "▁[\"C": 3674,
      "avy": 3675,
      "ssam": 3676,
      "▁union": 3677,
      "▁States": 3678,
      "ances": 3679,
      "Wikipedia": 3680,
      "-प": 3681,
      "545": 3682,
      "पान": 3683,
      "हित": 3684,
      "िला": 3685,
      "▁out": 3686,
      "religion": 3687,
      "▁सद": 3688,
      "ety": 3689,
      "-15": 3690,
      "uslim": 3691,
      "▁All": 3692,
      "▁Bank": 3693,
      ".com/news/": 3694,
      "118": 3695,
      "▁[\"India": 3696,
      "▁original](https://www.": 3697,
      "▁ext": 3698,
      "%2C_": 3699,
      "rown": 3700,
      "ervation": 3701,
      "▁2021.": 3702,
      "▁प्राप्त": 3703,
      "/articleshow/": 3704,
      "▁कार्य": 3705,
      "01": 3706,
      "3/": 3707,
      "7,": 3708,
      "_J": 3709,
      "languages": 3710,
      "rdu": 3711,
      "wal": 3712,
      "▁em": 3713,
      "pee": 3714,
      "▁\"India": 3715,
      "eral_": 3716,
      "alore": 3717,
      "2017": 3718,
      "rac": 3719,
      "rim": 3720,
      "▁Arab": 3721,
      "▁Afric": 3722,
      "achin": 3723,
      "angalore": 3724,
      "rol": 3725,
      "▁economic": 3726,
      "ources": 3727,
      "_Summit": 3728,
      "2905": 3729,
      "key": 3730,
      "ineering": 3731,
      "viol": 3732,
      "arket": 3733,
      "ynast": 3734,
      "▁Islands": 3735,
      "▁Act,": 3736,
      "_in_South_Asia": 3737,
      "1162-2": 3738,
      "-107-11162-2": 3739,
      "19-882905": 3740,
      "erritory": 3741,
      "ast_Asia_Summit": 3742,
      "19-882905-8": 3743,
      ".fr": 3744,
      "6/": 3745,
      "_ए": 3746,
      "_देश": 3747,
      "a-": 3748,
      "rd": 3749,
      "ymbol": 3750,
      "ंका": 3751,
      "कट": 3752,
      "गंगा": 3753,
      "देव": 3754,
      "भो": 3755,
      "र-": 3756,
      "लंका": 3757,
      "स\")": 3758,
      "हैद": 3759,
      "ीमा": 3760,
      "ूह": 3761,
      "జ్": 3762,
      "వరి": 3763,
      "శ్చ": 3764,
      "ిన్న": 3765,
      "ెల": 3766,
      "▁high": 3767,
      "tex": 3768,
      "▁\"భారతదేశ": 3769,
      "](https://hi.wikipedia.org/wiki/आ": 3770,
      "్రె": 3771,
      "राबाद": 3772,
      "र्ना": 3773,
      "▁अप्र": 3774,
      "_का_": 3775,
      "resident": 3776,
      "254": 3777,
      "▁बा": 3778,
      "▁नी": 3779,
      "24)": 3780,
      "1996": 3781,
      "ాలు\n": 3782,
      "నిస్తాన్": 3783,
      "▁మధ్య": 3784,
      "▁[Asher": 3785,
      "▁संबंध": 3786,
      "हिमा": 3787,
      "▁Kashmir": 3788,
      "त्तीस": 3789,
      "र्वो": 3790,
      "▁भाषाओं": 3791,
      "▁original](https://": 3792,
      "](https://te.wikipedia.org/wiki/భారతదేశంలో": 3793,
      "▁करने": 3794,
      "िरपे": 3795,
      "▁*[The": 3796,
      "▁अन्त": 3797,
      "वायु": 3798,
      "_New": 3799,
      "ीपी": 3800,
      "స్థాన్": 3801,
      "endra": 3802,
      "▁मेला\")": 3803,
      "▁हुए": 3804,
      "ुख्य": 3805,
      "meric": 3806,
      "मेर": 3807,
      "▁పేజీ": 3808,
      "िल्ली": 3809,
      "orities": 3810,
      "भीम": 3811,
      "మ్మూ": 3812,
      "▁[हिन्दी](https://hi.wikipedia.org/wiki/": 3813,
      "▁Assembly": 3814,
      "महाद्वीप": 3815,
      "▁गणराज्य": 3816,
      "▁\"భారతదేశంలో": 3817,
      "▁చూసిన": 3818,
      "▁తేదీ:": 3819,
      "हैदराबाद": 3820,
      "శ్చి": 3821,
      "र्नाटक": 3822,
      "िरपेक्ष": 3823,
      "▁పేజీని": 3824,
      "71": 3825,
      "84": 3826,
      "II": 3827,
      "South": 3828,
      "economic": 3829,
      "ix": 3830,
      "▁imp": 3831,
      "tition": 3832,
      "ictionary": 3833,
      "▁some": 3834,
      "▁CE": 3835,
      "ulti": 3836,
      "ments": 3837,
      "▁Economic": 3838,
      "▁GDP": 3839,
      "ingham": 3840,
      "\"](https://web.archive.org/web/20160": 3841,
      "▁territory": 3842,
      ".png)": 3843,
      "300": 3844,
      "6]](https://en.wikipedia.org/wiki/India#cite_note-": 3845,
      "Spear": 3846,
      "che": 3847,
      "cted": 3848,
      "d/": 3849,
      "detail": 3850,
      "election": 3851,
      "fgh": 3852,
      "iri": 3853,
      "jpg": 3854,
      "k:": 3855,
      "pic": 3856,
      "yle": 3857,
      "zation": 3858,
      "त्व": 3859,
      "लयाल": 3860,
      "िम": 3861,
      "▁ra": 3862,
      "▁he": 3863,
      "dian": 3864,
      "▁[19": 3865,
      "▁\"Oxford": 3866,
      "ines": 3867,
      "inance": 3868,
      "▁कुल": 3869,
      "itary": 3870,
      "2015": 3871,
      "▁मे": 3872,
      "196": 3873,
      "▁social": 3874,
      "र्ष": 3875,
      "ada": 3876,
      "▁maj": 3877,
      "▁minister": 3878,
      "ility": 3879,
      "▁बन": 3880,
      "23)": 3881,
      "26)": 3882,
      "ताज": 3883,
      "pecial:EditPage/": 3884,
      "▁her": 3885,
      "▁वार": 3886,
      "▁Nadu": 3887,
      "-317": 3888,
      "ainism": 3889,
      "▁...": 3890,
      "▁शताब्": 3891,
      "प्रा": 3892,
      "apan": 3893,
      ".gov/": 3894,
      "overe": 3895,
      "ligence": 3896,
      "ohn": 3897,
      "/article": 3898,
      "ोर्ड": 3899,
      "%E0%A4%B": 3900,
      "Artic": 3901,
      "censusindia.gov.in/2011census": 3902,
      "▁article": 3903,
      "teenth": 3904,
      "telligence": 3905,
      "urton": 3906,
      "arnatak": 3907,
      "Spear1990": 3908,
      "fghan": 3909,
      "pecial:EditPage/Template:": 3910,
      "415": 3911,
      "6-0)": 3912,
      "7-0)": 3913,
      "_n": 3914,
      "a.": 3915,
      "e/": 3916,
      "oa": 3917,
      "▁/": 3918,
      "▁(1,": 3919,
      "ical_": 3920,
      "▁since": 3921,
      "▁R.": 3922,
      "▁Raj": 3923,
      "▁land": 3924,
      "28)": 3925,
      "▁Nations": 3926,
      "▁3,": 3927,
      "...": 3928,
      ".svg/": 3929,
      "▁used": 3930,
      "0)": 3931,
      "119": 3932,
      "3),": 3933,
      "7_": 3934,
      "91": 3935,
      "94": 3936,
      "eb": 3937,
      "i,": 3938,
      "ihar": 3939,
      "jo": 3940,
      "press": 3941,
      "ंह": 3942,
      "गल": 3943,
      "झार": 3944,
      "तट": 3945,
      "मालय": 3946,
      "ल](https://hi.wikipedia.org/wiki/": 3947,
      "हन": 3948,
      "हरी": 3949,
      "िहार": 3950,
      "షన్": 3951,
      "హ్": 3952,
      "ెలు": 3953,
      "▁ऑ": 3954,
      "▁ओ": 3955,
      "▁लेख": 3956,
      "▁history": 3957,
      "▁term": 3958,
      "▁[V": 3959,
      "▁[Oxford": 3960,
      "▁\"ज": 3961,
      "](https://hi.wikipedia.org/wiki/ओ": 3962,
      "reme": 3963,
      "▁they": 3964,
      "▁महासागर": 3965,
      "▁India*](https://books.google.com/books?id=": 3966,
      "](https://te.wikipedia.org/wiki/అ": 3967,
      "etary": 3968,
      "▁China": 3969,
      "▁केन्द्र": 3970,
      "▁ही": 3971,
      "▁होत": 3972,
      "roj": 3973,
      "ournal": 3974,
      "ियां": 3975,
      "▁नद": 3976,
      "▁नहीं": 3977,
      "▁से](http://www.": 3978,
      "రియా": 3979,
      "पुरा": 3980,
      "स्ला": 3981,
      "ains": 3982,
      "▁మార్": 3983,
      "▁उद्यान": 3984,
      "▁है।[[": 3985,
      "▁Official": 3986,
      "▁Wiki": 3987,
      "▁रहा": 3988,
      "हाय": 3989,
      "ప్రపంచ": 3990,
      "विशेष:EditPage/": 3991,
      "▁मेला](https://hi.wikipedia.org/wiki/": 3992,
      "गणराज्य": 3993,
      "श्चिमी": 3994,
      "▁సంస్కృతి": 3995,
      "దీవ": 3996,
      "▁स्रोत/978-0-": 3997,
      "▁स्रोत/978-1": 3998,
      "](https://hi.wikipedia.org/wiki/विशेष:पुस्तक_स्रोत/978-0-": 3999,
      "](https://hi.wikipedia.org/wiki/विशेष:पुस्तक_स्रोत/978-1": 4000,
      "_Informatics": 4001,
      "▁भूम": 4002,
      "_Development": 4003,
      "union_territ": 4004,
      "▁चुनाव": 4005,
      "रेलू": 4006,
      "▁[पुरालेखित](https://web.archive.org/web/201": 4007,
      "र्वोच्च": 4008,
      "विशेष:EditPage/साँचा:": 4009,
      "_Informatics_Centre": 4010,
      "-India": 4011,
      "1-0": 4012,
      "UCN": 4013,
      "az": 4014,
      "ov": 4015,
      "owe": 4016,
      "olog": 4017,
      "work": 4018,
      "▁ci": 4019,
      "▁oc": 4020,
      "orest": 4021,
      "▁\"United": 4022,
      "▁\"History": 4023,
      "](https://en.wikipedia.org/wiki/History": 4024,
      "19-5": 4025,
      "1970": 4026,
      "▁Cons": 4027,
      "agar": 4028,
      "▁SAARC": 4029,
      "▁found": 4030,
      "▁trans": 4031,
      "▁both": 4032,
      "urban": 4033,
      "rote": 4034,
      "▁largest": 4035,
      "industry": 4036,
      "ly,": 4037,
      "▁General": 4038,
      "verse": 4039,
      "▁2026": 4040,
      "_Pradesh": 4041,
      "](https://en.wikipedia.org/wiki/South": 4042,
      "_Temple": 4043,
      "riculture": 4044,
      "reek": 4045,
      "ography": 4046,
      "_at_the": 4047,
      "▁play": 4048,
      "▁world's": 4049,
      "▁2006](https://en.wikipedia.org/wiki/India#CITEREFMetcalfMetcalf2006),": 4050,
      "▁article:": 4051,
      "fghanistan": 4052,
      "▁occ": 4053,
      "3TR": 4054,
      "5-0)": 4055,
      "Ag": 4056,
      "RL": 4057,
      "_उ": 4058,
      "_en": 4059,
      "ao": 4060,
      "अन": 4061,
      "फ्रीका": 4062,
      "भ्यता": 4063,
      "िख": 4064,
      "१९": 4065,
      "▁1998": 4066,
      "\")[[": 4067,
      "ins": 4068,
      "rature": 4069,
      "र्ज": 4070,
      "▁Al": 4071,
      "ISO": 4072,
      "india-g": 4073,
      "▁आधिकारिक": 4074,
      "imf": 4075,
      "harm": 4076,
      "▁संस्कृति": 4077,
      "ffer": 4078,
      "ffice": 4079,
      "▁जनगणना": 4080,
      "करण": 4081,
      "ज्ञा": 4082,
      "pring": 4083,
      "3TRt": 4084,
      "127": 4085,
      "9).": 4086,
      "bank": 4087,
      "itt": 4088,
      "stitu": 4089,
      "ancy": 4090,
      "its": 4091,
      "▁(20": 4092,
      "onsoon": 4093,
      "▁India\").": 4094,
      "243": 4095,
      "▁2005": 4096,
      "▁north": 4097,
      "▁Fr": 4098,
      "own": 4099,
      "▁status": 4100,
      "-india-": 4101,
      "▁left": 4102,
      "formation": 4103,
      "ociety": 4104,
      ".aspx?": 4105,
      "-विज्ञान": 4106,
      "4-108": 4107,
      "63": 4108,
      "6]](https://en.wikipedia.org/wiki/India#cite_note-FOOTNOTE": 4109,
      "Robb": 4110,
      "Sharma": 4111,
      "_व": 4112,
      "_వ": 4113,
      "britannica": 4114,
      "gram": 4115,
      "hang": 4116,
      "ili": 4117,
      "lack": 4118,
      "ning": 4119,
      "ris": 4120,
      "sur": 4121,
      "ंच": 4122,
      "ईरा": 4123,
      "गान": 4124,
      "छत्तीस": 4125,
      "टान": 4126,
      "पक": 4127,
      "भु": 4128,
      "लग": 4129,
      "सून": 4130,
      "िंध": 4131,
      "ीच": 4132,
      "ం\"),": 4133,
      "ంత్రి": 4134,
      "ఆఫ్": 4135,
      "కత": 4136,
      "కై": 4137,
      "క్య": 4138,
      "దాయ": 4139,
      "రే": 4140,
      "లంక": 4141,
      "వీ": 4142,
      "శ్రీ": 4143,
      "షి": 4144,
      "సు": 4145,
      "▁ఏ": 4146,
      "▁2.": 4147,
      "oral": 4148,
      "](Category:": 4149,
      "▁[च": 4150,
      "▁[सा": 4151,
      "▁[సి": 4152,
      "▁\"ल": 4153,
      "ess/": 4154,
      "▁कई": 4155,
      "▁कश्मीर": 4156,
      "भारत)": 4157,
      "▁सैन": 4158,
      "▁(India": 4159,
      "](https://te.wikipedia.org/wiki/చ": 4160,
      "▁पर्वत": 4161,
      "▁Company": 4162,
      "▁Summit\")": 4163,
      "los": 4164,
      "▁member": 4165,
      "road": 4166,
      "states": 4167,
      "స్సా": 4168,
      "वित": 4169,
      "▁పరి": 4170,
      "▁పార్టీ": 4171,
      "_का": 4172,
      "▁दि": 4173,
      "న్‌": 4174,
      "emale": 4175,
      "▁Bengal": 4176,
      "25)": 4177,
      "▁बीच": 4178,
      "▁Delhi": 4179,
      "▁से](http://": 4180,
      "▁కు": 4181,
      "▁Gandhi": 4182,
      "न्दिर": 4183,
      "क्षा": 4184,
      "ryan": 4185,
      "▁వచ్చ": 4186,
      "▁गा": 4187,
      "▁गु": 4188,
      "epal": 4189,
      "▁उत्पाद": 4190,
      "▁\"Category:": 4191,
      "_मंदिर": 4192,
      "▁संसद": 4193,
      "लेट": 4194,
      "▁इन": 4195,
      "ముద్ర": 4196,
      "▁began": 4197,
      "िस्ट": 4198,
      "▁करोड़": 4199,
      "ock": 4200,
      "▁अनु": 4201,
      "▁[अंग्रेज़": 4202,
      "केर": 4203,
      "uddhism": 4204,
      "ibet": 4205,
      "engali": 4206,
      "▁\"National": 4207,
      "_Empire": 4208,
      "ultural": 4209,
      "గాంధీ": 4210,
      "▁हैं।\n": 4211,
      "▁राजनी": 4212,
      "▁\"पंजाब": 4213,
      "र्थव्यवस्था": 4214,
      "ducation": 4215,
      "నేపాల": 4216,
      "qual": 4217,
      "▁[पंजाब": 4218,
      "Oxford_University_Press": 4219,
      "Stein2010),": 4220,
      "usiness/": 4221,
      "▁होता": 4222,
      "ब्ब": 4223,
      "▁పేరు": 4224,
      "▁जिसमें": 4225,
      "హిందీ": 4226,
      "▁Empire\")": 4227,
      "074-108": 4228,
      "▁कारण": 4229,
      "_मेला?action=edit&redlink=1": 4230,
      "▁చెయ్య": 4231,
      "esert": 4232,
      "श्रीलंका": 4233,
      "गोआ": 4234,
      "▁కూడా": 4235,
      "▁2010](https://en.wikipedia.org/wiki/India#CITEREFStein2010),": 4236,
      "-78074-108": 4237,
      "yanmar": 4238,
      "▁Press](https://en.wikipedia.org/wiki/Oxford_University_Press": 4239,
      "ultanate": 4240,
      "र्सिट": 4241,
      "ministrative": 4242,
      "rgani": 4243,
      "ంగీతం": 4244,
      "ముంబై": 4245,
      "ूनिवर्सिट": 4246,
      "శ్చిమ": 4247,
      "Articles\\_": 4248,
      "▁మార్గ": 4249,
      "britannica.com/": 4250,
      "gramme": 4251,
      "▁[अंग्रेज़ी](https://hi.wikipedia.org/wiki/अ": 4252,
      "▁చెయ్యబడ": 4253,
      "-78074-108-6": 4254,
      "/India": 4255,
      "130": 4256,
      "54": 4257,
      "Pages": 4258,
      "_2": 4259,
      "ities": 4260,
      "ling": 4261,
      "tice": 4262,
      "hief": 4263,
      "itz": 4264,
      "lect": 4265,
      "▁Science": 4266,
      "▁12": 4267,
      "ement": 4268,
      "▁David": 4269,
      "akhand": 4270,
      "ubcontinent": 4271,
      "epart": 4272,
      "▁Valley": 4273,
      "olden": 4274,
      "-largest": 4275,
      "-language\\_": 4276,
      "Pages\\_": 4277,
      "epartment": 4278,
      ".world": 4279,
      "1-1": 4280,
      "8-0)": 4281,
      "Report": 4282,
      "eval": 4283,
      "भर": 4284,
      "मो": 4285,
      "हरा": 4286,
      "▁50": 4287,
      "aran": 4288,
      "▁power": 4289,
      "▁C.": 4290,
      "▁Con": 4291,
      "url": 4292,
      "local": 4293,
      "▁made": 4294,
      "▁Pl": 4295,
      "▁2011.": 4296,
      "▁total": 4297,
      "def": 4298,
      "_Delhi": 4299,
      "ंग्रेजी": 4300,
      "▁depend": 4301,
      "▁पुरा": 4302,
      "▁वर्ग": 4303,
      "edieval": 4304,
      "▁\"हिन्दी\")": 4305,
      "▁शताब्दी": 4306,
      "-C": 4307,
      ".bn": 4308,
      "_g": 4309,
      "af": 4310,
      "be": 4311,
      "ho": 4312,
      "ie": 4313,
      "pres": 4314,
      "anor": 4315,
      "thnic": 4316,
      "eries": 4317,
      "arl": 4318,
      "aria": 4319,
      "aldi": 4320,
      "cip": 4321,
      "icha": 4322,
      "▁prime": 4323,
      "ament": 4324,
      "lowing": 4325,
      "003": 4326,
      "▁Be": 4327,
      "▁app": 4328,
      "253": 4329,
      "105": 4330,
      "sian": 4331,
      "▁relations": 4332,
      "▁From": 4333,
      ".[[3": 4334,
      "ots": 4335,
      "otals": 4336,
      "undament": 4337,
      "ommonwealth": 4338,
      "order": 4339,
      "_East_Asia_Summit": 4340,
      "rough": 4341,
      "](https://en.wikipedia.org/wiki/List_of_countries_by": 4342,
      "histor": 4343,
      "AARC_summit": 4344,
      "▁lead": 4345,
      "/cb": 4346,
      "maputra": 4347,
      "flu": 4348,
      "rishna": 4349,
      "▁York": 4350,
      "emocracy": 4351,
      "rahmaputra": 4352,
      "rovisional": 4353,
      "do-Aryan": 4354,
      "▁(India)\")": 4355,
      "rganization": 4356,
      "aldives": 4357,
      "ichael": 4358,
      "110": 4359,
      "72": 4360,
      "9,": 4361,
      "_9": 4362,
      "glia": 4363,
      "ks": 4364,
      "known": 4365,
      "ser": 4366,
      "इल": 4367,
      "पि": 4368,
      "मर": 4369,
      "शा": 4370,
      "ीगढ़": 4371,
      "ॉक": 4372,
      "ोस": 4373,
      "గర": 4374,
      "టక": 4375,
      "టా": 4376,
      "దార": 4377,
      "నీ": 4378,
      "రో": 4379,
      "సభ": 4380,
      "ెద్ద": 4381,
      "▁[वि": 4382,
      "enn": 4383,
      "▁\"च": 4384,
      "▁\"సి": 4385,
      "](https://hi.wikipedia.org/wiki/च": 4386,
      "](https://hi.wikipedia.org/wiki/ल": 4387,
      "▁कु": 4388,
      "ret": 4389,
      "▁स्त": 4390,
      "▁सूचना": 4391,
      "as,": 4392,
      "▁मध्य": 4393,
      "](https://te.wikipedia.org/wiki/భారత_": 4394,
      "▁sp": 4395,
      "ानव": 4396,
      "ams": 4397,
      "urn": 4398,
      "▁अव": 4399,
      "▁పు": 4400,
      "▁जी": 4401,
      "ालदीव": 4402,
      "▁Mon": 4403,
      "▁दशक": 4404,
      "ेशन": 4405,
      "ेशिया": 4406,
      "emon": 4407,
      "▁D.": 4408,
      "రాజ్య": 4409,
      "▁కేంద్రపాలిత": 4410,
      "क्षर": 4411,
      "षाण": 4412,
      "-30": 4413,
      "elang": 4414,
      "स्थ": 4415,
      "▁మా": 4416,
      "काश": 4417,
      "▁शक्ति": 4418,
      "▁शिक्षा": 4419,
      "▁చే": 4420,
      "ము\")": 4421,
      "త్స": 4422,
      "ंडीगढ़": 4423,
      "▁రాజ్య": 4424,
      "▁लोग": 4425,
      "▁क्षेत्रीय": 4426,
      "▁area": 4427,
      "వాతంత్ర": 4428,
      "ivis": 4429,
      "जनसंख्या": 4430,
      "▁जनसंख्या": 4431,
      "▁स्था": 4432,
      "▁దేశాల": 4433,
      "లాదేశ్": 4434,
      "ष्ठ": 4435,
      "]](https://hi.wikipedia.org/wiki/भारत#cite_note-FOOTNOTEStein1998": 4436,
      "]](https://hi.wikipedia.org/wiki/भारत#cite_note-FOOTNOTESingh2009": 4437,
      "స్తు": 4438,
      "▁సామ్రాజ్యం](https://te.wikipedia.org/wiki/": 4439,
      "ంగ్లాదేశ్": 4440,
      "▁భాషలు": 4441,
      "मुख्य": 4442,
      "ారు.": 4443,
      "_ప్రా": 4444,
      "fication": 4445,
      "▁estim": 4446,
      "్రిటి": 4447,
      "▁అధికార": 4448,
      "त्तराखण्ड": 4449,
      "etraglia": 4450,
      "ూర్పు": 4451,
      "▁अप्रैल": 4452,
      "हिमाचल": 4453,
      "▁लेख:": 4454,
      "3TRtDwAAQBAJ&pg=PA": 4455,
      "కైవు": 4456,
      "318": 4457,
      "i-": 4458,
      "vid": 4459,
      "▁ed.).": 4460,
      "▁[c": 4461,
      "on,": 4462,
      "▁(2006": 4463,
      "▁country": 4464,
      "▁Sec": 4465,
      "▁Publishing": 4466,
      "_of_C": 4467,
      "▁Tamil": 4468,
      "▁Di": 4469,
      "▁Ex": 4470,
      "▁Himalay": 4471,
      "ounci": 4472,
      "](https://web.archive.org/web/200": 4473,
      "imachal": 4474,
      "▁Press,": 4475,
      "National_Informatics_Centre": 4476,
      "▁2019.\n": 4477,
      "apita": 4478,
      "ustralia": 4479,
      "document": 4480,
      "National_Informatics_Centre2005": 4481,
      "*)": 4482,
      "-and": 4483,
      "129": 4484,
      "5%": 4485,
      "7]](https://en.wikipedia.org/wiki/India#cite_note-FOOTNOTE": 4486,
      "IJ": 4487,
      "NGDP": 4488,
      "Rowland": 4489,
      "Un": 4490,
      "_द": 4491,
      "_with": 4492,
      "aur": 4493,
      "garh": 4494,
      "kar": 4495,
      "lance": 4496,
      "rid": 4497,
      "गू": 4498,
      "तृत": 4499,
      "थिल": 4500,
      "मु": 4501,
      "वास": 4502,
      "श्य": 4503,
      "ैथिल": 4504,
      "▁his": 4505,
      "orce": 4506,
      "ortheast": 4507,
      "▁[p": 4508,
      "▁[दक्षिण": 4509,
      "▁\"[": 4510,
      "▁\"दक्षिण": 4511,
      "▁\"तमिल": 4512,
      "aries": 4513,
      "ared/": 4514,
      "20)": 4515,
      "भारतीय": 4516,
      "icon": 4517,
      "▁मुख्य": 4518,
      "leg": 4519,
      "rig": 4520,
      "ing_": 4521,
      "-135": 4522,
      "▁co": 4523,
      "ages/": 4524,
      "▁mar": 4525,
      "▁movement": 4526,
      "▁11": 4527,
      "olon": 4528,
      "00)": 4529,
      "linkim": 4530,
      "▁River": 4531,
      "-0)\n": 4532,
      "aylor": 4533,
      "▁economy": 4534,
      "▁Ge": 4535,
      "shared/": 4536,
      "force": 4537,
      "abha": 4538,
      "](https://en.wikipedia.org/wiki/India#CITEREFB": 4539,
      "asting": 4540,
      "▁non-": 4541,
      "▁[\"The": 4542,
      "udi": 4543,
      "ummer": 4544,
      "overty": 4545,
      "▁लोक": 4546,
      "▁राज्य\")": 4547,
      "ternal": 4548,
      "ोलन": 4549,
      "operation": 4550,
      "do-P": 4551,
      "▁tex": 4552,
      "\")*,": 4553,
      ".svg.png)": 4554,
      "hola": 4555,
      "-lead": 4556,
      "nclm.nic.in/shared/": 4557,
      "donesia": 4558,
      "india-glance": 4559,
      "Rowland1970": 4560,
      "linkimages/": 4561,
      "nclm.nic.in/shared/linkimages/": 4562,
      "india-glance/": 4563,
      "-22": 4564,
      "/P": 4565,
      "53": 4566,
      "QAAQBAJ&pg=PA": 4567,
      "cess": 4568,
      "dr": 4569,
      "rof": 4570,
      "arath": 4571,
      "ominal": 4572,
      "educ": 4573,
      "asing": 4574,
      "vel": 4575,
      "urch": 4576,
      "▁Republic": 4577,
      "▁Linguistic": 4578,
      ".html)": 4579,
      "education": 4580,
      "-S": 4581,
      "-n": 4582,
      "-with": 4583,
      ".ni": 4584,
      "/D": 4585,
      "1-3": 4586,
      "DD": 4587,
      "Wolpert": 4588,
      "_इ": 4589,
      "_राज": 4590,
      "ey": 4591,
      "eligion": 4592,
      "iz": 4593,
      "public": 4594,
      "rial": 4595,
      "uth": 4596,
      "y,": 4597,
      "को": 4598,
      "गत": 4599,
      "धा": 4600,
      "बा": 4601,
      "बी": 4602,
      "म\")": 4603,
      "वल": 4604,
      "षय": 4605,
      "िनेमा": 4606,
      "ृद्ध": 4607,
      "८५": 4608,
      "ంజా": 4609,
      "గి": 4610,
      "టీ": 4611,
      "టాన్": 4612,
      "మంత్రి": 4613,
      "లను": 4614,
      "వె": 4615,
      "వరణ": 4616,
      "హదార": 4617,
      "ూచ": 4618,
      "▁హ": 4619,
      "▁భారతదేశ": 4620,
      ".org": 4621,
      "▁[4": 4622,
      "▁[पाकिस्तान": 4623,
      "▁\"पाकिस्तान": 4624,
      "arli": 4625,
      "isc": 4626,
      "them": 4627,
      "omes": 4628,
      "▁सक": 4629,
      "▁सभा": 4630,
      "▁मो": 4631,
      "्यों": 4632,
      "్రమ": 4633,
      "-16": 4634,
      "▁P.": 4635,
      "▁Public": 4636,
      "tical_": 4637,
      "▁द्वीप": 4638,
      "्वतंत्रता": 4639,
      "▁प्रेस": 4640,
      "▁प्रौद्योगिक": 4641,
      "భారతదేశ_": 4642,
      "▁व्य": 4643,
      "▁కొ": 4644,
      "-3)": 4645,
      "▁వ్యా": 4646,
      "▁new": 4647,
      "▁J.": 4648,
      "▁మత": 4649,
      "▁మతము": 4650,
      "good": 4651,
      "▁शु": 4652,
      "తావరణ": 4653,
      "ियार": 4654,
      "నాడు": 4655,
      "त्तरी": 4656,
      "▁लग": 4657,
      "परमाणु": 4658,
      "▁ఉంది.": 4659,
      "ेली": 4660,
      "ूर्वी": 4661,
      "▁life": 4662,
      "▁जाती": 4663,
      "▁ఇతర": 4664,
      "▁राजवंश": 4665,
      "ज्ज": 4666,
      "▁स्थान": 4667,
      "ాయి": 4668,
      "ణాసియా": 4669,
      "▁प्राचीन": 4670,
      "ship": 4671,
      "▁धर्म\")": 4672,
      "▁था।": 4673,
      "▁उपमहाद्वीप": 4674,
      "ांग्लादेश": 4675,
      "టెడ్": 4676,
      "▁ఆర్కైవు": 4677,
      "cript": 4678,
      "▁రైలు": 4679,
      "భూటాన్": 4680,
      "pectancy": 4681,
      "▁पहले": 4682,
      "_సామ్రాజ్యం": 4683,
      "ildlife": 4684,
      "▁[हिन्दी](https://hi.wikipedia.org/wiki/हिन्दी": 4685,
      "▁चुनावों": 4686,
      "pringer": 4687,
      "▁सैन्य": 4688,
      "వాతంత్ర్య": 4689,
      "Wolpert2003": 4690,
      "\"[[": 4691,
      "122": 4692,
      "2]](https://en.wikipedia.org/wiki/India#cite_note-": 4693,
      "2-4": 4694,
      "All": 4695,
      "Gua": 4696,
      "JIJ": 4697,
      "Zva": 4698,
      "ez": 4699,
      "lurton": 4700,
      "mal": 4701,
      "rust": 4702,
      "s_of_India": 4703,
      "t-": 4704,
      "ving": 4705,
      "ym": 4706,
      "▁urban": 4707,
      "ency": 4708,
      "onom": 4709,
      "](https://en.wikipedia.org/wiki/United": 4710,
      "erry": 4711,
      "arendra": 4712,
      "▁them": 4713,
      "icob": 4714,
      "▁India](https://en.wikipedia.org/wiki/G": 4715,
      "▁influ": 4716,
      "rat": 4717,
      "ravi": 4718,
      "▁summit": 4719,
      "-00": 4720,
      "▁pre": 4721,
      "▁painting": 4722,
      "ature": 4723,
      "▁Affairs": 4724,
      "▁S.": 4725,
      "lief": 4726,
      "lopedia": 4727,
      "▁western": 4728,
      "▁dire": 4729,
      "21)": 4730,
      "nium": 4731,
      "▁Data": 4732,
      "ayback": 4733,
      "▁eastern": 4734,
      "▁Europe": 4735,
      "isha": 4736,
      "▁1960": 4737,
      "▁[\"A": 4738,
      "uduch": 4739,
      "▁Lank": 4740,
      "-90": 4741,
      "▁Kingdom": 4742,
      "▁[↑](https://en.wikipedia.org/wiki/India#cite_ref-FOOTNOTEMetcalfMetcalf2006": 4743,
      "avi": 4744,
      "_Nadu": 4745,
      "ext": 4746,
      "ikkim": 4747,
      "▁[National": 4748,
      "ports": 4749,
      "general_": 4750,
      "amil_Nadu": 4751,
      "▁contrib": 4752,
      "_Indian_general_": 4753,
      "▁dispu": 4754,
      "%7C": 4755,
      "%7c": 4756,
      "cyclopedia": 4757,
      "volution": 4758,
      "▁employ": 4759,
      "quality": 4760,
      "GuaJIJ": 4761,
      "ZvaGuaJIJ": 4762,
      "uducherry": 4763,
      "_Indian_general_election": 4764,
      "ZvaGuaJIJgo": 4765,
      "-50": 4766,
      "-29": 4767,
      "/ark": 4768,
      "0–": 4769,
      "3,": 4770,
      "320": 4771,
      "9–": 4772,
      "CL": 4773,
      "Vu": 4774,
      "ZVu": 4775,
      "_on": 4776,
      "_24": 4777,
      "bc": 4778,
      "f.fr": 4779,
      "kZVu": 4780,
      "lm": 4781,
      "ward": 4782,
      "▁ले": 4783,
      ":/121": 4784,
      "▁[ड": 4785,
      "208": 4786,
      "ripura": 4787,
      "217": 4788,
      "▁भारत\")": 4789,
      "▁आर्थिक": 4790,
      "akes": 4791,
      "▁gre": 4792,
      "anipur": 4793,
      "48/cb": 4794,
      "▁नेतृत": 4795,
      "▁जनवरी": 4796,
      "▁२०१": 4797,
      "actbook": 4798,
      "cyclop": 4799,
      "Uttarakhand": 4800,
      "▁Minorities": 4801,
      ".bnf.fr": 4802,
      "/ark:/121": 4803,
      ".bnf.fr/ark:/121": 4804,
      ".bnf.fr/ark:/12148/cb": 4805,
      "-on-": 4806,
      "3-8": 4807,
      ";\n": 4808,
      "NA": 4809,
      "gra": 4810,
      "hra": 4811,
      "ii": 4812,
      "tered": 4813,
      "reed": 4814,
      "-06": 4815,
      "▁culture": 4816,
      "▁billion": 4817,
      "ource": 4818,
      "▁Government": 4819,
      "▁Indus": 4820,
      "▁Ocean": 4821,
      "ogue": 4822,
      "MetcalfMetcalf2012": 4823,
      "▁2,": 4824,
      "8/8": 4825,
      "duct": 4826,
      "urrent": 4827,
      ".html).": 4828,
      "cording": 4829,
      "omestic": 4830,
      "4]](https://en.wikipedia.org/wiki/India#cite_note-": 4831,
      "5]](https://en.wikipedia.org/wiki/India#cite_note-FOOTNOTE": 4832,
      "Kashmir": 4833,
      "Provisional": 4834,
      "SAARC_summit": 4835,
      "_घ": 4836,
      "aut": 4837,
      "each": 4838,
      "hrist": 4839,
      "lood": 4840,
      "mrits": 4841,
      "oard": 4842,
      "ple": 4843,
      "y-": 4844,
      "yer": 4845,
      "yam": 4846,
      "ंत": 4847,
      "अभि": 4848,
      "उप": 4849,
      "क्": 4850,
      "खन": 4851,
      "ग्व": 4852,
      "च्": 4853,
      "जं": 4854,
      "दार": 4855,
      "फोर्ड": 4856,
      "ब्ल": 4857,
      "बेट": 4858,
      "यत": 4859,
      "रि": 4860,
      "लों": 4861,
      "ैंक": 4862,
      "ॉल": 4863,
      "ॉंग्रेस": 4864,
      "ौसेना": 4865,
      "२००": 4866,
      "ంశ": 4867,
      "ఆర్": 4868,
      "ఉత్తర": 4869,
      "ఒడి": 4870,
      "కీయ": 4871,
      "గలు": 4872,
      "చు": 4873,
      "జరా": 4874,
      "తూర్పు": 4875,
      "భు": 4876,
      "మన్": 4877,
      "యి": 4878,
      "లస": 4879,
      "ీన": 4880,
      "ేక": 4881,
      "▁·": 4882,
      "▁డ": 4883,
      "▁im": 4884,
      "▁ईसा": 4885,
      "▁జాబితా": 4886,
      "iam": 4887,
      "ors": 4888,
      "▁[ग": 4889,
      "▁[ल": 4890,
      "▁[భారతదేశ": 4891,
      "hib": 4892,
      "alam": 4893,
      "ally": 4894,
      "esti": 4895,
      "](https://hi.wikipedia.org/wiki/न": 4896,
      "](https://hi.wikipedia.org/wiki/पाकिस्तान": 4897,
      "▁साल": 4898,
      "▁मौ": 4899,
      "ootb": 4900,
      "raz": 4901,
      "राम": 4902,
      "▁Centre": 4903,
      "](https://hi.wikipedia.org/wiki/भारत_के": 4904,
      "▁far": 4905,
      "[[14": 4906,
      "ver,": 4907,
      "ists": 4908,
      "ular": 4909,
      "uled": 4910,
      "hell": 4911,
      "▁women": 4912,
      "▁పట్ట": 4913,
      "_की_": 4914,
      "ర్\")": 4915,
      "▁**జాతీయ": 4916,
      "ema": 4917,
      "भाज": 4918,
      "ंगाना": 4919,
      "▁Gu": 4920,
      "▁November": 4921,
      "▁Nehru": 4922,
      "architecture": 4923,
      "నిక": 4924,
      "▁1965": 4925,
      "ంగ్రె": 4926,
      "▁సభ": 4927,
      "ड़िया": 4928,
      "ड़ियाँ": 4929,
      "▁उन": 4930,
      "▁forest": 4931,
      "काता": 4932,
      "ecu": 4933,
      "▁विस्त": 4934,
      "▁विदेश": 4935,
      "▁इंडिया": 4936,
      "తాబ్": 4937,
      "law": 4938,
      "ी](https://hi.wikipedia.org/wiki/द": 4939,
      "aves": 4940,
      "ंडोन": 4941,
      "arty": 4942,
      "▁ప్రపంచ": 4943,
      "▁ప్రభు": 4944,
      "▁राज्यक्षेत्र": 4945,
      "oreign": 4946,
      "ोलकाता": 4947,
      "iley": 4948,
      "▁क्षेत्रों": 4949,
      "ंध्र": 4950,
      "▁ఆసియా": 4951,
      "▁\"अंग्रेज़ी": 4952,
      "केन्द्र": 4953,
      "▁[Government": 4954,
      "▁देश\")": 4955,
      "మ్రాజ్య": 4956,
      "▁[![A": 4957,
      "](https://en.wikipedia.org/wiki/National": 4958,
      "](https://en.wikipedia.org/wiki/List_of_SAARC_summit": 4959,
      "हरिया": 4960,
      "पुरम": 4961,
      "िशा": 4962,
      "▁मेला\"),": 4963,
      "ंग्रेज़ी_भाषा": 4964,
      "timesofindia": 4965,
      "గుజరా": 4966,
      "▁second": 4967,
      "▁technology": 4968,
      "▁regions": 4969,
      "ashmiri": 4970,
      "समिया": 4971,
      "न्नई": 4972,
      "▁సామ్రాజ్యం\")": 4973,
      "▁Hinduism": 4974,
      "ancis": 4975,
      "बंधन": 4976,
      "awahar": 4977,
      "▁पुरालेखित।,": 4978,
      "▁right": 4979,
      "▁मानसून": 4980,
      "త్యేక": 4981,
      "రాష్ట్రపతి": 4982,
      "kingdom": 4983,
      "ప్ప": 4984,
      "_और_संघ": 4985,
      "▁కాశ్మీ": 4986,
      "▁రాజవంశం": 4987,
      "▁युग": 4988,
      "रक्षा": 4989,
      "▁स्वतंत्रता": 4990,
      "तेलंगाना": 4991,
      "_के_आधार_पर_भारत_के_राज्यों_की_सूची": 4992,
      "चेन्नई": 4993,
      "▁చెంద": 4994,
      "▁ఆర్ధిక": 4995,
      "eserve": 4996,
      "%20%20%20%20": 4997,
      "▁बहुत": 4998,
      "▁स्थित": 4999,
      "क्सफोर्ड": 5000,
      "पीठ": 5001,
      "▁స్థాన": 5002,
      "▁निर्माण": 5003,
      "hasha": 5004,
      "ूर्ण": 5005,
      "తమిళనాడు": 5006,
      "-4020": 5007,
      "omason": 5008,
      "_Islands": 5009,
      "त्रिपुरा": 5010,
      "▁groups": 5011,
      "ప్రధానమంత్రి": 5012,
      "_BRICS_summit": 5013,
      "గణతంత్ర": 5014,
      "▁క్రీడ": 5015,
      "▁Persian": 5016,
      "▁ఉన్నాయి.": 5017,
      "तेलुगू": 5018,
      "ymbols": 5019,
      "भीमबेट": 5020,
      "overeign": 5021,
      "झारखंड": 5022,
      "▁ओर": 5023,
      "ज्ञापक": 5024,
      "छत्तीसगढ़": 5025,
      "िंधु": 5026,
      "ఆఫ్ఘ": 5027,
      "శ్రీలంక": 5028,
      "షియా": 5029,
      "న్‌ఫ": 5030,
      "నేపాల్": 5031,
      "ब्बत": 5032,
      "▁[अंग्रेज़ी](https://hi.wikipedia.org/wiki/अंग्रेज़ी_भाषा": 5033,
      "▁कुछ": 5034,
      "▁स्थाप": 5035,
      "icobar": 5036,
      "▁summits\")": 5037,
      "ZvaGuaJIJgoC&pg=PA": 5038,
      "अभिज्ञापक": 5039,
      "च्छ": 5040,
      "ootball": 5041,
      "తాబ్ద": 5042,
      "](https://en.wikipedia.org/wiki/List_of_SAARC_summits": 5043,
      "timesofindia.indiatimes.com/": 5044,
      "awaharl": 5045,
      "भीमबेटका": 5046,
      "-D": 5047,
      "123": 5048,
      "7.\n": 5049,
      "Ethnologue": 5050,
      "New": 5051,
      "a)": 5052,
      "ate_": 5053,
      "bbc": 5054,
      "nc": 5055,
      "nominal": 5056,
      "que": 5057,
      "s\n": 5058,
      "lem": 5059,
      "198": 5060,
      "entury": 5061,
      "\\_artic": 5062,
      "▁mi": 5063,
      "▁Territory": 5064,
      "26.": 5065,
      "266": 5066,
      "▁H.": 5067,
      "archive.org/detail": 5068,
      "▁2024.": 5069,
      "rishn": 5070,
      "langoff-1": 5071,
      "langoff_1": 5072,
      "CS1\\_": 5073,
      "fferent": 5074,
      "Pages\\_us": 5075,
      "nominal)": 5076,
      "archive.org/details/": 5077,
      "/files/": 5078,
      "125": 5079,
      "2)[[": 5080,
      "5/": 5081,
      "7).": 5082,
      "9-0)": 5083,
      "AS": 5084,
      "Library": 5085,
      "_38": 5086,
      "_43": 5087,
      "_languages": 5088,
      "cog": 5089,
      "ime": 5090,
      "इन": 5091,
      "एन": 5092,
      "ङ्": 5093,
      "पार": 5094,
      "फा": 5095,
      "्म": 5096,
      "▁°": 5097,
      "▁Qu": 5098,
      "▁[य": 5099,
      "▁[ह": 5100,
      "en,": 5101,
      "▁\"य": 5102,
      "erg": 5103,
      "es,": 5104,
      "report": 5105,
      "▁मन": 5106,
      "▁मह": 5107,
      "urity": 5108,
      "rov": 5109,
      "ाले": 5110,
      "▁Rothermund": 5111,
      "_(भारत)": 5112,
      "103": 5113,
      "▁नव": 5114,
      "▁human": 5115,
      "▁व्या": 5116,
      "_Ass": 5117,
      "aryana": 5118,
      "22-9": 5119,
      "▁name": 5120,
      "ection": 5121,
      "▁[Ministry": 5122,
      "▁\"British": 5123,
      "जापान": 5124,
      "hmed": 5125,
      "olitical_": 5126,
      "feb": 5127,
      "▁राजधान": 5128,
      "_and_depend": 5129,
      "▁produc": 5130,
      "▁sector": 5131,
      "official": 5132,
      "▁साम्राज्य\")": 5133,
      "धुनिक": 5134,
      "▁Plateau": 5135,
      "_साम्राज्य": 5136,
      "▁Wikidata": 5137,
      ".\")\n": 5138,
      ".](https://upload.wikimedia.org/wikipedia/commons/thumb/": 5139,
      "313": 5140,
      "4]](https://en.wikipedia.org/wiki/India#cite_note-FOOTNOTE": 5141,
      "577": 5142,
      "74": 5143,
      "8–": 5144,
      "MC": 5145,
      "MID": 5146,
      "_-": 5147,
      "aha": 5148,
      "ather": 5149,
      "ced": 5150,
      "cise": 5151,
      "code": 5152,
      "casting": 5153,
      "hal": 5154,
      "ham": 5155,
      "hat": 5156,
      "had": 5157,
      "ij": 5158,
      "ker": 5159,
      "ncient": 5160,
      "pture": 5161,
      "yy": 5162,
      "▁6.": 5163,
      "▁low": 5164,
      "▁[U": 5165,
      "▁[f": 5166,
      "th_BRICS_summit": 5167,
      "arlo": 5168,
      "araj": 5169,
      "aland": 5170,
      "alli": 5171,
      "anda": 5172,
      "outheast": 5173,
      "▁po": 5174,
      "▁caus": 5175,
      "▁Civil": 5176,
      "agari": 5177,
      "▁tree": 5178,
      "loth": 5179,
      "▁man": 5180,
      "▁Punjab": 5181,
      "\"),[[": 5182,
      "_of_2011": 5183,
      "▁2014.": 5184,
      "▁This": 5185,
      "▁Research": 5186,
      "emic": 5187,
      "emographic": 5188,
      "iger": 5189,
      "matic": 5190,
      "▁hum": 5191,
      "oples": 5192,
      "▁report": 5193,
      "▁these": 5194,
      "](https://en.wikipedia.org/wiki/India#CITEREFM": 5195,
      "_Population": 5196,
      "_Paper": 5197,
      "_1_of_2011": 5198,
      "hatt": 5199,
      "▁[↑](https://en.wikipedia.org/wiki/India#cite_ref-FOOTNOTEB": 5200,
      "ligions": 5201,
      "_Totals": 5202,
      "ociation": 5203,
      "ockey": 5204,
      "▁language\"),": 5205,
      "▁development": 5206,
      "_River": 5207,
      "▁Press](https://en.wikipedia.org/wiki/C": 5208,
      "ibcode": 5209,
      "ender": 5210,
      "ikhism": 5211,
      "▁[Dyson": 5212,
      "674": 5213,
      "do-European": 5214,
      "▁1994": 5215,
      "▁when": 5216,
      "▁languages\")": 5217,
      "▁addition": 5218,
      "_Lank": 5219,
      "o-operation": 5220,
      "▁Islands\")": 5221,
      "gypt": 5222,
      "phere": 5223,
      "uisine": 5224,
      "odiversity": 5225,
      "oastal": 5226,
      "ighth": 5227,
      "vanagari": 5228,
      "dependence": 5229,
      "struc": 5230,
      "arnatic": 5231,
      "olkata": 5232,
      "JPG": 5233,
      "ynasty": 5234,
      "roadcasting": 5235,
      "Provisional_Population": 5236,
      "_Paper_1_of_2011": 5237,
      "_Totals_Paper_1_of_2011": 5238,
      "Provisional_Population_Totals_Paper_1_of_2011": 5239,
      "Provisional_Population_Totals_Paper_1_of_2011_India": 5240,
      "-k": 5241,
      "219": 5242,
      "AG": 5243,
      "C-0": 5244,
      "EX": 5245,
      "\\*": 5246,
      "_श": 5247,
      "_राज्य": 5248,
      "_धर्म": 5249,
      "_ప్రదేశ్": 5250,
      "ds": 5251,
      "ues": 5252,
      "ँची": 5253,
      "अंग्रेज़ी": 5254,
      "टना": 5255,
      "तम": 5256,
      "तन्त": 5257,
      "द्वार": 5258,
      "धन": 5259,
      "भग": 5260,
      "मरी": 5261,
      "यर": 5262,
      "स्व": 5263,
      "ी.": 5264,
      "ेड": 5265,
      "ेद": 5266,
      "ोला": 5267,
      "ం,": 5268,
      "ఉప": 5269,
      "కొ": 5270,
      "కేంద్రపాలిత": 5271,
      "జె": 5272,
      "ఢ్": 5273,
      "ది.": 5274,
      "నాల": 5275,
      "లే": 5276,
      "ళు": 5277,
      "ౌద్ధ": 5278,
      "▁औ": 5279,
      "▁భా": 5280,
      "▁भाग": 5281,
      "▁[వి": 5282,
      "▁\"ग": 5283,
      "tis": 5284,
      "ars": 5285,
      "2025": 5286,
      "](https://hi.wikipedia.org/wiki/दक्षिण": 5287,
      "](https://hi.wikipedia.org/wiki/तमिल": 5288,
      "▁काल": 5289,
      "▁कॉंग्रेस": 5290,
      "rel": 5291,
      "्रय": 5292,
      "▁सित": 5293,
      "▁समाज": 5294,
      "▁सभ्यता": 5295,
      "▁(c": 5296,
      "▁मई": 5297,
      "▁मिल": 5298,
      "▁मशीन": 5299,
      "्यान": 5300,
      "ेंगल": 5301,
      "](https://hi.wikipedia.org/wiki/भारत_के_राज्य": 5302,
      "ాలీ": 5303,
      "▁में,": 5304,
      "▁अभ": 5305,
      "▁2012.": 5306,
      "▁des": 5307,
      "▁जब": 5308,
      "ర్చ": 5309,
      "भाई": 5310,
      "भाष": 5311,
      "index": 5312,
      "_से": 5313,
      "28.": 5314,
      "ాలు?action=edit&redlink=1": 5315,
      "_Act": 5316,
      "▁religious": 5317,
      "akrishn": 5318,
      "▁Fund": 5319,
      "▁गई": 5320,
      "▁[मध्य": 5321,
      "▁शहर": 5322,
      "म्भ": 5323,
      "]](https://hi.wikipedia.org/wiki/भारत#cite_note-pib": 5324,
      "166": 5325,
      "_के_अन": 5326,
      "संधान": 5327,
      "–సా.శ.18": 5328,
      "▁అత్య": 5329,
      "▁लिये": 5330,
      "▁यूनिवर्सिट": 5331,
      "▁ఆధ": 5332,
      "మాఖ్య": 5333,
      "వాణా": 5334,
      "▁जनजाति": 5335,
      "ంటి": 5336,
      "content": 5337,
      "▁దేశం": 5338,
      "रुणा": 5339,
      "డ్డ": 5340,
      "▁జనాభా": 5341,
      "దక్షిణాసియా": 5342,
      "▁గల": 5343,
      "▁భారతదేశంలో": 5344,
      "ంగ్లీ": 5345,
      "యునై": 5346,
      "ोर्ट": 5347,
      "ష్ణ": 5348,
      "_చరిత్ర?action=edit&redlink=1": 5349,
      "वादी": 5350,
      "▁రాష్ట్రాలు,": 5351,
      "_మతము": 5352,
      "▁మొద": 5353,
      "धिराज्य": 5354,
      "adhya": 5355,
      "▁(2018),": 5356,
      "_देशों_की_सूची": 5357,
      "ताजमह": 5358,
      "▁చెయ్యబడింది.": 5359,
      "क्षरता": 5360,
      "▁[पाकिस्तान](https://hi.wikipedia.org/wiki/पाकिस्तान": 5361,
      "kZVuDwAAQBAJ&pg=PA": 5362,
      "\\_articles\\_": 5363,
      "तन्त्र": 5364,
      "ेंगलुरु": 5365,
      "akrishnan": 5366,
      "_के_अनुसार": 5367,
      "▁यूनिवर्सिटी": 5368,
      "యునైటెడ్": 5369,
      "/hind": 5370,
      "66": 5371,
      "S.": 5372,
      "_2011": 5373,
      "day": 5374,
      "dust": 5375,
      "eth": 5376,
      "fob": 5377,
      "hut": 5378,
      "most": 5379,
      "ox": 5380,
      "ption": 5381,
      "s18": 5382,
      "tl": 5383,
      "▁z": 5384,
      "▁36": 5385,
      "▁old": 5386,
      "▁[World": 5387,
      "▁\"19": 5388,
      "▁prom": 5389,
      "▁Central": 5390,
      "▁M.": 5391,
      "0000": 5392,
      "1017": 5393,
      "_St": 5394,
      "▁2001": 5395,
      "▁only": 5396,
      "▁[Singh": 5397,
      "▁near": 5398,
      "407": 5399,
      "27)": 5400,
      "160": 5401,
      "▁[British": 5402,
      "▁def": 5403,
      "▁\"Government": 5404,
      "article": 5405,
      "▁[Kulke": 5406,
      "overnment_of_India": 5407,
      "▁use": 5408,
      "▁composed": 5409,
      "▁wide": 5410,
      "▁along": 5411,
      "catal": 5412,
      "Hindustan": 5413,
      "arliest": 5414,
      "-e": 5415,
      "-logo": 5416,
      ".uk": 5417,
      "1-4": 5418,
      "2%": 5419,
      "5).": 5420,
      "Con": 5421,
      "F)": 5422,
      "IF": 5423,
      "IUCN": 5424,
      "Taj": 5425,
      "_v": 5426,
      "_pe": 5427,
      "_एशिया": 5428,
      "ax": 5429,
      "epend": 5430,
      "i.": 5431,
      "ren": 5432,
      "ute": 5433,
      "कणी": 5434,
      "रस": 5435,
      "ेक": 5436,
      "–24": 5437,
      "▁५": 5438,
      "▁ला": 5439,
      "▁United": 5440,
      "iary": 5441,
      "orn": 5442,
      "](Template:": 5443,
      "▁[प्र": 5444,
      "▁[तमिल": 5445,
      "▁\"ड": 5446,
      "▁\"ह": 5447,
      "anat": 5448,
      "him": 5449,
      "hild": 5450,
      "erman": 5451,
      "▁कम": 5452,
      "ed,": 5453,
      "▁सह": 5454,
      "▁(199": 5455,
      "asi": 5456,
      "ashi": 5457,
      "▁India.[[": 5458,
      "▁India*.": 5459,
      "▁India](https://en.wikipedia.org/wiki/C": 5460,
      "raj": 5461,
      "rahm": 5462,
      "▁colle": 5463,
      "र्श": 5464,
      "▁Cooperation": 5465,
      "\\_देश": 5466,
      "▁fam": 5467,
      "adwe": 5468,
      "adras": 5469,
      "vey": 5470,
      "loc": 5471,
      "याधी": 5472,
      "▁maint": 5473,
      "▁Park": 5474,
      "comm": 5475,
      "_of_B": 5476,
      "ोंकणी": 5477,
      "]](https://en.wikipedia.org/wiki/India#cite_note-Combined": 5478,
      "▁Man": 5479,
      "▁B.;": 5480,
      "▁att": 5481,
      "ign_": 5482,
      "igarh": 5483,
      "irth": 5484,
      "pecially": 5485,
      "▁व्यवस्था": 5486,
      "▁Games": 5487,
      "▁rema": 5488,
      "▁religion": 5489,
      "▁through": 5490,
      "ability": 5491,
      "AAJ": 5492,
      "▁growth": 5493,
      "eccan": 5494,
      "▁\"Mughal": 5495,
      "त्ति": 5496,
      ".gov.in": 5497,
      "](https://en.wikipedia.org/wiki/Mugh": 5498,
      "▁within": 5499,
      "](https://en.wikipedia.org/wiki/British": 5500,
      "-107-0": 5501,
      "▁\"Template:": 5502,
      "▁exp": 5503,
      "issing": 5504,
      "49-2": 5505,
      "contain": 5506,
      "handigarh": 5507,
      "_Force": 5508,
      "AsherTalbot20": 5509,
      "india.gov.in/india-glance/": 5510,
      "ynth": 5511,
      "श्मीरी": 5512,
      "▁News": 5513,
      "▁ago": 5514,
      "म्बई": 5515,
      "attle": 5516,
      "ediff": 5517,
      "Dyson2018),": 5518,
      "ographical": 5519,
      "mitt": 5520,
      "ote:": 5521,
      "कालीन": 5522,
      "न्तर": 5523,
      "ortal:": 5524,
      "▁especially": 5525,
      "णिपुरी": 5526,
      "▁देख": 5527,
      "▁Buddhist": 5528,
      "▁increased": 5529,
      "ilgrim": 5530,
      ".htm)": 5531,
      "akshadwe": 5532,
      "](https://en.wikipedia.org/wiki/South_Asian_": 5533,
      "culpture": 5534,
      "nergy": 5535,
      "▁2018](https://en.wikipedia.org/wiki/India#CITEREFDyson2018),": 5536,
      "हित्य": 5537,
      "achine": 5538,
      "violence": 5539,
      "लयालम": 5540,
      "प्राचीन": 5541,
      "arnataka": 5542,
      "ological": 5543,
      "▁\"पाकिस्तान\")": 5544,
      "▁नेतृत्व": 5545,
      "▁Quote:": 5546,
      "hattis": 5547,
      "याधीश": 5548,
      "](https://en.wikipedia.org/wiki/Mughal_": 5549,
      "akshadweep": 5550,
      "-r": 5551,
      "-ex": 5552,
      "/).": 5553,
      "09": 5554,
      "2)\n": 5555,
      "350": 5556,
      "52": 5557,
      "Alig": 5558,
      "CH": 5559,
      "PO": 5560,
      "Th": 5561,
      "_h": 5562,
      "_26": 5563,
      "lue": 5564,
      "mil": 5565,
      "vent": 5566,
      "▁(b": 5567,
      "rest": 5568,
      ".jpe": 5569,
      "50th": 5570,
      "▁Incre": 5571,
      "dex": 5572,
      "rief": 5573,
      "709": 5574,
      "emplate_": 5575,
      "iance": 5576,
      "▁[978-0-521": 5577,
      "_population": 5578,
      "▁control": 5579,
      "on-Alig": 5580,
      "bi.n": 5581,
      ".php?": 5582,
      ".nih": 5583,
      "lm.nih": 5584,
      "mritsar": 5585,
      "ncbi.n": 5586,
      "Pages\\_using\\_": 5587,
      "on-Aligned": 5588,
      "ncbi.nlm.nih": 5589,
      ",NGDP": 5590,
      ":EditPage/": 5591,
      ";[[": 5592,
      "_న": 5593,
      "ek": 5594,
      "ead": 5595,
      "ंतर": 5596,
      "अरब": 5597,
      "ईल": 5598,
      "घर": 5599,
      "घालय": 5600,
      "चें": 5601,
      "तुल": 5602,
      "थियार": 5603,
      "दि": 5604,
      "पद": 5605,
      "वेश": 5606,
      "वैद": 5607,
      "िबंध": 5608,
      "ुम्बई": 5609,
      "ृष": 5610,
      "ृष्ण": 5611,
      "ोट": 5612,
      "्लेट": 5613,
      "ఖండ": 5614,
      "గం": 5615,
      "టిక": 5616,
      "డే": 5617,
      "ద్య": 5618,
      "మార్": 5619,
      "మాలయ": 5620,
      "లలో": 5621,
      "లకు": 5622,
      "ళ్": 5623,
      "వ](https://te.wikipedia.org/wiki/": 5624,
      "ానికి": 5625,
      "ాళు": 5626,
      "ీర్": 5627,
      "▁,": 5628,
      "▁భ": 5629,
      "▁యు": 5630,
      "▁[गुजरात": 5631,
      "▁\"వి": 5632,
      "alt": 5633,
      "ारो": 5634,
      "ारम्भ": 5635,
      "](https://hi.wikipedia.org/wiki/ज": 5636,
      "](https://hi.wikipedia.org/wiki/द": 5637,
      "▁किन": 5638,
      "्रह": 5639,
      "thehind": 5640,
      "▁popul": 5641,
      "ets": 5642,
      "ेंस": 5643,
      "र्क": 5644,
      "र्ट": 5645,
      "र्त": 5646,
      "ator": 5647,
      "▁Chand": 5648,
      "▁Society": 5649,
      "\\_क": 5650,
      "ాలో": 5651,
      "▁अमेर": 5652,
      "▁अलग": 5653,
      "▁अर्थव्यवस्था": 5654,
      "స్వ": 5655,
      "స్లా": 5656,
      "वियत": 5657,
      "▁పాల": 5658,
      "▁जिन": 5659,
      "ालैंड": 5660,
      "▁देव": 5661,
      "▁दोन": 5662,
      "న్\")": 5663,
      "भाजन": 5664,
      "▁बंगाल": 5665,
      "▁बड़े": 5666,
      "▁प्रस": 5667,
      "▁प्रधानमंत्री": 5668,
      "267": 5669,
      "▁सेवा": 5670,
      "▁काम": 5671,
      "oung": 5672,
      "▁కార": 5673,
      "▁కలి": 5674,
      "▁आक": 5675,
      "_Affairs": 5676,
      "రిహ": 5677,
      "రికత": 5678,
      "క్నాల": 5679,
      "ంది.\n": 5680,
      "నిమా": 5681,
      "▁సంగీతం": 5682,
      "▁परि": 5683,
      "▁शा": 5684,
      "▁संस्थान": 5685,
      "▁చి": 5686,
      "](https://hi.wikipedia.org/wiki/भारत#cite_ref-pib": 5687,
      "](https://hi.wikipedia.org/wiki/भारत#cite_ref-langoff_1": 5688,
      "]](https://hi.wikipedia.org/wiki/भारत#cite_note-langoff-1": 5689,
      "ियन": 5690,
      "lative": 5691,
      "संबर": 5692,
      "सां": 5693,
      "ी](https://hi.wikipedia.org/wiki/म": 5694,
      "▁रक्षा": 5695,
      "ndhra": 5696,
      "-7mar": 5697,
      "ులు\"),": 5698,
      "▁सागर": 5699,
      "–సా.శ.13": 5700,
      "▁అయ": 5701,
      "▁\"मध्य": 5702,
      "▁ప్రధాన": 5703,
      "हाँ": 5704,
      "ंग्रेज": 5705,
      "ोली": 5706,
      "ప్రదాయ": 5707,
      "ప్రత్యేక": 5708,
      "ద్వీ": 5709,
      "▁ఉప": 5710,
      "ंधी": 5711,
      "](https://hi.wikipedia.org/wiki/मध्य": 5712,
      "aith": 5713,
      "▁రె": 5714,
      "issile": 5715,
      "_GDP": 5716,
      "న్నడ": 5717,
      "द्यालय": 5718,
      "ంటు": 5719,
      "Asher2006": 5720,
      "AsherAsher2006": 5721,
      "गुप्त": 5722,
      "▁దేశంలో": 5723,
      "ureau": 5724,
      "िवस": 5725,
      "onstitutional": 5726,
      "120]](https://hi.wikipedia.org/wiki/भारत#cite_note-langoff-1": 5727,
      "కాశ్మీ": 5728,
      "](https://hi.wikipedia.org/wiki/पंजाब": 5729,
      "](https://hi.wikipedia.org/wiki/पश्चिम": 5730,
      "ంధు": 5731,
      "Stein1998),": 5732,
      "Singh2009),": 5733,
      "వర్గం:Harv": 5734,
      "ों_की_सूची?action=edit&redlink=1": 5735,
      "▁CITEREFStein1998": 5736,
      "▁CITEREFSingh2009": 5737,
      "आईएस": 5738,
      "](https://hi.wikipedia.org/wiki/भारत#CITEREFStein1998),": 5739,
      "](https://hi.wikipedia.org/wiki/भारत#CITEREFSingh2009),": 5740,
      "ద్ధం": 5741,
      "ద్ధి": 5742,
      "ాల్దీవ": 5743,
      "చ్చే": 5744,
      "KulkeRothermund200": 5745,
      "▁शासित": 5746,
      "దక్షిణ_": 5747,
      "वर्त": 5748,
      "▁थे": 5749,
      "▁पाकिस्तान": 5750,
      "▁కాంగ్రె": 5751,
      "धीरे": 5752,
      "▁मंदिर\")": 5753,
      "టెక్నాల": 5754,
      "नागालैंड": 5755,
      "▁ప్రాంతాలు": 5756,
      "హిమాలయ": 5757,
      "रोहर": 5758,
      "▁2009](https://hi.wikipedia.org/wiki/भारत#CITEREFSingh2009),": 5759,
      "▁वर्षों": 5760,
      "लोकसभा": 5761,
      "View": 5762,
      "▁లే": 5763,
      "త్తరా": 5764,
      "నాగరికత": 5765,
      "_from": 5766,
      "క్కువ": 5767,
      "troduction": 5768,
      "▁दृश्य": 5769,
      "క్‌సభ": 5770,
      "▁శాస్త్ర": 5771,
      "▁सिनेमा\"),": 5772,
      "ांति": 5773,
      "ెలుగు": 5774,
      "▁होती": 5775,
      "▁भूमिका": 5776,
      "▁1998](https://hi.wikipedia.org/wiki/भारत#CITEREFStein1998),": 5777,
      "bank.org/": 5778,
      "▁दिसंबर": 5779,
      "▁వచ్చింది.": 5780,
      "▁स्तर": 5781,
      "_ప్రాంత": 5782,
      "ouncil": 5783,
      "uthority": 5784,
      "भाजपा": 5785,
      "ర్చ:": 5786,
      "रुणाचल": 5787,
      "dustrial": 5788,
      ":EditPage/మూస:": 5789,
      "चेंज": 5790,
      "वैदिक": 5791,
      "िबंधीय": 5792,
      "ాళుక్య": 5793,
      "](https://hi.wikipedia.org/wiki/भारत#cite_ref-langoff_128": 5794,
      "-7mar2011": 5795,
      "ప్రత్యేక:EditPage/మూస:": 5796,
      "_GDP_(": 5797,
      "120]](https://hi.wikipedia.org/wiki/भारत#cite_note-langoff-128)": 5798,
      "టెక్నాలజీ": 5799,
      "*](http://": 5800,
      "-an": 5801,
      "/b": 5802,
      "3).": 5803,
      "34)": 5804,
      "677": 5805,
      "7%": 5806,
      "7C": 5807,
      "7]](https://en.wikipedia.org/wiki/India#cite_note-": 5808,
      "9]](https://en.wikipedia.org/wiki/India#cite_note-": 5809,
      "9]](https://en.wikipedia.org/wiki/India#cite_note-FOOTNOTE": 5810,
      "Census": 5811,
      "Fr": 5812,
      "IB": 5813,
      "Language": 5814,
      "Petraglia": 5815,
      "_&": 5816,
      "_18": 5817,
      "_Union": 5818,
      "_2024": 5819,
      "ative": 5820,
      "baki": 5821,
      "dic": 5822,
      "ka": 5823,
      "khand": 5824,
      "rang": 5825,
      "subcontinent": 5826,
      "tain": 5827,
      "vil": 5828,
      "wana": 5829,
      "▁—": 5830,
      "▁ge": 5831,
      "▁eng": 5832,
      "▁histor": 5833,
      "orship": 5834,
      "ences": 5835,
      "▁\"World": 5836,
      "ants": 5837,
      "](https://en.wikipedia.org/wiki/World": 5838,
      "erved": 5839,
      "aro": 5840,
      "artition": 5841,
      "alit": 5842,
      "ederal": 5843,
      "▁(ed.).": 5844,
      "ichell": 5845,
      "▁sur": 5846,
      "▁political": 5847,
      "ately": 5848,
      "uss": 5849,
      "atna": 5850,
      "▁Comp": 5851,
      "▁As": 5852,
      "ref-10": 5853,
      "note-10": 5854,
      "ango": 5855,
      "angam": 5856,
      "▁bu": 5857,
      "lite": 5858,
      "urry": 5859,
      "lock": 5860,
      "umar": 5861,
      "very": 5862,
      "stani": 5863,
      "iland": 5864,
      "▁work": 5865,
      "ourbaki": 5866,
      "oln": 5867,
      "▁Michael": 5868,
      "identifiers": 5869,
      "▁Bi": 5870,
      "▁By": 5871,
      "india.com/": 5872,
      "115": 5873,
      "_Air": 5874,
      "-459": 5875,
      "-85": 5876,
      "406]](https://en.wikipedia.org/wiki/India#cite_note-": 5877,
      "oss": 5878,
      "▁\"Cambridge": 5879,
      "hai": 5880,
      "harkhand": 5881,
      "▁gen": 5882,
      "_Comm": 5883,
      "▁[Cambridge": 5884,
      "▁[↑](https://en.wikipedia.org/wiki/India#cite_ref-FOOTNOTEStein2010": 5885,
      "▁before": 5886,
      "arden": 5887,
      "▁range": 5888,
      "aking": 5889,
      "akistani": 5890,
      "vention": 5891,
      "class": 5892,
      "▁lite": 5893,
      "ahal": 5894,
      "ambridge_University_Press": 5895,
      "▁vill": 5896,
      "alayalam": 5897,
      "erves": 5898,
      "aceu": 5899,
      "1971": 5900,
      "ondon": 5901,
      "ollingham": 5902,
      "cheduled": 5903,
      "▁People": 5904,
      "▁including": 5905,
      "ritsch": 5906,
      "▁Registrar": 5907,
      "▁[India](https://en.wikipedia.org/wiki/India": 5908,
      "4/4": 5909,
      "vatsyayan-lord-4": 5910,
      "vatsyayan-lord_43": 5911,
      "_of_South_Asia": 5912,
      "owever,": 5913,
      "harmaceu": 5914,
      "Articles\\_contain": 5915,
      "undamental": 5916,
      "olonial": 5917,
      "do-Pakistani": 5918,
      "Allchin": 5919,
      "▁Press](https://en.wikipedia.org/wiki/Cambridge_University_Press": 5920,
      "hutan": 5921,
      "PetragliaAllchin": 5922,
      "406]](https://en.wikipedia.org/wiki/India#cite_note-vatsyayan-lord-4": 5923,
      "-शासित": 5924,
      "/india": 5925,
      "226": 5926,
      "418": 5927,
      "M50th": 5928,
      "NCL": 5929,
      "_0": 5930,
      "_36": 5931,
      "equality": 5932,
      "kb": 5933,
      "m2": 5934,
      "p)": 5935,
      "round": 5936,
      "ईस्ट": 5937,
      "जान": 5938,
      "थम": 5939,
      "हम": 5940,
      "ुक": 5941,
      "▁46": 5942,
      "▁[राज्य": 5943,
      "▁पै": 5944,
      "▁पश्चिम": 5945,
      "▁pres": 5946,
      "▁Chinese": 5947,
      "agen": 5948,
      "\\_(": 5949,
      "istor": 5950,
      "▁Muslim": 5951,
      "न्ध": 5952,
      "न्स": 5953,
      "10)": 5954,
      "▁Dictionary": 5955,
      "▁Health": 5956,
      "▁आन्द": 5957,
      "▁गठ": 5958,
      "▁[\"P": 5959,
      "%20A": 5960,
      "%2C_India": 5961,
      "▁\"ब्रिटिश": 5962,
      "▁चार": 5963,
      "html).": 5964,
      "▁(2014).": 5965,
      "न्नड़": 5966,
      "िल्ली\")": 5967,
      "त्पत्ति": 5968,
      "_न्या": 5969,
      "▁घाटी": 5970,
      "वार्ता:": 5971,
      "▁वार्ता:": 5972,
      "Report.pdf)": 5973,
      "nclm.nic.in/shared/linkimages/NCL": 5974,
      "M50thReport.pdf)": 5975,
      "nclm.nic.in/shared/linkimages/NCLM50thReport.pdf)": 5976,
      "-se": 5977,
      "-world": 5978,
      "2),": 5979,
      "3–": 5980,
      "9/": 5981,
      "C)": 5982,
      "Pakistan": 5983,
      "aul": 5984,
      "ece": 5985,
      "ns": 5986,
      "s:": 5987,
      "▁[n": 5988,
      "▁\"U": 5989,
      "of\\_": 5990,
      "id-": 5991,
      "-1\").\n": 5992,
      "atab": 5993,
      "▁Ad": 5994,
      "\\_with\\_": 5995,
      "\\_of\\_": 5996,
      "loped": 5997,
      "▁14.": 5998,
      "▁Minister": 5999,
      "24.": 6000,
      "▁house": 6001,
      "upreme": 6002,
      "bert": 6003,
      "opland": 6004,
      "▁2007.": 6005,
      "▁1962": 6006,
      "ody": 6007,
      "_Data": 6008,
      "▁[New": 6009,
      "type": 6010,
      "onstitution_of_India": 6011,
      "▁contin": 6012,
      "▁Programme": 6013,
      "▁different": 6014,
      "tiger": 6015,
      "text": 6016,
      "▁estimate": 6017,
      "_of_Congress": 6018,
      "reedom": 6019,
      "hmedabad": 6020,
      "\"](http://": 6021,
      "%3": 6022,
      "-R": 6023,
      "-w": 6024,
      "-the": 6025,
      ".పూ.": 6026,
      "1]](https://en.wikipedia.org/wiki/India#cite_note-": 6027,
      "221": 6028,
      "4,": 6029,
      "5]](https://en.wikipedia.org/wiki/India#cite_note-": 6030,
      "6.\n": 6031,
      "6)\n": 6032,
      "8]](https://en.wikipedia.org/wiki/India#cite_note-FOOTNOTE": 6033,
      "=20": 6034,
      "Ch": 6035,
      "Collingham": 6036,
      "S$": 6037,
      "Tarlo": 6038,
      "_20": 6039,
      "_2004": 6040,
      "_industry": 6041,
      "aos": 6042,
      "business": 6043,
      "business/": 6044,
      "eat": 6045,
      "eligious": 6046,
      "ject": 6047,
      "lar": 6048,
      "mill": 6049,
      "odia": 6050,
      "rune": 6051,
      "s_in_India": 6052,
      "search": 6053,
      "via": 6054,
      "yd": 6055,
      "yth": 6056,
      "इप्र": 6057,
      "ईद": 6058,
      "ऍथ": 6059,
      "ऑक्सफोर्ड": 6060,
      "ख़": 6061,
      "गध": 6062,
      "जपुरी": 6063,
      "जिस्ट": 6064,
      "ताल": 6065,
      "थल": 6066,
      "दल": 6067,
      "दान": 6068,
      "नोल": 6069,
      "पीय": 6070,
      "फ्रां": 6071,
      "बू": 6072,
      "बार": 6073,
      "मत": 6074,
      "मृत": 6075,
      "यपुर": 6076,
      "रिया": 6077,
      "ल्ल": 6078,
      "वत": 6079,
      "शत": 6080,
      "शोक": 6081,
      "हें": 6082,
      "ीक": 6083,
      "ुरा": 6084,
      "ूबर": 6085,
      "ेघालय": 6086,
      "ॉग": 6087,
      "ంతం": 6088,
      "ఆగ": 6089,
      "కళ": 6090,
      "ఖండ్": 6091,
      "గ్": 6092,
      "గిన": 6093,
      "గఢ్": 6094,
      "జో": 6095,
      "ట్ర": 6096,
      "తెలుగు": 6097,
      "ద్రా": 6098,
      "పద": 6099,
      "భి": 6100,
      "యో": 6101,
      "లక్ష": 6102,
      "వర": 6103,
      "శో": 6104,
      "షా": 6105,
      "హు": 6106,
      "హార్": 6107,
      "హాయ": 6108,
      "ాష్ట్ర": 6109,
      "ీక": 6110,
      "ీహార్": 6111,
      "ుల": 6112,
      "ుల్": 6113,
      "ోల్": 6114,
      "ోత్స": 6115,
      "ౌర్య": 6116,
      "–4": 6117,
      "▁रा": 6118,
      "▁ना": 6119,
      "▁kingdom": 6120,
      "▁[Y": 6121,
      "▁[श": 6122,
      "▁[హ": 6123,
      "ened": 6124,
      "▁\"హ": 6125,
      "▁\"साँच": 6126,
      "▁\"साँचा:": 6127,
      "▁\"ఢిల్లీ": 6128,
      "ino-": 6129,
      "inema": 6130,
      "tile": 6131,
      "hir": 6132,
      "arth": 6133,
      "ester": 6134,
      "es.[[": 6135,
      "](https://hi.wikipedia.org/wiki/ग": 6136,
      "](https://hi.wikipedia.org/wiki/हिन्द": 6137,
      "](https://hi.wikipedia.org/wiki/साँच": 6138,
      "](https://hi.wikipedia.org/wiki/साँचा:": 6139,
      "ofker": 6140,
      "्रार": 6141,
      "omo": 6142,
      "▁सूच": 6143,
      "▁सीमा": 6144,
      "itation": 6145,
      "▁(S": 6146,
      "▁(क": 6147,
      "▁(19": 6148,
      "asthan": 6149,
      "▁मन्दिर": 6150,
      "्यूरो": 6151,
      "్రూ": 6152,
      "idy": 6153,
      "ratic": 6154,
      "रात": 6155,
      "](https://te.wikipedia.org/wiki/సి": 6156,
      "▁पड़": 6157,
      "▁प्लेट": 6158,
      "entr": 6159,
      "▁school": 6160,
      "etry": 6161,
      "ries/": 6162,
      "riya": 6163,
      "ानगर": 6164,
      "ingap": 6165,
      "amy": 6166,
      "ating": 6167,
      "▁Asher": 6168,
      "्तु": 6169,
      "▁हाला": 6170,
      "▁हथियार": 6171,
      "▁Sabha": 6172,
      "acmill": 6173,
      "\\_स": 6174,
      "▁four": 6175,
      "▁fol": 6176,
      "angered": 6177,
      "urk": 6178,
      "uran": 6179,
      "िकी": 6180,
      "ాలా": 6181,
      "ాలలో": 6182,
      "▁main": 6183,
      "well": 6184,
      "్యం": 6185,
      "fir": 6186,
      "▁would": 6187,
      "▁Temple": 6188,
      "▁ज़": 6189,
      "ालर": 6190,
      "▁Routledge": 6191,
      "ర్ణా": 6192,
      "ర్మే": 6193,
      "▁top": 6194,
      "▁B.": 6195,
      "s.\"\n": 6196,
      "▁बार": 6197,
      "▁बने": 6198,
      "▁बड़ा": 6199,
      "igved": 6200,
      "igration": 6201,
      "23.": 6202,
      "तिब्बत": 6203,
      "▁नौसेना": 6204,
      "▁led": 6205,
      "▁\"Special:BookSources/978-81": 6206,
      "indhi": 6207,
      "्टॉक": 6208,
      "▁*India": 6209,
      "లోక్‌సభ": 6210,
      "_in_New": 6211,
      "▁वृद्ध": 6212,
      "▁Greek": 6213,
      "▁N.": 6214,
      "▁Nicobar": 6215,
      "क्षण": 6216,
      "क्षद्वीप": 6217,
      "-345": 6218,
      "_A7C": 6219,
      "tudi": 6220,
      "▁వంశ": 6221,
      "▁third": 6222,
      "22.": 6223,
      "थाईल": 6224,
      "]](https://hi.wikipedia.org/wiki/भारत#cite_note-10": 6225,
      "ghts": 6226,
      "▁[\"G": 6227,
      "osphere": 6228,
      "▁[महाराष्ट्र": 6229,
      "hap": 6230,
      "hailand": 6231,
      "ountain": 6232,
      "ountries/": 6233,
      "कांक": 6234,
      "_महासागर": 6235,
      "ండర్": 6236,
      "▁Languages": 6237,
      "▁Organization": 6238,
      "▁विज्ञान": 6239,
      "हिमालय": 6240,
      "aph": 6241,
      "](https://books.google.com/books?id=3TRtDwAAQBAJ&pg=PA": 6242,
      "ngineering": 6243,
      "▁[Central": 6244,
      "ियान": 6245,
      "otal": 6246,
      "త్మా": 6247,
      "](Special:BookSources/978-81": 6248,
      "▁[↑](https://en.wikipedia.org/wiki/India#cite_ref-FOOTNOTEM": 6249,
      "ंडमान": 6250,
      "▁అతి": 6251,
      "▁\"महाराष्ट्र": 6252,
      "▁लिया": 6253,
      "ికి": 6254,
      "हाब": 6255,
      "ogri": 6256,
      "▁now": 6257,
      "परेशन": 6258,
      "मीरात": 6259,
      "▁करना": 6260,
      "▁करता": 6261,
      "ద్దు": 6262,
      "▁\"En": 6263,
      "](https://hi.wikipedia.org/wiki/महाराष्ट्र": 6264,
      "%2C5": 6265,
      "▁రహదార": 6266,
      "](https://en.wikipedia.org/wiki/En": 6267,
      "▁areas": 6268,
      "మాచల్": 6269,
      "▁సామ్రాజ్య": 6270,
      "_Bank": 6271,
      "రువా": 6272,
      "రుణా": 6273,
      "▁Ved": 6274,
      "న్నో": 6275,
      "33-7": 6276,
      "▁[2](https://hi.wikipedia.org/wiki/भारत#cite_ref-FOOTNOTE": 6277,
      "▁जनता": 6278,
      "▁[![The": 6279,
      "▁[1](https://hi.wikipedia.org/wiki/भारत#cite_ref-FOOTNOTE": 6280,
      "ameez": 6281,
      "▁like": 6282,
      "మిజో": 6283,
      "राष्ट्रीय_स": 6284,
      "▁ఇది": 6285,
      "हारजिस्ट": 6286,
      "▁वर्षा": 6287,
      "egistrar": 6288,
      "ा_वार्ता:": 6289,
      "_भारतीय_": 6290,
      "do-G": 6291,
      "▁भाषा\")[[": 6292,
      "▁Urdu": 6293,
      "DwAAQBAJ": 6294,
      "▁घरेलू": 6295,
      "alaysia": 6296,
      "_during": 6297,
      "▁జరి": 6298,
      "▁విస్త": 6299,
      "समूह": 6300,
      "▁millen": 6301,
      "](https://hi.wikipedia.org/wiki/पूर्व": 6302,
      "▁State": 6303,
      "▁2007\n": 6304,
      "▁निभाई": 6305,
      "rates": 6306,
      "ukesh": 6307,
      "▁change": 6308,
      "▁శతాబ్ద": 6309,
      "▁river": 6310,
      "ట్టు": 6311,
      "▁अधिकार": 6312,
      "▁agriculture": 6313,
      "▁था,": 6314,
      "PPP": 6315,
      "दाख": 6316,
      "రాష్ట్రాలు": 6317,
      "▁Pradesh\")": 6318,
      "athematics": 6319,
      "వేద": 6320,
      "▁[संयुक्त": 6321,
      "▁[Archived](https://web.archive.org/web/20210": 6322,
      "▁రాజకీయ": 6323,
      "ंपन": 6324,
      "ंपरा": 6325,
      "▁[↑](https://hi.wikipedia.org/wiki/भारत#cite_ref-10": 6326,
      "▁These": 6327,
      "–123": 6328,
      "pib.nic.in/": 6329,
      "▁अपने": 6330,
      "▁subcontinent\")": 6331,
      "ually": 6332,
      "ार्कट": 6333,
      "ambodia": 6334,
      "హిమాచల్": 6335,
      "▁तटीय": 6336,
      "హాత్మా": 6337,
      "जयपुर": 6338,
      "जयनगर": 6339,
      "लिंग": 6340,
      "int:": 6341,
      "_अन": 6342,
      "▁Force": 6343,
      "भूटान": 6344,
      "▁\"संस्कृत": 6345,
      "णिपुर": 6346,
      "िज़ोर": 6347,
      "▁species": 6348,
      "chedule": 6349,
      "emocratic": 6350,
      "▁ప్రదేశ్\")": 6351,
      "హారాష్ట్ర": 6352,
      "▁सुरक्षा": 6353,
      "्रांति": 6354,
      "▁rock": 6355,
      "ominion": 6356,
      "▁2025.": 6357,
      "శాస్త్ర": 6358,
      "▁पार्टी": 6359,
      "ataraj": 6360,
      "రాజస్థాన్": 6361,
      "▁వాతావరణ": 6362,
      "पातकाल": 6363,
      "janta": 6364,
      "దినోత్స": 6365,
      "▁जलवायु": 6366,
      "బెంగాలీ": 6367,
      "యన్మార్": 6368,
      "▁ముఖ్య": 6369,
      "▁[978-81": 6370,
      "▁सदस": 6371,
      "▁emerg": 6372,
      "भोजपुरी": 6373,
      "▁majority": 6374,
      "Spear199024": 6375,
      "स्लाम": 6376,
      "हायता": 6377,
      "▁occup": 6378,
      "Sharma2007": 6379,
      "▁राजनीतिक": 6380,
      "▁[पंजाब](https://hi.wikipedia.org/wiki/पंजाब": 6381,
      "▁Before": 6382,
      "▁appro": 6383,
      "elangana": 6384,
      "_राजवंश": 6385,
      "ంజాబ్": 6386,
      "▁వ్యాస": 6387,
      "▁शुरू": 6388,
      "▁लगभग": 6389,
      "lurton199": 6390,
      "ravidian": 6391,
      "▁employed": 6392,
      "खनऊ": 6393,
      "razil": 6394,
      "हरियाणा": 6395,
      "గుజరాత్": 6396,
      "ఆఫ్ఘనిస్తాన్": 6397,
      "న్‌ఫర్మే": 6398,
      "फाएं": 6399,
      "lothing": 6400,
      "IFT": 6401,
      "तुल्य": 6402,
      "ृषि": 6403,
      "వ](https://te.wikipedia.org/wiki/List_of_": 6404,
      "▁दोनों": 6405,
      "రిహద్దు": 6406,
      "చ్చేరి": 6407,
      "olnar": 6408,
      "_Commission": 6409,
      "Tarlo1996": 6410,
      "business-": 6411,
      "runei": 6412,
      "ऍथनोल": 6413,
      "▁\"साँचा": 6414,
      "](https://hi.wikipedia.org/wiki/साँचा_वार्ता:": 6415,
      "ingapore": 6416,
      "▁Asher,": 6417,
      "acmillan": 6418,
      "ర్ణాటక": 6419,
      "_in_New_Delhi": 6420,
      "▁वृद्धि": 6421,
      "tudies": 6422,
      "▁[महाराष्ट्र](https://hi.wikipedia.org/wiki/महाराष्ट्र": 6423,
      "▁\"महाराष्ट्र\")": 6424,
      "రుణాచల్": 6425,
      "हारजिस्ट्रार": 6426,
      "ार्कटिका": 6427,
      "న్‌ఫర్మేషన్": 6428,
      "ऍथनोलॉग": 6429,
      "-T": 6430,
      ".ed": 6431,
      "Jha": 6432,
      "TO": 6433,
      "ault": 6434,
      "c/c": 6435,
      "eu": 6436,
      "tter": 6437,
      "](https://id": 6438,
      "onk": 6439,
      "tification": 6440,
      "▁(a)": 6441,
      "asht": 6442,
      "▁sq": 6443,
      "ager": 6444,
      "▁Policy": 6445,
      "▁Day": 6446,
      "▁Asia:": 6447,
      "1):": 6448,
      "html)": 6449,
      "isease": 6450,
      "visions": 6451,
      "▁km2": 6452,
      "▁Short": 6453,
      "▁commun": 6454,
      "▁2020.": 6455,
      "f/f": 6456,
      "Wikipedia\\_articles\\_": 6457,
      "...]": 6458,
      "itzel": 6459,
      "▁Minorities,": 6460,
      "▁(b)": 6461,
      "▁Increase": 6462,
      ".edu": 6463,
      ")\"),": 6464,
      ".co": 6465,
      "2nd": 6466,
      ":**": 6467,
      "EN": 6468,
      "Home": 6469,
      "Official": 6470,
      "dis": 6471,
      "ethnologue": 6472,
      "g)": 6473,
      "gu": 6474,
      "here": 6475,
      "went": 6476,
      "दर्श": 6477,
      "िर्": 6478,
      "▁ऐ": 6479,
      "▁।": 6480,
      "▁३": 6481,
      "▁web": 6482,
      "▁[नेपाल": 6483,
      "▁\"राष्ट्रीय": 6484,
      "▁\"नेपाल": 6485,
      "infob": 6486,
      "भारत)\")": 6487,
      "▁(भारत)\")": 6488,
      "राक": 6489,
      "▁पहु": 6490,
      "-138": 6491,
      "▁can": 6492,
      "र्भ": 6493,
      "\\_country": 6494,
      "▁fig": 6495,
      "78.": 6496,
      "▁men": 6497,
      "illi": 6498,
      "ilbert": 6499,
      "▁जय": 6500,
      "▁Mar": 6501,
      "▁दी": 6502,
      "▁Br": 6503,
      "▁\"St": 6504,
      "indic": 6505,
      "▁Economy": 6506,
      "न्दा": 6507,
      "ablish": 6508,
      "▁[SAARC": 6509,
      "▁ne": 6510,
      "म्प्र": 6511,
      "राष्ट्रीय_": 6512,
      "▁Hindus": 6513,
      "_Gandhi": 6514,
      "](https://mai.wikipedia.org/wiki/भारत": 6515,
      "_proj": 6516,
      "_and_union_territ": 6517,
      "iteracy": 6518,
      "▁घोष": 6519,
      "_Fund": 6520,
      "▁[उत्तर": 6521,
      "ctorate": 6522,
      "▁\"उत्तर": 6523,
      "रेन्द्र": 6524,
      "%E0%A4%A": 6525,
      "countries_and_depend": 6526,
      "▁एशिया\")": 6527,
      "िन्धु": 6528,
      "encies_by": 6529,
      "▁उत्तर-प": 6530,
      "▁Environmental": 6531,
      ".worldbank.org/": 6532,
      "aranth": 6533,
      "▁dependencies": 6534,
      "८५७": 6535,
      "cogni": 6536,
      "▁व्यापार": 6537,
      "▁widely": 6538,
      "hattisgarh": 6539,
      "ethnologue.com/": 6540,
      "infobox": 6541,
      "_and_union_territories": 6542,
      "countries_and_dependencies_by": 6543,
      "*](https://": 6544,
      "220": 6545,
      "3.\n": 6546,
      "41": 6547,
      "5-3": 6548,
      "6_": 6549,
      "7-8": 6550,
      "Countries": 6551,
      "ES": 6552,
      "Ex": 6553,
      "Forest": 6554,
      "Wright": 6555,
      "cu": 6556,
      "cod": 6557,
      "ctive": 6558,
      "caste": 6559,
      "disha": 6560,
      "even": 6561,
      "men": 6562,
      "mall": 6563,
      "ocal": 6564,
      "page": 6565,
      "put": 6566,
      "rup": 6567,
      "rban": 6568,
      "tou": 6569,
      "u,": 6570,
      "uries": 6571,
      "upee": 6572,
      "wat": 6573,
      "iated": 6574,
      "org": 6575,
      "orpor": 6576,
      "tte": 6577,
      "pen": 6578,
      "](https://www": 6579,
      "▁[History": 6580,
      "enous": 6581,
      "an,": 6582,
      "anchi": 6583,
      "ties/": 6584,
      "er-": 6585,
      "alace": 6586,
      "alk:": 6587,
      "reen": 6588,
      "itar": 6589,
      "▁(2007": 6590,
      "▁(India)": 6591,
      "ick": 6592,
      "▁inter": 6593,
      "▁independence": 6594,
      "raw": 6595,
      "raman": 6596,
      "-0\").\n": 6597,
      "▁prac": 6598,
      "▁cre": 6599,
      "ation,": 6600,
      "▁Agency": 6601,
      "▁Sub": 6602,
      "acred": 6603,
      "▁talk:": 6604,
      "lima": 6605,
      "lose": 6606,
      "umeration": 6607,
      "▁Prin": 6608,
      "istent": 6609,
      "cha": 6610,
      "▁[↑](https://en.wikipedia.org/wiki/India#cite_": 6611,
      "rove": 6612,
      "rowing": 6613,
      "rocod": 6614,
      "ilk": 6615,
      "▁divis": 6616,
      "ourism": 6617,
      "](https://en.wikipedia.org/wiki/India#cite_ref-vatsyayan-lord_43": 6618,
      "▁Tim": 6619,
      "▁Trade": 6620,
      "ola": 6621,
      "igin": 6622,
      "igenous": 6623,
      "▁Dance": 6624,
      "▁Dyson": 6625,
      "▁last": 6626,
      "▁\"Special:EditPage/Template:": 6627,
      "2649": 6628,
      "269,": 6629,
      "ayana": 6630,
      "▁[↑](https://en.wikipedia.org/wiki/India#cite_ref-4": 6631,
      "lymp": 6632,
      "▁east": 6633,
      "▁Emer": 6634,
      "286": 6635,
      "287,": 6636,
      "beral": 6637,
      "▁Ganges": 6638,
      "-349": 6639,
      "-4\").\n": 6640,
      "▁republic": 6641,
      "akers": 6642,
      "▁though": 6643,
      "▁International": 6644,
      "_and_C": 6645,
      "_and_N": 6646,
      "_and_Development": 6647,
      "40px-": 6648,
      "osa": 6649,
      "_16": 6650,
      "▁\"Central": 6651,
      "▁\"Climate": 6652,
      "_Cooperation": 6653,
      "▁[China": 6654,
      "](https://en.wikipedia.org/wiki/China": 6655,
      "17.": 6656,
      "▁\"Ministry": 6657,
      "](Special:EditPage/Template:": 6658,
      "▁become": 6659,
      "ajasthan": 6660,
      "](https://en.wikipedia.org/wiki/Ministry_of_": 6661,
      "undarb": 6662,
      "rchitecture": 6663,
      "lled": 6664,
      "orea": 6665,
      "▁\"Template": 6666,
      "48)": 6667,
      "▁ancient": 6668,
      "_Re": 6669,
      "_Ram": 6670,
      "](https://en.wikipedia.org/wiki/Template_": 6671,
      "▁\"Delhi": 6672,
      "ically": 6673,
      "](https://en.wikipedia.org/wiki/Delhi": 6674,
      "▁Vedic": 6675,
      "▁2011](https://en.wikipedia.org/wiki/India#CITEREF": 6676,
      "_Economic": 6677,
      "▁\"Routledge": 6678,
      "](https://en.wikipedia.org/wiki/Routledge": 6679,
      "▁[Routledge": 6680,
      "▁[Tamil": 6681,
      "▁\"Special:BookSources/978-0-521": 6682,
      "](Special:BookSources/978-0-521": 6683,
      "angetic": 6684,
      "▁2014](https://en.wikipedia.org/wiki/India#CITEREF": 6685,
      "▁centuries": 6686,
      "▁sever": 6687,
      "▁tea": 6688,
      "▁US$": 6689,
      "▁(2017).": 6690,
      "▁milk": 6691,
      "▁military": 6692,
      "▁leg": 6693,
      "▁2007](https://en.wikipedia.org/wiki/India#CITEREF": 6694,
      "▁[Fisher": 6695,
      "▁plain": 6696,
      "▁[t](https://en.wikipedia.org/wiki/Template_": 6697,
      "▁parliament": 6698,
      "▁known": 6699,
      "ronom": 6700,
      "talk:": 6701,
      "230-345": 6702,
      "▁numbers": 6703,
      "▁[e](Special:EditPage/Template:": 6704,
      "▁[v](Template:": 6705,
      "▁Talbot,": 6706,
      "Fisher2018),": 6707,
      "▁Buddha": 6708,
      "▁upper": 6709,
      "▁2025.\n": 6710,
      "▁refor": 6711,
      "arliamentary": 6712,
      "Hindustani": 6713,
      "▁2018](https://en.wikipedia.org/wiki/India#CITEREFFisher2018),": 6714,
      "merican": 6715,
      "▁(1,269,": 6716,
      "▁3,287,": 6717,
      "](https://en.wikipedia.org/wiki/History_of_": 6718,
      "▁Conservation": 6719,
      "rotected": 6720,
      "▁Francis": 6721,
      "ibetan": 6722,
      "ield": 6723,
      "present": 6724,
      "ennai": 6725,
      "forcement": 6726,
      "▁India](https://en.wikipedia.org/wiki/Government_of_India": 6727,
      "▁direct": 6728,
      "▁mi)": 6729,
      "▁1994](https://en.wikipedia.org/wiki/India#CITEREF": 6730,
      "struction": 6731,
      "▁Games\")": 6732,
      "-107-02649": 6733,
      "Front": 6734,
      "▁engineering": 6735,
      "▁village": 6736,
      "first": 6737,
      "▁millennium": 6738,
      "Wright2010": 6739,
      "touch": 6740,
      "▁(2007).": 6741,
      "limate_": 6742,
      "▁Dyson,": 6743,
      "▁[China](https://en.wikipedia.org/wiki/China": 6744,
      "undarbans": 6745,
      "▁\"Routledge\").": 6746,
      "▁[Routledge](https://en.wikipedia.org/wiki/Routledge": 6747,
      "▁[t](https://en.wikipedia.org/wiki/Template_talk:": 6748,
      "230-34549-2": 6749,
      "▁3,287,26": 6750,
      "-107-02649-0": 6751,
      "\"](https://web.archive.org/web/20": 6752,
      "*](https://web.archive.org/web/201": 6753,
      "-24": 6754,
      "-गंगा": 6755,
      "/g": 6756,
      "/s": 6757,
      "1200": 6758,
      "3-1": 6759,
      "5_": 6760,
      "A5%": 6761,
      "Bh": 6762,
      "B0%": 6763,
      "OLA": 6764,
      "_त": 6765,
      "egh": 6766,
      "gar": 6767,
      "hdr": 6768,
      "ott": 6769,
      "sources": 6770,
      "tation": 6771,
      "voy": 6772,
      "zer": 6773,
      "ँकि": 6774,
      "ंबर": 6775,
      "ऊर्जा": 6776,
      "ऋतु": 6777,
      "ऑपरेशन": 6778,
      "ख्य": 6779,
      "त्या": 6780,
      "थी": 6781,
      "दु": 6782,
      "नत": 6783,
      "मक": 6784,
      "ल्त": 6785,
      "वली": 6786,
      "शील": 6787,
      "सत": 6788,
      "सैन": 6789,
      "ाय": 6790,
      "ुट": 6791,
      "ुस्तान": 6792,
      "ूस": 6793,
      "ृष्ठ": 6794,
      "ोड": 6795,
      "१८५७": 6796,
      "४.": 6797,
      "४७": 6798,
      "५०": 6799,
      "ంతి": 6800,
      "కాల": 6801,
      "కారం": 6802,
      "ఖ్": 6803,
      "గంగా": 6804,
      "టో": 6805,
      "డిన": 6806,
      "తీ": 6807,
      "ధి": 6808,
      "ధించ": 6809,
      "నల్": 6810,
      "మన": 6811,
      "మర": 6812,
      "ర్యా": 6813,
      "లం": 6814,
      "లతో": 6815,
      "లమె": 6816,
      "ీస్": 6817,
      "ూప": 6818,
      "ూరు": 6819,
      "ెనీ": 6820,
      "ౌక": 6821,
      "▁:": 6822,
      "▁ద": 6823,
      "▁ఫ": 6824,
      "▁దక్షిణ": 6825,
      "▁హిందూ": 6826,
      "▁గాంధీ": 6827,
      "▁[ए": 6828,
      "▁[భారతదేశం": 6829,
      "▁[ఢిల్లీ": 6830,
      "▁\"प्र": 6831,
      "▁\"सा": 6832,
      "▁\"विशेष:EditPage/साँचा:": 6833,
      "\")\"": 6834,
      "arak": 6835,
      "](https://hi.wikipedia.org/wiki/य": 6836,
      "](https://hi.wikipedia.org/wiki/विशेष:EditPage/साँचा:": 6837,
      "▁कर्ज": 6838,
      "▁सूर": 6839,
      "asp?": 6840,
      "▁मील": 6841,
      "lease": 6842,
      "▁pri": 6843,
      "ారస": 6844,
      "▁capita": 6845,
      "\\_identifiers": 6846,
      "ume": 6847,
      "ాలను": 6848,
      "స్](https://te.wikipedia.org/wiki/": 6849,
      "विद्यालय": 6850,
      "▁పెద్ద": 6851,
      "ाल्": 6852,
      "00–సా.శ.పూ.": 6853,
      "▁Report": 6854,
      "ర్లు": 6855,
      "राजनी": 6856,
      "s.com": 6857,
      "▁बनी": 6858,
      "▁बड़ी": 6859,
      "238": 6860,
      "लावा": 6861,
      "▁प्रण": 6862,
      "▁प्रभा": 6863,
      "▁प्रकार": 6864,
      "▁प्रारम्भ": 6865,
      "▁निय": 6866,
      "▁नृत्य": 6867,
      "▁\"Sanskrit": 6868,
      "ता\")": 6869,
      "_सिनेमा": 6870,
      "లు\")": 6871,
      "▁ele": 6872,
      "स्ता": 6873,
      "ित्व": 6874,
      "▁आय": 6875,
      "-45": 6876,
      "ంది": 6877,
      "▁వే": 6878,
      "री\")": 6879,
      "री](https://hi.wikipedia.org/wiki/": 6880,
      "रीक्षण": 6881,
      "▁गए": 6882,
      "ादरा": 6883,
      "▁पर्यटन": 6884,
      "▁परमाणु": 6885,
      "▁परंपरा": 6886,
      "▁संख्या": 6887,
      "नेट": 6888,
      "▁विवाद": 6889,
      "▁विभाग": 6890,
      "_के_देश": 6891,
      "ी](https://hi.wikipedia.org/wiki/प": 6892,
      "ी](https://hi.wikipedia.org/wiki/स": 6893,
      "monsoon": 6894,
      "ज़ा": 6895,
      "త్తం": 6896,
      "▁(సా.శ.15": 6897,
      "▁(సా.శ.13": 6898,
      "▁भाषाएँ": 6899,
      "▁అనే": 6900,
      "▁ప్రజ": 6901,
      "తం\")": 6902,
      "कारी": 6903,
      "ంచి": 6904,
      "▁ఆఫ్": 6905,
      "भिन्न": 6906,
      "▁సాం": 6907,
      "▁[भारत](https://hi.wikipedia.org/wiki/भारत": 6908,
      "ార్లమె": 6909,
      "▁Vol": 6910,
      "కిస్థాన్": 6911,
      "newsite": 6912,
      "▁నే": 6913,
      "▁నగర": 6914,
      "general": 6915,
      "▁जाते": 6916,
      "▁इसी": 6917,
      "िवेश": 6918,
      "ాయి.": 6919,
      "ध्यम": 6920,
      "▁समूह": 6921,
      "-symbols": 6922,
      "టిబె": 6923,
      "్రీ.పూ.": 6924,
      "ండియా": 6925,
      "▁ఎక్కువ": 6926,
      "▁ఎన్నో": 6927,
      "vision": 6928,
      "▁जिसके": 6929,
      "▁./श्रेणी:CS1\\_": 6930,
      "▁मानव": 6931,
      "▁१९९": 6932,
      "▁सिंह": 6933,
      "](https://hi.wikipedia.org/wiki/उत्तर": 6934,
      "्यटन\")": 6935,
      "national-symbols": 6936,
      "▁./వర్గం:Wikipedia\\_articles\\_": 6937,
      "वर्ष": 6938,
      "_సం": 6939,
      "गुजराती": 6940,
      "ారు.\n": 6941,
      "▁[t](https://hi.wikipedia.org/wiki/साँचा_वार्ता:": 6942,
      "▁disc": 6943,
      "▁अपनी": 6944,
      "టుంబ": 6945,
      "श्रीनगर": 6946,
      "▁భారత్": 6947,
      "▁डॉल": 6948,
      "राष्ट्रपति\")": 6949,
      "▁[e](https://hi.wikipedia.org/wiki/विशेष:EditPage/साँचा:": 6950,
      "▁[v](https://hi.wikipedia.org/wiki/साँचा:": 6951,
      "2001),": 6952,
      "▁वायु": 6953,
      "మెరి": 6954,
      "माजिक": 6955,
      "▁ऊर्जा": 6956,
      "▁रहे": 6957,
      "ईसाई": 6958,
      "▁మొత్తం": 6959,
      "▁हुआ।": 6960,
      "బాద్": 6961,
      "](https://hi.wikipedia.org/wiki/संस्कृत": 6962,
      "राठी": 6963,
      "ంపెనీ": 6964,
      "▁दृष्ट": 6965,
      "▁प्रतिशत": 6966,
      "▁2004](https://hi.wikipedia.org/wiki/भारत#CITEREF": 6967,
      "ूरोपीय": 6968,
      "_का_खाना": 6969,
      "హ్మ": 6970,
      "▁उद्यान\")": 6971,
      "_उत्पाद": 6972,
      ".aspx?rel": 6973,
      "▁ఏర్": 6974,
      "-language\\_sources": 6975,
      "retary": 6976,
      "▁शक्तिपीठ": 6977,
      "్రిటిషు": 6978,
      "-22)": 6979,
      "▁राजवंश\")": 6980,
      "▁विदेशी": 6981,
      "ंडोनेशिया": 6982,
      "_और_संघ_क्षेत्र": 6983,
      "_Lanka": 6984,
      "AGE": 6985,
      "_राज्यक्षेत्र": 6986,
      "▁सितंबर": 6987,
      "▁जबकि": 6988,
      "▁అత్యధిక": 6989,
      "_के_अनुसार_देशों_की_सूची": 6990,
      "tlas": 6991,
      "▁सहयोग": 6992,
      "ీర్ణ": 6993,
      "▁किन्तु": 6994,
      "र्तग": 6995,
      "దక్షిణ_ఆసియా": 6996,
      "▁गठबंधन": 6997,
      "pib.nic.in/newsite": 6998,
      "हायता:": 6999,
      "ल्तनत": 7000,
      "सैनिक": 7001,
      "lease.aspx?rel": 7002,
      "▁डॉलर": 7003,
      "-language\\_sources\\_(": 7004,
      "-asia": 7005,
      "/e": 7006,
      "2.\n": 7007,
      "338": 7008,
      "4-3": 7009,
      "First": 7010,
      "Mumbai": 7011,
      "States": 7012,
      "_45": 7013,
      "gion": 7014,
      "wa": 7015,
      "▁Z": 7016,
      "▁40": 7017,
      "▁ob": 7018,
      "istered": 7019,
      "▁(2011": 7020,
      "2013": 7021,
      "ices": 7022,
      "19)": 7023,
      "19.": 7024,
      "▁poll": 7025,
      "▁census": 7026,
      "atch": 7027,
      "▁based": 7028,
      "vert": 7029,
      "ily": 7030,
      "▁Book": 7031,
      "▁Gujarat": 7032,
      "116": 7033,
      "-39": 7034,
      "opal": 7035,
      "tud": 7036,
      "2221": 7037,
      "establish": 7038,
      "▁nation": 7039,
      "▁John": 7040,
      ".[[23": 7041,
      "270": 7042,
      "▁On": 7043,
      "▁West": 7044,
      "_Times": 7045,
      "489": 7046,
      "▁expectancy": 7047,
      "▁\"International": 7048,
      "857": 7049,
      "times.indiatimes.com/": 7050,
      "orthographic": 7051,
      "▁[Ludden": 7052,
      "▁adop": 7053,
      "prof": 7054,
      "/articles/": 7055,
      "unjabi": 7056,
      "▁[*An": 7057,
      "place": 7058,
      "▁2022.\n": 7059,
      "cms).": 7060,
      "KulkeRothermund2004),": 7061,
      "▁(2018).": 7062,
      "resident_of_India": 7063,
      "economictimes.indiatimes.com/": 7064,
      "d/d": 7065,
      "ksai": 7066,
      "▁(2006).": 7067,
      "Library_of_Congress": 7068,
      "▁zone": 7069,
      "onkani": 7070,
      "indicator": 7071,
      "_projection": 7072,
      "orthographic_projection": 7073,
      "&ss": 7074,
      "-O": 7075,
      "-th": 7076,
      "-27": 7077,
      "1.\n": 7078,
      "2-0": 7079,
      "3-7": 7080,
      "8+": 7081,
      "9-6": 7082,
      "David": 7083,
      "Empire": 7084,
      "MAAJ": 7085,
      "SN": 7086,
      "South_Asia": 7087,
      "_50": 7088,
      "_World": 7089,
      "evanagari": 7090,
      "fun": 7091,
      "ji": 7092,
      "mand": 7093,
      "mas": 7094,
      "more": 7095,
      "oz": 7096,
      "rian": 7097,
      "ten": 7098,
      "top": 7099,
      "xim": 7100,
      "ंस": 7101,
      "इव": 7102,
      "इटे": 7103,
      "नत्व": 7104,
      "पया": 7105,
      "पदी": 7106,
      "मूल": 7107,
      "ुवै": 7108,
      "ैली": 7109,
      "ोण": 7110,
      "ौपदी": 7111,
      "▁`": 7112,
      "▁ve": 7113,
      "▁9.": 7114,
      "▁education": 7115,
      "en:": 7116,
      "ene": 7117,
      "enjo": 7118,
      "inan": 7119,
      "anada": 7120,
      "](https://en.wikipedia.org/wiki/U": 7121,
      "till": 7122,
      "India_": 7123,
      "eri": 7124,
      "arrow": 7125,
      "alla": 7126,
      "es.": 7127,
      "reater": 7128,
      "ising": 7129,
      "isted": 7130,
      "cid": 7131,
      "▁सम्प": 7132,
      "▁often": 7133,
      "ico": 7134,
      "▁India\"](https://web.archive.org/web/201": 7135,
      "lex": 7136,
      "leavy": 7137,
      "▁inte": 7138,
      "rak": 7139,
      "▁su": 7140,
      "▁set": 7141,
      "▁served": 7142,
      "▁pur": 7143,
      "ानक": 7144,
      "र्ग": 7145,
      "uscript": 7146,
      "▁Cather": 7147,
      "▁After": 7148,
      "\\_or": 7149,
      "▁festi": 7150,
      "ad-": 7151,
      "adakh": 7152,
      "▁trade": 7153,
      "▁middle": 7154,
      "▁market": 7155,
      "comp": 7156,
      "hek": 7157,
      "fied": 7158,
      "style": 7159,
      "una": 7160,
      "unleavy": 7161,
      "]](https://en.wikipedia.org/wiki/India#cite_note-1": 7162,
      "▁dist": 7163,
      "ourts": 7164,
      "नाइटे": 7165,
      "21.": 7166,
      "00–": 7167,
      "emen": 7168,
      "▁ब्रिटिश": 7169,
      "107": 7170,
      "1016": 7171,
      "लाओ": 7172,
      "▁India\").[[": 7173,
      "ayashi": 7174,
      "_सागर": 7175,
      "▁even": 7176,
      "▁early": 7177,
      "maint:": 7178,
      "ldlife": 7179,
      "_in_the": 7180,
      "bercu": 7181,
      "▁वे": 7182,
      "▁Nuclear": 7183,
      "▁आधुनिक": 7184,
      "_Agency": 7185,
      "-405": 7186,
      "508": 7187,
      "▁religions": 7188,
      "ational_P": 7189,
      "abel": 7190,
      "स्लि": 7191,
      "astronom": 7192,
      "▁[St": 7193,
      "AAMAAJ": 7194,
      "▁\"Chin": 7195,
      "haw": 7196,
      "▁Indians": 7197,
      "▁Law": 7198,
      "ensive": 7199,
      "s/p": 7200,
      "lated": 7201,
      "▁Wiley": 7202,
      "▁[Craven": 7203,
      "14.": 7204,
      "-2\").": 7205,
      "dira": 7206,
      "▁ass": 7207,
      "_Modi": 7208,
      "alls": 7209,
      "_Tamil_Nadu": 7210,
      "हात्": 7211,
      "ommaraj": 7212,
      "2011religion": 7213,
      "kee": 7214,
      "▁\"Tamil": 7215,
      "▁[Pakistan": 7216,
      "र्मू": 7217,
      "्राष्ट्र": 7218,
      "▁deve": 7219,
      "▁rise": 7220,
      "▁rural": 7221,
      "▁rupee": 7222,
      "issions": 7223,
      "ians": 7224,
      "▁\"Ge": 7225,
      "▁V.": 7226,
      "▁[Delhi": 7227,
      "neworld": 7228,
      "मान्य": 7229,
      "▁[ब्रिटिश": 7230,
      "▁\"Indus": 7231,
      "द्रौपदी": 7232,
      "amily": 7233,
      "rupee": 7234,
      "▁central": 7235,
      "](https://en.wikipedia.org/wiki/Indus": 7236,
      "-daro": 7237,
      "ohan": 7238,
      "ohenjo": 7239,
      "_dance": 7240,
      "_dynasty": 7241,
      "▁1997": 7242,
      "▁where": 7243,
      "▁whose": 7244,
      "atis": 7245,
      "-in-india": 7246,
      "जराय": 7247,
      "मेन": 7248,
      "2014-p": 7249,
      "तिहासिक": 7250,
      ".jpg/250px-S": 7251,
      "KulkeRothermund2016": 7252,
      "raditional": 7253,
      "▁[संस्कृत": 7254,
      "oorkee": 7255,
      "son2014-p": 7256,
      "▁Shankar": 7257,
      "ropped": 7258,
      "▁See": 7259,
      "▁century,": 7260,
      "_War": 7261,
      "cott": 7262,
      "▁speakers": 7263,
      "▁include": 7264,
      "▁2008](https://en.wikipedia.org/wiki/India#CITEREF": 7265,
      "athakali": 7266,
      "sites/": 7267,
      "Environment": 7268,
      "▁mathematics": 7269,
      "Ludden2014": 7270,
      "riage": 7271,
      "-of-india-": 7272,
      "Wikipedia:": 7273,
      "▁Africa": 7274,
      "▁major": 7275,
      "union_territory": 7276,
      "▁cities": 7277,
      "lackb": 7278,
      "losis": 7279,
      "anorama": 7280,
      "arlung": 7281,
      "rigonom": 7282,
      "hristian": 7283,
      "ecutive": 7284,
      "awaharlal": 7285,
      "▁caused": 7286,
      "▁oldest": 7287,
      "▁maint:": 7288,
      "](https://en.wikipedia.org/wiki/Mughal_Empire": 7289,
      "Census2011religion": 7290,
      "▁[India](https://en.wikipedia.org/wiki/India)": 7291,
      "harmaceutical": 7292,
      "entral_": 7293,
      "Tarlo1996-26": 7294,
      "Home_Affairs": 7295,
      "▁[↑](https://en.wikipedia.org/wiki/India#cite_ref-1": 7296,
      "](https://en.wikipedia.org/wiki/India#cite_ref-vatsyayan-lord_432": 7297,
      "beralisation": 7298,
      "Davidson2014-p": 7299,
      "ुवैत": 7300,
      "inancial": 7301,
      "▁Catherine": 7302,
      "नाइटेड": 7303,
      "berculosis": 7304,
      "स्लिम": 7305,
      "हात्मा": 7306,
      "ohenjo-daro": 7307,
      "\";\n": 7308,
      "3_1": 7309,
      "534": 7310,
      "AQAAQBAJ&pg=PA": 7311,
      "St": 7312,
      "_per": 7313,
      "_history": 7314,
      "aci": 7315,
      "ogo": 7316,
      "▁<": 7317,
      "▁7.": 7318,
      "an-": 7319,
      "International": 7320,
      "ed\\_": 7321,
      "▁(1):": 7322,
      "-05": 7323,
      "etwork": 7324,
      "ustice": 7325,
      "▁Century": 7326,
      "chol": 7327,
      "▁domestic": 7328,
      "▁Movement": 7329,
      "108": 7330,
      "Univers": 7331,
      "▁Ne": 7332,
      "▁1980": 7333,
      "▁[*M": 7334,
      "aving": 7335,
      "▁centre": 7336,
      "alaya": 7337,
      "ukh": 7338,
      "orities/": 7339,
      "▁consid": 7340,
      "/08/": 7341,
      "-level": 7342,
      "a/a": 7343,
      "AsherTalbot2008),": 7344,
      "cms)": 7345,
      "/authorities/": 7346,
      "▁Monetary": 7347,
      ".t": 7348,
      "/we": 7349,
      "1)\n": 7350,
      "2%29": 7351,
      "3-3": 7352,
      "425": 7353,
      "428": 7354,
      ":IN": 7355,
      "BRICS": 7356,
      "E﻿": 7357,
      "KI": 7358,
      "Pe": 7359,
      "Raj": 7360,
      "_st": 7361,
      "_28": 7362,
      "_30": 7363,
      "_39": 7364,
      "_यु": 7365,
      "_map": 7366,
      "_జాబితా": 7367,
      "aver": 7368,
      "a-b": 7369,
      "bu": 7370,
      "bhasha": 7371,
      "gration": 7372,
      "music": 7373,
      "po": 7374,
      "uin": 7375,
      "ंजन": 7376,
      "एम": 7377,
      "घाट": 7378,
      "चार": 7379,
      "जल": 7380,
      "तमान": 7381,
      "धर्": 7382,
      "यपालिका": 7383,
      "र्य": 7384,
      "ल्ड": 7385,
      "शक्ति": 7386,
      "हू": 7387,
      "िरा": 7388,
      "िंह": 7389,
      "ीकरण": 7390,
      "ूनाइटेड": 7391,
      "ेय": 7392,
      "ोत्तर": 7393,
      "२६": 7394,
      "ఆంధ": 7395,
      "కీ": 7396,
      "కాలు": 7397,
      "క్రమ": 7398,
      "గర్": 7399,
      "డో": 7400,
      "థి": 7401,
      "నె": 7402,
      "నాలు": 7403,
      "పించ": 7404,
      "బడ్డ": 7405,
      "భర": 7406,
      "మహ": 7407,
      "మై": 7408,
      "యన": 7409,
      "రంగ": 7410,
      "లయా": 7411,
      "వార": 7412,
      "శీ": 7413,
      "షనల్": 7414,
      "స్య": 7415,
      "ృద్ధి": 7416,
      "ెంగ": 7417,
      "ేర": 7418,
      "–17": 7419,
      "–120": 7420,
      "▁९": 7421,
      "▁ता": 7422,
      "▁దా": 7423,
      "▁local": 7424,
      "▁धीरे": 7425,
      "▁నాగరికత": 7426,
      "▁టెక్నాలజీ": 7427,
      "▁establish": 7428,
      "win": 7429,
      "tten": 7430,
      "](https://catal": 7431,
      "▁[ख": 7432,
      "▁[राष्ट्रीय": 7433,
      "▁[राजस्थान": 7434,
      "▁\"श": 7435,
      "▁\"वि": 7436,
      "▁\"पु": 7437,
      "▁\"का": 7438,
      "▁\"विश्व": 7439,
      "▁\"गुजरात": 7440,
      "▁\"राजस्थान": 7441,
      "\")1": 7442,
      "tives": 7443,
      "](https://hi.wikipedia.org/wiki/वि": 7444,
      "](https://hi.wikipedia.org/wiki/प्र": 7445,
      "](https://hi.wikipedia.org/wiki/गुजरात": 7446,
      "](https://hi.wikipedia.org/wiki/राजस्थान": 7447,
      "▁कह": 7448,
      "▁सश": 7449,
      "▁समा": 7450,
      "▁समान": 7451,
      "▁सल्तनत": 7452,
      "▁मंत्र": 7453,
      "्यु": 7454,
      "्यपालिका": 7455,
      "let": 7456,
      "్రై": 7457,
      "్రప్రదేశ్": 7458,
      "rame": 7459,
      "](https://te.wikipedia.org/wiki/ఢిల్లీ": 7460,
      "▁पहा": 7461,
      "▁sim": 7462,
      "20085": 7463,
      "▁policy": 7464,
      "ritten": 7465,
      "ानून": 7466,
      "](https://hi.wikipedia.org/wiki/भारत_स": 7467,
      "▁हिल": 7468,
      "▁Summit": 7469,
      "िकेट": 7470,
      "▁अभी": 7471,
      "FOOTNOTENational_Informatics_Centre2005": 7472,
      "stre": 7473,
      "unknown": 7474,
      "దేశం": 7475,
      "దేశాల": 7476,
      "దేశాలు": 7477,
      "ilar": 7478,
      "▁do": 7479,
      "्षिक": 7480,
      "▁Te": 7481,
      "▁जै": 7482,
      "▁जिन्": 7483,
      "olia": 7484,
      "▁Modi": 7485,
      "▁Machine": 7486,
      "▁Ram": 7487,
      "_केंद्र": 7488,
      "ర్‌": 7489,
      "ेशिया\")": 7490,
      "▁air": 7491,
      "s.jpg": 7492,
      "▁बल": 7493,
      "▁बौद्ध": 7494,
      "▁बैंक": 7495,
      "ंगड": 7496,
      "ंगल": 7497,
      "ंगीत": 7498,
      "▁नगर": 7499,
      "▁से](https://": 7500,
      "_सु": 7501,
      "_स्": 7502,
      "లు?action=edit&redlink=1": 7503,
      "రాఠ": 7504,
      "1991": 7505,
      "▁*A": 7506,
      "▁Home": 7507,
      "▁కి": 7508,
      "▁కో": 7509,
      "▁आंद": 7510,
      "elated": 7511,
      "క్టో": 7512,
      "▁ती": 7513,
      "▁तो": 7514,
      "▁तुल": 7515,
      "▁तीस": 7516,
      "నియా": 7517,
      "▁వర్": 7518,
      "▁వారస": 7519,
      "abin": 7520,
      "स्चेंज": 7521,
      "geoh": 7522,
      "ల్వే": 7523,
      "1857": 7524,
      "▁गति": 7525,
      "▁సరిహద్దు": 7526,
      "ड़िशा": 7527,
      "▁మన": 7528,
      "▁మూ": 7529,
      "▁उस": 7530,
      "▁उद्योग": 7531,
      "_and_T": 7532,
      "▁around": 7533,
      "▁शांति": 7534,
      "▁संस्कृत": 7535,
      "ండమా": 7536,
      "▁చిన్న": 7537,
      "]](https://hi.wikipedia.org/wiki/भारत#cite_note-Combined": 7538,
      "्याचल": 7539,
      "తాన": 7540,
      "ियर": 7541,
      "ముఖ": 7542,
      "170": 7543,
      "ी](https://hi.wikipedia.org/wiki/न": 7544,
      "uccess": 7545,
      "త్వం": 7546,
      "त्ता": 7547,
      "▁being": 7548,
      "▁(సా.శ.14": 7549,
      ")[[3": 7550,
      "ंडल": 7551,
      "ులు,": 7552,
      "–సా.శ.15": 7553,
      "–సా.శ.17": 7554,
      "▁भाषाएं": 7555,
      "dire": 7556,
      "▁\"मुंबई": 7557,
      "_Mon": 7558,
      "पांड": 7559,
      "▁ప్రతి": 7560,
      "▁ప్రస్తు": 7561,
      "▁ప్రకారం": 7562,
      "▁ప్రముఖ": 7563,
      "कार्यपालिका": 7564,
      "ంచిన": 7565,
      "కుడు": 7566,
      "▁[↑](https://hi.wikipedia.org/wiki/भारत#cite_ref-Combined": 7567,
      "నుమ": 7568,
      "irectorate": 7569,
      "ింది.\n": 7570,
      "द्वित": 7571,
      "वाँ": 7572,
      "्राम": 7573,
      "▁any": 7574,
      "▁deb": 7575,
      "▁రో": 7576,
      "▁రంగ": 7577,
      "▁రవాణా": 7578,
      "▁సాధించ": 7579,
      "ష్టు": 7580,
      "▁पुलिस": 7581,
      "ंदर": 7582,
      "ंत्रिक": 7583,
      "▁[GDP": 7584,
      "▁प्रदेश](https://hi.wikipedia.org/wiki/मध्य": 7585,
      "त्न": 7586,
      "ంతో": 7587,
      "▁తరువా": 7588,
      ",_కేంద్రపాలిత": 7589,
      "పాలన": 7590,
      "▁वर्ण": 7591,
      "▁वर्तमान": 7592,
      "िवास": 7593,
      "ం](https://te.wikipedia.org/wiki/భారతీయ": 7594,
      "फ़िल": 7595,
      "](https://hi.wikipedia.org/wiki/ब्रिटिश": 7596,
      "▁हिमालय": 7597,
      "గుర్": 7598,
      "నేషనల్": 7599,
      "▁uni": 7600,
      "▁regional": 7601,
      "गणतंत्र": 7602,
      "▁ప్రాంతం": 7603,
      "వందే": 7604,
      "न्नड": 7605,
      "▁किया।": 7606,
      "▁రాజ్యం](https://te.wikipedia.org/wiki/": 7607,
      "▁[International": 7608,
      "AsherTalbot20085": 7609,
      "anced": 7610,
      "▁బా": 7611,
      "▁బహు": 7612,
      "▁బెంగ": 7613,
      "▁गया।[[": 7614,
      "▁[उर्दू": 7615,
      "▁CITEREFKulkeRothermund2004": 7616,
      "स्थाप": 7617,
      "data.worldbank.org/": 7618,
      "684": 7619,
      "▁\"उर्दू": 7620,
      "आई.": 7621,
      "▁१९८": 7622,
      "ాల్లో": 7623,
      "](https://hi.wikipedia.org/wiki/उर्दू": 7624,
      "िल्ली](https://hi.wikipedia.org/wiki/द": 7625,
      "क्षेत्रफल": 7626,
      "▁notation": 7627,
      "वर्ल्ड": 7628,
      "శ్వా": 7629,
      "ूचना-विज्ञान": 7630,
      "▁Thomas": 7631,
      "ారిటీ": 7632,
      "▁पूर्वी": 7633,
      "▁अपना": 7634,
      "ार्क": 7635,
      "▁न्यायाधीश": 7636,
      "▁[↑](https://hi.wikipedia.org/wiki/भारत#cite_ref-FOOTNOTEStein1998": 7637,
      "-report": 7638,
      "▁\"Official": 7639,
      "గోళ": 7640,
      "▁2016.\n": 7641,
      "▁across": 7642,
      "▁\"दिल्ली\")": 7643,
      "ड़ीसा": 7644,
      "బడిన": 7645,
      "▁माध्यम": 7646,
      "▁बहुमत": 7647,
      "▁\"संयुक्त": 7648,
      "▁Art": 7649,
      "తున్న": 7650,
      "న్నిక": 7651,
      "▁స్వాతంత్ర్య": 7652,
      "▁కాలంలో": 7653,
      "ministered": 7654,
      "कल_घ": 7655,
      "▁सुधार": 7656,
      "ष्णकट": 7657,
      ".net": 7658,
      "cat.org/": 7659,
      "_पार्ट": 7660,
      "▁थी।": 7661,
      "▁धरोहर": 7662,
      "▁इतिहास\")": 7663,
      "ంపి": 7664,
      "▁संगीत": 7665,
      "బెంగాల్": 7666,
      "lag_of_India": 7667,
      "▁According": 7668,
      "_एवं": 7669,
      "ెలవు": 7670,
      "▁नीति": 7671,
      "](https://te.wikipedia.org/wiki/భారతదేశంలో_": 7672,
      "ीपी)": 7673,
      "▁वार्षिक": 7674,
      "▁ऑफ": 7675,
      "हायक": 7676,
      "रेलू_उत्पाद": 7677,
      "-India.pdf)": 7678,
      "▁अनुसंधान": 7679,
      "britannica.com/place": 7680,
      "▁सूचना-विज्ञान": 7681,
      "▁అధికారిక": 7682,
      "▁लेकर": 7683,
      "MetcalfMetcalf2012-26": 7684,
      "ఆర్ధిక": 7685,
      "▁मौसम": 7686,
      "▁పట్టణ": 7687,
      "▁विस्तृत": 7688,
      "▁కాశ్మీరు": 7689,
      "▁अभियान": 7690,
      "_सेना": 7691,
      "ంగ్లీషు": 7692,
      "▁लाख": 7693,
      "rajbhasha": 7694,
      "thehindu": 7695,
      "\\_कड़ियाँ": 7696,
      "▁अमेरिका": 7697,
      "▁అయిన": 7698,
      "▁రెండు": 7699,
      "ాల్దీవులు": 7700,
      "ట్రో": 7701,
      "ుల్తాన": 7702,
      "▁हालाँकि": 7703,
      "రాష్ట్రాలు,_కేంద్రపాలిత": 7704,
      "దినోత్సవం": 7705,
      "▁వ్యాసం:": 7706,
      "▁पहुँच": 7707,
      "िन्धु-गंगा": 7708,
      "_and_union_territories_of_India": 7709,
      "▁[भारत](https://hi.wikipedia.org/wiki/भारत)": 7710,
      "ార్లమెంట": 7711,
      "▁./వర్గం:Wikipedia\\_articles\\_with\\_": 7712,
      "▁2004](https://hi.wikipedia.org/wiki/भारत#CITEREFKulkeRothermund2004),": 7713,
      "▁ఏర్ప": 7714,
      "-language\\_sources\\_(en": 7715,
      "मूल्य": 7716,
      "_map_en": 7717,
      "ఆంధ్రప్రదేశ్": 7718,
      "లయాళ": 7719,
      "▁[राजस्थान](https://hi.wikipedia.org/wiki/राजस्थान": 7720,
      "▁\"राजस्थान\")": 7721,
      "▁similar": 7722,
      "▁हिल्स": 7723,
      "▁तुलना": 7724,
      "geohack": 7725,
      "▁प्रदेश](https://hi.wikipedia.org/wiki/मध्य_प्रदेश": 7726,
      "▁[उर्दू](https://hi.wikipedia.org/wiki/उर्दू": 7727,
      "data.worldbank.org/indicator": 7728,
      "िल्ली](https://hi.wikipedia.org/wiki/दिल्ली": 7729,
      "कल_घरेलू_उत्पाद": 7730,
      "ष्णकटिबंधीय": 7731,
      "రాష్ట్రాలు,_కేంద్రపాలిత_ప్రాంత": 7732,
      "*](https://www.": 7733,
      "*](https://web.archive.org/web/200": 7734,
      ",_India": 7735,
      "-II": 7736,
      ".0": 7737,
      "/)": 7738,
      "/M": 7739,
      "/news/": 7740,
      "0-0)": 7741,
      "223": 7742,
      "4_": 7743,
      "4-0": 7744,
      "8%": 7745,
      "8]](https://en.wikipedia.org/wiki/India#cite_note-": 7746,
      "AL": 7747,
      "BI": 7748,
      "Constituent": 7749,
      "K:": 7750,
      "Navy": 7751,
      "OV": 7752,
      "PT": 7753,
      "Zor": 7754,
      "_ci": 7755,
      "_21": 7756,
      "_india": 7757,
      "_con": 7758,
      "_2008": 7759,
      "aury": 7760,
      "audi": 7761,
      "bird": 7762,
      "cutt": 7763,
      "dministrative": 7764,
      "digenous": 7765,
      "ealand": 7766,
      "ful": 7767,
      "jha": 7768,
      "jayan": 7769,
      "lé": 7770,
      "mon": 7771,
      "pi": 7772,
      "pub": 7773,
      "sc": 7774,
      "s](https://en.wikipedia.org/wiki/": 7775,
      "sol": 7776,
      "spect": 7777,
      "water": 7778,
      "ypr": 7779,
      "–11": 7780,
      "–Pakistan": 7781,
      "▁X": 7782,
      "▁35": 7783,
      "▁times": 7784,
      "ora": 7785,
      "oram": 7786,
      "orary": 7787,
      "orne": 7788,
      ".wikidata": 7789,
      ".org/wiki/Q": 7790,
      "▁[Harle": 7791,
      "teri": 7792,
      "ina": 7793,
      "ining": 7794,
      "in-O": 7795,
      "anch": 7796,
      "though": 7797,
      "hili": 7798,
      "ers,": 7799,
      "ergy": 7800,
      "ardian": 7801,
      "alakrishnan": 7802,
      "alcutt": 7803,
      "isa": 7804,
      "ison": 7805,
      "istic": 7806,
      "isak": 7807,
      "tion,": 7808,
      "anding": 7809,
      "ito": 7810,
      "itor": 7811,
      "itchi": 7812,
      "▁(in": 7813,
      "▁(union": 7814,
      "▁(nominal)": 7815,
      "ought": 7816,
      "asar": 7817,
      "ases": 7818,
      "asian": 7819,
      "▁India](https://en.wikipedia.org/wiki/P": 7820,
      "1967": 7821,
      "▁ins": 7822,
      "▁so": 7823,
      "▁sultanate": 7824,
      "▁small": 7825,
      "▁plate": 7826,
      "▁prin": 7827,
      "etnam": 7828,
      "ing,": 7829,
      "▁char": 7830,
      "▁cap": 7831,
      "aten": 7832,
      "▁Cynth": 7833,
      "▁Am": 7834,
      "agara": 7835,
      "▁Singh": 7836,
      "▁Schwartzberg": 7837,
      "▁Schedule": 7838,
      "▁trib": 7839,
      "urg": 7840,
      "urasia": 7841,
      "urasian": 7842,
      "▁mark": 7843,
      "heet": 7844,
      "_of_N": 7845,
      "ially": 7846,
      "cely": 7847,
      "▁2016.": 7848,
      "ilt": 7849,
      "olice": 7850,
      "emi": 7851,
      "emor": 7852,
      "▁Bharat": 7853,
      "mentin-O": 7854,
      "nific": 7855,
      "ignific": 7856,
      "_(union_territory": 7857,
      "▁Desert": 7858,
      "▁\"Special:BookSources/978": 7859,
      "24_A7C": 7860,
      "▁[↑](https://en.wikipedia.org/wiki/India#cite_ref-3": 7861,
      "▁[↑](https://en.wikipedia.org/wiki/India#cite_ref-Combined": 7862,
      "▁eaten": 7863,
      "▁E.": 7864,
      "1999": 7865,
      "_in_T": 7866,
      "forest": 7867,
      "_Ag": 7868,
      "elug": 7869,
      "aks": 7870,
      "▁three": 7871,
      "abour": 7872,
      "](https://en.wikipedia.org/wiki/India#CITEREFCraven1997": 7873,
      "▁198": 7874,
      "▁1970": 7875,
      "▁1971": 7876,
      "▁[Sri": 7877,
      "29)": 7878,
      "▁Journal": 7879,
      "ained": 7880,
      "▁[\"M": 7881,
      "epali": 7882,
      "▁Informatics": 7883,
      "40.": 7884,
      "27.": 7885,
      "▁\"Ch": 7886,
      "conomist": 7887,
      "▁L.": 7888,
      "▁London": 7889,
      "ected": 7890,
      "▁Organisation": 7891,
      "▁Olymp": 7892,
      "ension": 7893,
      "-9\").\n": 7894,
      "-981": 7895,
      "16]](https://en.wikipedia.org/wiki/India#cite_note-": 7896,
      "](https://en.wikipedia.org/wiki/Ch": 7897,
      "](https://en.wikipedia.org/wiki/Climate_": 7898,
      "laci": 7899,
      "dog": 7900,
      "Harvard": 7901,
      "](Special:BookSources/": 7902,
      "](Special:BookSources/978": 7903,
      ".gov.": 7904,
      "▁[↑](https://en.wikipedia.org/wiki/India#cite_ref-FOOTNOTECraven1997": 7905,
      "-2\").\n": 7906,
      "-2](Special:BookSources/978-1": 7907,
      "▁[Mughal": 7908,
      "ysis": 7909,
      "-5196": 7910,
      "artial": 7911,
      "_Mahal": 7912,
      "alled": 7913,
      "▁original](http://www.": 7914,
      "2006),": 7915,
      "temporary": 7916,
      "▁*[B": 7917,
      "sey": 7918,
      "▁\"East": 7919,
      "▁\"Economic": 7920,
      "_Nations": 7921,
      "_National_P": 7922,
      "](https://en.wikipedia.org/wiki/Economic": 7923,
      "_Games": 7924,
      "ible": 7925,
      "▁[978-0-19-9": 7926,
      "▁[978-0-521-80904-7": 7927,
      "ultures": 7928,
      "▁31": 7929,
      "▁\"Russia": 7930,
      "](https://en.wikipedia.org/wiki/Russia": 7931,
      "▁[Russia": 7932,
      "▁\"Special:BookSources/978-0-19-9": 7933,
      "](Special:BookSources/978-0-19-9": 7934,
      "egional": 7935,
      "](https://en.wikipedia.org/wiki/International": 7936,
      "▁(2016).": 7937,
      "▁subject": 7938,
      "ervice": 7939,
      "58)": 7940,
      "_Indian_subcontinent": 7941,
      "▁rights": 7942,
      "▁./Category:Articles\\_contain": 7943,
      "_relations": 7944,
      "▁2023.": 7945,
      "▁2023](https://en.wikipedia.org/wiki/India#CITEREF": 7946,
      "ppines": 7947,
      "ortality": 7948,
      "crimin": 7949,
      "oastrian": 7950,
      "ample": 7951,
      "▁music\")": 7952,
      "ujarati": 7953,
      "▁about": 7954,
      "▁common": 7955,
      "▁diversity": 7956,
      "ID-19": 7957,
      "▁election\"),": 7958,
      "_of_the_": 7959,
      "Vijayan": 7960,
      "Vietnam": 7961,
      "▁traditional": 7962,
      "▁well": 7963,
      "aharasht": 7964,
      "▁mathematic": 7965,
      "Harle1994),": 7966,
      "IAF": 7967,
      "_Shankar": 7968,
      "rmy": 7969,
      "▁longer": 7970,
      "▁highest": 7971,
      ".svg/40px-": 7972,
      "▁player": 7973,
      "Robb2011": 7974,
      "hanghai": 7975,
      "ilies": 7976,
      "lectri": 7977,
      "olden_Temple": 7978,
      "-language\\_text": 7979,
      "default": 7980,
      "anoram": 7981,
      "otsp": 7982,
      "▁Publishing\").": 7983,
      "aurya": 7984,
      ".svg.png)](File:": 7985,
      "izoram": 7986,
      "▁Europe*](https://books.google.com/books?id=": 7987,
      "▁contribu": 7988,
      "▁colleges": 7989,
      "▁popular": 7990,
      "67733-7": 7991,
      "ichell2000": 7992,
      "_Air_Force": 7993,
      "kbar": 7994,
      "▁kingdoms": 7995,
      "▁following": 7996,
      "do-Gangetic": 7997,
      "ataraja": 7998,
      "▁emerged": 7999,
      "▁approxim": 8000,
      "IFTY": 8001,
      "](https://www.wikidata": 8002,
      "▁divisions": 8003,
      "▁legis": 8004,
      "▁1994](https://en.wikipedia.org/wiki/India#CITEREFHarle1994),": 8005,
      "touchability": 8006,
      "wait": 8007,
      "Library_of_Congress2004": 8008,
      "8+5": 8009,
      "▁festival": 8010,
      "▁\"China\")": 8011,
      "▁developed": 8012,
      "▁1997](https://en.wikipedia.org/wiki/India#CITEREFCraven1997": 8013,
      "hristianity": 8014,
      "OVID-19": 8015,
      "Zoroastrian": 8016,
      "lémentin-O": 8017,
      "yprus": 8018,
      "hilippines": 8019,
      "alcutta": 8020,
      "itchison": 8021,
      "▁Cynthia": 8022,
      "_(union_territory)": 8023,
      "_National_Park": 8024,
      "Vijayanagara": 8025,
      "aharashtra": 8026,
      "](https://www.wikidata.org/wiki/Q": 8027,
      "▁1997](https://en.wikipedia.org/wiki/India#CITEREFCraven1997),": 8028,
      "lémentin-Ojha": 8029,
      "\"](http://www.": 8030,
      "#P": 8031,
      "-H": 8032,
      "-j": 8033,
      "-for": 8034,
      "-24)": 8035,
      "/india/": 8036,
      "1%20": 8037,
      "520": 8038,
      "528": 8039,
      "613": 8040,
      "96": 8041,
      "CCN": 8042,
      "DR": 8043,
      "RA": 8044,
      "Sanskrit": 8045,
      "Web": 8046,
      "_he": 8047,
      "_10": 8048,
      "_ex": 8049,
      "_term": 8050,
      "bd": 8051,
      "culture": 8052,
      "gi": 8053,
      "p.org/": 8054,
      "post": 8055,
      "y=": 8056,
      "}}": 8057,
      "क\")": 8058,
      "द्रा": 8059,
      "पूर्ण": 8060,
      "ब्रिटिश": 8061,
      "विक": 8062,
      "सर": 8063,
      "२.": 8064,
      "▁७": 8065,
      "orse": 8066,
      "g/250px-": 8067,
      "▁[28": 8068,
      "▁[लोक": 8069,
      "▁\"ची": 8070,
      "arv": 8071,
      "2020": 8072,
      "्रु": 8073,
      "ispu": 8074,
      "▁(J": 8075,
      "ica": 8076,
      "▁महा": 8077,
      "▁मिला": 8078,
      "▁India\n": 8079,
      "▁India\"](https://": 8080,
      "ानी": 8081,
      "ations/": 8082,
      "▁Chin": 8083,
      "\\_template": 8084,
      "urmu": 8085,
      "▁Portal": 8086,
      "▁अधिराज्य": 8087,
      "▁12.": 8088,
      "roduct": 8089,
      "▁Mana": 8090,
      "▁Mani": 8091,
      "▁Britannica": 8092,
      "▁Barb": 8093,
      "▁Bengali": 8094,
      "ला\")": 8095,
      "▁प्रशास": 8096,
      "240": 8097,
      "▁Gana": 8098,
      "113": 8099,
      "▁2002": 8100,
      "पुत्र": 8101,
      "▁संयुक्त": 8102,
      "▁Ludden": 8103,
      "135": 8104,
      "laim": 8105,
      "मन्त": 8106,
      "मी2": 8107,
      "धानमन्त": 8108,
      "ordin": 8109,
      "%2C_A": 8110,
      "%2C_M": 8111,
      "▁१५": 8112,
      "▁\"पूर्वी": 8113,
      "▁हिस्": 8114,
      "▁History*](https://books.google.com/books?id=": 8115,
      "IND": 8116,
      "roupadi": 8117,
      "puri": 8118,
      "/countries/": 8119,
      "34238": 8120,
      "68–": 8121,
      "▁मान्यता": 8122,
      "्वरूप": 8123,
      "▁Present": 8124,
      "▁28.": 8125,
      "तुर्क": 8126,
      "aedia": 8127,
      "ause": 8128,
      "11934238": 8129,
      "भरत": 8130,
      "arathi": 8131,
      "▁dispute": 8132,
      "▁२०११": 8133,
      "cyclopaedia": 8134,
      "न्तर्राष्ट्र": 8135,
      "eghalaya": 8136,
      "s.com/": 8137,
      "▁दृष्टि": 8138,
      "▁Ludden,": 8139,
      "%,": 8140,
      "-hind": 8141,
      "2-10": 8142,
      "3-": 8143,
      "310": 8144,
      "32)": 8145,
      "623": 8146,
      "6-9": 8147,
      "CA": 8148,
      "Flag_of_India": 8149,
      "G20": 8150,
      "Republic": 8151,
      "b/b": 8152,
      "ize": 8153,
      "lc": 8154,
      "rance": 8155,
      "vanced": 8156,
      "–29": 8157,
      "▁ter": 8158,
      "▁70": 8159,
      "people": 8160,
      "onal": 8161,
      "thme": 8162,
      "Indian_": 8163,
      "▁India](https://en.wikipedia.org/wiki/D": 8164,
      "▁inequality": 8165,
      "▁sec": 8166,
      "▁size": 8167,
      "ation)": 8168,
      "▁Council": 8169,
      "▁Ag": 8170,
      "▁Age": 8171,
      "▁Ste": 8172,
      "▁Sikh": 8173,
      "▁ful": 8174,
      "▁band": 8175,
      "ficient": 8176,
      "▁2015.": 8177,
      "▁India\")*.": 8178,
      "▁2000": 8179,
      "▁2009.": 8180,
      "_President_of_India": 8181,
      "▁[Ar": 8182,
      "▁Library": 8183,
      "ummary": 8184,
      ")[[13": 8185,
      "▁[BRICS": 8186,
      "▁\"BRICS": 8187,
      "_Mar": 8188,
      "▁II": 8189,
      "7080": 8190,
      "▁\"Th": 8191,
      "39)": 8192,
      "▁\"New": 8193,
      "333": 8194,
      "▁provid": 8195,
      "iterature": 8196,
      "\"](https://web.archive.org/web/20140": 8197,
      "▁(2019).": 8198,
      "efence": 8199,
      "data.bnf.fr/ark:/12148/cb": 8200,
      "atter": 8201,
      "edicine": 8202,
      "▁above": 8203,
      "ustralian": 8204,
      ".php": 8205,
      "Ludden200": 8206,
      ".com/news/world": 8207,
      "▁Himalayas": 8208,
      "ogue.bnf.fr/ark:/12148/cb": 8209,
      "istorical": 8210,
      "atabase": 8211,
      "▁continu": 8212,
      "](https://id.": 8213,
      ".edu/": 8214,
      "▁adopted": 8215,
      "profile": 8216,
      "thmetic": 8217,
      "#S": 8218,
      "-Y": 8219,
      "-v": 8220,
      "-ve": 8221,
      ".1.": 8222,
      ".JPG": 8223,
      "0/0": 8224,
      "0&s": 8225,
      "3%": 8226,
      "478": 8227,
      "5.pdf)": 8228,
      "728": 8229,
      "7)[[": 8230,
      "72.": 8231,
      "748": 8232,
      "Curry": 8233,
      "Copland": 8234,
      "DS": 8235,
      "Ge": 8236,
      "Gum": 8237,
      "Garg": 8238,
      "HQ": 8239,
      "Kumar": 8240,
      "L.": 8241,
      "SE": 8242,
      "Special:": 8243,
      "Search": 8244,
      "Template": 8245,
      "Tritsch": 8246,
      "US": 8247,
      "YS": 8248,
      "Yum": 8249,
      "Young": 8250,
      "[https": 8251,
      "_Z": 8252,
      "_te": 8253,
      "_वि": 8254,
      "_sh": 8255,
      "_di": 8256,
      "_art": 8257,
      "_se": 8258,
      "_వి": 8259,
      "_2009": 8260,
      "_2007": 8261,
      "_val": 8262,
      "_కాశ్మీ": 8263,
      "_monsoon": 8264,
      "aze": 8265,
      "aidy": 8266,
      "cia": 8267,
      "dhy": 8268,
      "d=20": 8269,
      "fos": 8270,
      "ggle": 8271,
      "gions": 8272,
      "hak": 8273,
      "io": 8274,
      "iosphere": 8275,
      "jol": 8276,
      "k-e": 8277,
      "lla": 8278,
      "mc": 8279,
      "mt": 8280,
      "nus": 8281,
      "nins": 8282,
      "oin": 8283,
      "oal": 8284,
      "ochi": 8285,
      "oint": 8286,
      "ride": 8287,
      "tripura": 8288,
      "uff": 8289,
      "vara": 8290,
      "yr": 8291,
      "zard": 8292,
      "ædia": 8293,
      "ंज़": 8294,
      "ंमार": 8295,
      "अतुल्य": 8296,
      "इतिहास": 8297,
      "उद्यान": 8298,
      "ऋग्व": 8299,
      "ओआई": 8300,
      "कु": 8301,
      "क्रम": 8302,
      "कृष्ण": 8303,
      "घा": 8304,
      "जवा": 8305,
      "टन": 8306,
      "टा": 8307,
      "ठा": 8308,
      "ठार": 8309,
      "णे": 8310,
      "तः": 8311,
      "थाली": 8312,
      "थुरा": 8313,
      "दून": 8314,
      "दयपुर": 8315,
      "धता": 8316,
      "धोला": 8317,
      "नि": 8318,
      "नै": 8319,
      "नजं": 8320,
      "निवेश": 8321,
      "पीप": 8322,
      "पृष्ठ": 8323,
      "मोर": 8324,
      "यण": 8325,
      "रत": 8326,
      "ल-": 8327,
      "लेशिया": 8328,
      "वर": 8329,
      "व\")": 8330,
      "वरा": 8331,
      "वरण": 8332,
      "शहरा": 8333,
      "सित": 8334,
      "़तर": 8335,
      "ाई": 8336,
      "ाग": 8337,
      "िप": 8338,
      "ेख": 8339,
      "ेज": 8340,
      "ेहरा": 8341,
      "ैम्ब": 8342,
      "ोढ़": 8343,
      "ोसी": 8344,
      "ोटे": 8345,
      "ोडिया": 8346,
      "ोवियत": 8347,
      "ोबार": 8348,
      "्मार": 8349,
      "२०१": 8350,
      "४०": 8351,
      "ంస్కృ": 8352,
      "ఉత్తరా": 8353,
      "ఖో": 8354,
      "ఘాలయ": 8355,
      "చ్": 8356,
      "టై": 8357,
      "టర్": 8358,
      "డమ్": 8359,
      "డఖ్": 8360,
      "ణే": 8361,
      "ణంగా": 8362,
      "తే": 8363,
      "తెల": 8364,
      "దరంగ": 8365,
      "నో": 8366,
      "నంద": 8367,
      "బర్": 8368,
      "బార్": 8369,
      "యె": 8370,
      "రె": 8371,
      "లడఖ్": 8372,
      "ళా": 8373,
      "ళి": 8374,
      "శు": 8375,
      "హించ": 8376,
      "ుకు": 8377,
      "ెన్న": 8378,
      "ెట్రో": 8379,
      "ేతి": 8380,
      "ేఘాలయ": 8381,
      "ైనిక": 8382,
      "ొగలు": 8383,
      "ోళ": 8384,
      "‌కా": 8385,
      "‌మహ": 8386,
      "▁x": 8387,
      "▁y": 8388,
      "▁ढ": 8389,
      "▁६": 8390,
      "▁८": 8391,
      "▁ఐ": 8392,
      "▁ఖ": 8393,
      "▁er": 8394,
      "▁enti": 8395,
      "▁go": 8396,
      "▁op": 8397,
      "▁rit": 8398,
      "▁–సా.శ.": 8399,
      "▁భారతీయ": 8400,
      "▁भाजपा": 8401,
      "▁very": 8402,
      "▁ईस्ट": 8403,
      "kid=20": 8404,
      "orbe": 8405,
      "ttac": 8406,
      "▁[ना": 8407,
      "▁[का": 8408,
      "▁[धर्म": 8409,
      "▁[चीन": 8410,
      "▁[రాష్ట్ర": 8411,
      "▁[జన": 8412,
      "▁[గో": 8413,
      "▁[विश्व": 8414,
      "▁[...]": 8415,
      "enced": 8416,
      "▁\"Y": 8417,
      "▁\"ख": 8418,
      "▁\"పా": 8419,
      "▁\"జన": 8420,
      "▁\"గో": 8421,
      "▁\"మూస:": 8422,
      "▁\"Hinduism": 8423,
      "▁\"हैदराबाद": 8424,
      "▁\"ISO": 8425,
      "anal": 8426,
      "Infos": 8427,
      "thang": 8428,
      "thura": 8429,
      "th_East_Asia_Summit": 8430,
      "til": 8431,
      "hic": 8432,
      "hip": 8433,
      "hiv": 8434,
      "erce": 8435,
      "arc": 8436,
      "arayan": 8437,
      "algh": 8438,
      "ारा": 8439,
      "](https://hi.wikipedia.org/wiki/श": 8440,
      "](https://hi.wikipedia.org/wiki/सा": 8441,
      "](https://hi.wikipedia.org/wiki/चीन": 8442,
      "](https://hi.wikipedia.org/wiki/विश्व": 8443,
      "](https://hi.wikipedia.org/wiki/राष्ट्रीय_स": 8444,
      "▁क्रम": 8445,
      "▁कंपन": 8446,
      "▁क्रांति": 8447,
      "्रिज": 8448,
      "भारत\n": 8449,
      "भारत_के_राज्य": 8450,
      "andoor": 8451,
      "andemic": 8452,
      "oms": 8453,
      "omic": 8454,
      "edary": 8455,
      "▁सर्वोच्च": 8456,
      "▁सहायक": 8457,
      "ital": 8458,
      "▁(2010": 8459,
      "▁(2003": 8460,
      "▁(अभिज्ञापक": 8461,
      "asu": 8462,
      "▁माना": 8463,
      "▁महारजिस्ट्रार": 8464,
      "▁India](https://en.wikipedia.org/wiki/E": 8465,
      "▁India\".": 8466,
      "19-1": 8467,
      "ooking": 8468,
      "▁institu": 8469,
      "nold": 8470,
      "रान": 8471,
      "रामा": 8472,
      "](https://te.wikipedia.org/wiki/భారతదేశ": 8473,
      "](https://te.wikipedia.org/wiki/గో": 8474,
      "](https://te.wikipedia.org/wiki/మూస:": 8475,
      "▁पी": 8476,
      "▁पू": 8477,
      "▁पत्र": 8478,
      "▁पब्ल": 8479,
      "▁परीक्षण": 8480,
      "▁shar": 8481,
      "▁science": 8482,
      "▁series": 8483,
      "▁signific": 8484,
      "▁pred": 8485,
      "▁poli": 8486,
      "atel": 8487,
      "ateway": 8488,
      "ారస్వ": 8489,
      "ानपान": 8490,
      "ing)": 8491,
      "ingle": 8492,
      "am/": 8493,
      "amaj": 8494,
      "▁constitution": 8495,
      "▁coast": 8496,
      "▁cricket": 8497,
      "▁coral": 8498,
      "▁cultural": 8499,
      "ush": 8500,
      "usion": 8501,
      "atpura": 8502,
      "▁Cup": 8503,
      "▁Caves": 8504,
      "▁Amb": 8505,
      "ago": 8506,
      "agle": 8507,
      "agran": 8508,
      "agogue": 8509,
      "agwat": 8510,
      "agola": 8511,
      "▁हव": 8512,
      "▁Some": 8513,
      "▁SCO": 8514,
      "▁Studies": 8515,
      "acter": 8516,
      "▁fl": 8517,
      "▁flow": 8518,
      "▁feat": 8519,
      "angra": 8520,
      "angla": 8521,
      "angrove": 8522,
      "ads": 8523,
      "adav": 8524,
      "78)": 8525,
      "▁bas": 8526,
      "▁bread": 8527,
      "▁border": 8528,
      "▁birth": 8529,
      "urther": 8530,
      "urned": 8531,
      "urvey": 8532,
      "यास": 8533,
      "िकेश": 8534,
      "िकास": 8535,
      "िकोबार": 8536,
      "ాలె": 8537,
      "▁met": 8538,
      "▁may": 8539,
      "▁Puran": 8540,
      "istence": 8541,
      "▁में).": 8542,
      "▁अब": 8543,
      "▁अमीरात": 8544,
      "▁अलावा": 8545,
      "_of_P": 8546,
      "chae": 8547,
      "roti": 8548,
      "roban": 8549,
      "ों_और": 8550,
      "uns": 8551,
      "unbird": 8552,
      "స్ట": 8553,
      "స్\")": 8554,
      "స్వాతంత్ర్య": 8555,
      "▁won": 8556,
      "▁dances": 8557,
      "▁dynast": 8558,
      "]](https://en.wikipedia.org/wiki/India#cite_note-Dyson2018": 8559,
      "213": 8560,
      "▁పర": 8561,
      "▁పండు": 8562,
      "▁जाना": 8563,
      "▁जहाँ": 8564,
      "▁Mughal": 8565,
      "lines": 8566,
      "linkid=20": 8567,
      "tices": 8568,
      "▁दर्": 8569,
      "▁today": 8570,
      "rested": 8571,
      "▁Bangladesh": 8572,
      "ni_M": 8573,
      "▁बह": 8574,
      "▁बि": 8575,
      "▁ब्यूरो": 8576,
      "ंगोल": 8577,
      "_(अभिज्ञापक": 8578,
      "▁प्रत्य": 8579,
      "▁प्रयास": 8580,
      "▁की।": 8581,
      "iris": 8582,
      "तिरु": 8583,
      "▁Des": 8584,
      "▁निर": 8585,
      "▁\"Sri": 8586,
      "indoor": 8587,
      "independ": 8588,
      "ताम": 8589,
      "▁[↑](https://en.wikipedia.org/wiki/India#cite_ref-35": 8590,
      "లు](https://te.wikipedia.org/wiki/": 8591,
      "▁epic": 8592,
      "▁earliest": 8593,
      "రాన్": 8594,
      "రాస్య": 8595,
      "▁Emi": 8596,
      "_SCO": 8597,
      "_School": 8598,
      "_Sindoor": 8599,
      "स्तिक": 8600,
      "▁however,": 8601,
      "_in_M": 8602,
      "romedary": 8603,
      "▁वीं": 8604,
      "▁वाला": 8605,
      "▁కే": 8606,
      "▁కోర్": 8607,
      "▁आप": 8608,
      "▁आया": 8609,
      "▁आयुक्त": 8610,
      "▁आदि": 8611,
      "త్రిక": 8612,
      "ास्": 8613,
      "_Arab": 8614,
      "rynus": 8615,
      "-4](Special:BookSources/978-0-": 8616,
      "ell": 8617,
      "elta": 8618,
      "ellion": 8619,
      "క్స్": 8620,
      "క్కి": 8621,
      "▁तीन": 8622,
      "▁వె": 8623,
      "▁వంట": 8624,
      "akar": 8625,
      "ables": 8626,
      "abhad": 8627,
      "-8\").\n": 8628,
      "स्‍": 8629,
      "ishes": 8630,
      "est_B": 8631,
      "▁nuclear": 8632,
      "oder": 8633,
      "oday": 8634,
      "माख्या": 8635,
      "ంగో": 8636,
      "▁Food": 8637,
      "▁సముద్ర": 8638,
      "▁సూచ": 8639,
      "▁సౌక": 8640,
      ".[[4": 8641,
      ".[[28": 8642,
      "▁उन्": 8643,
      "▁उच्च": 8644,
      "_Per": 8645,
      "_Publishing": 8646,
      "▁पर्यटन\")": 8647,
      "్రామ": 8648,
      "im_C": 8649,
      "▁Intelligence": 8650,
      "AAAAMAAJ": 8651,
      "os/": 8652,
      "_1.1.": 8653,
      "▁[मराठ": 8654,
      "▁\"Chola": 8655,
      "▁[Andaman": 8656,
      "_केन्द्र": 8657,
      "▁growing": 8658,
      "](https://en.wikipedia.org/wiki/Sri": 8659,
      "](https://en.wikipedia.org/wiki/Sanskrit": 8660,
      "ండా": 8661,
      "ండీ": 8662,
      "ండ్య": 8663,
      "▁विषय": 8664,
      "▁विभाजन": 8665,
      "▁विभिन्न": 8666,
      "म्न": 8667,
      "िलों": 8668,
      "_Cons": 8669,
      "_Co-operation": 8670,
      "-9](Special:BookSources/978-0-": 8671,
      "15)": 8672,
      "api": 8673,
      "aproban": 8674,
      "▁Kum": 8675,
      "](https://books.google.com/books?id=ZvaGuaJIJgoC&pg=PA": 8676,
      "](https://books.google.com/books?id=kZVuDwAAQBAJ&pg=PA": 8677,
      "्यांमार": 8678,
      "▁[Ch": 8679,
      "తాజ్": 8680,
      "ियम": 8681,
      "నాథ": 8682,
      "ot:": 8683,
      "uck": 8684,
      "త్వా": 8685,
      "▁[↑](https://en.wikipedia.org/wiki/India#cite_ref-FOOTNOTEDikshitSchwartzberg2023": 8686,
      "-2](Special:BookSources/978-0-": 8687,
      "ajya": 8688,
      "▁(సా.శ.16": 8689,
      "▁(సా.శ.17": 8690,
      "ysHQ": 8691,
      "िसी": 8692,
      "ులు?action=edit&redlink=1": 8693,
      "▁साक्षरता": 8694,
      "-526": 8695,
      "▁అభి": 8696,
      "▁[Bangladesh": 8697,
      "पावा": 8698,
      "पाषाण": 8699,
      "▁ప్రజా": 8700,
      "earning": 8701,
      "मनिरपेक्ष": 8702,
      "allalli": 8703,
      "తం?action=edit&redlink=1": 8704,
      "384": 8705,
      "▁\"Andaman": 8706,
      "▁\"Pakistan": 8707,
      "anathan": 8708,
      "lands": 8709,
      "1.asp?": 8710,
      "हाई": 8711,
      "हाजन": 8712,
      "oreign_": 8713,
      "▁[↑](https://hi.wikipedia.org/wiki/भारत#cite_ref-5": 8714,
      "](https://en.wikipedia.org/wiki/Pakistan": 8715,
      "పూర్": 8716,
      "मीन": 8717,
      "▁करते": 8718,
      "anies": 8719,
      "ప్రిల్": 8720,
      "irelease.aspx?rel": 8721,
      "ociated": 8722,
      "द्दाख": 8723,
      "▁ఉంట": 8724,
      "▁ఉత్తర": 8725,
      "▁\"Ethnic": 8726,
      "%2C_S": 8727,
      "▁anim": 8728,
      "](https://en.wikipedia.org/wiki/Andaman": 8729,
      "▁defe": 8730,
      "](https://en.wikipedia.org/wiki/Ethnic": 8731,
      "▁१३": 8732,
      "▁సామా": 8733,
      "వాద": 8734,
      "▁rul": 8735,
      "విధ": 8736,
      "ార్ఖండ్": 8737,
      "▁Hindust": 8738,
      "ंदिरा": 8739,
      "క్షరాస్య": 8740,
      "_Goa": 8741,
      "▁\"सिक्किम": 8742,
      "](https://mai.wikipedia.org/wiki/म": 8743,
      "▁[सिक्किम": 8744,
      "enguin": 8745,
      "MetcalfMetcalf201": 8746,
      "stan\")": 8747,
      "नीताल": 8748,
      "जनगणना": 8749,
      "द्यनाथ": 8750,
      "▁खास": 8751,
      "▁[Dikshit": 8752,
      "nathura": 8753,
      "ports/": 8754,
      "▁[En": 8755,
      "▁[East": 8756,
      "▁[European": 8757,
      "▁\"बांग्ला": 8758,
      "त्स": 8759,
      "▁चल": 8760,
      "तीस": 8761,
      "పుర": 8762,
      "▁నడి": 8763,
      "▁[Robb": 8764,
      "acher": 8765,
      "▁ఇండియా": 8766,
      "▁[बांग्ला": 8767,
      "_and_Kashmir": 8768,
      "](https://hi.wikipedia.org/wiki/सिक्किम": 8769,
      "athura": 8770,
      "▁इसकी": 8771,
      "िवार": 8772,
      "र्थन": 8773,
      "▁[Kerala": 8774,
      "▁peoples": 8775,
      "▁penins": 8776,
      "ruggle": 8777,
      "▁समर्थन": 8778,
      "फ़्रीका": 8779,
      "](https://hi.wikipedia.org/wiki/बांग्ला": 8780,
      "मिलन": 8781,
      "](https://en.wikipedia.org/wiki/Indonesia": 8782,
      "గుప్": 8783,
      "డుకు": 8784,
      "నేషియా": 8785,
      "▁[पश्चिम": 8786,
      "ంగాణ": 8787,
      "हुमूल्य": 8788,
      "▁२००": 8789,
      "▁జన": 8790,
      "లియా": 8791,
      "roups": 8792,
      "avelock": 8793,
      "▁ప్రాచ": 8794,
      "▁విభ": 8795,
      "▁వివిధ": 8796,
      "▁సంఘ": 8797,
      "ounding": 8798,
      "Stein201011": 8799,
      "Stein2010118": 8800,
      "जीवन": 8801,
      "▁किया।[[": 8802,
      "_the_": 8803,
      "▁[Indus": 8804,
      "▁[Indonesia": 8805,
      "ండిచ్చేరి": 8806,
      "AsherTalbot2006),": 8807,
      "%E0%A5%": 8808,
      ".jpg)](File:C": 8809,
      "वनेश्वर": 8810,
      "वनवर्ल्ड": 8811,
      "hyan": 8812,
      "](https://hi.wikipedia.org/wiki/भारत_का": 8813,
      "मेव": 8814,
      "_music": 8815,
      "ynagogue": 8816,
      "_Indian_Navy": 8817,
      "च्चे": 8818,
      "▁मानचित्र": 8819,
      "▁संघर्ष": 8820,
      "▁१९६": 8821,
      "▁१९७": 8822,
      "दाबाद": 8823,
      "జీరియా": 8824,
      "arch_2004": 8825,
      "national-language": 8826,
      "▁[West": 8827,
      "ంకేతి": 8828,
      "▁Pradesh\")\n": 8829,
      "వేలీ": 8830,
      "▁Prospect": 8831,
      "otel": 8832,
      "otechnology": 8833,
      "flic": 8834,
      "▁parties": 8835,
      "ंपनी": 8836,
      "ंपाने": 8837,
      "रक्षित": 8838,
      "ropical": 8839,
      "▁[Iran": 8840,
      "▁[Islam": 8841,
      "▁win": 8842,
      "urrency": 8843,
      "▁[Archived](https://web.archive.org/web/20190": 8844,
      "ार्श": 8845,
      "–సా.శ.పూ.3": 8846,
      "▁[↑](https://hi.wikipedia.org/wiki/भारत#cite_ref-FOOTNOTESingh2009": 8847,
      "▁ప్రాంతాలు\")": 8848,
      "-17feb": 8849,
      "▁Association": 8850,
      "▁Sea": 8851,
      "బియా": 8852,
      "frica": 8853,
      "1947)": 8854,
      "vanabel": 8855,
      "लिपुरम": 8856,
      "ैकमिलन": 8857,
      "డామన్": 8858,
[...]
